#version: 0.2
á º
n g
Ġ t
Ġ c
Ġ Ä
ĠÄ ĳ
n h
Ã ł
Æ °
Ġ v
Ã ¡
h á
há »
i á
iá »
Ġ l
Ġt r
Ġ k
Ġ b
h Ã
Æ° á
Æ°á »
Ġ s
áº ¿
Ġ m
Ġ nh
áº ¡
Ġ n
ĠÄĳ á
ĠÄĳá »
áº £
Ġt h
Ġ h
Ġ g
Ã ª
Ġ d
Ġ ng
iá» ĩ
Ġ p
Ġc h
Ġ T
áº ¥
Ġc Ã
´ ng
Ġv á
Ġvá »
Ã¡ c
Ãª n
Ġt á
Ġtá »
Ġc á
Ġcá »
Ã ¢
Ġv Ãł
» Ļ
á »Ļ
Æ ¡
u y
Ġk h
Ġ q
áº Ń
Ġt há»
Ġg i
áº §
Ġp h
ĠÄĳ Ã
Æ°á» Ŀ
Ġ x
Ġ N
i áº¿
» ĳ
á »ĳ
Ľ i
Ġ há»
Ä ĥ
Ġq u
Ġcá» §
Ġcá»§ a
áº¡ i
Æ°á» £
Ġ r
Ġ C
Ġl Ãł
Ġc há»
a n
o ng
Ġc Ã¡c
Ã ¬
áº¥ t
Ġ H
ĠcÃ ³
iá» ģ
hÃ ´ng
» ±
á »±
Ã¢ n
iá»ĩ n
Ġ B
Ãł y
áº ¯
Æ°á»£ c
» ĭ
á »ĭ
c h
i Ãªn
» Ł
á »Ł
Æ°á» Ľ
Ġtr ong
â Ģ
Ġ V
ĠÄĳ Æ°á»£c
Ġch o
i nh
Ã ´
iá» ĥ
ĠÄ Ĳ
Ġvá» Ľi
Ãł nh
uy á
uyá »
Æ°á»Ŀ i
ĠÄĳÃ £
Ġ 2
iá»ģ u
Ġ 1
Æ° Æ¡
hÃ Ń
Æ°á»Ŀ ng
Ã¬ nh
Æ°Æ¡ ng
a nh
áº§ n
» ¯
á »¯
á»Ļ t
Ġng Æ°á»Ŀi
Ã ³
ĠÄĳá» Ļ
a o
a y
áº£ i
a i
© c
Ġk hÃ´ng
a m
áº§ u
Ã ´ng
a ng
Æ°á»Ľ c
© ng
Ãł n
Ġ M
áº ·
áºŃ n
Ġm á»Ļt
Ġ L
Ġm á
Ġmá »
ĵ ng
áº¿ n
áº£ n
u ng
Ġn Äĥ
Ã Ń
Ġl á
Ġlá »
ĠT r
Ġ hÃ
áº¿ t
ĠcÃ ´ng
Ġ P
Ã¡ t
Ġ S
u á»ĳ
Ã¢ y
Ã¡ n
Ãł ng
Ġ (
iáº¿ n
ĠÄĳá» ĥ
ĠÄĳá» ĭ
ĠT h
Ġnh Æ°
á»¯ ng
ĠN g
Ġnh á»¯ng
Ã £
Ãł i
Ġt hÃ
iá»ĩ t
Ġng h
Ġh o
Ŀ i
Ġtá» «
ĠÄĳÃ ³
Æ¡ n
Ġs á»ĳ
Ġt áº¡i
Ã ½
» ķ
á »ķ
o n
Ã¡ o
± c
Ġvá» ģ
Ġn Ãły
¹ ng
Ã º
Ġp há»
¥ c
i n
ĠÄĳ áº¿n
e o
Ġkh i
a u
Ġ á»Ł
Ġp hÃ
Ġs áº
Ġg iá»
ĠnÄĥ m
iáº¿ t
Ġ Q
áºŃ t
Ġr a
Å ©ng
Ġ K
Ġhá» į
iá»ĩ c
áº¡ n
áºŃ p
Ġh iá»ĩn
áº ©
ĠÄĳá» ĵng
Ġth u
Ġtr Ãªn
0 0
ĠvÃł o
Ġthá» ĥ
Ġ A
ĠÄĳá»Ļ ng
Ġd á
Ġdá »
Ã´ i
Ã¡ ng
áº ±
Ġv iá»ĩc
Ġc hÃŃ
Äĥ ng
Ġnh iá»ģu
ĠÄĳ áº§u
Ġb á»ĭ
ĳ i
Ġc áº£
Ġ âĢ
iá»ĩ u
Äĥ n
Ġc Å©ng
Ġ D
i Ãª
Ġsáº ½
Ġb á
Ġbá »
Ã¡ i
áº¡ t
Ġng Ãły
Æ°á»£ ng
Ġ G
iá»ĥ m
áº «
Ġtr á
Ġtrá »
Ġqu an
Ã ²
Ġd o
ĠÄĳá»ĭ nh
Ġs á
Ġsá »
ĠlÃł m
Ġn Æ°á»Ľc
Ä Ĳ
Ġs á»±
âĢ Ŀ
Ġnh Ãł
Ġhá» Ļ
Ġc hÃ
áº¥ p
Ã¡c h
Ġth Ãłnh
áº¡ o
áº£ ng
» ĵ
á »ĵ
ĠN am
Ġnh Ã¢n
Ġd á»±
áº£ o
Ġ2 0
ħ n
Æ° a
Ġchá» ī
Ġ 3
o Ãłn
Ä ©
Ġgi a
¬ nh
uy Ãªn
iá»ĥ n
áº¥ n
ģ n
á»Ļ c
Ġl áº¡i
Ġ -
Ġgi Ã¡
á»Ļ i
Ġc Æ¡
ĠâĢ ľ
Ġh Ãłng
ĠV iá»ĩt
áº¯ c
Ġtr Æ°á»Ŀng
áº¥ y
Ġq uy
ĠchÃŃ nh
Ġt iáº¿
á»± c
Ġd Ã¢n
Æ°á» Ł
áº± ng
Ġph áº£i
á»ĭ ch
Æ°á»Ł ng
Ġngh iá»ĩ
Ã ©
Ã¡ p
ĳ ng
áº« n
Ġthá» ±c
uyá» ĩ
Ġthá» Ŀi
Ã¢ m
Ġhá»į c
£ p
Ãł o
Ġt ÃŃ
Ġph Ã¡t
Ġvá» ¥
Ġ Ã´ng
Ġt hÃ´ng
u áº¥t
Ġh Æ¡n
ĥ n
Ġhá» £p
Ã¡ nh
Ġkh o
ĠÄĳá» ģ
uá»ĳ c
Ġh Ãłnh
Ġng há»
Ġx e
ĠÄĳ iá»ģu
Ġnh áº¥t
e r
Ġhá»Ļ i
Ġ y
ī nh
Ġk á
Ġká »
Ġt áº¿
Ġv iÃªn
Ġchá» ©c
ĠÄĳ ang
¢ n
Ġtá» ķ
áº¡ nh
Ã ¹ng
uyá» ģn
uyá»ĩ n
ĠN h
i a
áº· t
² n
Ġs áº£n
iá»ģ n
Ġs inh
Ġb iáº¿t
Ġmá» Ľi
áº· c
Ġth eo
Ġc ao
ĠcÃ ²n
á»ķ i
¥ ng
ĠT há»
áº¯ t
Ġ á
Ġá »
e n
Ġnh áºŃn
Ġs au
ĠÄĳá» ĳi
Ġqu a
ĩ nh
Ġm Ãł
hÃ ³
Ã ¹
2 0
Ġ U
ĠP h
Ġl Ã½
áº£ m
Ġnghiá»ĩ p
ĠÄĳ i
áº¥ u
Ġn Ã³
Ġc on
Ġtiáº¿ p
Ġt Äĥng
Ġtr Ã¬nh
ĠhÃ ¬nh
Ġt Ã¡c
Ġk há»
Ġx uáº¥t
Ġb á»Ļ
áº ¹
Ġdá» ¥ng
Ġtá» īnh
ĠcÃ ¹ng
ĠnhÆ° ng
á»ĳ c
ĠQ uá»ĳc
áº¡ m
u á»Ļc
Ġl Æ°á»£ng
a r
į ng
Ġl u
áº¡ ng
iÃª u
Ġc áº¥p
áº »
ĠthÃ ¬
Ġt in
ĠÄĳ iá»ĥm
Ġt Ã´i
Ġ 4
o áº¡i
Ġtá» ĳ
Ġtr iá»ĥn
² ng
Ġ 5
Ġt Æ°
Ġt u
º ng
Ġk áº¿t
Ġtr Æ°á»Ľc
Ġ an
Ġth áº¿
Æ¡ i
. .
iá»ĥ u
Ġx Ã£
Ġ Ã¡n
T r
Ġlá» Ľ
» Ń
á »Ń
Ġr áº¥t
Ġl á»±c
ĠTr ung
» ¹
á »¹
ĠC Ã´ng
Ġk inh
Ã´ n
T h
Ġthá» ĭ
ĠQ u
Ġl Ãªn
Ġchá» §
ĠnÄĥ ng
ĠÄĳ Æ°á»Ŀng
Ġc áº§u
Ġb Ã¡o
h i
áº£ nh
Ġn Ãªn
Ġt Ã¬nh
Æ°á»Ľ ng
a l
iá» ħn
Ġ "
Ġgi áº£i
Ġt oÃłn
ĠcÃ¡c h
Ġdo anh
Ġd á»ĭch
áº© m
» į
á »į
Ġn ay
ĠÄĳá»ĭ a
Ġm Ã¬nh
Ġkh u
ĠH Ãł
Ġ20 1
Ã¡ y
Ġb áº£o
áº¿ u
uyá» ĥn
Ãª u
áº¡ ch
« a
Ġgiá» ¯
e m
Ġbá» ĩnh
Ġth Ã¡ng
iá»ĩ m
Ġtá» Ľi
Ġthá» §
o Ãłi
Ġv áº«n
i m
Ġph Æ°Æ¡ng
ĠphÃ ²ng
Ġqu á»ĳc
Ġc uá»Ļc
Ġt Ã¢m
³ ng
Ġsá» Ń
Å ©
ĠÄĳ Ã¢y
ĠÄĲ á
ĠÄĲá »
ĠB á»Ļ
Ġqu áº£
ĠG i
Ġgi ao
Ġv Ã¬
uyá» ħn
u a
áº¯ ng
Ġ anh
Ġt iá»ģn
Ġkh Ã¡c
Ġthá» ĳng
N g
Ġvá» ĭ
Ġlá»Ľ n
Ġt áº¡o
Ãº c
Ġquy áº¿t
ĠnÃ³ i
Ġgi an
Ġgiá» Ľi
ĠNg uyá»ħn
ĠÄĳ áº¡o
Ġph Ã¡p
Ġ 6
ĠT P
Ġk hÃ³
ĠM á»¹
Ġtá» ±
Ġth i
Ġcá» ©
á»ĳ i
ĠC h
Ġb áº¡n
Ġh ai
Ġt Ãłi
Ġ R
e s
Ġtá» ¥c
Ġtr a
Ġt áºŃp
Ġt iÃªu
Ġho áº¡t
Ġ X
Ġc áº§n
£ i
Ġn á»¯
ĠÄĳ áº¡i
Ã² ng
Ġph áº§n
ĠhÃ ³
Ġb áº£n
ĠÄĳá» ķ
Äĥ m
Ġtr iá»ĩu
Ġl iÃªn
Ġ áº£nh
Ġm áº·t
Ġn á
Ġná »
Ġr áº±ng
Ġd iá»ħn
Ġvá» ±c
Ġ I
Ġnh iÃªn
ĠhÃ³ a
Ġtr á»ĭ
Ġs o
Ġkh ai
Ġtá» ·
Ġ Ã½
Ġtrá» įng
Ġdá»± ng
Ġh iá»ĩu
Ġth Æ°Æ¡ng
Ġl áº§n
iáº¿ u
o r
áº¯ n
Ġp hÃŃ
ĠN á»Ļi
Ġch Æ°a
Ġhá» ĩ
Ġm áº¡nh
Ġv i
Ġth am
Ġth áº¥y
Ġgi áº£m
ĠC há»
Ġkh Ã¡ch
ĠÄĳá»Ļ i
Ġs á»Ł
Ġ Ã
Ġt y
Ã¢ u
Ġthá» ©c
¢ u
áº© n
Ã µ
Ĺ i
ĠtÃŃ nh
Ġb áº±ng
Ġtr Æ°á»Łng
Ġch áº¥t
áº¡ c
Ġtu á»ķi
Ġth Æ°á»Ŀng
Ã¡ m
Ġph áº©m
Æ° u
Ġy Ãªu
Ġx Ã¢y
Ġnh iá»ĩm
Ġtr á»Ł
ĠÄĳ áº¥t
Ġb Ã¡n
ĠÄĳ iá»ĩn
Ġ 7
º c
ĠÄĳ Æ°a
« ng
Ġtr ung
Ġnh á
Ġnhá »
Ġm Ã¡y
Ġphá» ĳ
Ġch iáº¿n
Ġh uyá»ĩn
Th eo
N D
e l
) ,
áºŃ y
á»ĵ n
ĠC hÃŃ
ı i
00 0
ĠcÃ ´
ĠtÃŃ ch
ĠV Äĥn
áº§ m
ĠÄĳ Æ¡n
Ġl Ã£
ĠÄĳá»ķ i
Ġs Ã¡t
áºŃ u
Ġsá»ĳ ng
Ġg áº§n
uy áº¿n
Ġchá» ĭ
Ġng á
Ġngá »
Ã© t
ĠchÃ ºng
Ġ em
ĠH o
Ġqu Ã¡
Ġch áº¿
á»ĵ i
iÃª m
Ġch uyá»ĥn
Ġn Ãło
Ġs Ä©
Ġq uyá»ģn
Ġ1 0
Ġh ay
Ãº p
Ġ Y
Ġk iá»ĥm
Ġvá» «a
Ġb Ãłn
Ġhá» ĵ
ĠK h
Ġkho áº£ng
Ġtá»ĳ t
Ġb á»ĳ
ĠÄĳ áº¥u
Ġk iáº¿n
e t
Ġ F
Ã³ ng
Ġ 8
Ġmá» ©c
Ġcá» Ń
ĠÄĳ o
Ġb iá»ĩt
u á»ĵn
ĠT á»ķ
1 9
ĠÄĳÃ ¬nh
Ġká» ³
áº± m
Ġkh iáº¿n
Ġb áº¥t
Ġnghá» ĭ
Ġthá» ©
ĠP hÃ
Æ° ng
Ġs Ã¡ch
áº ³ng
ĠA nh
Ġcáº£ nh
ĠÄ ĥn
Ġtrá» £
Ġch iáº¿
Ġb áº¯t
Ġho Ãłn
Ġt Æ°á»£ng
Ġc Ã¡o
Ġtr áº»
uá»ĳ ng
) .
Ġá» ©ng
Ġv Äĥn
Ġgi Ãºp
ĠÄĳ Ã¡nh
Ġth iáº¿t
Ġ 9
Ġcá»© u
ĠÄĳ oÃłn
Ġph áº¡m
Ġg Ã¢y
Ġtr ang
Ġb Ãł
Ġv áº¥n
âĢ ¦
áº£ y
ª m
Ġd iá»ĩn
Ġqu Ã¢n
Ġs Ã¡ng
ĠB Ã¬nh
Ġl oáº¡i
Ġb an
Ġgiá» Ŀ
uá»ĳ n
Ġtá» ĭ
Ġng oÃłi
Ġch u
ĠÄĳá»ģ u
Ġcáº£ m
Ġm ua
Ġd áº«n
ĠÄĳ áº¡t
Ġphá» ¥c
âĢĿ .
Ġl áºŃp
Ġc a
Ä© nh
.. .
uá»ĳ i
Ġsá» ©c
Ġnghá» ĩ
ĠthÃ ªm
Ġtá»ĭ ch
Ġ1 9
Ġx á»Ń
Ġtr uyá»ģn
Ãł u
áº· ng
áº· p
¯ ng
º t
Ġg Ã³
Ġng Ãłnh
Ġtr ÃŃ
Ġh Æ°á»Ľng
Ġb iá»ĥu
Ġvá» ĩ
Ġv áºŃy
Ġ E
Æ°á» Ľi
áº ¢
i d
Ġk áº¿
ĠÄĳ áº·c
Ã¬ m
Ġl á»ĭch
ĠÄĳÃ ´
Ġnh áºŃp
Ġm ang
Ġl o
Ġlá» £i
ĠhÃ ´
Ġt a
ĠTh anh
§ y
Ġb iáº¿n
á»Ļ ng
Ġqu áº£n
Ġgiá»¯ a
Ġgi Ã¡o
Ġt hÃŃ
Ġb Ã¬nh
Ġphá» §
Ġt iáº¿n
Ġcá» ķ
Ġtá»« ng
Ġc Ã¡
Ġd Ã¹ng
Ġho áº¡ch
Ã² a
ĠA n
áº¢ nh
Ġv iá»ĩn
Ġt Ã¬m
Ġb Ãªn
Ġho áº·c
Ġt ay
20 1
Ġlu áºŃt
Ġt iÃªn
Ġr á
Ġrá »
Ġchá» ĳng
ĠChÃŃ nh
Ġtr áºŃn
Ġthu á»Ļc
į n
i t
áº¹ p
Ġnh au
Ġk hÃŃ
ĠÄĳ áº£m
Ġn Æ¡i
Ġch uyÃªn
ĠthÃ ¢n
Ġk iá»ĩn
Ġtá» Ń
Ġngh Ä©
Ġ J
Ġchá» ©ng
Ġtá»ķ ng
Tr ong
ĠChá» §
áº¥ m
áº§ y
ĠM inh
Ġg Ã¬
Ġhá» Ĺ
ĠTá»ķ ng
Ġ ÃŃ
© p
Ġphá» ¥
Ġm áº¡ng
B ND
a s
Ġm uá»ĳn
ĳ n
Æ°á»£ t
áº© u
a t
Ķ ng
Ġx Ã¡c
i c
Ġbá» ı
Ġng uyÃªn
Ġng uá»ĵn
Ġch ung
Ġh áº¡n
Ġb ay
Ġt Ãªn
Ġch i
Ġch ia
Ã³ m
Ġlá» Ŀi
Ġtr á»±c
i s
Ġtá» Ļ
Ġv Ã¹ng
Ġ W
ĠTr ong
ĠâĢ ĵ
C M
Ġh áº¿t
Ġv áºŃn
S D
Ġm áº¹
o m
Ġl iá»ĩu
áº¯ p
Ġth anh
Ġn á»Ļi
áº¡ y
Ġt o
áº¯ m
Ġtiáº¿ ng
ĠThá» ĭ
Ġv áºŃt
i l
Ġchiáº¿ c
áº ½
Ġb ao
Ġtr anh
Ġd Ãłi
Ġvá» ĳn
o l
ĠU BND
Ġr Ãµ
ĠH áº£i
Ġh uy
Ġh Æ°á»Łng
Ġmá» į
âĢĿ ,
Ġth ay
Ġb Ã³ng
ĠNg a
Ġnghiá»ĩ m
Ġcá» ĳ
Ġd u
Ġn áº¡n
u s
Ġ20 2
Ġm inh
Ã¡ u
Ġg áº·p
Ġx Ã©t
ĠÄĳá» ĳ
ĠÄĳ áº¹p
Ġmá» ¥c
Ġkh áº©u
Ġn áº¿u
Ġb iá»ĥn
ĠB an
Ġthu áºŃt
ĠlÃ£ nh
ĠT uy
Ã¢ ng
Ġk Ã½
o v
ĠÄĲ áº¡i
ĠB áº¯c
ĠphÃ ¢n
á»Ł i
Ġch Æ°Æ¡ng
Ġt Æ°á»Ľng
» ĵng
á »ĵng
Ġmá»į i
Ġkh Äĥn
ĠU SD
á»į c
» Ľi
á »Ľi
ĠÄĳá» §
Ġl Ãºc
iÃª ng
Ã³ c
a c
N h
ĠÄĳo áº¡n
Ġr á»ĵi
áº« u
ĠH á»Ļi
Ġb u
Ġchu áº©n
Ġx áº£y
Ġt iáº¿t
Ġ1 2
Ġm á»Ł
Ġl ao
Ġmá» Ĺi
Ġc uá»ĳi
ĠTh Ãłnh
Ġcá» Ļ
Ġgi áº£
ĠS Æ¡n
Ġchá» įn
C h
Ġ O
ĠÄĲá» ©c
Ġd anh
u Ã¢n
Ġs Ã¢n
ĠÄĲ Ã´ng
á»ĭ p
Ġkh áº£
Ġc áº¡nh
Ġsáº »
ĠNh Ãł
áºŃ m
ĠgÃ³ p
Ġ1 5
Ġs ao
Ġth Æ°
Ġtr áº¡ng
iá»ĩ p
Ġch uyá»ĩn
Ġng ay
Ġxe m
Ġlu Ã´n
ĠP hÃ³
Ġnh Ã³m
Ġnhá» ı
Ġm Ã¹
á»ĵ m
u r
Ġm áº¥t
Ġnh anh
Ġt Ãłu
ĠphÃŃ a
áº© y
Ġc ung
Ġk Ã©
Ġn Ã´ng
Ġnh áº±m
ĠÄĳ áº·t
ĠThá» §
Æ°á» ¡
a d
Ġ Ã¡p
há» ¯ng
Ġ '
Ġng Ã¢n
Ġtr áº£
Ġcá» ±c
ĠthÃ ´
Ġg á»į
Ġcá»Ń a
Ġphá» ĳi
» ³
á »³
u n
Ġy áº¿u
Ġn Ã¢ng
Ġlu áºŃn
Ġg hi
Ġt Æ°Æ¡ng
Ġchá» ĵng
Ġg á»ĵm
Ġ áº¢nh
ĠvÃł ng
Ġká» ĥ
Ġdá» ¥c
ĠÄĳá»ĳ c
Ġ1 1
Ġd Ã¹
Ġx uá»ĳng
Ġs áº¯c
ĠÄĳá» ĵ
Ġvá» £
ĠT á
ĠTá »
Ġ3 0
ĠÄĲ áº£ng
H CM
ĠÄĳá» Ŀi
Ġtr Ã²
Ġk ÃŃ
ĠC hÃ
Ġc Ã¡n
Ġt uyá»ĥn
ĠÄĳÃ ºng
Ġt uyáº¿n
ĠHo Ãłng
Ġk hÃ
ĠÄĳÃ³ ng
Ã ¨
Ġm áº¯t
Æ°á»¡ ng
Ġg Ã¡i
Ġtr Ã¡ch
Ġs ang
© a
Ġb á»Łi
Ġh áºŃu
Ġv Ã´
ı a
" .
ĠphÃ ©p
Ġ 0
ĠÃŃ t
Ġb Ã©
¢ y
ĠTh Ã¡i
1 0
ĠÄĳ Ã¡
ĠcÃ ¢y
Ġt áº£i
Ġ Ã´
Ġlá» ĩ
ĠthÃŃ ch
Ġr á»Ļng
ĠD Æ°Æ¡ng
Ġt áº¥n
Ġhá»ĵ i
Ġt inh
ĠL Ãª
Ġl Æ°u
Ġn á»ķi
Ġtá» ĳi
Ġl áº¥y
ĠTr áº§n
ĠÄĳ Äĥng
Ġtu áº§n
Ġph ong
l e
Ġph im
Ġch iá»ģu
o s
Ġc Ã¡i
t r
Ġá» §y
Ġtr Ã¡i
Ġcá»Ļ ng
t er
Ġná»¯ a
ĠÄĲá» ĵng
Ġv Ã²ng
ĠÄĳ áº©y
ĠÄĳ Ã¡ng
ĠH á»ĵ
Ġth áº¯ng
Ġd ung
Ġch Æ¡i
iáº¿ m
Ġb Ãłi
Ġng hÃ
» ¥
á »¥
Ġc Ãłng
Ãº t
Ġqu áºŃn
¯ u
Ġnh u
ĠhÃ´ m
Ġm Ã´
Ġso Ã¡t
T há»
ĠQu áº£ng
Ġkho a
Ġgá»į i
Ġcá» ¥
âĢ ľ
ĠNg há»
a g
Ġph iÃªn
Ãª m
Ġd Æ°á»Ľi
Ġs Æ¡
Ġká» ¹
Ġt uyÃªn
Ġt áº¥t
ĠT Ã¢y
ĠgiÃ¡ m
i ng
Ġhá» ¯u
Ä ĳ
Ġhá» ıi
ĠL ong
§ ng
ĠS á»Ł
iá» ħ
Ġd i
o t
P h
Ġm áº«u
Ġng uy
C Ã¡c
Ġth áº§n
u áº¥n
Ã Ķng
ĠhÃ ²
Ł i
Ã£ i
Ġtá»Ļ i
Ġl á»Ļ
ĠmÃ¹ a
Ġkh Ã¡
T T
ĠchÃ ¢n
r a
Ġvá» įng
u m
Ġ ai
į c
Ġm Ã´i
Ġr iÃªng
Ġl Ä©nh
ĠnghÄ© a
ĠÄĳ áº§y
ĠcÃ ¢u
ĠÃ ģ
» ¥c
á »¥c
ĠÄĳ áº£o
Ġthu áºŃn
áº¡ p
ĠNh áºŃt
Ġth uá»ĳc
ı e
Ġlá» ħ
Ġ áº¥y
ĠC Ã¡c
Ġc Æ°á»Ŀng
ĠNg á»įc
Ġs uáº¥t
Ġkhá» ıe
Ġm áº¡i
Ġth iáº¿u
ĠL an
ĠchÃ º
Ġl Ã²ng
Ġtr Ãº
ĠH Ã²a
S au
Ġho a
t h
Ġph áº£n
Ġb á»ķ
ĠTr Æ°á»Ŀng
Ġng oáº¡i
Ġchá» ¯
ĠÄĳ a
ĠS au
Ġnh Ã¬
20 2
u Ã´i
ĠX uÃ¢n
Ġth iá»ĩn
Ġngh iÃªm
Ã² n
ĠÄĳá»Ļ c
ĠGi ang
ĠmÃł u
ĠTh u
Ġ2 00
u i
ĠchÃ ¢u
ĠTh eo
Ġc Æ°
ĠhÃ £
ĠÄĳÃ ´ng
Ġc Äĥn
Ġph iáº¿u
1 2
áº¿ p
Ġná» ģn
Ãł m
Ġká» ·
Ġngh iÃªn
Ġv ai
Ġkhá» ıi
Ġh áº¡i
Ġkho áº£n
Ġth áº¥p
Ġt Ãº
Ġth o
á»Ń i
Ġb Æ°á»Ľc
ĠÄĳ Ãłn
Ġm Æ°a
Ġb a
Ġdá» ħ
iá»ħ m
Ġd áº§u
" ,
Ġn iÃªn
Ng Ãły
ĠhÃ² a
Ġh iá»ĥu
Ġph Ã¡
á»± a
1 1
Ġx Ãºc
Ġh iá»ĥm
e d
Ġlá»Ľ p
Ġch áº¡y
Ġ á»ķ
Ġg á
Ġgá »
o o
Ġ1 4
ĠnhÃ¬ n
Ġbu á»ķi
Ġv Æ°á»£t
Ġg á»Ńi
Ġ1 8
ĠÄĳá» ©ng
uyá»ĩ t
Ġch áº¥p
Ġph áº¡t
Ġ1 6
uy áº¿t
Ġt Æ°á»Łng
Ġtr ao
Ġ1 3
Ġt ai
iá»ģ m
Ġm áº¯c
Ġkhá» Łi
Ń a
Ġthu áº¿
Ġm Ã´n
Ġt iá»ĩn
ĠL u
Ġch áº¿t
Tr Æ°á»Ľc
ĠthÃ ºc
Ġth áºŃt
¦ y
ĠÄĳ Ãªm
Ġkh áº³ng
ĠL iÃªn
Ľ m
Ġ Æ°Æ¡ng
Ġph Æ°á»Ŀng
ĠPhÃ º
Ġn áº·ng
Ġto Ã¡n
M á»Ļt
Ġb iÃªn
Ġtr ai
Ġngá» Ŀ
Ġhá»į p
Ġc áº£i
Ġchá»ĭ u
Ġth oáº¡i
Ġn áº±m
ĠphÃ ¹
Ġnh áº¡c
Ġd Ãłnh
Ġt Ã´
ov id
Ġnh iá»ħm
ĠthÃ´ n
h o
ĠN inh
ĠI n
Ġsá» Ľm
Ġnghá» ģ
ĠB áº£n
Ġtr Ã¬
Ġá» ¦y
Ġth áº£o
ĠB á
ĠBá »
ĠC ovid
Ġn am
Ġgi ai
Ġd uy
ĠkÃ© o
Ġh áº¡
Ġlá» Ńa
ĠÄĳÃ´ i
Ġx uyÃªn
Ġn uÃ´i
ĠphÃ ºt
á»Ń a
i p
Ġx in
ĠhÃ ºt
áº§ ng
r o
Ġx a
Ġv Å©
Ġs Ã¢u
ĠGi Ã¡m
Ã³ n
ĠtÃŃ n
ĠPhÃ ²ng
T áº¡i
Ġ1 00
Ġ2 5
ĠH u
a p
Ġqu Ã½
ĠH Ãłn
© t
ĠÄĲ Ãł
ĠÄĳ Ãło
» ĩ
á »ĩ
ĠQu ang
Ġv ui
ĠÄĲ Ã¢y
an d
Ġn inh
Ġá»ķ n
Ġt áº§ng
Ġb Ã¡c
in e
Ġ1 7
I D
L V
áº µ
ĠT Ã¢n
Ã³ a
ai n
C há»
Ġtá»ĳ c
ĵ n
ĠvÃł i
Ġchá»ī nh
Ã£ o
hÃ ¢n
o i
ĠÄĲ iá»ģu
Ġnghá» ī
Ġ Ã¡o
u p
Ġb iá»ĩn
ĠD o
Ġm iá»ģn
Ġk Ãª
Ġ Ã¢m
» ģ
á »ģ
ĠPh áº¡m
Ã£ n
áº· n
Ġm ong
ĠphÃ ³ng
ĠHo a
i r
áºµ ng
Ġchiáº¿ m
ÄĲ T
Ġl Ã¢u
Ġt áº¡m
N há»¯ng
O V
Ġl y
a k
ĠN áºµng
Ġth áº©m
ĠNg uyÃªn
Ġná» £
Ġth Äĥm
Ġng Ã´i
T uy
ĠB ÃŃ
á»ĭ nh
ĠÄĳ Ã¡p
ĠNh Æ°ng
on e
Ġch Ã¡y
Ġx anh
Ġb áº§u
Ġ2 4
¨ o
Ġch Äĥm
Ġthá»§ y
Ġgi áº¥y
Ġk iáº¿m
Ġd Æ°á»¡ng
Ġv ong
ĠÃ Ĥ
Ġ20 20
3 0
ĠT áº¿t
ĠK á»³
Ġk á»ĭp
ĠH á»ĵng
ĠChÃ ¢u
Ġtr Ã¡nh
Ġchá»¯ a
ĠK im
ĠV i
ĠphÃ ª
Ġ5 0
Ġs Ã´ng
ĠT iÃªn
Ġd a
ĠÃ Ķng
» Ĺi
á »Ĺi
Ġvá» ¯ng
Ġ Æ°u
e b
Ġs ai
Ġb uá»Ļc
P T
Ġqu Ã¡n
Ġd áº¥u
Ġth Æ°á»Łng
ĠT H
Ġkh áº¯c
Ġth áº¥t
ĠLu áºŃt
G i
Ġ uá»ĳng
Ġngh i
Ġkh Ã¡m
Ġgiá» ĳng
ĠPh Ã¡p
ĠV Å©
e w
ĠK hi
¬ n
Ġh áº¡ng
ĠNghá» ĭ
Ġch Ã¡u
ĠC á»¥c
Ġm á»ĳi
ĠT Ã´i
Ġth Ã¡i
Ġd Ã²ng
u t
ĠPh Æ°Æ¡ng
Ġv ay
Ġtá» ©c
Ġtá» ī
Ġngh e
Ġc am
ĠÄĳÃ³ n
Ġn á»ĳi
Ġt Ã¹
Ġt áº·ng
ĠM á»Ļt
Ġ2 2
T á
Tá »
ĠnÃ³ ng
Ġtá»Ļ c
Ġt Ã¡i
ĠN áº¿u
ĠBá» ĩnh
Ġv iáº¿t
» ĥ
á »ĥ
u e
ı ng
á»ĳ ng
ĠH LV
Ġs Æ°
á»¯ a
Ġtrá» ĵng
Ġkh Ã¡n
Ġch uyáº¿n
Ġbá» ©c
Ġt Ã²a
Ġm a
ĠÄĳ au
Ġch áº¯c
ĠT uáº¥n
Ġ2 1
i v
ĠL e
T V
Ġh Ã¡t
ĠC OV
ĠÄĳá» ı
Ġth Ã¡c
Ġchá» Ĺ
ĠkÃŃ ch
ĠT Ãłi
Ġb Ãły
ĠCOV ID
Ġtá» ı
Ġl á»±a
uá»ĳ t
ĠNg Æ°á»Ŀi
Ġphá» ķ
Ġcá» ¥c
ĠN há»¯ng
Ġl Æ°á»£t
Ġnh iá»ĩt
Ġx áº¿p
Ġm Ã¡u
ÃŃ nh
Ġqu ay
Ġl uyá»ĩn
Ġb áº£ng
ĠM ai
Ġ2 3
ĠB áº£o
ĠChá» ī
Ġs ung
p h
i g
Ġl Æ°Æ¡ng
Ãº ng
ĠnghÃ ¨o
ĠL inh
Ġm áº·c
ĠÃĤ u
Ġlo áº¡t
V N
Ġnh áº¥n
Ã¹ i
Ġnhá» Ŀ
Ġth iá»ĩt
Ġtrá» Ŀi
V á»Ľi
Ġsáº µ
Ġsáºµ n
Ġgi Ãłnh
¢ m
H iá»ĩn
Ġg áº¯n
ĠY Ãªn
Ġx á
Ġxá »
Ġl Ã¡i
Ġc áºŃn
ĠTá» «
Ġkhá» ĳi
Ġhá»į a
Ġqu anh
Ġthá» Ń
Ġ201 8
ĵ i
Ġthu Ãª
ĠD N
Ġnh áº¹
Ġ202 1
Ng Æ°á»Ŀi
ĠcÃ ¢n
ĠchÃ ³ng
ĠK hÃ´ng
Ġt áº§m
en t
Ãº i
ĠV Ã¬
Ġc áºŃp
Ġnhá» Ľ
o a
Ġn iá»ĩm
Ġná» Ĺ
ĠC hi
Ġs iÃªu
e x
5 0
Ġqu Ãª
ĠÄĳá»Ļ t
Ġt iÃªm
ĠH Ã³a
ĠlÃ£ i
ĠlÃł ng
T Ã´i
ĠhÃ£ ng
Ġv áº»
ĠÃŃ ch
ĠÄĲ oÃłn
Ġm Ãłn
B á»Ļ
Ġm ay
Ġsá»Ń a
Ġrá» «ng
Ġtr áº£i
Ġth áº³ng
Ġb inh
Ng oÃłi
Ġchá» Ŀ
Ġch áº·t
ĠhÃ´ n
Ġ áº¥n
Ġl Æ°á»£c
ĠL Ã¢m
£ t
ĠtÃº y
iáº¿ p
Ġh áº¡t
ĠT hÃ
Ġdá» «ng
ĠTh áº¿
Ãµ i
Ġtr Æ°Æ¡ng
ĠNg oÃłi
Ġth ao
K hÃ´ng
Ġs Ãłng
Ġlá» ĩnh
ĠL á
ĠLá »
Ġd áº¡y
ĠÄĳ Ã¢u
Ġng Äĥn
ĠKh Ã¡nh
Ġs ong
Ġ201 6
Ġ202 2
t on
ĠC Ã³
ĠkhÃ³ a
Ġd á»ĭp
Ġs uy
Q u
Ġ201 9
K hi
Ġ Æ°á»Ľc
Ġm Ã³n
Ġ2 7
ĠTh Æ°Æ¡ng
Ġl iá»ĩt
Ġqu en
y r
Ġ Ã¡nh
i on
Ġ Z
Ġn Ãªu
ĠNg Ã¢n
Ġc Ã¡nh
ĠÄĲ Ã¬nh
u l
S N
ĠÄĳ áº£ng
ĠT N
Ġc áº§m
Ġr Ãºt
ĠphÃ ºc
Ġthá» ¥
Ġc áº¯t
Ġkh áº£o
ĠÄĳÃ Ń
o p
Ġ2 6
Ġd áº¡ng
Ġc an
ĠH Ã¹ng
Ġ2 8
a v
% .
i k
ĠTh Æ°á»Ŀng
Ġkhá» §ng
á»³ nh
ĠK inh
Ġtr uy
ĠD Å©ng
ĠVi et
ĠH ÄĲ
ĠR e
ĠTr iá»ģu
Ġ4 0
T C
Ġl áº¡c
¥ p
Ġs áº¡ch
r an
Ġs áº¯p
ĠT iáº¿n
Ġm á»Ļ
ĠH Æ°ng
Ġt áº¯c
i e
Ġtrá» ¥
Ġthá» ıa
Ġc Å©
a b
Ġth áºŃm
C Ã´ng
ĠH iá»ĩn
Ġc áº¥u
Ġtá» ĵn
Ġs Ã³c
Ġt áº¡p
ĠTr Æ°á»Łng
ĠNg h
Ġng áº¡i
2 3
Ġqu áº§n
Ġ201 7
ĠH iá»ĩp
Ġng á»ĵi
Ġs uá»ĳt
Ġ201 5
u á»ķi
Ġá» §ng
ĠNg Ãły
ĠN hÃ¢n
Ġh áº£i
Ġtr áº¯ng
ĠV á»Ľi
Ġb Ã¡nh
Ġx ung
Ġ f
Ġl ai
t e
Ġm Ã£
Ġl an
áº ¤
Ġt áºŃn
Ġthá» «a
T P
áº¹ n
Ġchá» £
k r
ĠnghÃ ¬n
um p
Ġngá» §
ĠV N
Ġtá» Ŀ
Ġth áº£i
ĠQu Ã¢n
am p
Ġkhá» ķ
Ġch áº³ng
Ġth áº§y
ĠG D
ĠH Æ°Æ¡ng
Ġc oi
Ġn á»ķ
Ġgi Ã¡c
ĠD á»±
Ġch a
Ġ2 9
Ġth iÃªn
Ġs Ã³ng
Ġd Æ°
Ġt iá»ĥu
ĠM ar
Ġgi Ã³
E A
Ġthá»ĭ t
ĠÄĳ ua
Ġ19 9
ĠA r
Ġd Ã¢y
Ġng uyá»ĩn
ĠC Æ¡
ĠT hÃ´ng
yr ia
ĠPhÃ ºc
ĠG ia
ĠthÃ º
Ġl Ã¡
o an
Ġl Å©
I I
d o
ĠV Ä©nh
ĠÄĳÃŃ ch
Ġchá» ©a
Ġm áºŃt
Ġh áº¥p
Ġd Ãµi
ĠÄĳ Æ°Æ¡ng
Ġd á»¯
á»ķ ng
Ġchá» ©
ĠS yria
ÄĲ á»ĥ
Ġn Ãºi
c o
is t
kr ain
Ġb áºŃt
ĠB iÃªn
Ġch áº¯n
Ġng áº¯n
ĠC áº£nh
ĠkÃ© m
Ġg á»ĳc
² i
ĠÄĳá» £t
Ġtho Ã¡t
ĠB a
Ġd áº§n
Ġn áº¯m
á»Ļ n
Ġr Æ¡i
ĠTr ump
Ġkh uyáº¿n
Ġth Æ¡
Ãº a
o b
ĠB Ã¡o
Ġx Äĥng
Tá» «
Ġchá» Ł
ĠA l
Ġb áº¡c
ĠN ew
C hÃ
Ġd Æ°Æ¡ng
ĠT áºŃp
an k
ĠNghá» ĩ
ĠM an
Ġb á»ĳi
ĠkhÃ ´
Ġth áº§u
Ġb Ã£o
ĠNg oáº¡i
Ġtr Äĥm
V á»ģ
ĠÄĲ á»Ļ
Ġx áº¥u
ĠP há»
Ġl áº½
Ġqu Ãł
ĠÄĳá»ĭ ch
ag ue
l y
Ġ in
Ġn iá»ģm
s e
ĠU krain
ĠB Ãł
Ġcá» ±
Ġmá» «ng
ĠkhÃ ºc
Ġnh áº¯c
ar d
ĳ t
ĠPh ong
Ġtr áº¥n
Ġlá» Ĺi
į a
X H
ĠH á
ĠHá »
Ġc áº¥m
ĠP ar
á»Ļ p
r e
K h
Ġv Ã©
Ġh Ãłi
Ġgi áº£n
Ġchá» ¥p
ĠphÃ ³
Ġ3 1
Ġph áºŃn
G T
ĠPh an
ĠThá» §y
ĠPh Ã¡t
C Ã³
ĠL Ã½
Å© i
oo k
Ġnh áºŃt
Ġl áº¡nh
áº¤ n
ĠcÃ º
Ġh Æ°Æ¡ng
Ġh áº¡nh
Ġx u
Ġm áº½
Ġt uyá»ĩt
C C
Ġsá» £
ĠTá» īnh
Ġch áº·n
ĠV iá»ĩn
Ġth iá»ĩu
u b
ĠKh u
ĠUkrain e
Ġh y
ĠThu áºŃn
B Ãªn
á»ĳ n
Ġtá» ıa
ĠC S
ĠC up
Ġbá» ģn
ĠT o
ĠN Äĥm
es t
ĠÄĳ en
20 20
ĠÄĲ á»ĭnh
Ġt im
Ġb áº¡i
Ľ t
¥ t
Ġph i
ĠÄĳá» įc
Ġg áº¯ng
Ã© p
Ġchá» ¥c
% ,
Ġph Ã¡n
ĠV inh
l d
202 1
Ġk Ãªu
Æ°Æ¡ i
d on
ĠTr á
ĠTrá »
į t
Ġ i
Ġn áº¯ng
Ġkh áº©n
Ġb Ãło
Ġkho Ã¡n
Ġch áºŃm
Ġk Ã¨
ÄĲ Ã¢y
ĠTr ang
Ġm iá»ħn
m ar
Ä© a
Ġmá» Ŀi
k g
ĠÄĳ Ãłm
Ġt Ã´n
ĠNh a
Æ°á»Ŀ n
Ġs Ãºng
Ġc Ãł
il l
Ġng Å©
ĠÄĳá» ¡
Ġsá» ¹
Ġ201 4
ĠÄĳ Ã¡m
ĠV Ã¢n
in a
Ġlá» ¥c
Ġ6 0
Ġl áº¡
ĠV iá»ĩc
ĠL a
Ġl Æ°á»Ľi
Ġh Æ¡i
Ġk im
ĠTr Æ°á»Ľc
ĠNh iá»ģu
Ġb ÃŃ
Ġr Ã¡c
ĠÄĲ Ãło
L B
Ġng á»į
ĠV Ãł
Æ°á»Ľ p
ĠGi Ã¡o
in es
) ;
Ġk áº»
ĠTh iÃªn
ĠTP HCM
Ġ áº¤n
Ġh uáº¥n
Ġtr Ãło
c e
Nh iá»ģu
N áº¿u
Ġtá» ĩ
ĠÄĳo Ã¡n
ĠH uy
Ġl áº¯ng
» ©c
á »©c
h a
Ġt uy
Ġth Ã¡ch
ĠT áº¡i
Ġphá» ©c
Ġqu áº£ng
2 00
Ġthu a
Ġg Æ°Æ¡ng
Ġr au
Ġtr i
Ġk á»ĭch
ĠÄĲ áº¿n
Ġs áº¯t
Ġd uyá»ĩt
Ġm Ã¡i
Ġgi Ãłu
áº¯ k
Ġn á»Ļp
Ġg h
Ġh áº§u
ĠhÃ ¨
ĠÄĲ H
Ġr u
Ġr Ãłng
Ġb áº¯n
i b
Ġng o
ĠTH PT
c k
Ġl iá»ģn
Ġnhu áºŃn
p p
Ġbá» ĵi
Ġgá» ¡
ĠD u
Ã³ t
l o
ĠgÃ³ i
Ġrá» Ŀi
ĠChÃ ºng
á»Ļ m
Ġho Ãłng
N Äĥm
/ .
Ġh iá»ĩp
ĠhÃ£ y
ĠB r
on al
ģ m
ĠL Ãło
Ġbá» Ŀ
Ġngá» «ng
iáº¿ ng
Ġl inh
H Ãł
i an
ĠÄĳá» ©a
o d
Ġb Ã¨
Ġng Æ°á»£c
Ã£ y
Ġk iá»ĥu
ĠH ai
ĠC Ã´
ĠthÃ´ i
or e
Ġph a
ĠPh Æ°á»Ľc
Ġl á»ĳi
ĠÄĲ iá»ĩn
ĠH CM
Ġdá» ©t
Ġt áº¥m
Ġs Ãłn
ĠÄĳÃ ²i
Ġc áº·p
ĩ t
ĠT Æ°
T á»ķng
Ġsá» ©
Ã³ i
¨ n
ĠB Ãªn
Ġb Äĥng
Ġkh iá»ĥn
Ġth ai
Ġ19 8
Ġhuy áº¿t
V iá»ĩc
Ġn á»Ńa
ĠB H
es s
ĠC ao
ĠN Ã´ng
Ġb ang
ĠÄĲ Ã³
Ġc Æ°á»Ľi
ĠÄĳ em
Ġd Ãłng
n et
Ġtr áºŃt
ĠT Ä©nh
Ġb Ã£i
Ġt Ã¡
âĢ Ļ
C Å©ng
ĠHu áº¿
H H
Ġcá»± u
Ġqu á»¹
o u
ĠC LB
Ġch iáº¿u
ĠQu áº£n
t y
it y
ĠKh oa
ĠCh Æ°Æ¡ng
§ i
ĠkÃŃ nh
l ip
Ġm Ãª
L ÄĲ
Ġm áº¥y
Ġs á»¯a
q u
ĠNh Æ°
a z
Ġx ong
á»¯ u
ĠTh áº¯ng
Ġt Ã³c
ĠC áº§n
Ġhá» §y
Æ ¯
1 5
Æ°á»£ u
ĠL á»Ļc
Ġt iá»ģm
Ġt Æ°Æ¡i
¹ a
ĠH á»¯u
Ġthá» ķ
ChÃ ºng
Ġ5 00
Ġth iá»ĥu
ÄĲ áº¡i
Ġkh áº¯p
ĠA S
2 2
Ġl áº«n
ĠC Æ°á»Ŀng
Ġkh Ã¡ng
ĠD Ã¢n
ĠÄĲ áº·c
Ġ o
Ġc Æ°á»Ŀi
Ph Ã¡t
ĠH á»į
ĠQ uyáº¿t
ĠkÃª nh
ĠV Ãµ
Ġchá» ĳt
Ġmá» ¹
ĠS a
ĠM al
n am
Ġc Äĥng
Ġ201 3
Ġd Ã¡ng
Ġg áº¥p
Ġ7 0
Ġm Æ°u
Ġx áº¿
Ġkh en
Ġk m
ÄĲ á»ĵng
Ġd á»ĭ
ĠD uy
s ia
Ġng ang
ĠS Ãłi
i o
. /.
ÃŃ t
Ġc uá»ĳn
ĠB Ã¹i
Ġ w
ĠT T
Ġng Ã´n
Ġr Æ°á»£u
ĠÄĲá» ĥ
S Ã¡ng
ĠPh i
ĠTN HH
Ã´ m
Ġdá»± a
Ġch áº¡m
i ch
ĠÄĳo áº¡t
Ġdá» įa
Ġd ao
Ġc Æ¡n
Ġch áº¥n
T S
ĠkhÃŃ ch
C N
or ld
ĠÄĲ áº§u
Ġtr Æ°ng
ĠTh Æ¡
a x
ĠG Ã²n
ĠB ar
Ġtr á»¯
Ġl áº»
¥ y
Ġy Ãªn
ÄĲ áº¿n
e y
Ġch áº½
v n
Ġr Ãł
c om
ĠÄĳá» £i
ĠÄĳá» īnh
ĠTrá» įng
A nh
Ġ áº¥m
Ġch Ãło
or t
Ġv áº¿t
ĠTr Æ°Æ¡ng
D o
ÄĲ á»ĳi
Ġl Ã¢y
ĠhÃ ¢m
i z
Ġh Ãło
Ġth uyá»ģn
ĠchÃ ºt
ĠTh e
Ġc áºŃu
Ġk iá»ĩm
ĠÄĲ á»Ļi
or d
eb ook
ĠkÃ¨ m
Ġ ung
ĠV Æ°Æ¡ng
Ġm Å©i
Ġng áºŃp
Ġph áº¥n
ĠJ o
Ġr o
Ġm áº¯n
ĠC Ã²n
Ġth áºŃp
Ġ201 2
ÄĲ Æ°á»£c
Tr ung
C P
Ġ Æ¡n
Ġc Æ°á»Ľp
C S
Ġm áº¡c
£ n
Ġch áº¥m
ac ebook
Ġg áº¡o
ĠGi ao
s t
Ġ202 3
201 8
ĠThá» ©
Ġcáº£ ng
Ġh áº¹n
ĠS t
Ġg Ãł
ĠL Æ°Æ¡ng
Ġchá»§ ng
ĠÄĳ e
Ġth áº»
i f
Ġb uá»ĵn
Ġm áº¡ch
ĠtÃº i
ac k
Ġgi áºŃt
20 19
Ġtr áº¡m
ac c
Ġmá» ģm
Ġtr á»Ļm
ĠÄĳÃ ¨n
202 2
Ġt ung
Ġxá» ©
e v
Ġbu Ã´n
Ġth áºŃn
n Äĥm
á»ĳ t
Ġh uá»ĳng
Ġng Ãłn
N N
Ġ3 5
ĠX Ã¢y
ĠP V
Ġch Ãłng
Ġs áº¡n
C á»¥
ĠW orld
d eo
áºŃ c
ĠtrÃº ng
» ŀ
á »ŀ
Ġl Ã¢m
Chá» §
ho w
Ġvi deo
ĠLe ague
o k
Ġsá»ĳ t
Ġth uyáº¿t
ĠN ai
Ġ8 0
er a
ĠI ran
Ġtrá» «
ĠTh Æ°á»£ng
Ġkhu Ã´n
Ġl Ãºa
ĠÄĲ Ãłi
Ġng á»¯
ĠÄĳ áº³ng
Ġkh áº¥u
Ġho áº£ng
ĠH y
Ã£ ng
Ġb áºŃc
5 00
s on
ĠHÄĲ ND
Ġm Æ¡
k m
Ġvá» ¡
e z
Ġn Ã©t
201 6
B Ãł
ĠtrÃŃ ch
ĠM y
ĠÄĳ uá»ķi
Ġgi áº¿t
Ġhá» ģ
Ġth Ã¡o
Ġgá» Ĺ
d a
Ġ3 00
Ġr Ãło
201 7
Ġl áº¯m
ĠC on
Ġg hÃ
ĠÄĳ áº¡n
acc ine
ĠlÃł n
Ġv Æ°á»Ŀn
Ġkh ung
ĠH Ãłng
Ph one
Ġn Ãłng
EA N
ĠL ai
6 0
ĠÄĲá» Ĺ
Ġgi áº£ng
Ġng Ã£
a h
201 5
el l
TV T
ĠÄĳ ai
ĠS h
ĠThá» Ŀi
al ia
á»ĭ a
ĠgÃ³ c
ĠNg Ã´
ĠIn ter
Ġ Ã©p
Ġ áº©n
Ġtr Ã¹ng
u ch
N T
g i
r y
D á»±
ĠL ao
4 0
Ġl áº¯p
es ia
Ġtr Ãºc
Ġtá» ¥
1 8
Ġ9 0
Ġv accine
ĠP r
Ġt Ã¡n
ĠNgh Ä©a
don esia
ĠlÃł nh
4 5
ĠT Ã¢m
Ng ay
N G
ĠPh il
C Ã¹ng
ĠthÃ ¹
Ġgi am
ĠÄĳ Ã¡o
ĠG iá»
A ND
Ġb áº¡o
ĠC á»Ļng
Ġm ai
Ġchu á»Ĺi
Ġt áº£ng
Ġhá» ©ng
Ġx Ã¢m
ĠB iá»ĥn
Ch iá»ģu
ĠÄĲ a
s en
Ġx o
ĠÄĲ á»ĳi
ĠC ity
iáº¿ c
Ġgi Ãł
ĠThá» į
r us
Ġtr á»ĳn
Ġná» Ĺi
Ġm u
T hÃ´ng
ĠAS EAN
2 5
Ġt ang
Ġt Ãºc
ĠK iá»ĥm
ĠT iá»ģn
Ġh iáº¿n
Ġngá»į t
ĠH áºŃu
ay sia
Ġv iÃªm
Ġthá» Ł
ĠPar k
ĠC á»¥
Ġr á»ĳi
Ġrá» §i
1 7
Tr Ãªn
Ġgh áº¿
ĠCh iáº¿n
Ġlá» «a
Gi Ã¡
ip p
ĠM áº¡nh
ĠÄĳ Ã¢m
Thá» Ŀi
ĠhÃ ¹ng
ĠQ uy
ĠI s
ĠÄĳá» ©c
ĠG TVT
Ġch áº£y
Ġng on
Ġ19 7
Ġb Ã³
Ġlá» £n
Ġx Ã³m
Ġngo Ã¡i
ĠchÃ ºc
ĠE U
ĠH áº¡
ĠcÆ¡ m
Ġá» ŀ
Ġb Ã¹
Ġb om
Nh Ãł
ĠC P
P hÃ³
am a
Ġt áºŃt
1 6
Ġtá»ķ n
K S
Ġb á»¯a
Ġk iÃªn
e c
Ġlo áº¡n
Ġb Ã²
h an
ĠIn donesia
ĠS ing
áº ³
ĠK áº¿t
Ġtr Ã´ng
Ġngá» «a
Ġd áºŃy
ĠM o
Ġqu Ãªn
ĠD Ã¹
Ġn on
Ġhuy nh
Ġc áº£n
Ġx inh
ĠÄĳá»ĳ t
ĠÄĳ Ãłi
ĠÄĲ áº·ng
ĠQu á»³nh
l Æ°á»£ng
A R
Ġ3 6
ap ore
ĠchÃ ³
ĠMal aysia
Ġh iáº¿m
Ġi Phone
ĠT oÃłn
Ng uá»ĵn
ĠÄĳ áºŃp
f f
ĠE m
Ġlá» Ĺ
Ġng Æ°
ĠGi áº£i
Ġ á»ĳng
Ġc lip
2 4
Ġvi rus
Thá» §
Ġtr áº¡i
ĠL oan
ĠT Ã¹ng
Ġgiá» ıi
Ġhá» ĵng
ĠS u
ĠphÃ º
Ġd Ãły
ĠC áº§u
Ġch Äĥn
Ġk ia
Ġm Ã£i
ĠÄĳ áºŃu
Ġth Æ°á»£ng
Ġngá» ¥
ĠS p
Ġv inh
3 5
ĠHu á»³nh
Ã£ nh
as hi
Ġ201 1
ĠÄĳÃ£ i
ĠThá» ķ
s k
i er
Ġb áº¡ch
ĠB á»Łi
t a
ÄĲ iá»ģu
1 4
D Ã¹
ĠN hÃ
am es
Ġb Ã¹ng
Ġng áº§m
Ġng Æ°á»¡ng
Ġv Æ°á»Ľng
Ġph Ã¡o
ĠC amp
ĠA F
ĠPhil ipp
Ġ4 5
ĠV á»¥
Ġ uy
Ġdá» ¥
Ġhá» ıa
ĠtÃ¹ y
Ġh a
201 4
ĠlÃ£ m
ĠNh Ä©
ĠNh áº¥t
S á»±
áº³ n
ĠS á»±
ĠgiÃ¡ p
o g
iá»ĩ ng
iv er
ĠTr Ãł
Ġth áº£m
Ġnh Å©ng
Ġph áº«u
2 1
ĠÄĲ T
ĠÄĲ inh
Ľ p
Ġho ang
ĠK áº¿
pp le
Ġcá»Ļ t
ĠSing apore
se a
ĠTh áº£o
Ġbá» ¥ng
ĠkÃŃ n
Ġt Ã´ng
Ġr á»Ńa
A T
Ġl oÃłi
X VN
ĠU n
ĠthÃ ©p
ĠLá» ħ
áº« y
ĠF acebook
Ġs áº¯m
Ġn Ã©
Ġhá» ıng
Ġm iá»ĩng
ĠchÃ ¬
Ġtr Ãłn
Ġb áº¿n
r i
Ġn iÃªm
Ġhá»Ļ p
Ġs á»ķ
ĠÄĳá»ĵ n
ĠM áº·t
r id
Ġb Ãª
b er
ĠC an
Nh Æ°
V Ã¬
ĠÄĳ iá»ĥn
Ġh áº³n
Ġ e
Ġmá» ĩnh
» ·
á »·
C o
ĠkhÃ³ c
H ai
Ġlá» įc
Ġtr iá»ĩt
Ġn áº¥u
Ġs Ãºt
M á»¹
Ġth ang
ĠC á»ķ
ĠA ir
Ġtiáº¿ c
C B
ĠT Ãłu
un d
u d
Ġnh Æ°á»£ng
er n
el sea
Ġgiá» įng
K áº¿t
ter s
ĠKh o
ĠÄĲ áº¯k
ĠT uyÃªn
Ġl Ã´
ĠQu Ã½
ĠPhilipp ines
Ġnh áº¯n
ĠTr á»ĭ
Ġv áº¯c
us tr
áº¥ c
Ġh Æ°
on a
l ine
Ġru á»Ļt
ĠHá» £p
m an
Ġm Ã¡t
ĠT áº¥n
uch ia
ĠCS GT
ĠH oÃłn
ĠB áº±ng
Ġnh áº£y
Ġn Ã£o
Ġ áº©m
ur o
Ġkho e
Ġkhu áº©n
Ġ3 2
ic o
V á»¥
ĠH á»ĵi
hÃŃ nh
Ġg a
ĠC ÄĲ
ĠÄĳá» ģn
1 3
ĠcÃ £i
ĠM ad
Ġt Ãłng
Ġl áº¡m
Ġchá» ĳi
Ġd inh
ĠN H
Ġth Äĥng
ĠH oÃłi
ĠRe al
201 3
ĠV in
Ġv ÃŃ
ĠC N
ĠÄĲ Æ°á»Ŀng
ĠH áº±ng
Ġcá» Ŀ
ĠS am
ĠB V
Ġnh i
al l
ĠThá» ±c
Ġd Ã¡m
Ġs u
Ġhá» ©a
ĠT S
ĠA s
Ġgi Ã£n
ĠB áº¡n
ĠB l
ĠN há»
ĠB Ã¡c
ĠA pple
Ġb Ã¢y
Ġtrá» ©ng
e g
Ġr áº»
Ġx Æ°a
ĠPh Æ°á»£ng
Ġc anh
ĠNg ay
Ġx uÃ¢n
ĠQu a
ĠL Æ°u
ĠchÃ ©
ĠC á
ĠCá »
Ġf an
ĠThÃ º
ĠK iÃªn
L iÃªn
Thá» ±c
8 0
S C
ist an
Ġtrá» ¥c
Thá» ©
M áº·c
ĠÄĳ áºŃm
Ġthá» Ŀ
t á
tá »
L á
Lá »
Ġthu áº«n
p o
7 0
ĠchÃ ¹a
ĠCamp uchia
ĠmÃ¹ i
ĠH á»įc
Ġnh iÃªu
Ġw eb
e i
Ġvá» ı
I n
ĠC A
Ġc Ã¡t
ĠT Ãº
Ġnh Ã¡nh
Ġl iá»ģu
ĠBar c
Ġx Æ°Æ¡ng
C Ã²n
Ġtr áº§m
Ġl á»Ł
Ġs Ã´i
ĠS ong
Ġd Ã¢u
u ters
Ġt Æ°á»Ŀng
Ã½ t
u k
Ġnh Ã£n
ĠthÃ ³
Ġgá» £i
Ġd Ã´ng
ĠS á»ĳ
ĠtÃ´ m
Ġm á»±c
Ġcam era
Ġc Æ°Æ¡ng
á»į i
t Ã´
Ġch e
b ank
ĠÄĳá» «ng
ĠÄĳ iá»ĩu
ĠI S
Ġm á»ĳc
ĠCh Ã¡nh
Æ°Æ¡ n
ho áº£ng
ĠlÃ£ ng
e p
ĠNg Ã£i
ĠThá» ¥y
Ġb Ã¡m
C T
G iá»
Ġcá» ©ng
9 0
ustr alia
ĠT iá»ĥu
C hÃŃnh
Ġtr eo
N H
am in
ĠD i
Ġb áº¿p
ĠC ar
Ġcá»ĳ t
ĠBH XH
Ġd Ã¢m
ra el
Ġgá»į n
ĠTr uyá»ģn
Ġv Ã¡y
ĠCh elsea
202 3
Ġb á»Ļt
Ġs how
Ġtu Ã¢n
Ġxá» ©ng
h n
ad a
ĠM á»Ĺi
er s
Ġy áº¿t
Ġ3 3
ĠÃ´ m
Ġx Ã³a
ĠT áº¥t
ĠT am
Ġv en
ĠTr Ãªn
ĠCh ung
n e
Chá» ī
ĠNh i
as s
is s
or k
Nh Æ°ng
Ġl áºŃu
o w
onal d
Ġtr Æ°a
C Ã´
ĠÄĳ Ãł
Ġd iá»ĩt
Ġd Æ°á»£c
ĠC Ã¹ng
M á»Ľi
Ġt Ã¢y
ÃŃ ch
x i
Ġgi áº¥u
Q ua
ĠÄĳ iá»ĩp
Ġmá» ĩt
Ġb á»ĳc
m p
i et
mar t
Ġt iá»ħn
ĠK hÃ
Ġ &
Ġtr áº§n
c há»
ĠB ÄĲ
V Ãło
ĠT AND
Ġt Ã¢n
¥ i
ĠH iáº¿u
Co V
ng Ãły
G S
L e
h t
ĠViet nam
Ġcá»ķ ng
Ã¹ a
ĠchÃ ª
Ġ201 0
ĠC ai
Ġbá»ĳ n
ĠCh u
ĠA ustralia
ĠT Ã²a
Ġphá» ıng
Ġl Æ°ng
Ġmá» ıi
ÄĲ áº·c
Ġqu ang
Ġ ,
Ġth an
ĠÄĲá» ģ
ĠÄĳ eo
sen al
Ġl áº§m
ĠL Ãºc
ĠIs rael
2 7
Ġm Ã¢y
ĠRe uters
Ġt áº£
Ġ al
Ġvá» Ŀi
Ġt áº¯m
Ġg am
áº¹ t
Ġ3 8
Ġ .
Ġ3 7
ĠV á»ģ
Ã¹ m
Ġtá»ĳ n
ng Æ°á»Ŀi
Ġb ia
ĠQu á»¹
ai l
ĠGi Ã¡
Ġv a
ĠH ar
ashi ng
es ter
ĠB áº¿n
Ġ3 4
l in
ashing ton
ĠAn d
Ġb áº¯c
ĠI I
Ġtrá» «ng
as t
Ġ4 00
Ġd Ãłn
» £
á »£
e k
z il
Ġv áº¯ng
ĠThá» «a
ic k
Ġs a
Ġx áº£
k hÃ´ng
onal do
Ġl a
ĠA m
Ġmá» ı
Ġc áº¯p
ĠT Ã¬nh
ĠÄĳ áº¡p
ion s
ĠS an
2 6
ĠB ra
ĠThÃº y
ut in
Ġnh á»±a
ĠThá» ĳng
Ġ15 0
Ã¨ o
Ġh áº§m
ĠThá» ĥ
Ġm áº£nh
Ġc áº¥t
Ġhá» ĳi
ĠTr á»ĭnh
ĠS AR
B Ã¡o
hÃ³ m
ĠÄĳ áº¯t
ĠS o
Ġlá»ĩ ch
ĠW ashington
Ġm Ã¬
Ġd Æ°á»Ŀng
ĠM os
9 9
C uá»Ļc
ĠÄĲ B
it e
C on
T M
P hÃ
ĠH iá»ģn
ĠC r
Ġd uyÃªn
2 8
Ġt áº¯t
Ġth áº£
ĠTh Äĥng
Ġt an
Ġt áº¿t
in i
Ġh áº£o
ĠÄĳ áº¥y
Ġtho áº£i
E C
C Æ¡
ĠthÃ³ i
Ġhá»ĵ n
ĠLá» £i
ĠÄĳá» Ĺ
ĠTr inh
Ġtr Ãł
Ĺ ng
ĠC áº£
Ġbá» Ľt
Ġl ang
H á»Ļi
ĠX Ã£
ĠMad rid
Ġtr Ã´i
Ġg an
ĠthÃ ¹ng
Ġh áº±ng
ĠPh áºŃt
Ġch uyá»ģn
ĠM au
ĠtrÃ² n
201 2
ĠM áº·c
ĠGi áº¥y
ĠL ÄĲ
ĠP utin
Ġs áº¡t
Ġdá» įc
ĠInter net
Ġb Ã¡
Ġm uá»ĳi
ĠTh Æ°
Ġm Ã¢u
B C
Ġnh á»ĭp
ĠC am
Ġcá»§ ng
á»± u
Ġm áº§m
ĠÄĲ Äĥng
ĠC áº©m
Q ÄĲ
c on
C Ã¡ch
Ġgi Ã¢y
Ġt Ã¡o
ĠD onald
Ġkh uyáº¿t
d ex
Ġh ung
A G
Ġs Ã³t
h am
ĠB áº¡ch
ĠG r
¹ y
ĠG u
ĠK há»
Ġná» ģ
Ġkh iáº¿u
t in
ĠNh iá»ĩt
Ġth iá»ĩp
ĠbÃ© o
Ġv Æ°Æ¡n
t há»
ĠA b
A S
2 9
oo d
ĠSAR S
ĠThá»ĭ nh
ĠH uyá»ģn
Ġmá» ķ
ĠkhÃ ¢u
ĠC Ãł
U BND
ĠI t
ra b
N am
ly mp
Th anh
Ã¨ n
a w
ĠV Å©ng
ĠC o
Ġl áº·ng
Ġh eo
Ġh Æ°u
ĠM Ã´i
Ġcá» ĳng
ĠAr senal
ĠS er
x Ã£
Ġkhá» ĳng
7 5
ĠthÆ¡ m
Ġth Æ°á»Ľc
ĠD ung
ĠT im
Ġk g
Ġng á»±c
po ol
t el
Ġm áº¡o
en n
TT Q
Ġgi Æ°á»Ŀng
ĠC Å©ng
h uyá»ĩn
Y T
T N
Ġd áº¯t
ĠTh áº¡ch
Æ¡ m
Ġlá» ĵ
ĠC uá»Ļc
Æ°á»£ n
ĠA i
T X
s ung
ĠchÃŃ n
ÃŃ n
ĠChá» ĭ
Ġh Ãłm
ĠC Ã¡t
t o
Ġm iáº¿ng
Ġng áº¡ch
ĠQ L
ĠG ames
Ng há»
ĠS inh
iver pool
ĠM a
) :
á»Ń u
Ġ áº¥p
Ã¹ n
Ġng á»Ļ
ĠM i
ĠBra zil
B á
Bá »
Chá» ĭ
ĠÃ ļ
Ġtrá» į
Ġlá» įt
ph one
ĠC ty
ĠC H
at e
ĠÄĳ am
Ġ5 5
ĠO lymp
ĠY ork
Q T
' .
Ġgi Ãły
Ġhá» ķ
ess i
Ġkh Ã¡t
ĠThÃ ¹y
O S
Ġv iá»ħn
Ġl ÃŃnh
H o
ĠNew s
ĠP l
o y
ĠK iá»ģu
Ġkhá»ķ ng
ĠCh amp
Ġm Ã³c
Ġ áº£o
ĠC Ã¡ch
ĠDo anh
Ġkh uyÃªn
g iá»
B ank
Ġph Ã¡i
en d
Ġchá» «ng
Ġs Äĥn
ĠT u
ĠghÃ ©p
B áº¡n
Ã© o
Ġr áº¯n
ĠO b
Ġtr á»ĳng
ĠÃ´ tÃ´
ĠE l
Ġv Ä©
ĠL á»ĩ
Ġcá»¥ m
Ġd Ã£
ĠH áº¡nh
ĠN á»¯
ĠR onaldo
ĠK H
» «a
á »«a
Ġb Æ¡i
ĠX II
g e
ĠQu an
ĠY o
ĠÄĲ Æ°á»£c
I C
Ġnh Ã©
Ġh áº¹p
Ļ i
Ġr Äĥng
Ġcá» ı
Ġgi áº¥c
ĠD iá»ħn
Ġd áº¡
Ġv áº½
ĠL á»±c
Le ague
Ġd áºŃp
ÄĲ á
ÄĲá »
Ġbá» ģ
Ġl eo
ĠchÃ¬ m
oo g
ar a
ĠC Ã¡i
Ġ19 6
Ġv áº£
1 00
t ain
H Ã´m
iá»ħ u
Ġho an
Ġkho Ã¡ng
M T
y o
oog le
ĠV áºŃy
ĠNg uá»ĵn
Ġtu á»ĩ
ĠCh o
ĠÄĳ áº¿
ĠTh áº¡nh
at ion
Ġm Ã£n
ĠTr ÃŃ
th Ã¡ng
it ed
ĠB Ãłi
ĠD e
ĠTh áºŃm
I V
% ;
Ġcá» ¡
Ġt Ä©nh
Ľ n
ĠJo hn
Ġtho Ã¡i
ra q
Ġ4 8
Ġtrá» įn
ĠS eo
Ġngh iá»ĩn
ĠS EA
Ġt iá»ĩc
er o
T iáº¿p
Tr ao
ĠH Æ¡n
ĠgÃ¬ n
3 6
Ġs Ã¡nh
N ÄĲ
Ġv Ãµ
ĠL iÃªm
ĠChamp ions
ĠN Ã³
l and
Ġr áº¡ng
Ġch ua
Ġl Ã¹i
ĠTh Ã¡p
ĠÄĲ Ã´
D C
Ġ Ã¡i
± ng
Ġná» ĵng
Ġl áº¥n
ĠH Ãłnh
Ġbu Ã½t
Ġc o
Ã ģ
ĠM U
In dex
ĠTH CS
ĠX uyÃªn
V iá»ĩt
an i
as h
Ġv áº¹n
ĠG al
ĠY áº¿n
ĠHu á»ĩ
Ġsá»ĳ c
Ġt Ãłn
Ġv ua
Ġp in
Ġt Ã¡ch
Ġm Ã©t
ĠV Ãłng
Q H
ī a
ĠL am
ĠTh i
Ġkhá» Ľp
> >
l a
e ng
ĠS Ã¡ng
k h
ĠL iverpool
e ch
ĠTh iá»ĩn
Ġn á»Ł
Ġkh Æ¡i
Ġv áº¥t
ĠM TTQ
3 00
ag e
Ġd ÃŃnh
ĠI raq
3 7
Ġ Ã¡c
Tr Æ°á»Ŀng
Ġbá»ı ng
ĠL H
Ġnh Ãłng
' ,
Ġc áº©n
hÃŃ a
ĠA le
Ġnh an
Ġg Ã¡nh
Ġ3 9
ĠkhÃ´ i
A M
Ġlá» ıng
Ġto p
Ġn Ãºt
B Ã¬nh
Ġs ay
Ġgam e
Ġ0 1
ĠOlymp ic
ĠnÃ© m
V iet
Ġ7 5
ar t
v er
S á»Ł
i x
Ġv áº£i
Ġphá»ķ i
ĠOb ama
Ġvi t
ĠÄĳ Ã¡n
ĠH ang
Ġthu áº§n
Ġr Ã©t
ĠN S
TT XVN
Ġvit amin
Qu áº£ng
ĠT iáº¿p
Nh áºŃn
ĠÄĲ áº¥t
ĠPhá» ¥
ĠSam sung
y a
3 4
ot a
ĠT á»Ń
ĠÄĳá» ±ng
or n
ĠL áº¯k
ĠN N
Ġng Ãµ
ĠD áº§u
Ġd Ã¢ng
ĠTr iá»ĩu
r am
F F
ĠCan ada
ĠU y
id eo
ÄĲ Ã³
ĠR iÃªng
H Ã¬nh
Ġtá» ©
ĠA P
Ġ6 5
B an
N á»¯
ĠH S
ĠB o
ĠM C
ĠM essi
Ġl Ã²
L Ãł
m a
ro up
T Ã¬nh
N hÃ¢n
Ġgi áºŃn
e al
inh o
ĠÃģ nh
Ġngá»į n
G D
C H
Ġl áº¥p
Ġ u
Ġmu á»Ļn
% /
ĠUn ited
Ġk Ã¬
e a
ĠV áºŃn
Ġv Æ°Æ¡ng
3 8
mart phone
on da
ĠG oogle
Ġs Æ¡n
qu áºŃn
Ġr Ã£i
4 00
Ġdá» įn
ĠÄĲ áº¡t
b a
á»ĳ m
k e
T ÃŃnh
ĠNh Æ¡n
d i
ĠHÄĲ QT
Ġ Ã¹n
E m
Ġta xi
ĠT Äĥng
Ġvá» Ļi
Ġch iÃªu
AT O
Ġb Ã³n
ĠNg hi
ĠÄĳ áº»
ĠS Ã³c
Ġso áº¡n
Ġthá» ±
ĠB u
Ġtá» §
´ n
Ġr Ã¨n
K T
id en
Ġl Ã´ng
9 5
t or
ĠÄĳÃ³ i
Ġqu Ã©t
Ġmá» ¡
Ġ Ã¢n
AG L
t i
© o
S á»ĳ
ĠâĢ ĺ
Ġtr á»Ļn
Ġ6 00
CC C
Ġxo ay
áº± n
Ġrá» ¡
Ng uyÃªn
B Æ°á»Ľc
G ia
ĠÄĳ áº¯p
ĠH uyá»ĩn
ĠT Ã´
ÄĲ V
ĠT ÃŃnh
Ġc Æ°á»¡ng
H Ãłng
Ġhá»Ĺ n
Ġbá» ¥i
Ġnh áº¡y
Ġsá» ¥t
. "
Kh u
Ġ1 20
Ġm áº·n
201 1
ĠÃ Ŀ
Ġo f
Ġ200 8
v a
ĠCS ÄĲT
ĠM il
g o
ĠD á»ĭch
Ã² i
Ġ200 9
4 7
Ġng áº¡c
Ġngá» £i
5 5
le y
Ġv ang
F A
ĠA ng
Ġk iÃªm
Ġho Ã£n
4 6
Ġb áºŃn
Ġb Ã¬
ÄĲ á»Ļi
ĠÄĲ á»Ļng
m m
I A
Ġ4 3
ĠS Ã´ng
Æ°á»Ľ t
Ġx Æ°á»Łng
ĠPr em
e e
ĠL y
ĠkhÃ³ i
Ġbá»ķ ng
- -
an mar
Ġmá» ĵ
ĠH á»ĩ
ĠTr áº¯ng
PT NT
x in
ĠH Ã£y
ĠC ol
Ġdá» ¡
X em
. âĢĿ
Ġdá» Ŀi
Ġm Æ°á»£n
Ġkho áº£nh
L á»±c
ĠPh áº§n
ĠBH YT
ĠTh iáº¿u
ĠH iá»ĩu
ĠhÃ´ i
Th áº¿
T in
ĠB KS
Ġs martphone
ĠB Ã¡
ĠH Ã¬nh
Ġhá» ¥t
H Æ¡n
Ġm áº£ng
ĠR o
al y
Ġlá» ĵng
ĠB á»ĵ
ĠAF P
ĠÄĳá» Ľi
l or
Ġ4 6
el a
Gi áº£i
Ġru á»Ļng
ĠP C
Ġr Å©
ĠTr Äĥng
ĠB áº¡c
Ġn áº¡i
C V
Ġr Ã²ng
c Ã³
ax y
D I
f t
ĠM er
ĠP ro
Ġ on
T hÃ
Ġ Ã¡m
Bá» ĩnh
Ġ202 5
S G
ent ina
ĠK r
Ġc u
ĠM V
ĠLe e
0 1
b o
Ġth áº¯t
Ġch im
á»ĳ p
ĠD av
Ãº n
C áº£nh
ic e
Ġ4 2
Ġgi Ã¡n
ĠN a
áº« m
Ġch ai
Ġb Ã¡t
Ġá» ©c
ac e
Ġbá» įc
Ġtá» įa
l ad
ĠlÃ£ o
an s
Th Ã¡ng
ĠH TX
K hoáº£ng
ĠMy anmar
Th Ãłnh
ĠÄĲ á»ĵn
in k
3 3
ot e
8 8
Ġr áº£i
ĠPar is
ĠP CCC
Ġch áº©n
Ġnh á»Ł
Ġkhá» ©
Ġd á»Ļi
r on
ĠL iÃªu
Ġg om
Ġb áº¿
P L
V Ãł
Ġ4 7
giá» Ŀ
ĠTh Ã¡ng
Ġkho Ã¡c
ĠÃļ c
Ġ :
ĠL Ã£nh
ĠP et
Ġdá» ĵn
co w
s inh
Ġd á»ĳc
Ġlu á»ĵng
B S
ĠD anh
M á»Ĺi
Ġlá» ģ
Ġxá» ī
ĠÄĲ iá»ĥn
Ġe uro
H LV
os t
ĠthÃ ¢m
ĠP al
Ġ20 30
ĠC áº£ng
J C
ĠH AGL
T B
ĠBÃŃ ch
tain er
Ġtá»± u
Ġb Ã´ng
Ġthá» £
Ġng áº¯m
ol a
Ġk áº¹t
ĠJ ong
Ch ia
Ġvá» īa
ĠÄĲ á»ĭa
Ġquy áº¿n
x y
Ãº y
ĠR á»ĭa
ĠR ob
á»ĭ n
Ġtr inh
Ch iáº¿c
on don
ĠB e
Ġs áºŃp
ĠT ÃŃn
Ġtr uyá»ĩn
ĠkhÃ ©o
3 1
Ġng Ãło
u g
Ġnh áº«n
ĠchÃª nh
H oa
ĠL áº¡t
ĠCh áº¥p
B á»ĭ
t p
E O
ĠPrem ier
Æ°á»Ł i
ĠB iden
u c
ĠNhá» Ŀ
Ġm áº¿n
ĳ c
ĠA d
Ġm áº¡n
ĠJ u
X e
ĠTh iáº¿t
ĠM ay
Ġlá» ¥t
ĠE r
Ġm Ãºa
tr e
Ġm Å©
ĠBarc a
6 5
L Ãºc
ar y
E D
Ġt iá»ĩm
3 9
Ġnh áº§m
4 8
4 9
Ġlá» ©a
Ġn áº£y
Ġv Ã¢y
ĠGD P
t hÃ
ĠN ATO
Ġg áº¯t
Ġr á»±c
Ġn Ã¡t
ĠK iáº¿n
Ġbá» įn
á»į n
ĠMos cow
ÄĲ oÃłn
ĠcÃ ºng
g entina
ĠNgh iÃªn
Ġd Ã²
er t
TC P
ĠchÃ© m
ĠL áº¡ng
tá» «
Æ°á»¡ i
ĠA T
ĠL ondon
ĠQu áºŃn
N Ã³i
ar k
Ġl áºŃt
Ng h
ĠÃ Ĳ
Ġ5 1
ig ht
ĠM in
I S
ĠGal axy
Ġg Ã£y
Ġth e
ĠT á»±
Ġcon tainer
/ /
ĠM at
ĠH onda
ĠPhÃ ¹ng
ĠT Æ°á»Ŀng
ĠV Ãło
ĠA f
¯ a
s ite
ĠT op
ĠH ong
X X
, âĢ¦
ĠV KS
Ġl ÃŃt
Ġn áº¿p
T A
Ġmá» ıng
ĠChá» ©ng
ĠKhÃ ª
ĠV H
Ġ4 9
ĠL áº¡c
el ona
ĠI II
Ġ25 0
ic a
ĠG S
Ġl ÃŃ
Ġ Ãºy
ĠS en
ĠK on
ĠThu áº¿
l et
Ġl á»ĳc
% ),
r os
Ġ5 6
ĠS c
T á»ĳi
ot te
ÄĲ Ãł
an e
C O
Ġx Ã¡ch
ĠÄĳá»ĵ i
Ġ4 1
: //
Ġvá»£ t
Thá» ĭ
Ġ Æ°a
ĠÄĳ áº§m
Ġb Æ¡m
0 5
U SD
Ġph un
C áº§n
ĠM á»Ľi
ĠÄĲ iá»ģn
Ġ4 4
% )
áº¹ o
C ÄĲ
n a
o c
, ...
Ġl ong
ĠT w
Ġ á»ĳc
b iz
ĠÄĳá» ĩ
Q G
ĠB ay
Ġch inh
ĠÄĳ áº¯c
ĠS Æ°
3 2
ĠC áºŃp
ap p
ĠAr gentina
ĠÄĲ áº¡o
Ġ ong
ĠGi Ã³
ĠchÃ ¢m
Ġl Æ°á»Ŀng
O T
Ġtr á»Ļi
ĠS ao
m á»Ļt
ĠNh ung
ĠM iss
ĠA g
Ġs Æ°u
ĠX Ã´
Ġk em
Ch o
V ideo
ĠTT XVN
Ch Æ°Æ¡ng
ĠE x
Ġsá» £i
ĠV ÄĲV
N A
ĠA t
ĠT Ã´n
ĠS ang
Ġs Ã¡u
Ġon line
Ġn áº¥m
ĠM Ã£
ĠÄĲ an
Ġho t
P C
ĠV I
i en
Ġ8 00
Ġv Ã³c
in o
Ġng Æ¡i
Ġchu á»Ļt
B P
ĠB al
L Ã£nh
ĠH iáº¿n
ĠB Ã¡i
ĠV FF
ĠS te
Ġs Ã©t
ĠD uyÃªn
N hÃ
a e
ĠM áº¹
Ġh iáº¿p
ĠV TV
Ġtr Ã¢n
Ġ9 5
ex ico
Ġg ay
ĠChá» £
ĠtÃŃ m
ĠÄĲ Ãłm
ĠÄĳá» ©t
Ġdá»ĭ u
Ġtho Ã¡ng
Ġc áº¯m
Ġs an
ĠB en
ĠN Æ°á»Ľc
Ġn Æ°á»Ľng
ĠR om
ĠK ong
Ġc áºŃy
ĠÄĳ Ä©a
iá»ģ ng
ĠS JC
Ġtr Ã¹m
Ġvá» Ł
6 00
ĠkhÃ ©p
os e
ĠO n
ĠF ran
ub e
ĠP GS
Ġl áºŃn
Ã Ģ
l ÃŃt
Ġlá»Ļ n
ĠTo y
ĠAle x
ĠE d
ĠTr Ã¡i
Ġtá» ¥ng
o un
tr ong
Ġkho an
Ng a
ol d
ĠlÅ© y
l ines
Ġng á»±
Ġx ao
Ng uyá»ħn
ĠA rab
ĠGiá» Ŀ
ĠB N
Nghá» ĩ
Ġtr Æ°á»£t
ĠV iÃªn
C uá»ĳi
Ġch áº·ng
ĠS á»¹
i es
» Ŀi
á »Ŀi
ĠM on
ĠM ich
Ġ5 4
ĠS áº£n
Ġ7 00
ÄĲ áº§u
ĠS un
ĠB S
ĠS on
Ġc Æ°á»Ľc
Ġx áº¡
ĠQ uyá»ģn
at h
ĠÄĳ Ãª
Ġbá» Ĺng
Ġd Æ°a
ic s
6 8
ur inho
Ġm ÃŃ
ĠU S
ĠBarc elona
ĠB ang
hi m
ber g
Ġm áº»
Ġná» ¥
ĠToy ota
H áº£i
g han
C áº£
ĠÄĲ iá»ĥm
P há»
G áº§n
ĠL áºŃp
ĠTh am
ĠÄĳ uÃ´i
8 00
P V
Ġh uyá»ģn
Ġg áº¡ch
L Ãłm
an t
Ġtr Ã¢u
7 7
ĠO s
ĠS H
Ġth a
ĠTr áº¡m
Ġm Äĥng
ÄĲ iá»ĥm
Ġl Ã¢n
Ġl Ã´i
a f
C K
Ġmá» Ŀ
D A
Ġlá» ¡
Ġtr Ã¡ng
Ġin ch
it ter
ĠF C
Ġv s
ĠC al
ĠM c
ik e
ĠC á»Ńa
´ i
ĠM exico
y l
ghan istan
ĠAir lines
Ġb Ãºt
Ġho áº¡i
ĠK iáº¿m
ĠTo Ã¡n
ch ester
an a
e en
Ġl Æ°á»¡ng
N há»
ĠViet tel
ĠC l
» ©
á »©
Ġ á»ĵn
ĠÄĲ Ã¡ng
8 5
o áº¡n
Ġth áº¥u
Ġtr iá»ģu
Ġs Æ°Æ¡ng
Ġ8 5
Ġ im
Th Ã¡i
Ġhá» Ł
Ġr á»Ļn
ĠL á»ĭch
ĠS al
Ġtr áº¯c
ĠTo k
iv e
Ġ0 2
ÄĲ Ã¡ng
H á
Há »
f ord
ĠW in
e ar
ĠÄĳ Ã¡y
D L
Ġs áº¡c
ĠT iáº¿ng
Ġweb site
Ġh áº¯n
ĠG roup
ĠTr e
ĠC Ã¢u
g an
ĠO anh
Ġch Ã¡n
Ġnh áº¯m
Ġc ai
Ġv u
Ġm Ãłng
ĠchÃº a
ĠNH NN
ot t
ĠH N
ĠAf ghanistan
com bank
ĠN hÃ³m
ĠM ac
ĠT in
ĠM á»įi
Ġph anh
ol f
Ġs uá»ĳi
Ġnh ÃŃ
iv es
ĠPhá» §
v ent
Ġthá» į
Ġ5 7
) -
ĠTuy áº¿t
6 7
Ġdá» ĩt
ĠC B
ĠÄĲ Æ¡n
. ,
ĠBá» ī
Ġb áº©n
ÄĲ á»ģ
Ġ6 7
c a
ĠL Ãł
Ġb i
Ġd Ä©
Ġc ay
ĠS Ä©
k o
ĠDav id
Ġrá» §
Ġc áº¡n
T áº¥t
ter net
B Ãłi
Ġ6 3
ĠXII I
Ġh Ã¡i
ĠT M
NhÃ ¬n
ĠM Æ°á»Ŀng
4 4
b ia
Ġg á»ĳi
T oÃłn
E U
Ġh iáº¿u
Ġ +
Ġph iáº¿n
ĠE n
au l
Ġx Ã´
¹ m
an o
ub a
ĠNh Æ°á»¡ng
T á»ķ
Ġcá» ĵn
ĠK á»¹
Ġ5 2
ĠX V
ĠLÄĲ LÄĲ
0 2
er ia
k hoáº£ng
Ġchi p
¥ n
Ġm Ãły
k há»
ĠÄĳÃ ¹a
T iá»ģn
Ġm Ã³ng
ur g
Th am
Ġ Æ¡i
Ġc Ãłi
Ġph u
Ġph áº¿
ĠS ch
Ġch anh
L u
ĠTr Æ°ng
p hÃ
ĠTw itter
Ġm en
N hÃ³m
ĠTr Ã¬
ĠHo l
oun ce
Ġl Äĥng
ĠF or
om p
ĠT um
Ġ Ã´n
ĠK CN
ĠS e
ĠÄĳá» įng
Ġ5 8
Ġth Ã¡p
Nh áºŃt
nh am
% ).
ĠHÄĲ XX
Ġ6 4
Ġt áº©y
Ġng á»Ļt
9 8
Ġnh áºŃu
hÃŃ ch
ĠKh áº¯c
Ġm m
A n
Ġ áº¢
Ġv oi
Ġx Æ¡
Ġl Äĥn
Ċ Ċ
Ġ19 5
k a
Ġmá»į c
ĠMo urinho
Ġh i
ĠP er
Ġm áº¯m
Ġ6 8
Ġb áº¯p
tá» īnh
ĠC a
0 8
ĠV al
7 00
Ġn á»ĵi
Ġ2 000
ĠM od
ĠM Ã´n
T áºŃp
il e
Ġdá» «a
m e
ĠC TCP
ĠC á»Ńu
Ġg Å©i
6 6
ĠcÃº m
Ġph e
ĠÄĳ uá»ĳi
ol l
n ey
ĠAF F
ĠcÃ³ c
ĠSau di
Ch iáº¿n
Ġqu Ã£ng
ĠT V
b um
Æ¯ á
Æ¯á »
ĠchÃ ¨
A N
al o
Ġthá»ķ i
ĠCh Æ°a
t d
ĠL Ãłm
ul l
ĠV y
Ġch uá»ĳi
Ġl Ãµi
N Q
Ġkh Ã¡nh
ĠC Æ°Æ¡ng
Ġbá» ĥ
Ġc Ã¡p
ro id
ĠCh r
ĠTok yo
201 0
Ġd á»Ł
Ġ9 8
ĠIt aly
Ġ200 7
Ġm anh
otte nham
Ġnh áº¡t
u áº§n
ĠR áº¥t
Ġin ternet
Ġth áº¯n
Ġs Ã¡p
ĠQu áº¿
ĠH am
Ġd Ã¡n
H O
Ġn Ã£
ĠU A
ĠKho áº£ng
P P
e h
H á»įc
ĠÄĲ Ã£
ĠB áº¥t
Ġká» ģ
ĠBÄĲ S
Ġx Ã´ng
Ġng á»±a
Ġo xy
ĠÄĳ Ãłnh
ov ic
K há»
ig a
B ÃŃ
ÄĲ Ã£
ĠMan chester
Ġth áº§m
Ġng Ã³n
ĠV P
ĠÄĳá» Ľn
ĠB OT
ĠC or
B a
Ġná» Ľi
ĠV en
ĠC uá»ĳi
c m
Ġb Ã¡ch
Ġb áº£y
ĠGi Ã¡p
ĠKhá» ĳi
ĠTr áº¡ch
Th u
ĠD ai
ĠH iá»ĥn
ĠCÄĲ V
Ġd Å©ng
ĠÄĲ á»ĳng
ĠD el
Ġshow biz
ĠhÃ £i
ĠF ed
ar ao
o x
T Äĥng
Ġkho ai
§ a
Ġh ang
b ao
B áº£n
Ġchu á»Ļng
Ġv áº¡n
ĠU B
H Ãłnh
Ã© n
Ġk iá»ģu
ĠÃ Ķ
Ġcá»ĳ c
e on
Lá» ħ
ĠH CV
H á»į
ĠM or
0 7
Ġ7 2
ĠÄĳÃ ²n
Ġtá»± a
ĠH IV
Ġkh e
D N
ĠAT GT
V Äĥn
ĠT á»ĳi
Ġá» Ľt
ĠNh u
Ġkhá» Ń
ĠTh ay
Tr áº£
Ġho Ãłnh
et h
ĠY ou
Ġt áº§n
áº» o
Ġk iá»ĩt
ĠMar k
ĠC uba
ĠÄĳÃ ºc
Ġ5 3
ĠM as
Ġn áº¡p
Ġng Ã´
ĠF DI
ĠB er
Ġng Ã¢m
it co
Ġ9 9
T W
Nh iá»ĩt
H S
Ġr áº¡p
ĠG l
ĠV an
ĠPh áº£i
Ġx i
Ġ oan
Ġrá» ĥ
I M
Ġx Æ°ng
ĠH Ã´m
Ġx Ã´n
ĠN iÃªn
Ġchá» Ń
Ġ6 6
Ġg á»¥c
B Ã¡c
TT g
Ġ Ãło
ĠB Ã¡ch
Ġ á»ĳm
ĠAnd roid
ĠcÃº p
ĠNhÃ £
Ġch Äĥng
Th ay
B áº¯t
ĠBÄĲ BP
ph Æ°á»Ŀng
ia l
ĠX anh
a el
Ġh Æ°á»Ľc
ĠTr iá»ĥn
ĠX e
4 3
B N
¨ ng
p r
Ġd áº£i
C Ã¢u
ĠC áº¥p
ĠTim es
O N
ĠE uro
ar i
ĠN Ã³i
L Ã½
Ġp r
Ġm Ã²
.. ..
ĠH e
Gi Ã¡m
t Æ°Æ¡ng
D iá»ħn
0 6
arao ke
0 9
Ġph iá»ģn
ĠA N
Ġl á»Ļi
Ġso i
ĠP ak
Ġg Ã¡c
A P
Ġdá» ĵi
ĠKh ang
ĠD Æ°á»£c
en s
ou th
» µ
á »µ
ĠH D
4 2
ĠSp ort
Ġ ao
ĠV ÃŃ
Ġ0 5
ĠkÃ© p
Ġd á»ĳi
Ġto ur
Ho Ãłng
ĠV áº¡n
Ġb á»Ļc
ĠS Ã¡u
ĠV lad
Ch Æ°a
ª nh
» «ng
á »«ng
m er
at ar
Ġx Ãł
ĠN LÄĲ
Ġth áº¥m
o ft
Ġ5 9
ĠM us
C á»¥c
Ġmá» ¥n
ĠN TM
á»ĭ t
ĠÄĳá» ¥ng
H á»ĵ
t tp
Ġná» ©t
V OV
Ġgi Ãłn
Ġb á»Ļi
ĠÄĳ áº¯n
ĠL áº¡p
Ġc ar
Ġg Ã£
Ġr anh
ĠT hÃ¢n
Ã Ķ
Ġh iá»ĥn
Ġk iá»ģm
ov a
Ġho Ãłi
T uá»ķi
Ġngh iÃªng
Ġh ttp
ĠB Äĥng
Ġth áº¯c
Ġtá» ĵi
Ġlu Ã¢n
Ġh áº¡m
Ġx Ã¡
c ar
Ġn Ã´n
ho p
ĠCh áº³ng
ĠT ottenham
T Ãłu
Ġlo a
ĠTá» ·
ĠK á»·
Th e
v e
ĠMil an
202 5
Ġr áº½
âĢĿ ;
r l
Ġ6 2
ĠchÃ ©p
Ġng Æ°ng
ĠV á»ĭnh
D Æ°á»Ľi
B áº£o
ĠK Ã´ng
in d
Ġc ua
0 3
is h
ĠCh iáº¿c
Ġl á»Ļc
ĠV iáº¿t
ĠCh iá»ģu
4 1
ĠH Æ°á»Ľng
ĠP SG
ĠchÃ ´n
Ġtrá» ħ
ĠN Äĥng
K á»ĥ
Ġm á»Ļng
ĠÄĲB QH
ĠI V
ĠT uá»ķi
ĠJ ack
G B
ĠW al
Ġ0 9
H N
ĠBay ern
ĠN Ãªn
ĠS ol
ĠE VN
on d
ĠKh ai
ĠÄĳo an
C A
Ġs Ãºc
ĠvÃł nh
ĠD iá»ĩu
ĠTh áº§n
ĠL áº§n
Ġ11 0
vent us
T Æ°Æ¡ng
Ġ eo
ĠF PT
ĠL ib
ĠM ic
th eo
Ġb Ãłng
Ġb áº¥m
Ġl áº·n
ĠM á»¥c
ĠM á»©c
ĠM TV
Ġchá»Ń i
C a
Ġt uyáº¿t
Ġho áº¡n
Ġt Ãª
u z
ĠC EO
Ġc ong
Ġ0 3
» ı
á »ı
Ġ200 6
er r
T Ãłi
Ġrá» ī
Ġgh en
ĠX uáº¥t
Ĥ n
ĠVKS ND
Ġbu Ã´ng
G P
ÄĲ Æ°á»Ŀng
ĠG Ã²
im ir
ĠKh áº£i
t Äĥng
ĠV ND
Ġd áº¡o
H Ã£y
en a
ĠCá» ©
ĠF I
ĠNhÃ ¬n
ĠP a
Ġl áº¯c
al a
Ġd áº¹p
Ġtho áº£ng
ian o
w ood
Ġng oan
Ġl Æ¡
ĠH uÃ¢n
Ġkho Äĥn
Ġx ÃŃch
R iÃªng
ur a
i el
ĠD on
V á»«a
ation al
ĠL á»¥c
en z
l er
L C
ie v
D Ã¢n
Ġph Æ¡i
Æ¯ T
Ġr ung
ĠTr áº»
Ġk araoke
Ġh iá»ģn
Ġs t
Ġm Ã¨o
ĠT R
ur e
Ġhá» ĳ
ill a
Ġ199 0
7 8
Ġch áºŃt
g h
Ġth Ã¡nh
do w
Ġ6 1
n er
ar l
M W
H á»ĩ
Ġd e
ĠUy Ãªn
Ġal bum
ĠTr áº¥n
Ph Æ°Æ¡ng
6 9
K H
ĠV ic
Ġth Æ°a
B áº¥t
Ġl Ã©o
ĠI d
ĠCh uyÃªn
Do anh
6 3
ĠtÃº ng
w w
ĠC T
H u
ĠVlad imir
Ġl Ã¹ng
ĠcÃ´ n
ĠPak istan
C Äĥn
ĠAng el
Qu Ã¡
ĠGr and
id e
ĠV á»ĭ
ĠLH Q
ros oft
Ġnh áº·t
ĠC ung
ĠU td
n y
ĠD iá»ħm
Ġhá»į ng
Ġvá»ĭ t
Ġl ives
Ġan d
ĠB áº£y
ĠT iÃªu
Ġcá» įc
c ed
ĠB TC
q ue
Ġthá»ĭ nh
ĠG áº§n
ĠG re
ch o
s h
Ġm Ã¡
Qu an
i u
Ġcá» Łi
ĠPhá» ķ
ĠK iá»ĩt
Ġb Äĥn
5 2
H C
ĠBl ack
Ġr Ã¡p
j a
Ġthá»§ ng
ĠB á»ĭ
ĠB á»ĳ
ĠGi Ã¡ng
ak e
SC L
Ġr áº¯c
it h
C hi
H Ã£ng
Ġl Ã¡t
Ġtr Äĥng
ĠT X
ĠH an
Ġ7 8
at a
Ãª nh
Ġm Ã²n
ĠS iÃªu
ĠTu áº§n
P hÃŃa
ĠChÃ º
ĠS N
M áº·t
Ġh Ãł
ĠT p
ĠkhÃ´ n
Ġvá» įt
ĠTh áº¥y
ĠT al
Ġl áº·p
I N
Ġs en
M C
» Ĺ
ĠB ID
á »Ĺ
ĠQ uyÃªn
Ġth iÃªng
Ġnh o
ĠBan k
K ho
Ġvá» Ľt
et ro
ĠHN X
Ġh áºŃn
ĠL o
Lu áºŃt
Ġthá» ģm
S ong
thÃ ¹ng
ak h
PhÃ ²ng
ĠS á»©c
Ġsá» ¥p
Tr áºŃn
Tr ang
ed ia
Ġgiá» įt
Ph áº§n
Ġm á»Ļc
us s
ĠT Æ°Æ¡ng
ĠÄĳÃ´ n
Ġqu Ã¡i
Ġd áº¡i
b on
Ġ6 9
Ġtá» ıi
T H
Ġt Æ°á»Ľi
tr a
ur n
ĠM á»Ļc
Ġkh Ã¡i
ĠKh Æ°Æ¡ng
¹ i
Ġb ar
Ġs iáº¿t
5 7
ĠV Ã¹ng
w ei
Ġnh á»įn
ĠQ H
ÄĲ Ã¡nh
ĠQu Ã¡n
ad e
ĠhÃ ²n
ĠÄĳ áº±ng
ĠU N
itco in
ĠM un
NT ÄĲ
Ġl Ã¡ng
Ġ200 5
ĠQu Ã¡
Ġc áº¯n
ĠV iá»ħn
Ġthá» Ńa
Ġkh uy
m ua
ĠArab ia
Ġ ax
Ġ9 2
ĠW ill
ĠG eo
ĠH Ã£ng
M á»įi
ĠDai ly
ĠOn line
ĠS up
Ġbá» ĵn
ĠH Ã¡n
Ġng áº·t
Ġm i
ĠH ua
Ġv Ã£
Ġch ay
Ġt Æ°á»Ľc
at ch
M Ã¡y
ĠM ob
ĠB Ã³ng
M áº¹
ĠA I
ĠSeo ul
Ġng u
Ġx Ã³t
th uá»Ļc
ĠJu ventus
ĠKh anh
er ry
ĠTr Ãºc
ĠC ap
L áº§n
áº· m
an ia
ĠÄĳ áº¯ng
N et
ĠBu Ã´n
Ġnh Æ°á»Ŀng
und ai
m en
ĠR a
ĠCh inh
âĢĿ -
ĠÄĲ Ãłn
Ġr á»Ļ
Q uy
_ _
ĠJ e
ĠH áº§u
C áº§u
Ġt áº¡ng
ĠHÃł m
Ġl Æ°á»¡i
i am
Ã ©c
Ġm an
ĠG en
Ġt Ã¡ng
0 4
Ġs on
ĠF ord
Ġk Ä©
Ġ8 8
ĠN G
ĠghÃ ©
Giá» Ľi
A D
Ġd Ã£y
s u
ĠC AND
ĠIt alia
Ġth áº¡ch
ĠH ay
Ġngá» ¡
ĠIn st
y d
ĠGu ard
ĠÄĳ iÃªn
Ã Ĥ
ĠÄĳ áº¡m
ĠNg uyá»ĩt
ĠB lo
ĠD áº§n
7 9
Ġt est
V á»£
ĠM Ã´ng
TC K
ĠJo e
Ġgi áº¿
Ġrá» ĩt
E R
ĠPhÃ ¹
Ch uyá»ĩn
ĠKh Ã¡ch
ag ram
ĠGiá» Ľi
us e
ĠÄĳ áº¡c
s eo
Ġkhá» ĳc
p ort
Ġd áº¡n
' s
Ġ13 0
ov er
S I
tre am
Ġkho ang
d ar
Ġx Ã´i
ĠG P
7 2
Ġcu á»ĵng
R áº¥t
ĠJ ames
V C
ĠW est
ĠS ai
Ġm Ã¹ng
Ġm Ã¢m
khá» §ng
Ġxe n
áº ¾
ĠThÃ ªm
p er
Ġngh iá»ĩt
Ġk áº¹o
l u
ĠH Ã¢n
M B
ar e
if orn
H á»ĵi
ĠP hÃŃa
ĠT áº¡
ĠW e
ĠÄĲ áº£o
Ġth iÃªu
ĠFI FA
iforn ia
Ġn Æ°Æ¡ng
Ġtr e
Ġnh Ã¡t
ĠK iev
ced es
eal and
er b
6 2
Æ°Æ¡ m
200 9
Ġ18 0
Ġk áº½
ĠO r
Ġn eo
ĠG T
ĠchÃ© o
m i
Ġch áº£
Ġs ex
Ġ j
k y
Ġr ao
ĠMic rosoft
u ela
5 8
ec t
' :
Ng Ã¢n
Ġ a
ote in
Ġx ÃŃ
w ard
ĠE ver
ĠN o
P A
ĠX in
ĠR am
l Ãłm
ĠC Ãºp
Ġg áº§m
ĠL Äĥng
ĠQ atar
ĠC áºŃn
ĠB Ãłn
ĠmÃŃ a
Ġ0 4
9 00
N S
ing s
one y
ĠG a
ĠZ ealand
Ch uyÃªn
ĠÄĲB SCL
N Æ°á»Ľc
Th iáº¿u
Ġb Æ°á»Łi
T iáº¿n
Ġ3 50
c á»ķ
Ġt Ã¹ng
ĠS Ã¢n
V áºŃy
ĠL Ä©nh
5 9
Ġvá» ©t
it al
ĠCN TT
ez uela
ĠT uyáº¿n
T Ã¢n
ĠthÃ¬ a
Ġtá» ĳng
Ľ c
Tá» ·
r en
ch e
Viet nam
et a
ĠC Äĥn
Ġnh iáº¿p
Ġch áºŃu
ĠnÃ© n
l ay
Ġf acebook
Ġg as
Ġ7 6
Ġv áº¡ch
Å© a
Ġvá»ĭ nh
Nhá» Ŀ
Ġmá» ĵi
or s
ĠS w
ĠÃĤ m
Ġl au
Ġv Æ°á»£ng
Ġlo g
ĠB us
ĠCal ifornia
Ġx Ã¡t
ĠÄĳÃ ¨
m ent
Ġt áº·c
ĠM ot
ĠSer g
ĠbÃ¹ n
Ġth áº¯p
ac o
âĢ ĵ
A r
C á»±u
Ġ7 7
Ġm á»ĭn
ĠM Ã¹a
ĠÄĳÃŃ nh
A NTÄĲ
an y
Ġqu á»µ
ĠD r
ĠT Ã¡m
Ġb áº¥y
ĠR á»ĵi
Ġq uyÃªn
and al
Ġrá» ĵng
U V
ĠT ay
Q uÃ¢n
ĠS il
Ġtr Äĥn
ĠÃģ o
Ġg iá»ģng
t á»©c
ÄĲ i
ĠX I
ĠB el
ĠKho áº£n
ĠB i
ĠÄĳáº¿ m
ĠS V
5 4
19 9
s á»Ńa
Ġqu Ã¡t
Ġlu i
el and
Ġng áº¥t
Ġr Ã¡o
Ġh Ãłn
ĠD iá»ĩp
Äĳ á
Äĳá »
-- --
Ġbu á»ĵng
ib ank
M inh
ĠK m
Ġc Ãłnh
N á»Ļi
Ġn Ã¢u
M Ã¹a
Ġ Ãª
Ġv iáº¿ng
áº» m
ĠÄĳá» ĳng
h e
ĠS outh
sk y
ĠTh áºŃt
ĠP an
ĠÄĳá»ĩ m
a ff
ĠN T
U Y
Ġax it
hÃ³ a
Ġvu Ã´ng
Ġn o
Ġem ail
ey mar
ab e
ĠTN GT
Ġc m
ĠK ar
ĠA c
¨ m
Ġng á»įc
Ġd áº·n
y m
and er
K á»³
ĠLH P
ob ot
ĠM Ã¬nh
ĠViet combank
ĠR os
s a
at t
ÄĲ Ãªm
et ty
dow s
ĠT om
Ġ7 9
ĠHua wei
S o
t áº¥n
ĠS l
ĠInst agram
Ġh áº¡ch
ak a
ĠK hÃŃ
ĠTá» ©
ĠC lin
Ġt Ã²
w ay
ĠTrá» Ŀi
c Ã´ng
Ġv áº·t
ĠNh áºŃn
Qu ang
ĠYou T
ĠVen ezuela
áº½ n
Ġ8 6
Ġx á»ķ
Ġkh ao
Ġ199 2
ĠK ur
Ph iÃªn
Ġng áº§n
ĠG o
Ġ9 00
Ġtr Ã¡n
Ġdá» Ĺ
R O
ĠkÃŃ p
Æ ł
g on
ĠK á»ĥ
Ġ200 3
Ġ0 6
M an
ĠS L
ĠM u
j i
Ġkh uáº¥t
V á»ĭ
ĠBID V
y an
» ¦y
á »¦y
at es
Ġ7 1
Ġd Ãło
o z
ĠM áº¡ch
C lip
Ġmá» ī
ig h
Ġs Æ°á»Ŀn
ĠCA TP
Ġpr otein
Ġv Ãº
ĠChÃ ¢n
Ã Ĭ
ĠK ia
Ġgiáº¿ ng
ĠPhá» ĳ
Ġ8 1
ĠGeo r
ĠQu áº£
Ġgi rl
Äĥ k
ĠM Ã¡y
ĠZ ing
Ġkh iáº¿p
m y
V TC
Ġgi eo
ĠÄĳ iá»ģn
Ġn Ã²ng
Ġkhi Ãªu
B áº¯c
ĠI r
w n
Ġch iÃªn
ĠCh áº¥t
ĠS G
ĠÃĤ n
ĠT ech
? âĢĿ.
B A
Ġxo áº¯n
Ġ7 3
X Ã¢y
ĠH a
Ġv an
ThÃ ªm
ĠO ld
ĠM Ãª
n áº¿u
al i
ĠTr Ã¢m
Ġgi áº·t
P ad
ĠÄĲá» ı
ĠÄĳ áº·n
ĠA v
Ġg olf
Q uyáº¿t
p e
Ġr Ã²
Ġn áº¡
t op
ÄĲ á»©c
Ġ200 4
Ġh am
Ġnghá»ĭ ch
ĠCh an
ĠhÃ ©
Q L
ĠB ol
Ġc áº¥y
Ġt Ã³m
ĠVic tor
ĠcÃ ²i
ĠNg Ãłnh
ĠV áº¥n
Ġth Ã¡m
X uáº¥t
ĠB Æ°á»Ľc
ĠK T
t á»±
el e
Ġth áº±ng
ĠHol ly
ĠS á»Ń
Th Æ°Æ¡ng
ĠL iga
S inh
B ÄĲ
ĠTh an
P G
ĠKhu Ãª
ĠÄĲ i
6 4
ch i
Ġs Æ°á»Ľng
ag on
» įng
á »įng
ĠN V
Nh áº±m
ĠC NN
ĠPl us
c hÃ
ĠHy undai
Ġ7 4
Ġh ao
ĠYo ung
Ġ0 8
ĠPh iÃªn
ĠWin dows
let ico
ĠR od
Ġb Æ°u
H Ãłn
Ġg en
Ġn áº¯p
Q uá»ĳc
Ġx Äĥm
ĠN Ãºi
en c
Ph áº£i
est ine
ĠMer cedes
Ġc Æ°ng
Ġs c
Ng Ã´i
N LÄĲ
áº ł
ot h
b urg
ĠSt ar
ĠTr i
Ġ8 2
Gi Ã¡o
ĠG ar
ĠL Ã²
Ġb áº«y
SC O
I á
Iá »
ĠAs s
ĠSh in
D anh
ĠUA E
K im
Ġm Æ°á»Ŀi
ĠB ig
ĠNS ND
Ġl Ã³t
Ġn á»ĳt
ĠÄĲá» «ng
ĠS hi
Tá» Ŀ
ĠG rab
Ġl uá»Ļc
ĠM Æ°á»Ŀi
Hu áº¿
ĠR es
T Ã¢y
s á»ĳ
Ġ8 9
Ġb Ã³c
Ġ199 5
ĠV TC
Tr iá»ĥn
Ġv Äĥng
ĠNS Æ¯T
Ġká» ī
ĠÄĳ iÃªu
Ġn uá»ĳi
on y
ĠJ ose
l us
Ġx áº»
Ġx Ãło
ĠD Æ°á»Ľi
ĠC as
Ġl Ãª
A i
ĠT Ã½
o ck
w e
ĠÄĳÃ ¨o
Ġ áº¡
Ġtr Ãłng
Ġd Ã©p
st an
Ġchu á»ĵng
Ġra dar
Ġn an
Ġh áº»m
L á»ĭch
d e
ĠL Æ°á»£ng
ĠV áºŃt
Ġbá» ©t
l i
ĠC á»ķng
ĠL uÃ¢n
ĠX i
Äĳ Ã£
ĠP aul
ĠMich ael
Ġt áº¡
S A
ĠNg á»į
ĠTh Ã¡nh
o ur
Ġx Ã¡m
Ġtá» ħ
ĠC Æ°
Ġl á»ĳp
8 9
ĠE s
in s
ew s
ĠK y
an c
ĠV á»ĩ
en ko
ĠYouT ube
ĠJ on
ĠO m
ĠW ar
Ġch iÃªm
S ao
Ġchu Ã´ng
Ġb Æ¡
5 3
ĠClin ton
Ġqu áº§y
ĠA z
Ġ ?
ĠT a
ĠT hÃŃch
ĠAg r
E M
Ġnhá» ©c
Ġgá» «ng
aff ord
Ġngh áº½n
ĠchÃ¬ a
ay a
ĠPal estine
M á»¥c
Ġkhi Ãªm
ĠMun ich
ĠM B
ell a
ĠM iá»ģn
ĠÄĳ Å©a
ĠThá» ©c
or m
ĠV á»«a
az a
ĠNg á»¯
H ÄĲ
Ġl á»Ļt
Ġgi ang
er g
Ġ8 7
Ġ8 3
áº¿ ch
200 8
m l
ĠC Ã¡n
Ġ9 6
E P
ĠO p
Ġr obot
an ce
ĠBr un
Ġn Ãłn
is e
Ġtá» ¥t
ĠTr afford
t s
Ġ9 1
TN O
Ġ9 7
Ġá» §
ĠKh uyáº¿n
Ġkh an
ĠJ enn
ĠS á»Ńu
ĠO ne
ĠnghÃ ªnh
ĠT áº¡p
ch Æ°a
ĠLan d
ĠkhÃŃ a
Ġx oa
ch iáº¿m
Ġ199 3
ĠTh áº§y
n ik
ĠT ik
H áºŃu
ist ics
ĠC á»ĳ
Ġt Ã¡m
Th áºŃt
i y
Kh Ã¡ch
ĠChr ist
ĠphÃ ¬
Ġnh a
ĠKhá» Łi
b i
ĠM ax
ĠN D
ĠN eymar
S áº£n
Ġc or
Ġ16 0
K inh
Ġ8 4
Ġb áº¡
Ġ áºŃp
Th áº¥y
s al
¥ a
Ġkhuy a
ĠTh áº¥t
ĠM áº«u
į i
ĠM Ã£o
ĠHolly wood
ĠP at
k ok
Ġl á»¯
r ol
ĠÄĳ un
ĠW on
Ġr ong
Ġv Ã¢n
ĠmÃ¬ n
Ġtr Æ¡n
it s
iv al
u el
Ġho i
Ġr Äĥn
n ational
TT P
Ng oáº¡i
ĠbÃ³ p
Ġv Ä©nh
Æ¯á» Ľc
ĠHá» Ĺ
ĠB Ã©
ĠE a
ĠB itcoin
Ġ Ãºt
ĠP H
Ġá» ¨ng
ĠMar t
ĠÄĳÃ ¹i
ĠViet in
ĠL áº¡i
ĠÄĲ Ãªm
ot o
Ġkho anh
Ġv Ã¡n
ĠHar ry
ĠS n
Ġ14 0
ĠHo áº¡t
áº¿ m
âĢ¦ ,
z o
Ġl Ã¡nh
ĠN ov
c Ã¡c
is hi
ĠP ep
om e
Ġqu áº¡t
Phá» ¥
ĠG etty
ĠÄĳ áº¯m
Ġ Æ°á»Ľt
ĠghÃ ©t
Ġm Ãłi
Ġn áº¥y
Ġnh á»Ļn
Ġg áº·t
Ng á»įc
es h
Ġ199 7
Ġbá» ĵ
7 6
Th Æ°á»£ng
ĠphÃ ´
Ġv áº¥p
az on
ĠM Ã¹i
th Ãłnh
Nghá» ĭ
ĠThu á»Ļt
ĠP ost
ĠNg Ã´i
Giá» Ŀ
ĠÄĲ áº¯c
el s
ĠAt letico
Ġm ini
S iÃªu
e ing
ĠL á»Ļ
ĠHá» £i
ĠhÃ ©t
Ġ199 9
ĠCr im
ĠchÃ ¨o
Ġr á»ĳt
Ġs Æ°ng
ĠS UV
Ġ200 2
ĠQu á»·
ĠLib ya
ĠL á»¯
Äĳ Æ°á»Ŀng
5 6
ĠF lor
ĠK l
Ġ199 4
Ġx uÃ´i
Ġx Ã¬
Ġch iáº¿t
ĠCh iá»ĥu
Ġ( +
ÃŃ p
Ġt ia
L Ãª
ĠC á»±u
g a
ĠN et
ĠC ro
F TA
b in
Ġl Æ°á»Ľt
Ġlá» ¥y
» ģn
á »ģn
ĠPh im
Ġchu i
Ġ /
ĠV á»£
ĠK S
K V
ĠH Ãło
ĠT inh
ĠÄĲ en
ĠÄĳ an
ĠT á»ĭnh
z a
g r
id a
ĠK u
ÄĲ Æ¡n
ĠM Ãł
M S
y n
OS E
ĠJ ord
uk i
Ġv iá»ĩt
ĠC om
Ġb Ã´i
ĠG old
ab a
ĠB MW
Ġg ai
Ġg áºŃy
ĠCh uyá»ĩn
Ġchá» įc
er son
ĠX K
ĠNg Å©
ĠB ill
Ġsá» ıi
ĠSH B
Ã¹ y
p a
ĠO ai
ern and
ĠT Ã¡o
ĠC O
Ġb lo
Ġ12 5
ĠR ang
Ġph áº³ng
Ġch Ã¡o
tr Ã¡i
Ġl áº«y
k s
Ġl á»Ļng
ĠCá» §
ĠSL NA
ÄĲ Ãºng
ĠÄĲ Ã´i
ĠRob ert
ĠH ill
, âĢĿ
ĠB Æ°u
ĠâĢ ¦
ĠJ i
Ġcá» Ĺ
C Ã¡i
Ġs et
ĠK o
c us
ĠTM CP
ĠV ua
Ġ199 1
Ġkhá» ī
ĠL ou
Ġbá» ī
al e
Ġ am
ĠC áº£m
D u
ĠV ina
Ġs áº§u
ĠCh a
Ġth on
ĠM el
Ġxo Ã¡y
ĠBar ack
ĠCrim ea
ĠInter national
Ġb Ã¡u
Ġ9 3
ĠD a
Ġq uyá»ĥn
ĠL ang
Ġt am
Ġ Ãºng
Ġthá» ĳi
ĠC Ã¡
Ġ11 5
us tin
t is
ĠBang kok
ĠPhÃ ¢n
Ġi Pad
Ġt áº©u
Ġ199 6
Ġm Ã¡c
ĠT D
Ġcá» į
ĠthÃ ¨m
Ġ Ã¢u
Ġngá» ı
ĠV Æ°á»Ŀn
Ġc áº©u
Tr Æ°á»Łng
Ġgi Ã²
ĠT y
Ġchá» ĳn
ĠPhá» ¥ng
Ġx ay
ĠS Ã¡ch
Ġ Ãªm
ĠCh arl
Ng Ãłnh
o ut
ĠH ung
Ġl Ã¡ch
Ġx Æ°á»Ľng
T hÃŃ
b Ã¡n
l á
lá »
l an
PhÃ º
ĠV ang
Ġb Ãºn
ĠÄĳá» ĳn
ĠNhu áºŃn
Ġch Æ°ng
Ġn á»Ļ
ĠT á»Ľi
Ph Ã¡p
5 1
ak u
ĠS im
ĠMar tin
ĠV áº¥p
ĠSup er
in t
Kh Ã¡nh
Ġ0 7
n Ã³ng
9 2
Äĳ áº¡i
ĠV ol
Ġt Ã¡t
ĠR ich
d r
es el
ĠC Ã¢y
V áº¥n
! âĢĿ.
B V
ĠThá» Ľi
T uyÃªn
Ġng Ãłng
ĠP u
Ġg u
ĠL i
Ġ200 1
C Ã¢y
Ġ198 2
Tá» īnh
ĠB or
ĠN or
ĠJ un
ĠBl u
Ġd ai
Ġqu áºŃt
ĠIn d
Ġs Ãłnh
ĠH Ã¨
Ġcor ona
Ġm áº¯ng
ĠAn ton
Ġt áº¥p
T O
ĠAgr ibank
Ġx áº¯n
! !
ĠT Q
ĠÄĳ inh
Ġr á»ķ
ĠL at
Tr áº§n
F C
7 3
ĠÄĳá» ¥c
ĠKh áº£
ib an
Ġm Æ°Æ¡i
ĠL Ãłng
ĠAP EC
ob al
) âĢ¦
g g
ĠÄĲ am
ĠBlo om
ĠE ur
ĠchÃ© n
ĠTh áº©m
Ġl ung
ĠC Ã´n
B TC
ĠAm azon
Ń ng
Ġrá» ¥i
P GS
Q S
g ia
Ġngo áº¡n
eg a
ĠT Ã´ng
Ġgi Ã´ng
ĠVN PT
B á»©c
Ġt i
ĠChá» ¯
Ġv Ã¡c
Th áº§y
T uáº§n
Ġ198 0
ĠNgh e
ĠL áº§u
Ġd iá»ĩu
W h
os hi
Ġ199 8
Ġm áº¡
Ġr áº«y
ĠB Ã¢y
ĠÄĲ Ãºng
ĠWill iam
if e
Ġl am
ĠD am
Ġlá» ¥a
ÄĲ B
v i
Ġgi Ã²n
T Ãªn
M P
CO P
il le
ero in
az da
ĠchÃ ¹m
H iá»ĩp
s o
Ġm áºŃp
T á»Ń
6 1
Ġt áº¥u
ĠM e
Ġch en
ĠN Æ¡i
ol i
Ġ202 4
op a
m und
ĠGi ai
y e
ĠCol om
Ġc Ã¡m
Ġsc andal
lo w
ĠB L
us t
k ho
SN N
pr ess
M á»©c
ĠÄĲ áº±ng
ac om
ĠL ED
ÄĲ á»Ļng
Ġng áº«u
Ġb áº¡t
Ġt em
ĠU r
sk i
Ġs Ã¢m
» Ĺng
á »Ĺng
T Ã¡c
Ġcho Ã¡ng
ĠP ow
ĠR á»ĵng
nh Ãł
Ġg á»ĳm
Ġthá» īnh
is a
ĠV II
Ġ Ãł
G ÄĲ
ĠC R
ĠN at
ĠC en
Ġg áº¡t
Ġd áº»o
v an
K iá»ĥm
Ġ( -
ĠbÃ© n
C Ã¡
ĠKhÃ ´i
ĠI P
Ġhá» ĳt
Ġd Æ°ng
ĠcÃ´ i
ĠAs ian
ÄĲá» «ng
Ġá» §i
ag en
iv i
B á»Łi
A I
ĠÃģ i
Ġg áº¥u
ĠOs car
ĠC áºŃu
Ġmu á»Ĺi
Lá» £i
ĠNgh iÃªm
Th iáº¿t
ĠY Ãªu
og ba
ĠR áºŃp
ĠJord an
ar m
ĠS tr
ĠB áº£ng
Ġr Æ°á»Ľc
ĠM áºŃu
ĠthÃ ª
B Ã©
it a
ĠBo eing
âĢĿ âĢ¦
ĠAb e
Ġl Ã©n
Ġh eroin
am il
er m
ĠW all
ĠTr áºŃn
Ġbá» ĩ
ĠH áº£o
Ġ Æ°á»Ľp
Ġl Ãºn
ud i
ĠL Ã¢n
Ġrá» ¥ng
Ġká» ĩ
ĠV Ã²ng
ĠN ote
7 4
ĠA TM
M á»Ł
c i
B áº±ng
Khá» Łi
ĠNg Æ°
Ġngu á»Ļi
Ġqu áº¥y
as er
ĠG B
g ar
P hi
r is
r ov
Ġnh áºŃm
PhÃ ºt
em en
Ho áº¡t
Ġr Ã¡ch
G hi
ĠK áº¡n
ĠÄĲ Ã¡
Ã² m
c á
cá »
Ġ197 5
ĠI m
ĠL os
ĠÄĲ Äĥk
ĠW HO
M Ã¬nh
ĠCh áº¿
ĠhÃ£ m
X in
E SCO
ĠVH TT
V T
ng á»¥
ĠJ in
ĠR ed
est ival
ĠÄĲ á»ĵ
s iÃªu
Ġv Ã¡ch
ĠUn iver
ĠT á»ĳ
ĠF LC
ort mund
ĠTh o
pp o
ĠMo ham
Ġhttp s
Ġi OS
gi áº£m
Ġb Æ°á»Ľ
Ġh Äĥng
Ġnh Æ°á»£c
ĠAN TT
os h
iel d
Ġl Ã¬
S E
ĠTr Ãłng
Ġ198 9
Ġb ong
Ġsu Ã½t
Ġk eo
Ġh Ã¡o
ĠÄĳ áº¥m
ĠC u
Ġm Ã´ng
ĠX IV
Ġx oÃłi
Th áºŃm
ĠT Ã¡c
o id
Ġ198 8
Ġlog istics
ĠSai gon
Ġ4 50
ĠNhÃ ¬
Ġcu á»Ļn
Ġs áº¥u
r es
ĠNhÃ ¢m
A C
ĠD ani
7 1
ĠK i
ĠX em
ok ia
k ov
Ġná» ©c
Tr uyá»ģn
Ġnhá» ¥c
M á»Ŀi
Ġt áº£n
V Å©ng
ĠB R
T ok
Ġg áº§y
hi p
Ch u
ĠTal iban
ĠTr á»±c
ĠPhÃ³ ng
ĠÃļ t
8 6
Ġph áº«n
ĠBloom berg
ĠH iá»ĥu
Ġm ÃŃt
ĠH Ã²n
Ġr áº¡ch
ĠG Ã³c
Ġ uá»ĳn
c el
ÄĲ iá»ĩn
ĠDo Ã£n
Ġrá» ħ
T Ã¬m
i um
Ġcá» ĳi
Ġnh iá»ħu
it t
Ġx Ãłi
pp er
Ġs er
d an
ĠJohn son
ĠQ U
Lá» Ŀi
tr Ãº
I T
chá» §
ĠN áº¡n
ĠC os
o C
âĢ¦ âĢĿ.
ĠB Ãłng
ĠV Æ°á»£ng
ĠM ag
ĠColom bia
Ã³ p
Ġb Ã£
ĠV CK
ĠHy un
Ġsá» į
Ġk iÃªng
ĊĊ Ċ
ak i
ĠS m
Ġm Æ°Æ¡ng
ĠT uáº¥t
ĠD is
1 50
ĠL iá»ĩt
Gi ao
ĠThÃ ¬n
Ġx áº¥p
ĠC anh
Ġ hÃŃ
nh á»¯ng
ĠMai l
Ġho Ã¡n
Ġt Æ¡
Ġbá» «ng
âĢ¦ .
b or
ut nik
a ch
Ġ10 8
ĠB Ã¡t
ĠS ky
c Æ¡
Ġn uá»ĳt
ĠP le
Ġná» ĥ
ĠM ed
ĠM Ã³ng
Ġch áº£o
ist iano
M O
Ġt áº¡t
im es
ic ester
s s
Ngh iÃªn
Ġtá»ĳ p
ĠX Ã¡
i ola
Ġ9 4
Ġ2 20
ĠF A
Ġ17 0
ĠD áºŃu
ĠNg Æ°á»£c
Ph áº¡m
Ġmu Ã´n
d inh
Ġb áº©m
Ġhá» ©c
ph áº£i
Ġb ik
x e
thá» ĭ
nh Æ°
ĠKur d
L ong
ĠB ern
Thá» ĳng
Ġv Ã¹i
k i
n i
Ġx á»ĭt
and a
ĠKr Ã´ng
Ġcá» Ľ
am e
ĠS E
Ġtrá» ĩ
C á»©
H Æ°á»Ľng
ÄĲ oáº¡n
ĠP T
ĠphÃŃ m
Ġd iá»ħu
ĠTá» Ŀ
od y
Ġlá» į
Ġchá» įi
H áº§u
Ġv Ã©t
ĠC at
l ing
Ġcan xi
ĠB in
ĠM W
Ġhá»ķ ng
TP O
D P
ĠS A
Ä ĳi
V Å©
ÄĲ H
ĠT or
ic ron
) ...
b y
ĠJ er
g á»ĵm
et ing
Ġl iÃªng
ĠL oáº¡i
Ã Ŀ
ĠCh áº¥n
ĠK ing
ex it
p age
Ġbá» Ľi
Ġph ao
n es
ĠMar ia
» ħ
á »ħ
ÄĲ á»ĭa
ĠGre en
Ġrá» Ľt
Tr Ã¡i
L o
ĠR áº«y
ĠL av
ĠT el
Ngh e
ĠP ogba
Ġ ...
ĠÄĲ iá»ĩp
ĠH áº¡t
Ġmu á»Ĺng
E S
ĠM H
Ġth áº¡c
Äĳ Æ°á»£c
ĠA sia
ĠN ig
Ġdi esel
ĠL iá»ĩu
ĠH al
Ġn áº£n
O C
ĠJ ung
Ġá» ©
ĠV Ä©
Ġx Ã©
u ck
il a
B iÃªn
B uá»ķi
Ä Ĥn
S á»©c
ĠP o
ĠS i
ĠP ol
Ġt ao
ĠS ir
Ġr Ã¢u
ik u
ĠChÃ ¹a
ar us
ĠC M
Chá» ©ng
ĠQu Ã¡ch
ĠL im
ĠB áº§u
H Ã²a
id er
d er
Ġnh Ã´m
Ġ198 6
Nam Net
ĠPhÃ ºt
ĠD an
c ast
Ġn Ã´
D á»ĭch
Ġ áº¡t
os s
ĠAl l
ĠD inh
S áº½
ĠHo an
N Ã¢ng
ĠLá» Ľn
Ġv Ã²i
Ġn áº¡o
ĠHy e
Ng hi
Ġsex y
ĠX Æ°Æ¡ng
ĠGl obal
Ġd Ã¬
ĠNg uy
ĠD ortmund
l l
at ia
Ġ Ã³c
Tr iá»ģu
t u
ĠO COP
, "
ĠR i
Ġqu i
phÃ ºt
8 2
Ġl áº©n
Ġnh á»įc
ĠV u
8 4
Äĳ á»ĳi
v el
ĠB Ã¡n
ĠC Ãºc
im ex
C áº·p
F ast
l Ãł
Ġ10 5
Ġn Ã¡o
... ,
p há»
ar ez
ai r
ĠT áº¡o
t uáº§n
Ġphá» Ł
ĠUN ESCO
Ġkh iáº¿m
Ġy áº¿n
Ġkh ang
chá» ī
r ic
ĠH Æ°á»Ŀng
Ġtr iáº¿t
ĠgÃ³ t
B I
ut sal
ĠR AM
ĠM azda
ĠR T
B Ãłn
X D
ĠSu z
º p
Ġ áº¤
Ġlives how
PhÃ³ ng
k in
âĢ ¢
Ġm iá»ĩt
ĠthÃ ²i
ue z
ĠLou is
Ġgi Ã£
ĠQL TT
B á»ĳ
ĠMo on
ĠM áº¡c
ĠB Ã£i
ĠH OSE
el le
M áº«u
t ion
ĠM áº«n
ĠÄĳ áº«m
b rid
ĠT eh
ĠM ur
B áº£ng
b ra
ĠGuard iola
ĠchÃ³ t
Ġ198 7
Ġtr Ãªu
ĠL G
ĠF l
do gan
ĠA CB
ĠM ir
Ph ong
ĠZ h
Æ ¯u
ĠAm er
ĠOm icron
ĠÄĳ u
ĠN SNN
Ġnhá» §
se y
ĠB T
ĠT ur
ĠYo ut
Ġ 00
en ce
C Ã¡n
Ġnh Ã£
ĠV n
Ġth en
ĠB iáº¿t
T áº¿t
Ġt ivi
ĠN av
ID S
ĠT Ãªn
Äĳ iá»ĥm
ĠR ON
Ġd ang
et t
C L
ĠÄĲá» ģn
ng uyÃªn
Ġr Ã£
Ġcar bon
ĠE V
ov e
T Ã²a
om as
ĠB áº¯t
L Æ°u
Ġr áº¡n
Ġt áº¡c
ĠTH A
m ail
Ġthá» ¥c
Ġb Ãº
ĠLHP N
M A
C áº£m
ĠÄĳÃ ²
ĠK e
Ġk Ã¬m
ĠS uá»ĳi
ĠcÃ µ
ChÃ º
r ig
8 3
ĠD Æ°
ĠTh iÃªm
ĠT Ã¬m
ĠS ar
Ġph Ãł
» «
á »«
Ġn i
b e
Y Ãªu
Ġm od
ĠA h
ce an
ĠB ao
ĠS ev
Ġs áº¥y
ĠL au
ĠbÃª nh
Ġ á»ĵ
Ġl en
Ġbik ini
Ġng á»Ńa
Ġh it
k er
ĠO l
p op
Ġn ang
i F
ĠM uá»ĳn
Ġb o
k va
Ġsá» «ng
ĠMi ura
ĠPh Æ°á»Ŀng
Ġng Ã¢y
r ed
Ġvá» Ĺ
Ġngh áº¹n
ĠN ex
S V
ian a
ĠChÃ ºc
Ġng áºŃm
+ )
Ġm á»ĳt
ĠT hÃŃ
H ay
Ġd áº¥y
v en
f e
ĠN m
ĠP e
k aku
gi áº£i
u ay
X B
ĠAF C
k el
ap top
ĠM Ã´
ĠHá» ıa
200 7
ĠB CH
ĠSp utnik
Ġsá»Ł i
Ġ198 5
E F
Ġnh Ã¡i
Ġt Äĥm
N áº¡n
Ġnhu á»Ļm
ĠU ber
V i
w a
ĠUS S
ĠTeh ran
ed a
ĠAb d
Ġng áº¡t
ĠF ernand
c Ã´
ĠChÃº a
ĠD ong
ass age
ĠLe icester
ĠS ha
ĠÄĲ á»Ļc
os a
ĠT uyá»ģn
ĠBe ck
V Ã²ng
ĠT CT
ĠW il
ĠBr exit
ĠS C
ĠF in
ĠCh Äĥm
ĠO DA
L Ãło
ĠK yo
Ġb á»±c
ĠIn f
ĠbÃ¬ a
ĠTP P
ĠD iÃªn
ĠD Ã¹ng
im e
ĠSG K
X Ã©t
Ġ Ã¡
ĠJ ae
ĠÄĲ Ã´n
el en
ix el
ar o
l es
c Ã¹ng
ĠY emen
ĠN ik
Ġnh uyá»ħn
K CN
ĠNh Ãłn
K iáº¿n
ĠVictor ia
s ter
Ġgi áº·c
ĠH un
Ġ Ã¡ch
og a
ĠB BC
Giá» ¯a
ph u
ĠTik Tok
ĠId ol
v o
ĠN ic
ÄĲ Ã´ng
á»ĩ t
ĠMos kva
Ġnh á»ĭn
ĠAnd re
Ġr áº§m
ĠBel arus
Ġ12 8
P EC
Ġth áº£n
ĠKr em
Ġh Æ°ng
ĠV o
ĠÄĲá» Ŀi
Ch áº³ng
Ġr un
es la
Ġph Ã¡c
us h
ĠI a
ĠNgh iá»ĩp
L Ã¢m
ĠD j
Ġngá» ©a
Ŀ n
Ġv áº¯t
ĠCh áº¯c
Ġn á»į
Ġh áº£
H y
ĠK Ã½
ĠL Ã´
ĠT an
ĠÄĳÃ ºp
P him
ĠD Ä©
Ġg Ãµ
ĠN okia
Ġngo áº·t
ĠR anh
tr Ãªn
Ġnh Äĥn
Ġ |
ĠB ur
ĠT uÃ¢n
ĠYout ube
8 7
h Æ¡n
t Ãªn
ĠN iÃª
ĠCh ina
ĠAr t
Ġchá» ¯ng
Ġnh á»ĵi
ĠM b
k ara
ĠRo oney
ĠCr istiano
ĠU Ã´ng
V áº«n
j et
ĠV Ãłnh
op p
? âĢĿ
Ġlá» Ŀ
K áº¿
ĠPl ay
ĠNh áº¡c
ud e
ĠH Ã³c
Ġd Ã¨
Tr á»Ł
iss an
AS A
Ã© m
ĠcÃ ºc
Ġr Ã¹a
K hÃ³
Ġm iá»ĩn
ĠKS ND
ik a
em a
Ġth áº¡o
Ġbá» įt
T U
Ġc Æ°á»£c
CC I
n á»¯
» §
á »§
al k
ĠthÃŃ nh
ed an
Th iÃªn
Ġbá»ĭ t
v Ã¹ng
ĠF estival
Tr áº»
ĠnÃ³ c
X Ã¡c
ĠEU RO
ĠAng ela
T á»±
B H
ĠFran k
ĠA C
en e
Ġd Ãª
Tá» «ng
Ġ198 4
ĠPle iku
ester ol
Ġtá» ¥y
Ġ hÃ´ng
ĠKrem lin
Ġs áº¯n
ĠC omp
ĠF ir
ĠSon y
ĠhÃŃ t
ĠN ay
h iá»ĩn
Ġlo go
m o
n ay
ĠC Q
ĠAngel es
H Q
Ġgiá» ¥c
c ao
ĠS X
tre et
Ġkho Ã¡i
ĠmÃ£ nh
ĠT Æ¯
ĠNT K
Ġtrá» įt
ĠB Ã¨
ĠÄĳ áº£
E N
ĠTr Ã¢n
A l
Ġt Ãł
ĠX á»Ń
if er
Ch uyáº¿n
Ġc áº©m
ĠMod el
ÃĬ N
? ".
ĠL ion
ĠTr áº¡i
D Ã²ng
Ġl Ãºng
ĠO cean
ÄĲ ang
Ġl Å©ng
ĠS Ã©c
ce p
ĠÄ Ĥn
ĠM Å©i
NH NN
ĠLá» Ŀi
U S
ĠvÃł n
Ġ Æ¯á»Ľc
ĠV ir
ĠTh omas
ĠCh Æ°
ĠM ong
ĠCro atia
am i
q ua
Ġx Ã¡o
Ġb Ãºp
Ġthá» ĳn
ĠX Ãª
s i
ĠW hi
Äĳ Ã¡nh
Ġkh áº¯t
il on
ÃŃ u
app e
ĠH uáº¥n
ĠEver ton
Ġg á»Ļp
ĠY ang
C hÃ¢n
Th i
ĠH en
ĠIr eland
Ġd áº¡t
U B
ĠT ex
Ãµ m
ĠN ad
Kh ai
ĠS á
ĠSá »
ĠAn kara
ĠBer lin
v Ãł
Ġ ac
m it
ĠMus k
Ġlives tream
ĠS T
Ġ197 0
Ġ3 60
Ġj e
ĠCh uyá»ĥn
K D
acom bank
ĠTr Ã¬nh
ĠW at
ĠHung ary
H Æ°Æ¡ng
ĠD O
ig n
ja er
Ġc alo
ĠG iÃªng
Ġn Ãªm
T ÄĲ
t hi
T á»Ľi
Ġs áº¿p
ĠJ an
ĠChi le
Ġtho a
ĠÄĲT QG
Ġl i
Ġg Ãłng
ĠV á»¹
at o
eng er
t ic
X uÃ¢n
ĠR áº¡ch
ĠN e
Ch ung
h Ãłng
S h
V iá»ĩn
Ġv iá»ģn
ĠG V
Ġ1 000
ĠD ie
C á»ķ
Ġg Ã²
I P
ama ha
Ġh áº¥u
W HO
ĠnÃ³ n
ĠGiá» įng
Ġx áº£o
ĠT esla
w on
ĠM ah
R onaldo
GD VN
ĠGP MB
Ġng uyá»ĩt
Ġh Ã¡n
ĠB TS
S Æ¡n
Ġchá» £t
Ġcho l
ĠNo el
d en
ĠT C
Ġsu Ã´n
ĠÄĲ áºŃu
ur i
ĠD ub
et sk
al and
ĠD ao
ĠFran c
k ÃŃp
Ġv Ã´i
Ġchá» Ľp
ĠPh áº£
9 6
ĠKh Ã¡m
Ġg Ã¢n
ĠGeor ge
ĠHo áº·c
Ġm assage
ĠTr Ã£i
ı m
ĠF ox
ch iáº¿n
am b
ĠHar i
Ġtá»ī a
g in
ĠT á»ĳng
Ġl aptop
ÄĲ Ã´i
DC ND
av e
N K
sk jaer
ĠRod rig
Ġtu i
j an
Ġn áº¿n
ok ovic
Ġtr Ã¹
ĠA TTP
os ter
8 1
S á»Ń
ĠH ag
NLÄĲ O
ad i
ĠCh ia
T uyá»ĥn
ĠGa al
Ġ áº©u
Ġd áº·m
Ġs Ãło
Ġchol esterol
Ġgi áº±ng
Ġl iá»ħu
ĠEr dogan
M U
» ¡
á »¡
ĠTá» µ
at i
C Ãł
ĠcÃº i
ĠN áºŃm
man n
le c
ĠM ike
im bank
H á»ĵng
ad o
ĠCos ta
L A
ib aba
S t
l áº§n
ĠCá»¥ m
ĠS ec
TP HCM
ĠS el
D á»ĭp
ĠK a
h ai
p s
ĠXi ao
Ġc Ãło
ĠH er
Ãº m
Ġnh á»ĭ
Ġ198 3
ĠF ab
s á»±
Ġ20 50
ĠB os
Ġru á»ĵi
Ġmá» ³
Ġb Ãºa
Tr áº£i
ht tp
Ġgh e
C ao
ĠA ward
f ield
ĠÄĲ Ã¡nh
ĠThá» ıa
er y
Qu áº£
ĠB ro
* *
ĠB Ã´ng
ĠÄĳ ao
M Ãłn
Ġl á»±u
ĠSer ie
Ġng áº£
ĠCh Äĥn
Tr Æ°a
ĠR ap
ol e
p hi
N V
ĠP VN
Ġkhá» ĳn
Ã Ĳ
Ġ10 3
ĠVin Fast
ĠH aw
ĠM áº¡ng
ĠK az
ĠT uyá»ĥn
V P
R a
X á»Ń
Ġtr Ã¨o
ĠcÃ ²
Ġtr o
ines s
Ġg á»Ļi
ĠG ea
ĠKh mer
Ġb áº»
amil k
Ġtr á»ķ
ĠAS IA
há» įc
2 50
tr ess
h ot
ur y
Ġto a
Ġv un
ĠL in
Ġng Ã¡n
Ġr Æ¡m
Ġqu áº¿
Ġl ay
ĠM áº§m
Ġqu áº¥n
ag es
Ġng Ãłi
ĠJon es
T op
Æ°á»Ŀ m
ĠV ideo
ÃĶ NG
H en
ĠN i
ĠV Ã´
Ġr áº£nh
Ġkhá» ıa
Äĳ oáº¡n
Ġtr au
ag h
ĠM á»Ł
Ġc Ãły
Ġ =
ĠM Ã¢y
ĠS and
ĠCH QS
Ġr ang
s au
ĠCar l
M uá»ĳn
Ġqu áº¥t
z y
ak ar
Ġth áº¯m
ĠhÃ³ c
Ġ11 3
ĠF err
ĠChá» ĵng
ĠMer kel
ĠN ap
» ¨ng
á »¨ng
M ar
b Ã¬nh
Ġto an
ĠNhá» ±
ĠTT HC
ĠT Æ°á»Łng
d or
ĠVietin Bank
B ar
Ġqu á»·
cast le
ĠS áº½
Ã¨ m
d am
B enz
Ġc Æ°a
Ġph áºŃt
ĠC á»±c
ĠPh u
ĠPhá» ¥c
if t
ĠA M
ĠBal e
tr o
art up
d u
Ġ197 9
Ġ10 1
ĠDN NN
ĠkÃ¨ o
V ÃŃ
KT ÄĲT
Ġsáº ¹
ĠC DC
cá» §a
Ġph Ãłn
ĠT ai
ĠI M
as e
ĠK en
Ġgi Ã¡ng
Ġl Ã¹m
ĠAlex ander
ĠMot or
ĠVP F
ÄĲ K
ĠL Ã£o
ĠV illa
Ġlá» «ng
Ġsáº¹ o
ag o
H uyá»ĩn
E T
N áº±m
ĠÄĲ Æ°a
Ã² e
ĠN K
I áº¾
ĠCN VC
ĠEur opa
ĠSu arez
ĠTr anh
Ġthá» ĳt
ĠSuz uki
ĠD Ã²ng
ĠFlor ida
ĠAl ibaba
ĠJ ul
ĠTh iá»ĩu
__ __
f i
V Ä©nh
Äĳ áº§u
ĠTo áº£n
ĠDon etsk
ĠN XB
m Ã£
ĠCH DCND
% );
ab y
ĠDam as
ĠÄĲ á»ķi
Ġv Ã¡
ĠS M
it an
Ġr áºŃp
V in
ĠPh Ã¡o
ty le
ĠTh Æ°á»Łng
M Ã´
Ġg áºŃp
ÄĲ áº¡o
C áºŃu
Gi ai
re am
Ġch áº£nh
M ua
ĠMb appe
i us
th u
ĠÄĳ Ã¡i
Ġro ck
w an
Ġl Æ°á»£n
ĠD A
Ġqu á»³
Ġ24 0
ĠL iá»ħu
ĠL Ã¡ng
UY á
UYá »
9 7
ĠT TCK
Ġ á»ĳp
ĠNig eria
ĠIn s
Th Æ°á»Ŀng
9 1
ÄĲ áº£ng
ĠChu áº©n
ĠI l
Ġbá» ĵng
P hÃ¢n
E L
st ar
Ġ )
ĠR oy
ub ishi
ĠN Ã¢ng
Ġmá» §
ĠW enger
Ġk iÃªu
Ġx Ã¹m
ĠPow er
re y
ĠM ang
ĠE c
ĠS how
ĠA udi
e am
ain t
ĠBr ent
ĠQ R
Ch a
ĠTex as
D Ã¹ng
á»į a
ĠPh áº¥n
T Ã¢m
ĠUA V
Ġlo Ã©t
ĠU ng
C á»ĳ
ĠI bra
ĠSol skjaer
ĠTh áº¯m
Ġr Æ°á»¡i
ĠBá» Ŀ
kh u
v es
ĠAss ad
ĠX X
E x
Ch inh
ell i
ÄĲT B
ĠC áº§m
its ubishi
Ġs im
ĠDamas cus
R eal
Ġ [
Ġ13 5
b áº¯t
M Æ°a
Ã ļ
S am
ĠS in
ĠKh iÃªm
Ġbá» «a
ĠS oo
TV N
9 3
ĠQu á»³
ĠTr Ãłm
Ġh u
Ġm Æ°á»£t
áºµ n
C áºŃn
ĠA ut
ĠS acombank
b us
Ġtr Ãºt
ar do
Ġthu á»Ł
ĠA R
ĠCap ital
Ġm iÃªu
Ġn ilon
f l
ĠRom a
ĠAle ppo
v á»Ľi
L áº¥y
ĠT ae
if f
Kh Ã¡c
ro p
abe co
ho áº·c
ĠTD TT
l ott
Ġh ack
N inh
iF one
ĠG ÄĲ
Ġ10 2
ĠNg hÃ
Ġvá» Ŀ
ĠGiá» ¯a
ĠL S
th áº§n
ĠM P
Ch uyá»ĥn
ĠTh ao
M ai
E FA
it ion
Ġs Ã²ng
es l
Ġv Ã¡ng
ĠDani el
ĠHo ld
m ed
ĠL Ã£ng
ĠD es
Ch elsea
ĠK hÃ³
A F
9 4
E X
Ġnh á»ĳt
Ġl Æ°á»Ŀi
á»ķ n
Ġf or
Ġ áº§m
h r
g áº§n
amp ton
Ġrá» Ĺi
n ing
ĠÄĲ á»ĳc
ĠTr á»¥
ĠEx imbank
ĠV OV
Ġm iÃªn
Ġl anh
Ġca bin
Ġvá»¥ n
ÄĲ Ãłi
Ġ áº¥u
ĠL ad
I NH
Ġm au
Ġ Æ°ng
Ġká» µ
ĠTay lor
TT S
ĠB ul
ĠWal es
ĠViet NamNet
t á»ķng
ĠS ung
Ġ202 6
t en
Äĳ á»ĵng
ĠASIA D
N Ãªn
ĠGi Ãłng
b ek
iz er
ĠB uá»ķi
er e
k hÃ³a
ĠÃ įt
ĠN ob
ĠFed er
ĠvÃµ ng
ĠCá» Ŀ
ĠG un
Ġm ic
ĠX Ã©t
H oÃłn
b es
ĠNhá» ĭ
Ch áº¥t
Ġb Äĥm
S B
ĠMac ron
as on
Ġr Ã¡n
Ġlo Ã£ng
k hi
ĠT Æ°á»Ľng
ĠC áº·p
it ch
ChÃ ¢u
m ad
ĠghÃ ª
et o
Chá» ĵng
Ġng áº¯t
ĠÄĲ áº¥u
r m
ĠK at
ĠOp en
ĠFor m
Ġdá» ©a
Ġcá»Ļ i
Ġch áº£i
aw a
âĢ¦ )
Ġs e
t w
ĠV it
Ġl áº§u
Ġr Ã³t
ĠH i
Ġ Æ°Æ¡m
k ip
ĠPh a
L S
Ġs tress
Ġg áºŃt
ĠLion el
ĠDj okovic
ĠU l
Ġhá»ĩ t
C l
ĠEr ik
ĠC áº£i
ĠÄĲá» ĩ
202 6
al d
ĠâĢ Ŀ
ĠSerg ei
ĠNg Ã£
ĠUS B
ĠC á»ĳng
ĠH á»Ľi
ĠEn ter
ĠM id
Ġnhá» ī
M ay
Ġk áº¹p
á»į t
id ane
ch ez
ĠIn tel
h ay
ĠNex t
Ġ197 2
ĩ n
if ic
ĠAl i
et s
y Ãªu
ĠthÃ ¢u
ĠS ub
ĠTh ai
Ġcá»¥ t
Ġsá» Ŀ
Ġn Ãłnh
Ġs Æ°á»Łi
k ing
3 50
ĠY amaha
n ews
Ġl Ã³c
ĠHo áº±ng
ĠV ill
L O
ol y
way s
C DC
B r
ĠHá» ©a
" ...
ĠViet jet
ĠSil va
ag a
ĠCh Ã¡u
ĠK al
Qu Ã½
ĠV áº«n
C Ãº
Ġthá» ģ
ĠPet er
b an
ĠDub ai
! âĢĿ
et te
Ġtr Å©ng
ch a
Ġ198 1
ĠCQ ÄĲT
ĠV er
R E
ĠR af
Gi áº£m
Ġto Ã¡t
U N
Ġc om
ĠLu is
Ġl áº§y
Ġng Æ¡
ĠSn ap
ĠDie go
ĠKh a
ĠG ra
Ġd áº§m
c ol
L oáº¡i
ĠTu á»ĩ
ĠKl opp
" ;
Ġn áº§n
ch er
M o
ĠLav rov
S Ã¢n
Ġlá» Ńng
ĠNew castle
Å© y
ĠT iá»ĩp
ĠchÃ ¨n
ĠM áº¥y
ĠD iá»ĩn
Ġg áº¯m
ev a
ĠB XH
ĠL Ã¡i
ĠN ou
ĠS SI
c Ã²n
e f
ĠM r
it z
» Ŀ
ĠT W
á »Ŀ
Ġv Ã£n
V áºŃn
M Ã³n
ĠM eg
ĠK áº»
Ġs edan
ĠS um
ĠP as
Ġqu Ã¢y
ĠS áº§m
C D
ĠT Ã³c
Ġm áº©n
ĠVo ice
Ġd iá»ģu
Ġt Ã©
Ġk Wh
Ġng Ã³ng
ĠQ uáº¥t
ĠÄĲ áº§m
ĠTh y
st al
ĠO PEC
t áº¡i
Ã įt
ĠUniver se
ĠC á»ĳc
âĢ¦ âĢĿ
ĠVin amilk
Kh Ã¡m
ĠGD ÄĲT
ĠFranc is
Ġho rm
Ġá» ıi
ĠT Ãł
Ġngá» ¥y
E VN
B iáº¿t
ĠT á»ĳt
or y
tr al
ĠAs h
ĠND T
ĠLe on
Thá» «a
Ph an
gi Ã¡
ĠP ort
áº ¬
Ġcá» «
ĠThá» ¥
Ġ' '
ĠUkrain a
c uá»Ļc
v iet
ter te
ÄĲ áº©y
l ib
ĠLu x
ĠCh ang
Ġcá» ĵng
ĠBá» ©c
ĠF ace
ĠM ik
Ġr Ã£nh
' '
Ġ2 30
Ġtr áº·c
200 6
Gia dinh
b r
Ġqu áº·ng
ĠTá» «ng
---- ----
ĠMob iFone
ĠU P
Ġph en
âĢĿ ...
t an
ĠJ ol
Ġ197 6
ĠV á»ĳn
ĠT áº§n
ĠB as
ĠquÃ½ t
ĠG er
ĠBr id
Ġng Ã²i
Ġxu á»ĵng
Ġtu a
ch áº¡y
Ġr es
ĠS P
ĠM iáº¿u
Ã¬ a
Ãģ o
Ġngh áº¹t
Ġxá»ī u
em an
ĠF TA
ĠU z
Ġngá» ¥c
A pple
Äĳ á»ĥ
ĠJ ustin
Ġn áºŃp
Há» £p
ashi on
Ġkhu áº¥y
ug uay
ĠP or
ĠG aza
ĠS om
ĠRich ard
ÄĲ S
Ġ19 60
Ä Ĥ
it o
ĠTo ur
ĠDu terte
Ġk i
ĠVN ÄĲ
ĠCP I
Ġ11 2
ĠR ai
ĠM ek
f izer
Chinh phu
ĠR Ãµ
ĠO k
c Ã¡i
Ŀ m
A IDS
Ġ %
ĠLu áºŃn
ĠG e
Ġch Ã¡nh
Ġ11 6
Ġmáº¹ o
ĠG h
Ġn áº¡t
S M
ĠBÃŃ nh
d á»±
Ġkh inh
Ġch áºŃp
b Ãł
t iá»ģn
ĠS á»ĳng
ĠBr ad
» Ĳ
á »Ĳ
ĠCB CS
ĠB iá»ĥu
há» Ļ
Äĳ áº·c
R Ãµ
ĠL ew
ĠM edia
s á»ĳng
ĠM etro
Ġm e
X Ã£
ÄĲá» ©ng
Ng Æ°á»£c
Ġhá» §
ĠJ av
Ġtr Ã³i
k V
ĠS áº¯c
ĠP ac
ĠDel ta
ĠIm ages
ĠE ng
ĠSh ar
ĠFor bes
Ġfan page
ĠT Ã¹y
H áº¡
f a
ĠG ab
ĠGuard ian
Ġx ÃŃt
Ġ Æ¡
ĠTCT D
ĠS av
ĠB om
Ġser ies
Ġ10 4
Ġm ix
Há» Ĺ
ac t
ĠF o
p ot
ĠnhÃł o
ud io
Ġ uáº¥t
ĠK ÃŃnh
ĠthÃª u
Ġ7 50
ĠF ort
C LB
Ġx ua
>> >
ĠCat al
r ick
ĠH ee
ĠG AS
Ġv Ã²m
ĠÄĲ áº©y
Ġlá»ģ u
ÄĲ Æ°a
ĠP au
ĠS Æ°Æ¡ng
p lay
ov o
Ġs hop
ĠL Ã¢u
ĠThá» ¥c
Ġph iÃªu
ĠId lib
Ġ17 5
Ġk Ã©t
Ġm áº£i
ĠK ang
Ġch áº±ng
ĠAward s
ig er
ķ i
ĠK ane
? âĢĿ,
ĠHo me
ĠRo ck
u an
v Ã´
ĠC ang
ĠT ÃŃch
áº ¦
Ġkh iáº¿t
Ġn áº¿m
ĠtÆ° ng
Ġng Ã¹i
Ġb ung
ĠM Ã£i
Ġch uá»Ļc
Ġ z
Ġvi sa
ĠC Ãº
ĠVHTT DL
s an
Ar senal
C am
ĠV CB
ĠLe x
Ġnh Ã³c
PT PP
ĠMi G
ors che
is on
enc ia
ĠchÃŃ ch
c c
d io
Ġphá» ĵng
ev in
g á»įi
ĠC Ãłng
B iá»ĥu
V n
N Æ¡i
ĠY e
Äĳ áº¡t
ĠM ua
Ġ6 50
ic on
ĠBrun ei
ĠBen z
Ġg Äĥng
ĠV GP
ÄĲ a
http s
el f
Ġng ao
ot land
ĠÄĲ V
m in
Ġkho Ã¡t
d y
bek istan
om es
Ġ10 7
ĠS treet
T uyáº¿n
B Ã¡nh
ER S
ĠZ idane
Ġv e
Ġ Ãºp
rol imex
Ġng áº¥m
ĠS mart
ĠD Ä©nh
ĠSan chez
... âĢĿ.
ĠK id
ĠB inh
! ".
Ġbá» į
ĠSport s
ĠH az
ĠY ong
ĠS aint
Ġn ung
A h
ĠI D
m g
A V
ĠÄĳ áºŃy
w in
ĠD em
ĠX a
ĠJ am
ĠPer u
ĠD mit
eal th
Ã Į
Ġs Æ°a
ww w
ĠJ im
ĠE v
R C
M áº¥y
N Ã´ng
S P
h Ãłnh
ĠTr ao
Ġgi Æ¡
Ġt áº£o
B Ã¢y
o is
Ġb l
ĠJenn ifer
ĠcÃµ i
U krain
od e
Ġ áº¿
ĠC Ã¹
H z
Ġmá»ī m
Ġgiá» ı
ĠA pp
ĠB QL
T iÃªu
ĠW i
Ġtrá» ĵ
v est
U á»ĳng
Ġchá» ĳc
yd ney
Giá» ĳng
ĠHill ary
Ġb ody
ry stal
B á»ĳn
Ġ197 8
ĠP fizer
Ġg ang
Ġ11 4
há» ģ
ĠM itsubishi
ĠDu áº©n
or i
» ĩnh
á »ĩnh
ĠN ep
ĠNad al
ÃĤ N
K á»·
nh ap
ash ford
ĠBeck ham
Nh áº¡c
Ġm Ã©o
ĠM Ãłu
ĠP N
ĠNh iá»ĩm
ĠUr uguay
T áº¡o
ÄĲ áº¯k
R e
or g
ĠJol ie
T I
ĠGiá» ĳng
or a
Ġ10 6
Ġx Æ°á»Ľc
ĠAnd r
a eda
D Æ°Æ¡ng
chá» ĭ
Ġtr Ä©
ĠA D
ĠPal ace
er to
Ġsá» ¡
AD S
ĠN issan
V á»ĳn
ĠL áº¥y
K TS
Ġm ark
Ġv áº«y
ĠSer bia
b áº¥t
Ġm áº«n
ĠN Ãł
Ġ196 8
ĠAnton io
ĠC Ã¡nh
ĠViet lott
H ot
ĠVal ent
ĠAmer ica
Ġx á»ĳp
thá» Ŀi
Ġt áº©m
T Æ°
ĠMob ile
ĠXV II
ĠX p
ĠPhá» ĳi
T D
´ m
Ġ12 3
Äĳ á»ĭa
t ÃŃnh
ĠMan ila
Ġb in
ĠW eb
ĠNh o
ĠL en
ĠAs ton
ĠB und
Ġnh ang
ĠV á»įng
ĠUz bekistan
Ġmá» ©t
ĠN ÄĲT
ĠChá» ĳng
gh ini
Ġch Æ°á»Ľng
Ġ19 0
Ġb áº©y
un t
Ġnh áº±n
ĠB TV
ĠX u
ic an
T iáº¿t
ĠbÆ°á»Ľ u
ĠGi áº£m
Ġf l
Ġ197 4
G iáº¿t
3 70
bor ghini
K iÃªn
orn ing
ĠB Ã¡nh
ĠV ar
Ġm Ã©p
ĠR oll
ĠC CC
ĠVII I
ĠD J
ĠU EFA
ÄĲ Ãłn
te in
Ġ5 50
i or
ÄĲ Ã¡p
ĠLu c
C G
M edia
Ch Ãłng
ĠC av
¹ n
M essi
ĠT ang
ĠM Ã³n
ir l
ÄĲ áº¥t
ĠForm osa
Ġr ay
Ġs um
T iáº¿ng
N Ã³
tr on
Ġp hÃ´ng
ĠCor p
um a
ĠL Æ°
ĠDel hi
ĠB á»ĳn
ĠS ydney
ĠP omp
ĠX Ãºc
HN M
ĠN ASA
Ġn iá»ĩu
ĠF an
Qu á»·
ĠÄĲ ang
Ġs áº£o
ĠTh áº¡c
ĠAir ways
ķ ng
V Ã¹ng
ĠD ay
ĠR en
Ġ áº¿ch
Ġphá» ¥ng
Ġ11 7
ĠA j
ĠLex us
ĠK el
Äĳ Ã³ng
Ġ15 5
Ġv uá»ĳt
tr á»«
h y
Ġ3 20
ĠT B
Ukrain e
ĠTr Ã¡ch
ĠH O
Ġch áº¡p
ĠQ ÄĲ
ĠLá» ĩnh
ĠCA Q
ath er
an on
us hi
ĠHar v
Ġst artup
Ġ10 9
Ġ197 3
Ġb iáº¿u
m á»Ĺi
Ġv Æ¡
ĠGT GT
Ġ11 1
ĠQu áº§n
m áº¹
ĠCá»© u
Ġt een
ĠChr is
d in
Ġk iáº¿p
ot ti
ol og
ĠSte ph
Ġl aser
Ġnh Ãłn
ĠÄĳ Ãłng
ĠFerr ari
ĠMek ong
Ġb áº§m
Ġche ck
ĠphÃ ´i
Ġth iá»ģn
... )
Ph áº£n
akar ta
ĠThÃ ºc
ĠBlu es
ĠTh oáº¡i
» ©ng
á »©ng
B áº¿n
H iá»ĩu
ĠTh oa
ĠB á»Ńu
ĠÄĳ iá»ģm
ĠE b
S á»ĳng
Ġho ay
H T
ch u
ĠS hop
akh stan
ur t
ĠM et
ĠSc otland
ĠW ang
r ay
ĠSte ve
Ġx iáº¿c
20 30
g en
Ġtá»¥ i
ol as
ow ski
ĠT ak
ĠJe an
M al
ĠT s
ro w
on ia
ĠIbra him
B ao
Ġ197 7
te ch
T Æ¯
Ġje ans
ĠH CB
ĠW oo
ĠS ina
le x
Ġmod el
ĠLÄĲ BÄĲ
Ġkáº½ m
Ġvá»ı n
ĠNg Ãł
ĠP PP
Ġ áº£m
ak ia
ĠH áº¡m
ĠCCC D
ĠD á
ĠGi Ã¢y
ĠDá »
ĠnhÃł m
ĠSu dan
Tr anh
Ch áº¯c
Tr Æ°Æ¡ng
ĠTr áº£ng
AT GT
Ġchá» ĩ
F ed
âĢĿ :
em ent
lad esh
ĠÄĲ oan
g Ã¢y
ĠCharl es
ĠF ar
Ġn ÃŃu
ĠH K
il y
T iá»ĥu
r u
ĠH P
t Ã¬nh
ĠTy pe
ĠK an
ÄĲ á»įc
Ġngá» Ŀi
ol o
Ġcá»§ i
es se
dr agon
Ġg Ã¡y
Ġn CoV
200 5
T áº¡m
TV QH
ĠR io
R á»ĵi
Ġg ram
ec a
Ġngh iá»ģn
Ġca tw
ĠI X
ĠMc C
ĠK erry
Ġw ww
ĠChÃŃ n
L inh
ĠS D
on i
G AP
V Ãłi
ĠS ur
im b
ĠR y
Ġcatw alk
ĠchÃ³ i
Ġch Ãł
ĠM Æ¡
L ED
ĠTr ans
? "
Ġb e
Ch Ã¡u
ĠF re
ĠG ates
ĠCh oi
T E
ĠÄĳ iáº¿u
ĠTh iá»ģu
ĠW atch
ĠL ife
ĠC el
ĠThÆ¡ m
ĠBu ff
ĠS uá»ĳt
Ġf utsal
ĠBrun o
g or
ĠA p
T ai
o ff
ĠSan t
un a
ĠD om
S H
b Ãªn
d ay
v in
ĠTech combank
ĠShin zo
ĠL ÄĲTB
ĠS Ã¢m
G áº·p
Ġb us
Ġy oga
Ġnh ai
Ng uy
k inh
ChÃ ºc
Ġ Æ¯u
ĠCon te
R A
D r
ĠSl ov
G C
ĠNep al
Ã½ p
ĠZ elen
G TVT
ĠH CÄĲ
ig an
M Ãłu
M TTQ
Ġnh á»ķ
ĠIn dex
Ġca fe
19 45
ĠTr áº£i
ĠT iáº¿t
ĠxÃŃ u
Ġl ike
ĠD áº¡
ab eth
l Ãªn
c Ã¡ch
Iá» Ĩ
âĢĻ .
ĠmÃ´ tÃ´
ĠQ uyáº¿n
P M
ĠKh áº£o
Chu áº©n
ĠÄĲá» īnh
Ġth ung
Ġ Ã²a
C á»Ń
Ġtá» §i
g er
ĠÄĳ áº½
Ġngá» «
Ġ ur
Ġ14 1
ĠSal ah
thá» ©
Ġgi áº¥m
I s
eto oth
ĠÄĳá» į
ĠG ang
Ġt áº»
Thá» §y
ĠTN CS
T o
ĠR ashford
ĠBus iness
ing roup
ĠLa z
B GD
in et
ĠVN M
Ġv áº¡
ĠPomp eo
ĠHaz ard
ĠPl aza
Ġgiá» Ĺ
Z en
ra ph
ĠM áº¯t
ph Ã¡t
ĠEV FTA
ĠSnap dragon
h en
cep t
Ġ2 10
ĠA k
am ine
Ġhorm one
ĠC TCK
ĠZ alo
ĠkhÃ ©t
BN V
Ġ12 6
ĠBr uss
Ġrá» Ĺng
Qu áºŃn
ĠSt ore
ĠD y
ĠFeder er
ĠD TTS
Ġl e
w er
ok o
urn al
ĠU p
ĠJe ff
op e
ĠM T
ĠC CB
ĠG ard
ĠB il
ib o
ĠP orsche
ĠS ri
ĠN as
th ony
ĠDmit ry
ĠP ers
tr Æ°á»Ľc
ĠCl ub
ĠV ÄĲ
Ġra pper
ĠMar c
Ġg ym
ĠÃģ p
H D
ĠK Ãªnh
l am
ĠSw ift
av i
Ġ27 0
N iá»ģm
ĠK pop
esl iga
ĠP i
I ran
v á»£
ĠT O
Ġng Ã¡ch
ĠSh e
A ss
Ġchá»ī n
ĠX S
ĠR ub
M V
% ...
Ġc áº¡o
B Ã³ng
ĠCNVC LÄĲ
P et
Nh áº¯c
nh Ã¢n
z one
Co M
ĠL eb
osh enko
ĠBenz ema
ĠW TO
ÄĲ á»ķi
ath on
ĠNob el
Ġs al
av el
Ġ26 0
ĠH A
Ġqu áº©n
ĠRes ort
S ang
ĠX ÃŃ
Ġx á»Ļn
N á»Ĺi
C á»Ļng
ĠL ig
ĠJ akarta
1 20
an n
Ã¬ n
M á»ĳi
J I
b áº£o
ĠBang ladesh
ĠSm ith
202 4
ĠC á»±
ai t
ĠGi áº£ng
ĠX Ã¡c
ĠchÃ ²i
Ħ N
ĠF BI
Äĳ Æ¡n
ĠRam os
ĠK evin
ĠR og
ĠV IC
ĠAg u
Ġvi ew
ĠYo nhap
ĠSerg io
on s
ĠBrid ge
erb y
ĠM orning
ig u
ĠQu een
ĠI c
r om
ch iáº¿c
ĠKaz akhstan
ĠD áº«u
ĠAd am
Ġv ung
ĠG Æ°Æ¡m
az z
h at
ND ÄĲT
Ġmic ro
ĠBl ue
Ġp en
Chá» £
ĠS IM
ĠD ia
2 000
c ent
ĠNg áº¡n
Tr Ãł
âĢĿ ?
Ġth iá»ģu
Ġv o
ĠKh e
Khá» ĳi
ĠR u
Ġl áº©u
ĠÄĲ áº¿
er on
phÃ ª
iz en
I L
ĠX NK
ĠF ED
Ġch iÃªng
Ġr en
g ov
ĠXiao mi
ĠBruss els
ear ch
ĠG Æ°Æ¡ng
ÄĲT CK
ĠLu kaku
ĠV AM
agh d
F i
b u
ĠCan nes
ĠN ag
Qu Ã¡n
ĠCor ona
Ġtr Æ¡
Thá» ķ
Sam sung
" -
ĠCh áº¡p
Ġ Â
V Ãłng
d ro
on t
m áº¥t
v á»ģ
ĠE lec
th uc
ob ile
ĠB ia
w ang
ĠCar ol
ch ia
Ġch Ãłi
ĠH el
S uá»ĳt
Ġnh Ã©t
Ġn a
ĠT áº¿
ĠT Æ°á»£ng
ĠR yan
V Æ°á»£t
ĠV ai
Ġb ai
Ġc áº¥n
Ġr á»ĳn
ĠP in
Phi lip
ĠC V
ĠS y
H onda
j o
ĠC á»Ń
re ak
h ad
thÃ ´n
ĠG Ã³i
ĠR ad
r et
ĠN ick
Ġt Ã²i
ĠÄĳá» ±c
ĠB ash
ĠM A
ĠNg Æ°u
Ġr Ã¡t
ĠTá» ©c
ell er
ĠLam borghini
ĠvÃŃ a
In donesia
l anh
Ġ up
ĠM Ãłn
Ġth Ãł
Ġb en
Tr á»įng
is ion
Ġchá»ĩ ch
ĠCM ND
ĠL uyá»ĩn
SG GP
V áº»
K áº»
ĠH TC
ĠL ove
ĠD ar
ir e
ĠPV C
ĠO le
Ġ28 0
ev er
ĠSc ott
Ġmark eting
iz abeth
Ġlo ay
ĠB A
ĠDis ney
com m
Ãģ p
Ġh iÃªn
ĠL Ãªn
ber t
Ġkho áº¯n
200 4
ĠBund esliga
ĠL Ã£
ĠG áº¡o
C ap
ĠB at
s ul
ĠC IA
ĠVal encia
elf ie
Ġng Ãł
ang e
Ġkh Äĥng
ĠV ingroup
m s
tain ment
h u
ĠAir bus
Tr á»±c
ĠSouth ampton
ĠAb u
ĠW B
O M
ĠÄĲ áº£m
Ġr Æ°ng
ĠV Ãłi
ĠÄĲ Æ°Æ¡ng
T F
v ed
T am
S ing
Ġ20 45
W S
ĠNap oli
ĠEb ola
ĠM á»ĭch
ĠP en
thá» ±c
ĠV ÃĢ
X P
r áº¥t
ĠA y
ĠAs tra
ĠK ate
ĠnÄĥ n
Ġs áº£nh
Ġm Ãºi
Ġs h
i ro
Ġ11 8
ĠH á»ķ
ch ain
ĠVin ac
ĠX H
Ġthu n
ĠPet rolimex
ĠC D
ad or
R I
ĠkhÃ³ m
ĠD V
Æł NG
ĠR Äĥng
Ġnh ung
ĠK á»ĭch
L iverpool
ic al
B ay
Ġ197 1
C an
iá»ĥ ng
g y
ph a
Qu á»¹
Ġng Ã³
k hÃ³
ĠB ent
ĠT Ãło
gi ai
ĠKia tis
T uáº¥n
L Æ°Æ¡ng
ĠTH á
ĠTHá »
Qu áº£n
Ġtr Ã³t
q uy
Ġx iáº¿t
B ook
ch áº¥t
ĠJo urnal
Ġn et
Ġc uá»ĳng
P S
it er
áº³ m
Ġtu Ã´ng
D i
O O
ÄĲ Ã¡m
Ã ĵ
Ġt áº¯n
ĠEnter tainment
Ġ om
ĠF erg
CT N
F I
ĠÄĲ o
ĠUB KT
O A
ĠB on
ĠA DN
Ass ad
b áº£n
Ġh áº¥t
eo p
Ġl Ã¡n
1 60
Ġq uyá»ĩn
us on
ba ch
ĠNg Ãłi
ĠC rystal
B NN
Ġhá» ĳc
ĠS ho
ĠC X
Äĳ á»Ļc
ĠC C
Ġk ali
Ġ? ?
Ġthá» «ng
Æ¯ ÆłNG
Ġmá»ĵ m
UYá» ĦN
hi re
ĠLan ka
ĠN ar
ĠBash ar
Thá»ĭ t
Qu á»³nh
ĠTH ADS
ĠK ir
ĠW ay
ĠbÃ¨ o
R oy
19 75
B l
ĠS Æ¡
ab i
ĠL isa
one x
Ġcá»ĳ p
Ġn áº·c
ĠIM F
ĠC PTPP
Y Ãªn
Vn Media
c á»±u
c Æ¡n
at han
Ġ1 19
ĠT en
Ġres ort
Ġ it
ir ates
L Æ°á»£ng
s áº½
ĠAn thony
Ġd áº±n
ĠB ir
ĠPac ific
KTS G
erb ai
b á»ĭ
ĠJo ong
T ay
b á»Ļ
ĠS abeco
ĠCh uyáº¿n
á»ĭ m
ĠVietin bank
i Phone
j u
Ġp ro
ĠPet ro
ĠV AT
c Ã¢y
ĠSt am
ĠT Ã²ng
ĠO x
N ATO
M ang
ĠCh Ãłng
Ġr áº±m
Q aeda
ÄĲá» £t
olog y
l Æ°á»£t
% -
Ġc ent
ĠHold ings
amb oo
ĠNg Ã´n
chá» ĳng
n ess
ĠL as
ĠV CCI
t á»ķ
ĠA K
ĠH inh
J o
Äĳ áº¥t
ing ham
Ãµ ng
ĠM ill
ĠG ran
Ġe kip
Ġtu Ã½p
ĠCr u
Ġ12 1
ĠEl on
B Ã£o
ĠEl izabeth
Ġy áº¿m
âĢĻ ,
erbai jan
Tr iá»ĩu
ĠSev illa
Ġh en
ĠValent ine
ĠDO JI
Zen eca
Ġs Ãºp
ĠG hi
ĠHo Ãłnh
ĠÄĲH QG
und er
K L
ĠR ay
ĠM Æ°a
Ġ12 2
Ġr eo
Ch áº¿
ĠQu al
ĠIn n
ĠcÃ ¹
Chá» įn
ĠZelen sky
Ġn ude
ĠÄĲ oáº¡n
Ġng áº«m
ĠÄĲá» ©ng
Ġ14 5
Nh iá»ĩm
PL X
ĠThá»ĭ t
Ġtá» ³
Ġph ai
Ġl on
og en
Ġ13 2
Ġv on
ĠBlu etooth
qu an
Äĳ ang
ĠX Äĥng
ĠB Ãłu
ĠJu an
ĠMat t
th o
k á»ĥ
D Ãłn
ĠP es
Ġs elfie
l as
ĠE co
Ġá» Ĳ
Ġph o
E V
ÄĲ á»Ļc
ĠD ream
ĠL op
ÃĮ NH
Ġx Ã³i
ĠL Ã¡
ĠJ ang
ĠNghá» ģ
ĠLeb anon
ĠG or
ĠTel eg
Ġáº¢ NH
Ġ @
R áº¡ng
LV T
ĠBL HS
ng h
ĠT L
ĠB á»ĵng
l ight
Ġd áº«u
Ġv Æ¡i
Ġcá»Ļ m
1 30
Ġnh áº£
ĠT ÄĲ
g eria
o ph
Æ°Æ¡ u
Ġ Ã¡t
Ġtr Æ°á»Ľng
ĠMin zy
Nh u
b á»ı
D á»±a
ĠG iáº¿t
s in
ĠT á»ĳc
Ġgá»į t
Ġbá» ¥c
M I
ĠVÄĲ QG
Re uters
ĠL Å©ng
AS S
f an
Thá» ĥ
Ġc au
ia go
ĠThÃ ¬
ĠhÃ ©c
men ia
L iá»ĩu
h ar
Ġm iáº¿u
ĠNH TM
Ġw on
ĠC z
ien thuc
ĠF al
ĠY oo
Ġb áº¹p
Ġng Ã³i
Kh áº£
Ġt Æ¡i
ĠCN LÄĲ
Ġd á»Ļt
ĠH á»Ļ
Ġx y
Ġch áº¯t
Ng Ã´
ĠFerg uson
ah oo
Ġm á»ĭt
gar ia
áº ®
ĠN Ãłng
ĠV ui
Ġ app
B u
Ġl ive
ĠSV ÄĲ
d s
al ty
ĠGen eva
Ġac id
ĠV F
L á»Ļ
ĠbÆ°á»Ľ m
v Ãłng
Bá» ı
ĠWilliam s
ĠG áº·p
w agen
ĠVP Bank
i ra
Äĳ á»ģ
O R
KV ÄĲ
Ġphá» Ľt
ĠÃĲ áº£ng
ĠCh en
ĠTh uá»ĳc
ĠV á
ĠVá »
ip s
ĠH PG
Ġk Ã¬nh
ĠCen ter
ĠY an
H ano
ĠSt an
Ġtá» §y
Ġnhá»Ŀ n
ĠCh áº£i
ĠK n
Philip p
Ġs áº£
ĠD ep
ĠMus ic
ĠK ai
Ġ196 9
ĠW an
ĠÄĲ á»įc
S áº¯p
L Ãłng
Ġ12 7
Ġd Äĥm
ĠS á»¯a
Ġh áº¯t
Ġnho Ã¡ng
ĠSe ung
Ġblo ck
x x
Ġm áºŃn
T oy
ĠHo use
x cÆ¡
ĠB y
D áº¥u
ĠB Ã¹
áº¥ ng
Ġtr Ã¡
u x
at ra
Ġnh ÃŃch
Kho áº£nh
ch áº¿t
ĠYo on
Ġth Ã¡n
ĠMon aco
Ġs pa
Ġgi un
Ġs áº·c
ĠPor oshenko
ĠAstra Zeneca
Giadinh Net
ĠL áºŃy
ĠStam ford
ĠThÃ ´n
ĠOlymp ia
ĠhÃ ²ng
re al
ĠCh ev
ks wagen
Ġn u
Ġtrá» Ĺi
ĠEm irates
B T
y es
ĠT un
ua dor
S ai
ĠR áº¡ng
Ġs áº£ng
M ong
Ġ196 7
L an
ĠC ook
ĠK hÃ³a
ĠNhá» Ľ
th ay
ĠCÄĲ CS
ĠNh iÃªn
Ġd r
ist a
ĠMart ial
Ġqu e
ĠK os
ĠKh Ã¡n
ĠC áº¥m
BC K
Ġ12 4
N ew
Ġr Æ°á»£t
ĠmÃª nh
ur s
ĠG R
ĠTr iáº¿t
Ġ19 45
Ġthá» ı
ĠThÃ ©p
ĠK am
abe u
ĠK ab
ĠÄĳá»ĳ m
7 50
Ġs hi
ah u
ĠTr Ã¹ng
ĠJ et
Äĳ iá»ģu
Hano inet
Ġs Ã´
eb er
TV S
al em
V Ãµ
Ġm et
ĠVir gin
ĠWhi te
ĠQL DA
Ġth áº³m
ĠKH CN
ĠKh uáº¥t
Ġ3 30
ĠMar vel
ĠMar y
ĠTr áº£
ĠRom ania
há» ĩ
ĠGi Ãłu
ĠJack son
ĠT áº¥m
H uyá»ģn
ĠBern abeu
ĠAgu ero
ĠCá» ı
ĠCz ech
Nhá» Ľ
U D
ir us
Ġm Ã¨
V inh
ĠI van
Äĳ á»Ļi
âĢ¦ âĢĿ,
C á»Ńa
B áº§u
ch uyá»ĩn
ĠF u
Ġ #
Ġl iÃªm
ĠH Q
ÄĲ á»ĵ
B iáº¿n
t áº¡m
ur es
Thá» ¥y
Ġxá»ī n
ĠH il
af e
£ m
ĠRoll s
Äĳ áº¿n
ĠSan ta
d uc
Sing apore
Ġv áº·n
ĠX oÃłi
ĠAr menia
r in
ĠR et
Toy ota
enn is
Ġg Ãło
ĠTM ÄĲT
Ġ áº£
... ".
ĠRodrig uez
Ġc uá»ĳc
Ġr iáº¿t
ok e
ĠPh Ã¡i
k á»³
Ġm Ãºc
g as
ĠD á»ĩt
ĠL ar
ĠT Æ¡
ĠCá» «
Ġng uyá»ģn
C Æ¡n
ĠH ÄĲT
ĠAb b
ro om
Ġn em
ĠSer ies
ĠSh ang
ĠÄĲ KVÄĲ
ĠU á»ĳng
Ġ13 8
ĠM en
Ġnháº¹ n
Ġv est
Ġ á»ķi
ĠHa aland
ĠR em
ĠAz erbaijan
ĠBus h
ĠÄĲá» £t
K ienthuc
² m
Ġlá» £p
if i
Ġxo Äĥn
Ġh uyá»ĩt
Ġl áº¡ng
Ã į
ĠNh áº±m
k áº»
Æ°á»£ m
ĠS Ã³ng
c ert
Ġng á»ķn
ĠC it
Ġr Ã¬nh
X u
Philipp ines
ĠS Ãª
Ġm ar
ĠQual comm
I G
ÄĲ Ã³ng
ĠY u
CA TP
ĠhÃ ºc
ĠH H
Ġm etro
Mal aysia
ĠBr it
Q P
ĠD en
Ġp lay
ĠA V
Ġn Ã¡ch
t ing
ĠH iÃªn
ĠÄĲ TVN
az er
ĠAl geria
Ġsá» ¥c
ĠCh Ã¡y
ĠA th
SD ÄĲ
c an
Ġg á»ĵng
at or
ĠM á»ĳi
ĠR au
c u
ĠPC R
ÄĲS PL
ThÃ º
S T
con om
z z
C ad
ĠMas an
ch eon
Ġmá» ĵng
ĠCh Ãłm
ĠHar ris
ĠVI P
ĠTrá» £
L a
g irl
Ġc over
ĠKho Ã¡ng
c l
Ġkh ay
Ġv áº§y
V H
Ġd áº¥n
es us
ĠB P
s ide
ĠK CB
ĠHol land
c Ã²
ear l
at us
ĠJ ac
ĠS áº¯p
ĠViet GAP
ĠA B
áºł I
ĠKh Ã¡c
ĠÄĲ áº«y
ĠBul garia
Ġnhá» ĩn
w ell
Ġh anh
Ġr á»ĵ
ĠN á»ķi
IC A
Ġch at
lo ud
Ġy en
Roy ce
Ġc áº±m
c r
Lá» «a
thá» §
Ġngá»§ i
ĠG ot
Ġtrai ler
ĠGard en
ĠÃģ ng
ĠÄĲ Ã¡p
!! !
W B
Ġ16 5
b áº±ng
ĠU V
ĠHo SE
ĠG om
t hÃ´ng
Ġbá»ĭ a
Ġná» ī
Ġqu ai
ĠDo w
Ġn ick
Ġl Ãºt
Ġtr iá»ģn
b iáº¿n
ĠM Ã¡t
ĠPh n
TB KTSG
ĠG PLX
m á»Ł
im a
ĠT áº§m
U A
e u
ĠNhá»± t
Ġkho Ã©t
K hÃ
d iá»ħn
es a
ar th
ĠL og
D R
v Ã¬
Ġr oi
uck er
Ġb áº§y
200 3
ax i
ĠLig ue
ĠCen tral
200 1
w ich
Ġph Æ°á»£ng
ie z
ĠcÃ¡ u
r or
Ġ38 9
Ġbá»Ļ n
Ġ13 4
ĠC áº¡nh
ĠNor th
ĠCA H
Ġhack er
n Æ°á»Ľc
ĠHan oi
ĠL ump
ved ev
? !
ĠL es
ĠM Ã¨o
ĠEc uador
8 50
ĠO t
Ġo Ã¡n
ĠH Æ°á»Łng
Ġnhu áº§n
ĠB amboo
Ġtu á»Ļt
Ġch Ã¡t
E l
ĠW ood
ĠÃ Ĭ
Ġ36 5
Ġch áº¯p
Ġra p
ĠI C
Ġr Ã¹ng
ĠFrancis co
rol et
cel otti
ĠhÃ£ nh
Ġs tyle
ĠTr o
ik i
D uy
M D
ĠO d
B o
B iá»ĥn
Ġch Æ°á»Ľc
Ġ9 99
ĠS ter
Ġo ff
I ÃĬN
ĠZ ika
V ua
ĠP ay
ĠG Ã¢y
F O
ĠEr ic
ĠE un
ĠD iá»ĩc
ĠL áº¡ch
Ġthá» ĩ
Ġx Ãª
T inh
d ong
ĠTo wer
! "
ut ter
ÄĲ iá»ĥn
Ġs Ã¡n
ĠP R
ĠT Iáº¾
B Ã¡n
Ġl ink
ĠBH TN
and owski
BH XH
ĠCh iÃªu
ĠIn vest
ĠG I
ĠUP CoM
' ),
ĠAut o
ĠB Ãª
H uy
ĠIn c
iv ia
ff e
ĠIbrahim ovic
Ġhy dro
Th áº£o
ĠChi c
ĠH áº¡ng
Ġd ÃŃ
ĠC ur
TT T
ĠLat inh
d Ã¢n
qu Ãª
ĠD ig
Ġm áº¥u
Z ing
ĠHam as
© n
R au
ĠAn n
ĠÄĳÃ£ ng
V FF
Giá» ¯
ov ich
? ",
ĠC K
l oáº¡i
ĠF ashion
ĠTech n
ĠKhÃ ºc
gg er
F acebook
r ad
ĠB oy
ĠM is
Ġn áº¡c
ĠF ul
T imes
Ġxo ang
c áº§u
Tr uy
Le e
ĠM XH
Ġnh á»ĳi
Th uá»ĳc
Ġbá»ĭ ch
C TCP
Ġk n
any ahu
ĠLump ur
ĠL amp
N á»ķi
ĠT á»Ļi
Ġd áº³ng
ĠBe au
ĠBor is
ĠTh Ã¡m
Ġso lo
ĠHarv ard
ĠF ood
ĠVi os
ĠF e
ĠR iver
igh ton
q ui
Ġthá» Ľt
v Æ°á»£t
Äĳá» ©ng
Ġr Æ¡
ĠPN J
ĠhÃ ¢n
ĠP enn
Ġch áº§n
ĠR over
ine z
ĠKu ala
ĠÄĲ áº¥y
ot s
th iÃªn
ĠhÃ ¹m
ĠG Ãł
Ġláº» o
ĠTim or
Ġs áº§m
ĠEx c
P R
Ġr áºŃm
Ġd ong
4 50
tin o
U NG
C áº£i
b áº¡n
ĠN á»ģn
Ġ19 50
Ġcá»« u
Æ¯á» ľ
Th Æ°
Ġtá» Ľ
Ġs Ã¡o
yl v
c p
app y
Ġch ao
ĠKh Ã¡ng
Ġch Æ°
ucker berg
lá» Ľp
f or
ĠBV ÄĲK
Ġm uá»ĳng
ain e
as ter
" :
giá» ¯a
ĠF er
ĠL um
ĠFort un
Ġr Ã´
Ġ12 9
ĠPers ie
? .
ĠNet anyahu
ster dam
b á»ĩnh
ĠD ev
Ġm g
ar en
Ġs Ãł
Ġ22 5
Ġg ames
ĠM ap
Ġm Æ°á»Ľt
ĠVietnam net
ĠThá» Ń
Æ°á»Ľ n
ĠMed vedev
ĠE ti
ĠH áº¡n
ÄĲ Ãło
ÄĲá» Ĺ
ĠP ed
ĠT áº£
ĠW ol
ĠZ en
ĠD al
ĠIns ider
Ġth uyÃªn
Ġth áº·ng
ĠT GÄĲ
ĠM ega
op y
ht ml
Ġv áº¿
ua t
Ġt anh
ĠC á»ĵn
ĠF el
ĠM SN
Ġd ay
Ġp oly
mar k
l at
I t
ĠCA P
3 20
AS EAN
Ġrá» £n
G V
B YT
ĠChá» įn
NS ND
ĠH or
Th áº§n
Kh Ã¡n
r ot
T ang
Ġgi Äĥng
ĠP hÃŃ
Ġm ui
te ur
man uel
l ist
Ġng Ãºt
C amp
B inh
Ġ196 5
D Æ°
áº¦ N
ob s
Ġh at
ĠX á»©
b ass
NS Æ¯T
M áº¥t
p lus
ĠPh one
Tr á»Ŀi
Ġy ou
ĠGi rl
ĠDr agon
Cad n
tr ick
Ġ14 4
Ġtr u
il d
r Ãºt
al ines
Ġf ile
d au
Ġph Ã¡ch
D S
HN MO
ĠG on
Ġ196 6
ĠB C
Ġs Ã¡
z e
t ar
ĠF red
q uá»ĳc
us alem
ĠL ight
Ãª ng
ĠBV TV
K á»¹
Ex press
P H
Äĳ Ã¡
iz e
ĠL LVT
Ġx Ã¹
D áº«n
ai i
ĠP op
n ar
ĠT er
Ġ >
ĠPan ama
B á»¯a
Ġx Ã²e
D ÄĲ
Ġn oi
Ġg o
ĠdÃ¬ u
T AND
ĠFernand es
ĠBS T
Ġt Ã¬
Ġt áº¥c
M a
ĠHen ry
A ng
b ay
ĠLá» Ľp
ĠWe ek
c áº£
iez mann
ĠAndr ew
ĠAj ax
Ch Ã¡y
Ġc áº·n
ĠN CT
ĠtÃŃ t
ĠGen er
Ġtr Ã³c
Ġ is
I B
ĠGab ri
). -
ĠO h
ea ch
ĠMas ter
N a
ĠHD Bank
ĠChrist ian
ĠN oo
? ?
il o
ĠD C
Chá» ĳt
ĠRa j
ĠM á
ĠMá »
T IN
ĠIc eland
ĠÄĲ á»ķng
ĠR S
ĠC y
ĠÄĳ ong
Ġn áº¥c
PL O
ĠL ink
bo x
ĠY ing
GD P
Ġnh áº¥p
áº« ng
ĠG ad
Ġs á»Ļ
c hÃ¢n
j ect
ĠN ational
IV E
Ġ196 2
ĠCS HS
ĠChic ago
Ġsá» įc
ĠS k
ĠE C
ĠC lip
b ack
ĠM and
ĠZ uckerberg
ĠH uyáº¿t
Ġnh Ä©
Ġnh Ãºng
ĠB Æ°á»Łi
ĠthÃ³ c
ĠHo us
Ġpen alty
ĠMoham ed
ĠÄĲ ak
ĠG az
ing ton
c hÃŃnh
Ph Ã¡o
âĢ¦ ).
b ang
ĠAn celotti
ly n
Tr Ã¬nh
ĠPes kov
gi ao
ĠChan el
Ġx ui
ĠF BNV
ĠCh e
Phá» ĳ
Ġr Ãªu
Ġv Ã£i
ĠI U
ĠA TVS
aul t
ĠTim e
ri que
om o
t iáº¿p
Ġy á»ĥ
ĠC TV
ĠJer usalem
T R
ĠBal tic
D iá»ĩn
ÄĲ á»ĭnh
ĠSp ace
ĠO ff
ĠIP O
Ġ13 6
Ġbá»ī m
em y
ĠN ev
ĠG olf
f o
id i
T áº¥m
V Æ°Æ¡ng
S p
ĠD ol
Chá» ĳng
t á»·
ash in
ĠF uk
ĠEx press
ĠG am
ÄĲ áº·t
r áºŃp
ĠT uyá»ĩt
Ġv Å©ng
eg as
ĠR onald
ĠH Ã¡t
ĠAngel ina
Ġl Æ°Æ¡n
ĠK enn
Ġp op
ĠB aghd
lo g
ĠGiá» ¯
Ġd erby
ĠP ap
Ġl Ã©p
Ġh Å©
Ġ áº
ĠF il
V ai
ĠVAM C
ĠVol kswagen
es e
ĠM áºŃt
Ġng a
ĠHo t
ĠF ull
ĠEm manuel
ĠNguy en
ĠMart inez
ĠGold en
ĠPas teur
vi ew
ĠCarl os
ĠGal a
ĠL ive
Ġ13 3
Ġc l
ĠhÃ² m
xcÆ¡ va
L áº¡i
ĠNG UYá»ĦN
ĠChá» ©c
ĠWe ibo
C Ãłng
k ei
ĠRoy al
b ul
ĠÄĲ Ã¡n
ĠK N
ĠMod ern
ĠJo on
Ġb Ã¹i
b om
ĠThu áº§n
ĠTh áºŃp
n Ã³i
Ġh an
ĠBa hr
ĠB ob
n Æ¡i
Ġb áº¥p
Ġ196 4
ĠMar io
est a
HÄĲ ND
ĠGar eth
Ġphá» ĵn
ĠTr Ã¡nh
há»ģ nh
D áº«u
b ar
Ġ14 6
L G
L Ã¡
ĠT ony
CM P
Ġm ake
am ex
ĠHuy nh
ĠSec ret
ĠN iá»ģm
Ġg Äĥm
Ġqu Äĥng
D áº§u
ĠP ot
M art
Ġsá» ī
ĠM ass
Ġh áº±n
s y
PC R
C ung
ĠV AR
ĠSu k
ĠThÃ ´i
ĠB Ã©o
ĠVN A
ĠVit amin
at er
ĠV el
ĠCar r
ui re
ĠAm sterdam
âĢ¦ ;
ÃŃ a
Ġngá» £p
c Äĥn
ĠVinh omes
th Æ°Æ¡ng
f er
us ta
Ġt eam
Ġr Ã´n
on et
Ġ195 4
ĠBro wn
ĠNic olas
ĠM á»ı
Ġl áº«m
ĠL otte
Ch Ãło
ho use
ĠÄĲ Ãª
ĠOs aka
ĠLe g
ĠF r
Ġk it
Äĳ a
L áºŃp
tr ung
ĠH av
Ġnet izen
Ġs áº¡p
Ġb iáº¿ng
ĠO ut
ĠD Æ°á»Ŀng
Ġg áº¯p
ĠL Å©y
ent al
ĠE TF
ĠÄĲ áº·t
Ġ13 9
Phá» ĳi
H oÃłi
it ar
¬ a
ĠNg á»±
ph áº§n
Lo áº¡t
ĠB á»Ļi
ĠTor res
s p
ĠB ak
ĠkÃ¨ n
h áº¡
Ġgiá» Ł
w are
ĠH ealth
ĠUB MTTQ
ĠL ab
ĠP itt
ĠB B
id ol
G M
Į C
bo ard
Ġnhá»Ľ t
ĠJ ay
in c
ĠCam eron
ĠBi eber
han i
ĠB ai
ĠG H
ĠNgh Ä©
oll agen
A ustralia
ĠH TV
Ġ13 1
ĠF utsal
ĠSte ven
t ai
enn a
ĠS ea
Ġh áº¥n
Th áº¯ng
ĠGom ez
E E
Ġsá» §a
ĠkÃ© n
ĠCam ry
ho a
th anh
ĠT ab
m on
ĠY eon
ÃĢ NG
ĠKel ly
ĠTr á»ĵng
ĠÄĲ Ã¨o
Ġf ol
Ġn Ã¡m
ag an
ĠPhn om
CT news
t Ã´ng
Ng áº¯m
Ġ8 50
ĠL Ã´i
N Ãłng
Ġ15 2
ĠH it
ĠPe nh
ĠL Æ°á»Ľi
ĠL áº¡nh
Ġc áº³ng
Ġchá» Ľ
t ÃŃn
á»¥ y
Ġtráº» o
ĠMi ami
A Bank
ĠCh at
ĠLew andowski
ĠO man
Ġk iá»ĥng
ĠK as
ĠTT ATGT
ĠG ame
Ġd Ã£i
S áº¯c
IM F
H A
Thá» ıa
ÄĲ áº£m
v Ãło
Ġphá»ĳ t
ĠTr áº§m
ĠBahr ain
ĠB h
l Ã´
ĠRob erto
Ġgá» ī
Ġcon cept
ĠZh ang
t ay
id o
Ġt áº±m
Ġtr Ãłm
ap h
oll ah
Th Æ°a
ĠS XH
ĠNV CC
c Å©ng
ĠNh áº¡
Ġm o
V Æ°á»Ŀn
ĠHaw aii
Ġo anh
ÄĲ Ã³n
ĠCh ar
ĠRang er
ĠB urn
ĠMeg han
ª u
Giá» įng
ÄĲ au
t inh
b oy
Ġs Ã²
Ġch áº¥u
c á»©
ec amex
ĠC áº¥n
Ġtr áº§u
fl ix
ĠEd ition
ĠL iu
ĠRaf ael
6 50
W orld
TT M
A m
qu Ã¡
phÃ ²ng
Ġ13 7
ĠMich el
ĠCh iÃªm
z i
ĠThu áºŃt
Ġchá» ķi
ĠI T
it i
ĠP ier
ĠD T
t om
Ġr Ã¢m
B erry
ĠT G
ĠH igh
ĠV EC
Tr áº¡m
ur ne
Ġ Æ°
ĠCo ut
qu áº£
C uá»ĳn
ĠL ind
hÃ³ i
ĠT Ãły
ĠH um
Ġnhá» īnh
Ġb Ã¡i
ĠÄĲT DÄĲ
ĠkhÃ ¢m
ĠF ut
C áºŃp
Ġd áº«m
ĠJack pot
Ġnh Ã²a
ĠK ard
Ġ16 7
Ġph ot
Ġ15 6
Ġkn ock
C áº©m
H AGL
TT H
ĠM ak
ĠCh iá»ģng
Ġph áº¥t
ĠK yl
. )
th Æ°á»Ŀng
G oogle
ĠA BC
ĠCas tro
ĠIn cheon
Ġhy brid
Ġ18 5
Ġ3 70
ĠÄĳá» Ĺi
th a
S Æ°
ĠT Ãºc
Ġc omp
ĠÄĳÃ´ la
N á»ģn
ĠGr iezmann
Ġdá» ım
ye ong
ĠK ore
ĠL Ã¡t
th áº¿
ĠS ap
Ġx uyáº¿n
ĠH áº¯n
L IVE
v ua
Ġg Æ°á»£ng
B D
ĠGi áº½
ir i
há» £p
ĠTh Æ°a
Ġ196 3
ĠLamp ard
S port
ĠMur ray
ar is
ĠLu Ã´ng
ei ra
up e
it r
el o
ut e
z h
Ġtá»Ļ t
Ġ as
ĠS anh
c Æ°á»Ŀi
C Äĥng
tr Æ°á»Ŀng
ĠD áº£i
Ph a
ĠC ard
Â °
Thá» Ń
ĠT KV
ĠB CÄĲ
ĠNN PTNT
ĠNov os
iv a
o ol
S er
Ġn Ã´i
el lo
C ar
ĠVi k
uch el
Ġx Ã³c
Ġ áº¯p
N C
Ã Ļ
ĠLa w
ng er
c Ã¡
Ġs áº£i
ĠSen kaku
ĠH T
S L
in son
ĠGeor gia
ĠR un
od a
G Ã¢y
Ġgames how
Ġgen e
ĠS ab
P lus
ĠK itco
ĠT ar
ĠCharl ie
ĠEti had
ĠA BS
P od
ĠB ell
ĠMir ror
Ġp iano
ĠH áº¿t
ĠL NG
ed y
ĠR ain
k áº¿t
th er
Ġngo Ã£n
Ġká»ģ nh
ĠSn ow
ĠC CH
us sia
ua tin
L T
qu ang
ĠC le
ĠAn t
ĠGi an
all ad
C EO
oid uatin
V KS
ĠTh iá»ģn
» Ķ
w i
á »Ķ
oid ai
Q uyá»ģn
th oidai
Ġho m
ĠTá» ī
ĠLop ez
ess ica
n o
Ġtá» £n
CS GT
G á»Ńi
Ġvá»¥ ng
ĠTN XP
Ġ14 2
c ia
ĠSter ling
M Ã¡i
Ng á»ĵi
s áº£n
Ġca s
as a
al le
ĠCN CH
Ġc ollagen
ch et
ĠSteph en
ĠKab ul
w ork
Ġc Äĥm
ĠI v
Ġtr áº§y
C Ã¡nh
ĠL Ã£i
ĠUl tra
ab le
Ġhá» Ŀ
Cl ass
ĠQÄĲ ND
i i
c am
ĠN A
p ol
in ch
Ġvá»¥ t
L Ãªn
ĠG CN
Ġm Æ°á»Ľp
as aki
G Æ°Æ¡ng
âĢ¦ âĢ¦
ĠDo ji
Ġng áº©n
ĠMos ul
Äĳ oÃłn
ui z
ĠChev rolet
g l
Ġá» ī
ĠÄĲ Ã¡m
ĠT ed
ĠT ao
ĠH im
ĠM Ã¡c
ĠPh ill
ĠB iáº¿n
ĠchÃ ´m
end y
ĠDon bass
1 40
Ġv áº£y
ch Æ¡i
HÄĲ XX
st ock
Ġ7 20
nh Ã³m
thoidai plus
Ġl iÃªu
Ġng Ã¹ng
ĠP A
Ġc Æ°á»¡i
ĠLá» ©c
Ġs il
ĠSC IC
ĠBal i
Ġbl ue
s ao
ĠT e
ĠL Ãłnh
ÄĲ Ã¬nh
Ġ98 1
ĠKh al
ĠXp eria
ĠBr uy
m un
ĠD K
B ra
ĠAn field
ĠR Ãło
D av
Ġmá» Ľ
Ġv áº¡t
ĠC iv
ĠHolland e
Ġn áº¯n
um b
ĠVin alines
ĠSlov akia
ĠMo yes
12 5
ĠP L
at in
Ġb oy
ĠthÃ ©t
ĠcÃ ²ng
ĠSl am
s Ã¡ng
ĠVI B
om a
Lá» Ľp
iz LIVE
ÄĲ Ãłm
Ġv ali
ĠCN BC
ĠM á»Ļng
F an
b ook
k en
Ġblo g
ĠDi am
ĠÄĲ áº¡m
A NG
Ãģ nh
ĠBr ook
han ol
X ung
ĠAn na
ank a
ĠÄĲ K
re en
Ġ14 3
ĠEd ward
Ġg l
e ed
ĠK P
u oiduatin
j amin
ĠKh an
1 10
ĠH ir
ĠP CTN
Ġ Ã³i
Ġs áº£y
lu ck
ĠAb ram
ĠLo ck
ĠMad uro
ĠK aw
ĠBruy ne
ĠMoham med
ĠDe ir
Ġc áº±n
ĠV Ãłm
stan bul
ĠIs land
Ġtr uáº¥t
ut hi
Ġnhu á»ĩ
X S
Ġ ;
t im
ĠPer ez
M Ã£
ik o
Ġkáº» o
Ġ25 6
Ġtrá»£ n
ĠPhil ip
ĠphÃ ¨n
I F
ĠJ oo
us se
Ġ Ã¬
low een
Ġm Ä©
Is rael
ĠR C
Ġlog ic
ĠKen ya
ĠPC TT
ĠMag uire
ĠRom e
P ost
ĠCav ani
Ġm Ah
ĠÄĲ áº¹p
ph iÃªn
ĠGi o
ĠCr oss
Ġqu ÃŃ
Ġ16 8
ĠB aby
ĠNik kei
ĠMat a
EU T
est ay
K Ã½
g u
ch uyÃªn
ĠAbd ul
ĠArt eta
ĠV es
Ġ idol
ĠVinac onex
Ġhá» ¥i
Ġst atus
Ġk V
ull ah
ĠSa f
Ġ7 37
ĠT á»įa
ĠIS O
ĠVin com
ĠÄĲ áº¡
ĠG ood
Ġs Ã³i
Ġr Ãª
ap an
ĠTr avel
ĠPT NT
ĠHo tel
ĠBr ighton
ĠDe f
ĠGe un
ĠSha w
ĠKid s
Nh áº¥n
ĠSh ark
ÄĲá» Ŀi
Ġm ag
ĠlÃ¬ a
r ent
ĠCol or
Ġnh Å©
âĢ ĺ
Ġb Ã³i
Ġáº¤ t
ĠChá» ©
ĠchÃ ²m
ĠR IA
ĠX á»ķ
Ġkhuy nh
kh ai
ĠI R
ou gh
ro ud
ĠB á»ķ
ĠAr ena
Ġnh Ã´
ĠGi l
C áº¥p
th ong
ĠRes earch
N á»Ĺ
Ġb y
ĠN á»Ĺi
CS XH
Ġv áº§n
ĠSh er
Ġhá»ķ i
H áº¿t
B á»ķ
Ġng uÃ´i
tr i
ĠSc ar
.... ....
ĠUB TÆ¯
os ite
rot imes
ul a
ĠÄĳá»Ļ n
B M
... "
ĠBaghd ad
t Ãłi
H P
T Æ°á»Ľng
t Ã¢m
is ia
ĠX L
EUT ERS
ĠMark eting
Ġc áº¡p
ĠTr á»Ł
Ġt Ã©p
Ġmá» įng
ĠCam era
ers burg
Nh an
ha w
chá» ĵng
G al
Ġvá» ¯a
S O
Ġ3 40
M y
Ġ3 80
ai s
Há» ıi
ĠHu go
ĠN u
L D
ĠE PA
Tr Ã²
ĠI stanbul
ĠT áº§ng
Iá» Ĥ
ĠK ey
ĠS ad
th am
ĠMod i
Ġo ut
ĠNg oan
2 40
ĠTr ip
ĠTeleg raph
ĠFran co
Ġs á»¯ng
Kho a
ĠCu Ã´ng
B O
ĠBr and
Ġd áº»
ĠC er
H Ã³a
ĠRodrig o
ĠM ol
ĠKh iáº¿t
ĠK iá»ĥu
Ġgá» Ŀm
nh iá»ĩm
Ġcá»Ń u
Hu á»³nh
A s
ĠH uyÃªn
Ġta b
S u
ĠLad y
áº¾ T
ĠN ord
ĠL is
ĠhÃ º
Ġit em
ĠKh Ã¡
q a
ĠSt and
» ī
á »ī
x em
ĠTo wn
ĠT ASS
brid ge
viet nam
ĠTh uyáº¿t
L Ã¢u
Ġt eo
ĠAr sen
D T
ĠInf onet
ng Ã´i
ĠThÃ ¢m
ĠHÄĲT V
nam e
ĠM Ã¹
ĠNet flix
Camp uchia
Ġbá»ģ nh
ĠXV I
ĠCarol ina
ĠT i
ch im
H áº¡t
Ġph iá»ĩn
P K
ad ing
Ġb áºŃy
T Ã³c
ĠBlo ck
as ka
V ND
el d
f ia
Ĵ NG
Ġ14 7
Ġ16 2
x anh
Ġ14 8
to ur
s er
ĠD á»±a
ĠW olf
Ġtrá» įc
st em
id el
Ġc Ãłn
pr om
ĠGi Ã¡c
ĠE X
ĠphÃ ¬nh
H Æ°ng
ĠYing luck
ĠGabri el
ĠJ r
tr y
ĠTH X
ĠL áº¯c
ĠBá» īnh
Ġl im
ĠT uchel
ĠN áº±m
Ġs i
urg en
ĠDiam ond
ĠBen jamin
Ġm Ã¡ch
ik h
ĠC áº©n
B L
Ġvá»ĩ t
ĠLÄĲLÄĲ VN
do anh
ĠU BCK
ĠY am
TH PT
G Ã³p
Ġt e
5 50
ĠO LED
H áº¡nh
ng oÃłi
Ġ15 3
ĠV Æ°á»£t
... ).
ĠKard ashi
ylv ania
ĠT áº¡ng
Ġm áº©u
ĠVirgin ia
ĠS or
ĠvÃ© n
ĠM á»ħ
ĠMor gan
Ġbá» £
ĠB ook
ĠMin sk
Qu áº§n
Ġ17 4
ol la
HN X
ĠB ecamex
Ġnh Ã¡c
ĠTh ung
ic t
ie u
Ġx á»ĭn
end er
ĠS TB
ĠBr om
ĠK BNN
s Ã¢n
Ġng á»ĳc
ÄĲ Äĥng
Ġb áº§n
ĠÄĲ au
ĠM ul
U n
ĠX ung
LÄĲ LÄĲ
ĠPhá»ķ i
S á»¯a
ĠT áº¡m
Th áº¥t
ĠKh Ã¡i
P r
Ġnh áº½
L and
Ġs ho
ĠW ave
ĠCar ter
ad ona
200 2
Ġshi pper
Ġbá» Ŀi
ĠL ing
ļ I
ĠNhá»± a
ĠW TI
al s
Ġh áº«ng
ĠCCH C
T iÃªm
V CCI
Ġthá» ım
Kho áº£n
ĠHá» ıi
ĠY ahoo
Ġ15 8
T hÃ¢n
x a
Ġnh á»į
ĠMal i
ĠlÃŃ u
Ġm Ãło
f orm
ĠY as
at ti
ĠG as
ĠK um
B Ã£i
Ġ29 0
Ġhá» ħ
Ġsu Ã´ng
Ġcá»© a
T Æ°á»Łng
± a
c ap
g mail
Ġt en
b all
Ġváº¯c xin
L ao
ĠBos ton
ĠcÃµ ng
ĠS Ã¹ng
Ġrock et
Ġs Ã¹i
ĠThá» īnh
Ġma z
L Ã£i
ĠÄĲ Ã©c
Ġng á»Ńi
c al
ĠÄĳÃ ¹m
Ġqu áºŃy
ec tor
ĠHal loween
ĠP el
ich i
ĠAnd y
18 0
ĠKhá» ķng
Ġh Æ°Æ¡u
kh Ã¡ch
ĠLum ia
Ġ16 3
k ins
QÄĲ ND
Nghá» ģ
ĠT Ã¡i
ĠJose ph
ĠGi áº£
ĠPhilipp e
Ġn Ãł
ĠV egas
Ġhá» Łi
ĠWay ne
ĠB G
ĠFran ce
tr ang
ĠMan uel
Ġchá» Ļi
ĠHS BC
p ing
Ġs tream
Ġv Ã²
th an
Ġl Ãµm
Ngh Ä©a
ĠR ol
ĠR á»«ng
ĠNovos ti
Ġc hÃ´ng
____ ____
Ġn áº»o
ĠVina Phone
1 000
w ait
ĠR on
ĠH ass
Ġt al
ĠCT G
ĠC ong
Há»į a
Ġnh Ã¡y
ing er
ĠGH PG
S Ã¡ch
ĠP ra
ĠGR DP
ĠS ay
ĠKCN A
ĠGP S
Ġcho Ãłng
Ġ oi
EL TS
uy en
Ġmá» īa
T hÃŃch
l ic
Ġr Ã´ng
en o
ĠK er
Dav id
Â ²
ph ong
M iss
Ġl Ã¹n
ar ab
Kh áº£o
t Æ¡
ĠVn Express
m Ã¡y
t á»ĳ
ĠD áº¥u
ĠNg á»¥y
Ġc ard
ĠBlack Berry
um i
Ġ15 7
0 50
ĠTh uyá»ģn
ĠLy on
Ġ4 20
ĠMa ch
Ġhá» Ŀn
' ?
M iá»ģn
b Ã£o
ĠÃĶ n
ĠtÃº m
C Æ°á»Ľp
H áº±ng
ĠT itan
ĠB ez
Ch áº¡y
Ġngá» Ľt
... ;
V Ã¢n
ĠD á»«a
ĠR ica
ĠMod ric
ien ce
Ġb itcoin
ĠModern a
ĠbÃ¹ a
Ġm Æ°á»Ľn
Ġl uyáº¿n
s son
F DI
d g
t iá»ĥu
ĠK it
j k
ĠC L
ĠL P
Ġvá» «ng
Iá» Ģ
Ġnh am
ĠCon n
ĠC áº¡p
ĠR ah
Ġ9 11
Ġx á»ĩ
M os
Ġb uá»ĳt
ĠSim on
ed s
Ġca st
y ong
ĠhÃ ©o
v ia
ĠT em
ot elli
ill s
Ġgi áº§y
Ġch an
ĠL CD
S oi
g iáº¿t
c áºŃu
Bar ca
Ġhá» Ŀi
» Ĩ
á »Ĩ
v ille
ĠSant os
ĠKardashi an
ĠK TS
ÄĲB QH
ĠNg á»Ļ
ĠInn ova
ĠÄĲ Ã³ng
y s
ĠKiatis ak
l áº¥y
Ġbá» ¡
Ġthá» ıi
Ġ Æł
ĠTr Ã¡c
ĠP re
C X
qu Ã¡i
ĠS Ãłn
n ia
Äĳ áº¡o
Ġ ad
Ġng áº¡o
Ġm l
ĠNH M
n á»ķi
ĠB uk
Viet tel
ĠZ o
ĠB un
ĠM ao
Ġgá» Ľm
Ġro om
ĠFortun er
ĠPV F
ĠD á»¯
x Ã¢y
ĺ I
Ġáº¤ y
ar ma
ĠMar cel
d es
s ang
ty list
l ong
b á»ĳ
ĠAlex and
ear s
ut a
s ylvania
yl on
T Ã¹y
or th
da q
ĠXI X
Ġn áº·n
da fi
ĠP ixel
ĠT áº¯c
ĠG all
Ġt áºŃu
CA O
CL OS
Ã³ e
ĠMac Book
D onald
ng uá»ĵn
Ġtá» µ
BGD ÄĲT
ĠV id
ĠJ esus
i esta
ĠCo ca
ĠTh er
et ta
ĠJo han
b it
ĠChrist oph
H áº¡n
ĠKh áº©u
ĠH ad
ĠAmer ican
Ġ196 1
ĠT erry
ĠHá» ·
s Äĥn
Ġv Ã£ng
ĠH C
anc ial
H ar
j in
Ġdu á»ĩ
ĠTay y
ĠVik tor
ĠM Ã¢u
uss ier
ĠM Ã¡i
T a
Ġh Äĥm
Ġ4 80
d d
ĠCar ib
ĠN Ã´
Ġn ao
han a
ĠI ELTS
ĠCh anh
Ġchá» «
es tr
B Ã¹i
Bra zil
ħ u
ĠS tream
ĠEx p
ĠTr uyá»ĩn
ĠhÃ ª
ĠT ele
NT M
ĠMan ag
Ġtu á»ĵng
Ġbu á»ĵm
Ġm eg
ĠM anh
ĠÄĲ á»ĭch
T áº¡p
f urt
ĠEn rique
C Æ°
ĠJ obs
ĠÄĲH ÄĲ
ĠF ur
ĠB est
CO M
au t
Ġ19 00
ĠL td
ĠTro ussier
J u
ani um
eng ers
R EA
O n
Ġr Æ°á»Ŀm
Ġk iá»ĩu
w ar
áºµ m
x Ãª
b ie
T á»ĳt
ĠK ro
Äĳá» £t
l ai
bo urne
c Æ°á»Ľp
n Ã©m
Ġbá» §a
th áº£
Tr á»Ļm
Ġph Æ°á»£t
Ġl Ãªnh
ĠAd r
ĠPenn sylvania
UA E
Ġ195 8
ĠBol ero
ph áº£n
ĠLu k
Ġ9 50
Tr á»¥
ĠAlex is
Ġcon cert
âĢĿ. /.
ĠS uy
ĠJu ve
Ch Äĥm
l á»Ļt
Ġ áº£i
Ġt Ã£
c er
ĠNg Ãłn
ĠI mp
ch Ã¡y
utter stock
ĠN ight
ID EO
c áº¥p
ei ro
ĠSan cho
Ġtr end
Â »
s hip
Ġr Ãłnh
ĠPau lo
d Æ°á»Ľi
Äĳá»ģ u
ĠPh áº«u
Ġr Ãºng
Lu Ã´n
ĠCh Æ¡n
ĠC opa
ĠG Ã¡i
Ġá»Ĳ c
Ġ17 1
» £i
á »£i
l Äĥng
T om
ĠW om
Ġm iáº¿n
ĠTayy ip
ĠY oshi
ĠTun isia
ĠLy n
aw i
I CTnews
ĠÄĲH CÄĲ
ĠCatal an
ĠB et
ĠS ak
Ġ195 9
Ġtiáº¿ u
io us
ĠHar t
ĠGi roud
r Ã´
al an
v iá»ĩc
L áº¡m
ĠPort o
Ġ15 4
ĠB á»¯a
ĠR EUTERS
ĠExc iter
ĠUB TVQH
ĠTr Ã¡ng
Ġ áº¯c
ÃĢ N
ĠhÃ¨ n
Ġt we
Ġr Ã¬a
ĠTh uáº¥n
Ġ15 1
Ġ14 9
Ġfan s
W eb
ĠkhÃŃ t
ĠC oo
ĠHo uthi
Ġsá» ĩt
ĠGr am
L HQ
z en
ĠM á»Ļ
t Ã¡c
Äĳ Ãłn
ĠLu Ã´n
ez b
ĠK op
ĠP ul
e im
ĠH end
IC E
h oÃłn
Ġng Ã³t
ĠLuc as
oc co
M G
T ech
ĠAD B
ĠR ou
... âĢĿ
Ļ ng
ch ung
V Ã´
m as
ĠX D
Ġcá»ĳ m
ĠL Ã²ng
Ġcas ino
ĠQu Ãª
IN K
op ia
ard y
ĠNas daq
ian e
ĠL eo
ĠÄĲV TN
ĠB O
ĠPed ro
ĠAl b
ĠÄĳÃ ¹ng
Ġs Ãłm
ey ang
ÄĤ N
ĠD á»ĭp
ĠSw an
Ġh un
G Ã³i
v is
Ġn om
ĠC ad
ĠCo ur
t áºŃp
ĠÄĲ á»ĵi
ĠS K
ĠK yr
ĠÃ´ xy
e et
ĠC Æ¡n
J et
nh áº¥t
ub er
Ġ enz
ĠK DC
ĠGad dafi
Ġb on
ĠTh aco
ĠSec ur
T Ã¡o
ĠKu wait
k av
ĠL il
ĠJ urgen
ĠPow ell
v ir
n el
Ġnh Ãµm
ĠSerg ey
ezb ollah
K iá»ĥu
v Å©
v á»«a
ĠC ab
ĠÄĲ ÃŃnh
Gal axy
ĠN AM
2 30
er i
Ġxu Ã½t
ĠPet ersburg
ir ect
á»¥ i
ĠV L
o us
C I
at s
T áº·ng
f ood
Ġn ano
ĠBá» ı
Ġ17 6
v á»ĳn
ĠB ud
Ġn Ã¡u
iz za
ĠCh Ãł
M áº¡ng
Ġnh Ã¡
ĠVÃĢ O
lá» £i
ĠTAND TC
ĠCiv ic
A sia
ĠTV B
ĠS ib
Ġm ÃŃch
ĠH anh
b l
c á»ĳ
ĠH Ã´n
Ġs Ãłi
Æ¡ ng
Ġng áº§u
ĠM áº¥t
cá»© u
S Ã³c
ĠKho Ã¡i
ĠNh iáº¿p
Ġmaz ut
en se
D Ä©
og ue
ĠPat rick
R P
ess a
S c
ĠbÃ¨ n
nh Æ°ng
c á»Ńa
ĠT áº£o
ĠAl pha
Ġom ega
iy ad
T áºŃn
o T
Ġsá»Ń ng
ĠB ad
ine a
ĠCo un
eg al
ĠR M
R T
C r
Ġp oster
iv o
Tr Ã¡nh
on line
ĠV ision
3 60
ĠT oshi
ĠTo uch
ĠMar adona
ÃĤ Y
ĠStand ard
ĠhÃ£ n
B áº¡ch
ĠS áº£ng
Ġd el
Gi Ãºp
ros s
Bar c
G A
d ep
ĠKh ung
b en
ĠBez os
ĠK KT
ĠB á»ĵn
Gi áº£
S Ãłi
Ġv áº±n
ĠEver est
ĠF ri
ĠRo ad
c ord
tr ol
Ġdá»¥ m
ĠB á»Ļt
ĠK em
Äĳ á»ķ
ĠXH CN
ĠS CMP
IC O
Ġhot girl
Ġ hÃŃch
ĠS us
D V
Ġká» ģn
ĠD un
ĠH áº¡c
th iáº¿u
Ġv áº¯n
ap ixel
Ġsh ort
ĠT ill
ĠR O
m es
Ġná» ĩ
A ir
CN V
ĠN áº¯ng
n d
Ġ áº¯t
ĠCam bridge
om et
Cá»© u
D á»¯
ien co
Ġl á»ĳ
ĠLen ovo
2 20
Ġ16 1
ĠGHPG VN
x uáº¥t
z ig
ĠNh an
won do
Ġngh Ä©nh
m á»¥c
ĠCai ro
Jo hn
c áº¯t
O NG
s Ã¡t
Ġsáº ©
M er
hi r
ĠJohn ny
tr eo
Ġv Ãºt
Ġw ith
ĠA ki
ĠÄĳá» Ŀm
ĠR á
ĠRá »
ĠC ore
Ġchá» ĵn
ra vel
ĠE conom
s et
ar on
t Ã´i
tr áºŃn
ĠSt ock
ĠMo z
Ġ3 10
Ġb Æ°ng
Viet NamNet
ch áº·t
c Ãº
ĠTr u
ĠF idel
h áº¡ng
B izLIVE
T ÃŃn
áº¢ I
ia s
ĠR ose
L áº¡ng
s ay
P ro
Ġ15 9
Ġg á»Łi
ac tor
ĠMich elle
ĠG ol
ĠPrem ium
Ġh Ãłu
B B
v Äĥn
ĠHá»į a
Can ada
ĠP Ã´n
T Q
Ġn Ãºp
ĠJ essica
NV V
Mo urinho
ĠMar ie
Ġl uá»ĳng
ĠD á»¥c
s á»ĳt
Ġ17 8
ar real
ĠHS G
ĠOx ford
ĠDN NVV
g ate
ĠX inh
Ġb á»Ł
Barc elona
ĠH on
ĠK ob
Ġlá» ıi
d ung
ĠE thi
ĠFrank furt
b á»ĳc
Ġmá» Ńa
ĠAr m
Q SDÄĲ
Ġgu itar
ĠWhi t
s ov
ĠÄĳÃ³ a
um in
ĠMal l
K Ãªnh
R S
Em ail
n áº±m
ĠH ezbollah
ĠMot ors
A A
Bl ack
ĠN ak
Ġm á»ĭ
in am
ĠD iana
ng oáº¡i
Ġin sul
ĠD S
L L
ed it
Ġnh Ã¡o
eo l
ĠÄĲ S
ĠCS CÄĲ
ĠWar s
lo yd
au x
ĠCout inho
ĠPh o
chÃ ºng
s ity
ĠCP H
Ġnu á»Ļt
Ġr Ã¬
Ġsá» ¥n
ĠVin as
B ID
Ġr ich
ĠHous ton
ĠDi or
R ob
3 40
s á»©c
V TV
ĠK or
ĠNH CSXH
s á»ĳc
ia t
el y
Ġ *
ng hi
ĠH ae
under land
ĠOcean Bank
Äĳ Ãło
Ġgá» ıi
H uáº¥n
ĠLá» Ĺ
Ġm áº§u
ĠCru ise
ĠDom in
Ġ Æ¯
Ġr áº§u
ĠM S
ĠLim ited
ĠCá» §a
ĠCor olla
ĠG ai
ÄĲá» ģn
ĠH AG
ĠH at
Ġnh Ãºn
Ġnh áº¥c
h ol
Ġfl ash
v et
ond er
re gas
ad y
at ri
ĠS ul
Ġx á»Ľi
ĠtÃŃ a
11 5
Ġ amin
ĠX avi
Ġc rop
ĠR an
ĠA qu
ĠBent ley
ĠO zil
ĠphÃŃ ch
Ġph Ãło
K iá»ģu
ĠT iger
Ġcá» ¯u
c ci
Ġth iáº¿p
tr á»¥
ĠSa h
Ġphá» Ļng
L Å©y
on so
ĠTal ent
ĠUS A
tr áº£
ĠElec tron
ĠG aga
ĠTr uy
uk a
q qa
Ġg ao
ĠV a
ia h
Ġinsul in
ĠHass an
Æ ¯ng
ĠW u
ĠV áº»
ĠJenn er
Ġs uyá»ħn
ĠTh áº»
re e
m á»©c
Ġl á»ĳt
ph Ã¡
ÄĲ áº£o
ĠTh Ã¡o
ĠbÃŃ t
nh iá»ģu
ĠbÃŃ ch
¨ C
Ġ20 5
ĠcÆ¡ i
ĠG á»Ĺ
l en
ant s
ChÃ ¹m
Å ¨
ĠChi m
Ġvá» ±a
Cam era
ĠS á»©
Ġ á»ĳi
ThÃ ¹y
ThÃº y
Nh a
ĠVI á»Ĩ
ĠP ence
Ġd iÃªm
Ġkh áº½
Ġ21 5
Gi áº¥y
D e
ĠG ary
ĠY G
ip zig
ĠSo ft
uy a
ĠCl au
1 35
Æ¯á»ľ NG
N á»¥
Ġf orm
f it
CM O
S Ã´ng
Ġr Ã¨m
Ġr ub
ĠM ini
at ions
ĠN uÃ´i
ĠCh iáº¿t
ĠPh áº£n
C TCK
ĠCN C
Ġtá»ĭ nh
ĠR ud
Äĳ á»Ļng
ĠGu inea
ĠMel bourne
ĠD im
Ġph ui
col ate
ĠH ab
ĠchÃŃ p
g Ãł
ĠL B
ĠA NH
ek wondo
« m
Ġnhá» ¡
v Ã©
Ġ5 70
ĠD Ã£
ĠtrÄ© u
t ok
ĠMar co
ĠÄĳ áº¥ng
Ġng Ã¡y
Ġkh a
ĠMap s
Ġd Æ°á»£ng
ĠCh Ãło
ĠSnow den
or gan
ĠCr uz
g hi
ĠH V
2 80
A d
ĠV R
Ġch áº§u
ĠTÄĲ C
att an
ĠNh áºŃp
M Ã´i
v á»¥
anc y
ĠRog er
Ġho n
ĠTP Bank
ĠFin ancial
ÃĢ I
ĠMich igan
k Wh
ĠJ apan
ĠKenn edy
ĠP S
ĠN ova
ĠAndre a
9 50
ĠQU AN
ĠK un
ĠBal otelli
ĠMar cus
Ġtrá» ĩt
op ol
ĠÄ ©
ĠNg uyá»ĩn
Ġhu á»³nh
ĠM INH
ĠFan page
m ir
K ÃŃnh
Ġh ec
ĠR iyad
L aren
ĠTT XH
19 95
ĠU t
M N
Ġb Ãłnh
ĠTo day
Ġ op
Bu Ã´n
Ġ18 9
ĠD L
ĠB each
av er
l eo
b Ã³ng
Ġr áº¡
âĢĿ !
C á»ķng
G PT
ĠKr ist
ĠSch ool
ĠHe ung
Ġhá» Ńng
14 1
Ġl iu
Ġgi áº«m
ĠN an
ĠBl ink
ĠL á»ĳi
Ch Ã¡nh
lo ck
imb le
ch enko
Ġhom estay
Ġshow room
N Äĥng
ĠAM G
ĠTh Æ°á»Ľc
r Ã´ng
Ġ17 2
To Ã¡n
Ġl Äĥm
ĠB iá»ĩt
ĠBurn ley
ĠKy ung
ĠM em
C OV
ĠTh ang
ĠChá» īnh
m et
k hÃ
ĠSu ga
17 0
Ġt Ã¡p
Ġqu Ã¡ng
ĠcÃ ¢m
2 60
chet tino
Ġn ylon
ĠCh áº¡y
b Ã¡o
ÃĤ m
ĠPC I
ĠGaz prom
ĠH Ã£n
19 54
Ġb áº·m
g n
ow er
n ick
eop le
ĠM I
ĠV oi
b Ãłi
ĠP ia
ĠS ara
ĠTr Ã²
Ġd Æ¡i
L á»±a
Ġ16 4
ĠPh arma
Ġn áº¥p
ĠM iÃªn
Kh uyáº¿n
tin ental
ff ee
Ġláº» n
Äĳ iÃªn
Ġ2 12
ar io
Ġ uyá»ĥn
ĠO ppo
et amine
ĠW el
ĠVin ashin
Ġp ixel
ĠTill erson
ĠGu cci
AM A
ĠAV G
Ġm Ã³
ak s
Bay ern
h yd
ĠS at
bo urg
ar u
ĠBl anc
Ho áº·c
Ġkh áº¥n
t á»ĳi
ĠGon z
10 1
ho u
f ica
Ġb áº¿t
Ġyá»ĥ m
n ie
ĠLe ipzig
ĠVN CB
Ġblock chain
ĠMW G
Ġg r
ĠL á»įc
ĠSp ider
N áº¯m
ton ia
ev el
ĠA G
Ġ at
Hy undai
ĠNg á»ĵi
ChÃ ¹a
ĠMay a
CP I
m ang
HH GÄĲ
Ġh e
Ġl áº¡y
ĠBas el
se ille
ĠL ag
imble don
G Ã³c
ĠL or
W D
ĠB á»ĵi
ĠTN MT
ĠA CV
ĠG M
it ies
Ġv Ãªnh
C ovid
K on
b ÃŃ
ĠTele com
ĠChá» Ŀ
dau tu
ĠN á»¥
ĠTh Ã¡c
Ġ Ã³ng
h ail
h ye
S a
Ng Æ°
ĠI N
ĠDav is
Ġb ol
ĠL GB
ĠR Æ°á»£u
ThÃ ºc
Ġch Ãły
T Ã¡i
ĠS O
ut t
Ġblo gger
19 98
os i
ĠPh áº¡t
ĠJenn ie
19 99
ch ar
BID V
Ġm Ãºt
ĠJ osh
Ġh áº»o
N áº¯ng
Ġ3 90
ĠphÃ¹ n
em b
id d
is er
c á»±c
ĠKore a
Ġg el
U P
Ġcast ing
hi o
ĠBeau ty
Tr áº¥n
ĠÄĲHÄĲ CÄĲ
ĠC uá»ĳn
In ter
ĠN y
Ġ16 9
Ġn á»įc
ĠLH TN
l Ã¡
m ade
ĠÄĳ áº£n
c es
ĠK om
ĠBl ade
ĠMB B
D Æ°á»Ŀng
L ink
ĠMan e
Kh ung
ĠJ ag
ĠLaz ada
ĠFranco is
Ġc ode
Ġng áº©m
ĠCon s
G u
d anh
ĠTh áºŃn
ĠV A
ĠchÃ³ c
Ġ Ã©o
ĠSel ena
ri ot
ĠJun ior
ch uyá»ĥn
S Æ¡
ĠTh iago
ĠPro ject
ĠJet star
v Ã²ng
p earl
ĠVar ane
ug h
ĠR uss
ao mi
Ġ au
Ġs Ã¹ng
ĠWar ren
ĠW ell
m ond
ou d
ĠA IDS
Qu ay
Th áº©m
kho e
Ġ18 8
ÄĲ áº¥u
ĠSch ol
Ġtrá» Ľ
ĠSG GP
Ġlá» ĵi
ĠPr ess
ĠÃ į
âĢĿ )
estr ogen
" ?
ot ball
ĠRa qqa
Ġb eta
ĠB ung
uez one
v al
áº¤ N
v iáº¿t
ch ai
H Æ°á»Łng
Ġ19 2
ĠT K
ĠSom alia
Ġsáº «m
ĠÄ ĥ
ĠMor occo
ĠLe eds
ĠTh S
ter res
ĠEd en
K á»ĭch
h iá»ĩp
UB TVQH
Ġca ffe
ĠK ÄĲT
ĠMark et
Ġcá» ıi
ĠBS R
ĠC I
áº¤ T
Ġn Æ¡
iz ona
ĠSp r
ĠT as
CN CH
ub am
Ph áº¡t
Äĳ Ãªm
V ui
at ed
199 7
ĠHS SV
ĠY a
m Ã¹a
Ġhec ta
ĠT iÃªm
ĠMB H
ĠL á»Ĺi
Ġ17 3
ĠAnton y
ow n
ĠIs a
ĠO mar
ĠS á»ķ
ĠO f
! âĢĿ,
ĠFernand o
ĠW imbledon
TT O
t iÃªu
ĠH U
Ġ4 30
ĠthÃ ºng
M ic
ĠN est
g et
ĠÄĳ iáº¿c
ĠE CMO
Ġr áº§y
ĠL uiz
Ġ17 7
ĠMon t
ĠQ P
re z
ĠMid u
ĠnghÃ ©n
Ġm Ãºn
ĠSar ah
II I
Ġsal ad
Ġb iáº¿m
Ġtwe et
ĠA TP
B i
Ġr á»ĭch
T áº§m
ĠE arth
Ġb Ãºi
ĠInd ustr
Ġvá» Ľ
erg y
ĠWal ker
ĠY oga
uk e
ĠGi Ãºp
âĢ¦ ),
ac y
ĠGu terres
ĠCh eng
Ġvá» ĵng
3 80
Kh áº³ng
P ink
ĠB Ã£o
ÄĲ an
ĠM á»«ng
ĠMat th
v ai
ĠAsh ley
ĠSho igu
Ġthá» ī
IC EF
ĠH as
ĠF O
ubam eyang
ĠK V
B e
á»¥ t
han na
Ġ195 6
tr á»ĭ
at on
c áº§m
S yria
Ġd áº·t
ĠFul ham
T ottenham
m áº·t
ĠCol um
ĠVill arreal
ĠCr edit
S á
Sá »
9 90
á»Ĳ C
ĠSer v
et z
Ġ16 6
con n
ĠJav a
Ġ24 5
Bá» ī
V it
ĠAr n
in da
it hi
Ġt uá»Ļc
F ord
Ġp l
ĠAr izona
u th
Ġ4 60
ra k
ĠTÃº y
ÄĲ áºŃu
Ġra ting
ĠSing h
th áº§y
Ch am
Th o
ak er
ĠN ut
Ġg Ã¡n
AF P
19 0
Ġch uá»ĳt
Thu áºŃn
ĠV áº£i
ĠPi que
Ġdá» Ĺi
at ic
ent e
ĠB it
SI P
G Ãł
l av
x á»Ń
Äĳ Ã´
ng u
Ãµ a
ĠGar cia
ĠD eb
S te
ĠJ ason
ĠCar n
ĠNh ai
ĠAl aska
Ġw ifi
ÄĲ áº·ng
J enn
A t
Ġbo ong
Cá»¥ m
r iz
Ġt Ã³t
ĠMi u
Ġx á»Ł
ĠSwan sea
° C
m ino
Ġ18 3
ĠSap a
M K
l áº¡
ĠPat riot
ĠL Äĥk
ĠthÃ³ t
ĠPot ter
T uyá»ĩt
Ġ195 7
ĠSy stem
ĠLu ke
Æ°á»Ľ u
ia r
R o
ĠFab regas
ĠS MS
ĠM ig
+ ,
ushi ma
ĠO hio
Gi an
Äĳ á»Ļ
ĠBlink en
V IDEO
d Ã¹
ĠS á»£
N á»Ńa
ĠH ur
ĠAv iv
ĠH áº¡o
ĠS iu
Ġnh áº§y
M áº¡nh
ĠKhÃ ¢m
! ?
ĠSav ills
ul t
ĠEthi opia
amp s
ĠPo chettino
Äĳ áº·t
Ġtab let
erm ain
B iá»ĩt
B CT
ĠN á»Ĺ
ch iá»ģu
p l
2 70
ĠGener al
ĠGram my
Ġs áº¥m
Ġngá» £m
ĠViet ravel
ĠLad en
t Ã¹y
' )
ĠLeon ardo
Ġba ht
há»Ļ p
B GTVT
ĠSh utterstock
th Ã¡nh
Ġn ÃŃn
EC D
ĠInf in
and ro
Ġhá» īnh
ĠB io
ut s
ĠUniver sity
q uÃ¢n
ĠG hana
» ĮC
á »ĮC
k us
ĠGu am
ĠSal v
Tá» ī
ĠÃį ch
ĠV D
ĠBR T
M Ã¢y
phi c
ĠPh iáº¿u
ĠKyo do
-------- --------
ĠG od
ĠChÃ ªnh
c Ã¢u
ķ n
T Ã³m
ast ic
Ġqu áº¹t
Ġ18 2
ĠS kr
ent ial
G I
ĠN Ãło
Ġn iu
P ark
TP P
ĠD áº«n
ph ia
ĠC Ã¡m
Ġ â
C áº£ng
ĠT eam
ĠNov ak
ĠT BA
L á»ĳi
ĠF B
ĠVol od
ĠNghÃ ©
M ich
ĠS underland
ĠHai ti
ĠEd ge
gy z
Ġmeg apixel
T Ã´n
ĠI gor
G o
T á»ĳc
Ġt ennis
Ġnh áº¿ch
ĠN BC
CB M
ĠT A
gi Ã¡o
Ġs anh
ĠB LÄĲ
áº¬ T
Ġlo ang
Ġg áº¡
ĠW r
to is
T u
Gi áº¥c
ĠSen egal
iz z
ĠAl f
E WS
Ġ18 1
Ġ17 9
ĠBo x
T á»Ļi
ĠN Æ°Æ¡ng
c áº§n
ĠBH L
= =
Man chester
F T
3 30
L á»ĩ
ron t
ĠCO P
ĠColor ado
Ġ18 6
p u
ĠHit ler
ĠAl v
m u
Ġhi u
ĠBol ton
ĠBol ivia
Ġb reak
ĠB kav
ĠY oko
ĠCar lo
hÃ³ ng
ĠHÄĲ BA
ĠcÃ ºt
il k
Ġnh Ãºt
Ġ á»ĳt
C hÃŃ
ĠL A
ĠTr áº¡ng
ĠMac au
ĠArsen e
á»ĭm á»Ľi
Ġx Ã©n
ĠD z
ĠZ ar
ĠBV MT
ĠD Å©
ĠÄĲ Ã¢u
ĠX Ã¡t
b áºŃt
ĠL IÃĬN
ur as
Ã´ á»ĭmá»Ľi
Ġso da
k an
Ġn á»±c
ĠShang hai
Ġ3 000
Ġso fa
ck ho
ĠShop ee
ernand ez
ĠMor ris
ĠD h
An d
ĠP ad
Ġd Ã¡t
ĠO CB
Ġph om
ĠBC TC
2 10
Ġo áº£i
ĠD á»ĭ
ĠK TT
Ġl Ã¡c
CK P
ĠEs tonia
f ace
ĠÄĲá» ©a
ÄĲ á»Ļ
G Ã£
Ġ Ã´i
ĠChristoph er
ĠhÃ³ m
ĠCB CNV
ĠDig ital
ĠC Ã²
Ġl áº±n
ĠkhÃ³ e
ĠTr ai
VP CP
imb ab
Ġr áº§n
ĠAv engers
ĠU s
Ġr ÃŃt
ĠK ath
chá» £
Ġ202 7
V iÃªm
ĠC áº¯t
ĠF ast
ĠW hat
ĠMor ata
ĠSt oke
pp ing
az e
D G
ĠcÃ³ p
ĠV ÄĤN
ish ino
ĠSha h
ĠTa j
c ini
c t
ĠK ol
Ġ20 3
Ġr i
Ġgiá» ħu
Ġ Æ¯ng
ĠD Ãłi
as il
ĠV e
ĠMot o
Ġr uá»ĳc
199 3
ĠSp a
am an
Ġca f
L Ãłn
l iÃªn
Ġ2 19
ĠL á»±a
ĠHÃłn Ã´á»ĭmá»Ľi
t Ã¡i
esse nger
á»ģ nh
Ġhá»Ļ t
ĠI A
Ġs áº¡m
ĠBill board
X áº¿p
CKP INK
ĠS á»Ńa
Nh áº¥t
ĠC ot
gyz stan
» ¦
á »¦
ĠD Æ°á»¡ng
ĠJam ie
in n
Ph Ã¡
em outh
... âĢĿ,
im er
p ho
c y
ĠTher esa
ĠV iÃªm
Ġ18 7
ĠN on
ĠSa ch
Ġl á»ĭm
Ġ21 7
ĠCl ass
Ġx áº»o
Ġng áºŃy
d á»ĭch
» ©t
á »©t
ĠPhÃ ª
Ġs p
P SG
ĠCB CC
imbab we
ĠMc Laren
ĠÄĳ Ãły
ĠIsa ac
ĠÄĲ iá»ģm
as m
Ġdi va
PhÃ ºc
ĠAh mad
ĠP ir
ĠTr á»ĳng
ĠNh áºŃm
ĠVin pearl
ĠAh med
ch iÃªu
ĠK iá»ĩn
ĠWil son
ĠC Æ°á»Ľp
eo t
Ġ19 30
ĠT TC
ĠTh uyÃªn
ĠMar seille
ĠÄĳ áº±m
ist o
ĠT áºłI
ĠWat ford
ĠBuff ett
ĠH áº¯c
ĠVi enna
Ġnh eo
uz ia
Ġ Ã¹a
ĠElectron ics
há» Ļi
u er
Ġch Ä©a
ĠL Å©
ĠP O
C ty
ĠMcC ain
ĠBen fica
ren ce
ĠP ink
ĠG E
Viet combank
ÃĢ NH
ĠN ano
ĠS him
ĠAl an
ĠT TCP
Ġtho i
S an
Ġgiá» Ŀi
Ng uoiduatin
ÄĲ inh
ĠNat han
et ts
H ung
Ġng Æ°á»£ng
ĠPh Ãłm
gi Ã¢y
ĠRob ot
ĠEuro zone
ĠB ey
ĠNov aland
Ãģ C
ch ui
ĠG ul
Ġte aser
Ġcho colate
g ra
uk ov
ĠM á»Ĺ
ĠV Æ°Æ¡n
urn emouth
Ġcaf Ã©
ĠBÄĲ KH
ĠC Ã¡p
tr uyá»ģn
Äĳ en
m Ã³n
Ġnh áº£m
ĠHend erson
* )
B áº¡c
ĠH erm
ĠC ienco
ĠchÃ ¢y
ĠR ice
and y
ĠJ en
ĠNg ang
ĠQ G
ĠG el
Ġ5 60
Äĳ á»ķi
ÄĲ Ã´
ent o
t Æ°
ĠRe g
giá» ¯
ĠCá» ¦
ar ia
ang nam
ĠW ik
qu oc
ĠL Ãłn
ĠGrand e
H OSE
ill as
s á»ķ
ĠDo ha
Tr Ã¡ch
Ġbol ero
din and
ĠdÃ¹ i
T KCN
h ama
ĠCh alle
Ġ !
ĠL uyáº¿n
ĠS ull
ĠLeg end
y u
ĠP ass
ĠFir st
q uyá»ģn
Ġso Ã¡i
ĠMc G
ĠKh Ã¡t
att le
Ġlo an
Äĳ Ã¡ng
» Ľ
á »Ľ
Ġn áº»
Ġá» ·
Ġ5 20
ĠVH M
ĠChat GPT
or o
ĠTR á
ĠTRá »
id as
Ġ uyÃªn
Ġr Ã´m
ĠB ond
ather ine
ĠM áº¿n
ĠP K
T á»įa
er en
Ġngá» Ľ
ĠPr inc
ĠV ogue
ĠChá» Ń
ĠÄĳ Ã¡u
phá» ¥
ĠNh anh
Ġ et
Ġ áº¯ng
n á»Ļi
ĠV iÃªng
Ġ19 4
ĠMill er
c áº·p
ĠLÄĲTB XH
EC O
ĠAn a
Ġrá» ¥c
th uá»ĳc
p i
Ġs áº§n
ĠG IA
haw k
ĠK arl
ĠMat tis
Ġ um
ĠB ella
Ġbá»ĳ t
ĠP G
ĠCá»¦ A
ng uy
ĠR á»Ńa
ĠÄĲ iá»ĥu
ĠM Äĥng
Ġx Ãºi
X T
d ie
Tr ail
Ġch áº¡c
ĠK ay
F ED
Ġ23 5
u ar
n ers
ĠHill s
Ġ18 4
ĠMass ach
N Ã©t
ap or
s burg
ĠManag ement
Th áº¡ch
ĠNhu á»ĩ
U ng
Ġ á»ĳ
M Ã¢u
ĠK ov
Ġxá» ı
port s
ĠchÃŃ t
h áºŃu
ĠI Q
ĠN in
199 6
ĠAc t
V I
ĠC ast
ĠR ex
C ÄĲV
C om
Ġk il
l ao
ĠBus an
ĠH ak
ĠC áº¡n
ĠD Ãłn
ĠPier re
m Ã´n
ĠKho ai
ĠCh ap
he ed
ĠN ÄĲ
ĠMik el
Ġ5 000
Ġng Æ°á»Łng
ĠJ os
Ġv ÃŃt
ĠC II
Ġlu á»ĵn
ĠAsia d
Ġb ox
ĠÄĲ á»ķ
ĠB all
Ġ19 3
Ġá» ¥
ĠH ernandez
Ġng Ã¡t
ĠCh uá»ĳi
bor ough
on to
Ng á»įn
l ia
ÄĲ á»Ļt
ig o
ĠL ov
L y
Ġch ang
199 4
ĠSal man
ĠA ustin
end ra
Ġv Ã¡t
ĠN áº¯m
ĠEs p
S K
Ġs tylist
ĠT Ãłng
ĠÄĲ uá»ĳng
Ġng áº£i
E uro
Ġto Ã¡i
ain i
ĠLe v
N E
Ġtu á»ĵn
b at
ĠInvest ment
ĠÃ ī
ĠSm all
ĠNa j
L oÃłi
ĠChá» ĳt
Ġng Ã¡o
us ra
Ġ el
ois ong
ĠCour tois
err ard
ĠChr ome
ĠSX KD
ed oisong
ĠX áº¿p
chÃ º
ĠT CC
D M
Ġn atri
N Ã³ng
Web site
ĠZ imbabwe
Ġtr Ã¡o
ĠLá» «a
and e
AS EP
ĠBil bao
ĠT I
. (
M u
ĠE zz
hy un
ĠT Æ°Æ¡i
ĠK in
ĠRom an
Ġo ai
ĠKro os
au s
ĠLing ard
ĠMal d
Ġm on
ĠK ishi
ĠJon athan
Ġs am
ND N
ĠPl an
Ġl Æ°
ĠLu gan
ĠHO ÃĢNG
ĠP ao
ĠBank ing
c in
ĠRang e
Ġra dio
ck er
T G
Ġv áº©y
Ġ21 8
Ġje an
Ġg Ã¹
ĠAl bum
ĠN Ã©
ĠH ama
ĠLGB T
ul in
Ġch áº¡nh
Ġsáº© y
Ġv áº¹o
ĠTr Æ°a
ĠRet ail
ĠTHA AD
ab ad
Äĳ Ã¢y
ip an
ĠK L
p him
ĠL oÃłi
Ġthá»¥ t
h ang
ĠGu ill
3 21
00 1
V an
Ġ22 2
Ch Æ¡i
th áº£m
Ġnick name
ĠW ong
ĠT ÃŃ
ĠDy nam
ien Viet
ĠSt one
ĠTr ay
0 80
in ness
ĠÄĲ Ã¡c
ĠPer ry
gg s
ĠchÃ ¹i
NT Q
ĠI ron
Ġnh áº£nh
ĠBr ight
ĠC VT
ĠB I
Ġtrá»¥ i
ĠKyr gyzstan
Ġd iáº¿t
ch t
c Å©
Ġqu áº·c
Ġ Ð
ĠDN A
Ġá» ¦
ĠL ay
s ong
ĠEn ergy
ĠV áº¡c
v een
ĠLux ury
ĠA ubameyang
Dr agon
Ġd Ã¬m
t áº¥t
Ġ estrogen
ch an
ĠD ell
ĠL ot
ĠN ike
H iá»ĥu
ĠD áº¡y
b Ãłn
hÃ ¬nh
Ġt on
ar s
ra h
ĠPet r
ĠPr ay
d á»ħ
Ġb áº£
CS C
Ġb Ã¡ng
ush u
N uÃ´i
ĠN hÃŃ
ĠN ishino
Ġ5 40
ĠTho Ã¡t
ĠÄĳÃ ºt
Ġ20 4
Viet in
chu áº©n
ĠMassach us
th áº»
k ey
ĠPV S
áº¢ O
ĠKh en
ĠK ÃŃch
ac era
ĠH err
ĠOff ice
b ele
Ġchá» Ļ
ckho edoisong
ĠFo und
Æ¯á» ¢
il i
Ġc ort
ĠSA B
ĠGra ham
Ġd ance
Ġb iáº¿c
ĠHo ms
ĠM Ã©p
Th áº£m
ĠÄĲ Ã¨n
ĠX Ã³m
ĠC es
ĠMo unt
ĠLe ad
ug eot
ĠG at
em iro
ero on
Ġr up
lo ad
ĠR áº±m
ĠRos s
Ãļ c
C Ã¡t
ĠKT NN
Ġ27 5
ĠNh iÃªu
ĠL em
b s
TN MT
ĠZ in
A pp
ĠMik hail
AR S
ĠComp osite
kus en
ed u
ĠD or
t iáº¿ng
ĠF air
n á»ķ
M áº¹o
ĠS CB
BGD PL
ĠXp ander
ĠKH ÃĶNG
ĠAr ch
ĠVes pa
ĠI DC
ĠH wang
ou cher
ĠPhan tom
nh áºŃn
ĠGr uzia
Äĳ au
ĠJ P
ĠG áº¡c
Ġd er
Ġd es
ĠN á»ĳt
Ġná» ¡
Ġb Ã´
el son
ĠCatal onia
os hop
Ġ7 77
ĠN O
B Äĥng
ĠLe ver
l Ãºc
Äĳ iá»ĩn
Ju ventus
ĠM á»Ŀi
ĠM Ãºa
Ã ¼
ĠL áº·c
ĠAl ves
Kh áº¯c
ĠJ ar
ond uras
Ġtrá»¥ y
Ġ19 55
ĠSo c
19 30
Ġná»ĩ m
el in
ĠBr ian
ĠÃĲ áº¡i
ĠDo ug
L Ä©nh
ĠWol ves
ĠPar t
B ang
ithi um
N Ãºi
ĠH á»ĳ
ĠRob in
Ġ20 35
Gi Ã³
Ġth áº£y
ĠP M
10 5
V áºŃt
Ġ4 70
ed ad
ĠInd ia
ĠR aul
ĠE o
ĠConn ect
ĠD Æ°a
ĠH all
ĠI oT
ĠC yr
Tr á»©ng
ĠAs us
it ez
ĠMas ters
ĠDo wn
D a
Ġl Ã³ng
ĠNet work
c os
ĠMar i
BÄĲ BP
ĠB SC
ĠCorp or
T iÃªn
Ġv Ã¡nh
ro und
P lay
phÃ ¹
ĠL ow
Ġb Ã©t
ĠRe p
ĠLugan sk
ak o
or p
ro g
ĠC Ã¢n
X EM
ak ov
ĠNg á»įn
nh an
ĠP elle
Tr ump
ĠFir e
ĠM ull
ĠMarcel o
ĠOl iv
it ol
is m
Ngh Ä©
t v
Ġ195 3
ĠAl bert
ĠC ay
Ġ21 6
itt le
r as
ĠR al
Ġqu Ãłng
Ġn Ã¡i
M ark
ĠEU R
ĠFuk ushima
Tr á»ĭnh
am en
ew ay
ĠMar athon
ĠTechn ology
Ġ3 25
ĠSer ena
Ġ ex
Äĳ áº¥u
ĠSun ny
ĠT Ã´m
ĠR Ãł
Th Ã¡ch
Ġl Ãµng
ĠIn iesta
ĠG Hz
ĠM essenger
ĠH ap
ĠVen ice
ĠD uyá»ĩt
ĠMoham mad
ĠDu c
ĠT axi
Ġl áº³ng
Ġ4 40
ĠKh áº©n
ĠTrá» «
ĠGi Ãł
99 9
ĠK iá»ĩm
ĠMassachus etts
Ġ20 8
n Ãłng
ĠH appy
Ġrich ter
Ġph iá»ĩt
l ish
h áº¿t
ast ian
qu in
ĠBu g
ĠC á»Ļt
ch at
ĠV biz
ĠMas on
ĠVolod ym
Ġ19 46
19 72
ĠQu ÃŃ
L Ã¡i
Ġr Ãºp
ĠP eople
ill er
c ung
i que
Ġngh iáº¿n
ĠFer dinand
ĠDá» ¥ng
P etro
ĠGu inness
Ġst udio
ĠSil icon
ĠT áºŃn
ĠTh iá»ĩp
ĠSim e
Ġtr Ã²ng
ĠI z
D F
Ġdo ping
tr ic
ĠL áº¡m
ĠGiá» ĵng
H Ã©
m á»ĳi
ĠFal cao
Ĩ NH
ĠCan on
t á»Ń
ĠHu gh
ĠR um
ĠCh in
ĠN Ã©n
l on
ib le
N á»£
Ġl ip
ĠB iá»ĩn
E G
N eymar
W TO
ĠX uyáº¿n
umb ai
ĠMan s
ĠÄĳ ay
ai g
Ġh áº¯c
ĠBá» ĥ
al es
ĠSh ak
ĠL ac
ĠB á»įn
c Ã¡n
ĠGun nar
ienViet Post
y me
Mic rosoft
Ġ0 90
A X
ar n
ĠRC EP
eren veen
ut o
S Ã¡u
el ine
... ",
C áº¡nh
un e
ĠH em
ĠVIá»Ĩ T
c ott
ĠCoo per
ĠC loud
ĠV T
ĠA ung
ad on
S EA
Ng Äĥn
t am
Ġng Ã¡c
) âĢĿ.
b Ã¡nh
ĠNhá» ı
Ġkhu áº¿ch
D áº¡y
Ġngá» ¥t
ĠM ate
ĠPep e
ĠQ Ng
ev i
Ġt Ã©t
ĠTr ust
ĠRe cep
ĠBo urnemouth
Äĳ á»ĳt
ĠDo an
Chá» Ŀ
S Ã³ng
M i
ĠSt ol
Ġ2 11
B ig
Ġ20 9
Ġgi Ã£i
Ġs ing
ĠGiá» Ĺ
ĠA x
w en
ĠC ent
Ġng Ã¹n
199 2
ĠTC ty
ĠV J
ĠLat in
er ty
ĠA aron
at hip
um ber
ĠC ech
r io
ĠKar im
ĠPar ag
con s
ĠBl uezone
ĠEX O
ten berg
ĠRou hani
ĠCol e
m ay
en ne
ĠD ur
Ġkh áº¿
ĠR ow
ĠY i
hyd r
ĠÄĲ Ã¡y
ĠÄĳ uá»ĳc
ĠTur bo
ĠD X
ĠEv ans
ab aby
V L
ĠS Ãºp
Ġs áº¡
19 88
Æ°Æ¡ c
s ai
ĠPV D
Ġláº½ o
V iáº¿t
áº¢ N
Ġhá» ±c
ÄĲ Æ°Æ¡ng
th e
ĠB Ã²
Ġáº ¨n
ĠCo ffee
ĠJ or
Ġp Ã´
ick y
i Hay
ĠSpace X
há» Ĺ
a j
su ckhoedoisong
r ist
um er
ĠLau rent
s uáº¥t
Ġg anh
ĠManh attan
Ã Ĵ
ĠTHA NH
l á»Ŀi
ĠT U
Gi ang
ÄĲ N
ĠC ua
ĠW ag
ĠVolodym yr
M Ã´n
ĠH onduras
O ne
ĠG em
Ġ21 4
v ÃŃ
ina wa
ĠM áºŃp
ĠTr eo
Ġt áº¥y
ĠCam eroon
ĠC MC
ĠD Æ¡i
Ġ6 30
ĠNor wich
K ia
ĠPel osi
Th Äĥm
Ġd Ã´i
ĠTh iá»ĩt
ĠCh am
ĠI phone
ĠLock heed
Ġtá» ģ
ĠE CB
ĠV ers
ok a
b ell
M ac
4 80
Ġ999 9
Ġs Ãº
Ã ĥ
ie g
p ur
h Æ°á»Ľng
m Ah
ĠHir oshi
Ġnh Æ°á»¡ng
ina w
ĠFo otball
ĠL lor
O L
B á»ĵ
r ia
ĠFl ash
PP O
ĠM umbai
Ġnh en
22 5
m Ãłu
ĠMan cini
Ġl áº¥m
Ġm áºŃu
V ÄĲV
ĠN á»£
ĠColum bia
ĠS Ã¡t
Ġ20 6
Ĭ CH
ĠH R
ĠÄĳ iá»ĥu
ĠGo al
Lá» ĩnh
4 40
s w
Ġkhi Ãªng
ĠSp urs
Ġná» ©a
ĠQu á»Ľi
Nh áºŃp
19 90
ĠN áº¡i
ĠSo ci
ĠSo chi
b áº§u
H R
F PT
ĠLaz io
ĠC CN
c le
ĠW is
ĠCS B
t Ãłu
ĠC re
TH A
Äĳ áº¹p
ienVietPost Bank
Mer cedes
ĠHy brid
H TX
ĠAr áºŃp
Ġc áºŃt
ĠR h
ĠZ e
4 90
ĠSt udio
Ġgl uc
ĠAbb ott
am bi
ĠAt t
Ġng ai
ĠCh un
Ġl áº£
ph an
Ġ20 7
Ġl em
Ã ī
col n
Ġn Ã¨
ic es
is o
ap l
ĠCong o
ack er
Ġch uá»ĵn
ĠM oney
ĠGirl s
Tr á»ĵng
m Ã¹ng
ĠcÃ ¹i
ĠBr u
p Ã´
ĠT TVN
Äĳ á»ĵ
ĠT Ã¡
ĠD ec
ĠVinas un
ĠTor onto
gia dinh
ĠYoko hama
¡ n
ude au
m áº¯t
ĠMÃ¡t xcÆ¡va
ĠG á»įi
ĠT iáº¿c
ĠSand ers
c Ã¡nh
ĠSib eria
ĠKyl ian
ĠBá»ī m
L ÃŃnh
ĠRiyad h
Ġb áº£nh
ĠHe erenveen
ĠAnd er
c áº£m
19 89
rid ge
ĠATVS LÄĲ
ĠR Ã´ng
ĠSime one
ot el
v áºŃt
C R
ĠLever kusen
ĠMu ang
ĠN á»Ńa
en ia
199 1
ĠA vent
O PEC
O I
S on
v á»ĭ
UY ÃĬN
mo on
ĠNhá» ķn
lin s
bo hydr
igu ain
Ġx iÃªu
ĠDan ny
ĠB eng
ĠG errard
Ġch áº»
amil y
ĠChampions hip
ĠC ov
Kh áº©n
em e
Ã ¶
it ton
ĠChá» ¥p
ĠEm ma
11 3
Ġg ara
ar in
ĠLaw rence
Ġx áº¯t
o ay
Ġr Ã¨
ĠTr an
N ASA
ĠSam uel
ĠL á»Ńa
Ġcom bo
Æł XH
Ġt itan
Ġc áº¡y
Ġs áº¥p
op mart
M áºŃt
C áº¯t
ĠBG K
ĠMid d
ĠOk inawa
ĠT CM
ng há»
ĠS und
ĠChan nel
ĠBen itez
ĠY un
ĠLes te
ĠMc K
ĠRich ter
ot on
M en
ĠS r
, ..
ĠC BS
ĠT CB
ch uyáº¿n
ĠPhá» Ľc
ĠSach s
ol in
ĠD iÃªm
Ġ5 80
L am
Ġ26 5
ĠSoci edad
ĠSp ec
T Ãº
ap ova
ĠÄĳÃ ¹n
Ġmar athon
up ol
ng á»ĵi
ĠTIáº¾ T
ĠNh Æ°á»£c
Ġkhá» īnh
ĠB ab
Ġr áº£
c áº¥m
Ġso c
g ram
ĠAbd ullah
ĠTr udeau
ĠS eb
ĠD ang
ĠAnd erson
Ġl Ã¨o
at y
ĠGi ggs
tr áº»
ĠP av
ĠOcean bank
ĠF i
ot or
ĠBor ussia
if one
ĠWat er
Ġh uÃ¢n
Ġ19 1
ĠR in
ĠPhill ip
Y o
ĠBá» ĨNH
ĠXVII I
ch ip
ĠQ N
ĠB ac
at ex
b ot
NT ech
ĠNT D
Ġgi en
ĠAl onso
ĠKan te
ĠA L
ĠKo h
V iÃªn
ĠN M
ĠN Ã´m
am ol
ex press
ĠKishi da
O lymp
g Ã£
ĠM ina
ĠT á»ĵn
ĠE PC
ĠJer sey
atch back
C VN
2 90
ĠL TE
5 60
Ġrá» ¥t
" âĢ¦
Ġc Ã¡ng
ĠF und
ĠV ent
P ay
ÄĲ iáº¿u
ĠVi ew
ern er
x áº¿p
Ġvi r
as y
t ime
gh áº¿
U R
ĠQU á»ĲC
ĠStol tenberg
l ant
ĠW o
be ck
k u
ĠMel ania
lad e
av a
he imer
Ġsá» Ľi
ĠÄĳá»ģ m
L áº¡c
ai re
alan ta
ĠCh er
ĠMu eller
ĠÃĲ á»ĵng
ĠAbram ovich
Ġx iÃªm
ĠD aw
ĠÄĳá» Ŀn
Ġchá»ĭ t
c á»¥
ĠBV H
ell aini
app er
Ġhá» Ľt
C ity
ĠGold man
ĠFound ation
ĠB Ã´i
ro ad
im i
ĠL Æ°á»Ŀng
Ġ25 5
Ġqu áº§ng
ĠSh inaw
ĠCas illas
ĠL ine
ThÃ ´i
ĠSD F
Ġn áºŃu
áºł NH
ĠSN SD
Ġd en
C ola
ĠR at
Ġ21 3
Ġ5 30
nh a
ĠG á»Ńi
ĠDi jk
ĠHÄĲ LÄĲ
p hÃŃa
SB D
G áº¡o
Ph Æ°á»Ŀng
Ġá» Ķ
Ġn ai
ĠKhu Ã´n
T Ã¹ng
ĠR Ã´
Cap ital
ĠV S
ĠÄĳ anh
ĠL oa
ĠVu itton
ch em
ĠVP B
ĠF ans
ut ion
b uck
le g
ĠShinaw atra
z er
kho i
Ġm Ãłnh
ĠÄĳo Ã¡i
Th ua
s áº¡ch
n Ã¢ng
w as
Th áº¡c
D iá»ħm
P VN
Ġnhá» «
ĠTN CN
ĠUBCK NN
ep end
ives how
ĠB á»į
ĠM iá»ħn
un ce
em on
em o
ĠH ans
Ġ22 4
ĠRol and
ĠGi áº¥c
IS A
u le
". /.
ĠCorpor ation
ĠNG á»ĮC
ĠB phone
5 70
ĠAvent ador
ĠHerr era
á»· u
ĠS qu
ĠDV D
ĠLat via
d ao
Ġth ong
ĠDem bele
ĠN ot
ĠcÃł phÃª
ĠN ancy
ĠParag uay
Ġh as
oc us
M M
ĠT TTM
). /.
Ġx Ã¨o
Ġnhá» £t
Tr Ã¢n
19 46
A gr
Ġ ol
ĠG ho
C á»§
ĠE ast
on o
ĠGD NN
ork s
ross over
n u
F BI
ĠAll ian
ĠAI PA
Ġm il
ĠÄĲ áº©u
ĠJ ICA
m Ãł
Ġr á»įi
Ġdá» ģn
ĠM eta
ĠÄĳÃª nh
19 47
ĠG Ã£
t ang
ĠM ERS
ĠtÃ¹ m
ĠD ata
ins tein
I R
qu Ã½
AR T
K A
ĠJ ane
Ġcá» ¯
ĠTrá» ©
L Å©
Ġr an
C Ã¡o
ĠA qua
m á»Ľi
up er
ĠÄĲ ÃĤY
ip e
Ġur anium
ĠCas emiro
ĠLew is
ĠMar ina
gr ini
ĠCP U
EN CO
Ġch áº±m
ĠFre e
p et
Ġm el
St ar
Ġp izza
ĠAl m
ag awa
av an
G Ã²
ĠK D
ĠM es
p in
ĠM ov
Ġdu á»Ĺi
Ġnh á»įt
ĠRi hanna
Ġ5 12
ĠLe ng
ĠN Ã¹ng
ÄĲ á»ĳng
ĠSam son
ĠM end
ĠI CT
ĠP P
Ġn Ãºm
ĠPh Ã¡
ĠB is
Ġ áºµm
Ġg há»ģnh
Ġl iá»ģm
ĠH ind
al t
G áº¯n
ĠJ oa
5 10
Ġng Ã³c
ĠGD TX
há» ĵi
Ġ31 5
H Ã¹ng
ĠChÃ ¢m
ĠPh ot
Ġt iá»ĩt
it su
ĠLog istics
l á»«a
ell en
ason ic
enz o
iss a
» ĥn
á »ĥn
ch ips
em i
Chá» ¯a
G Hz
Ġkhu á»·u
N á»ķ
ĠVi gl
ng e
Ġrá» £
S e
ĠBrit ney
ĠG oo
Ġkh Ã¡u
1 12
Ġr uá»ķi
ĠTom a
eb e
ĠRem ix
j ar
uch in
ĠC au
om on
I U
ĠhÃ ºng
Ġm y
Ho SE
ĠAn ne
ĠM iÃªu
ĠTh ong
ĠM ing
Ġgiáº¿ m
is co
ĠW onder
Ch iÃªm
ch en
iet nam
ĠVigl acera
ĠBlack Pink
z heimer
Ġd eb
ĠAth ens
ĠP BGDPL
G R
Ġr em
ĠÄĳ áºŃn
Ã¨ ng
ĠI BM
Ġstream er
ĠInd epend
ĠD H
akh ar
b ala
ĠLis bon
oster one
ĠHK TT
ĠthÃŃ a
ĠH Ã²e
F S
S uy
ĠIn t
chá» ĳt
ĠK CX
Ġr áº©y
G roup
ĠDaily mail
ĠO S
ĠMat ic
Ġth Æ¡i
th áº¥t
ĠB re
B MW
Ġm áº£
11 7
Ġth au
ĠSh ay
ĠT áº»
ÃĻ NG
ĠPe ugeot
ĠA ustr
M e
Ch at
ĠMald ives
Ġgh áº»
Chu á»Ĺi
ĠC Äĥng
ĠS ark
ĠH Ã´
m áº¡nh
ĠJul ian
ĠF old
Ġf eet
Ġg Ãłi
ĠK Q
ĠKh as
ĠN PK
ĠO ng
Ġt áº¯p
ho g
áº ©ng
ĠW h
Ġl Ã¬nh
Ġ6 40
hol m
ĠG an
T Æ°á»£ng
ĠJer ome
Ġ6 20
nh áºŃp
M Ã£i
H an
Ġn ong
ĠKiatis uk
LV N
ĠJ a
ÃĤ M
ĠT KCN
ĠXS KT
Hot line
ĠB Ãºt
ra w
Ġb allad
iz on
áº¬ N
Ġ6 60
Ġ23 9
og lu
tour ist
T ÃŃch
ĠNh am
ĠS áº¯t
S á»Ńa
ĠS app
all et
end all
CP OA
ĠTT GT
ambi que
p t
A lex
ĠDe pp
ech en
ĠTo ul
S al
ĠR ak
Ġná» Ľt
ĠÂ ½
ĠG L
ĠT áº·ng
th ur
19 73
Ġ27 9
ou k
Ġbl azer
ir am
Ġth áº¹n
ĠB ow
ĠS BS
ric io
t iáº¿n
ĠS S
ab in
ĠMull er
ĠB ut
hi ng
d ing
t áº§m
b iá»ĩt
L Ã´
ĠCh ol
ng há»ĩ
B XD
Ġ22 6
? ...
ĠN ow
ND P
ĠRes iden
Ġ4 10
ĠSo hu
AD B
ĠnghÃ ªu
7 20
ĠV isa
ĠSc ience
ĠAki ra
Ġm áº¡t
ĠKh Äĥm
ĠMil ey
ĠLin coln
X i
ĠPV I
W A
r it
ek o
3 10
ber l
ĠM R
Ġl Ã²a
Ġf ull
Ġmar gin
ĠKy i
ĠM ug
... ),
ĠD er
Ġ en
Ġgiá» ¡n
VKS ND
ĠD id
b Ã¡c
2 12
zo om
Ġph áº¿t
x uá»ĳng
Ġx iÃªn
d ÃŃnh
ĠM om
ip al
ph en
my ra
ĠWar ner
ĠG há»ģnh
u f
Ġl áº£ng
ĠCH I
BÄĲ S
ch el
gg io
ĠBL A
K m
ĠGre at
ber ry
ĠATVS TP
ĠEl ly
ĠK iÃªu
Ġlo ve
Y áº¿u
Ġr áº¡c
ip edia
al in
Ġphá» ī
ĠLÃ£ m
r at
m ore
nh áº£y
Ġnh Ã¢m
Ġtho áº¯t
ĠÄĲak rÃ´ng
ĠH iguain
Ġbá»ķ n
Ġ37 5
L ai
rus h
op hi
ĠBar b
ĠH Ãłi
ĠRang nick
ĠTh Ã¡ch
l áº¥p
Ġlá» µ
ĠR az
ĠDes ign
ĠN ang
â Ĺ
ĠIU U
N usra
ĠR eb
ĠR ico
ĠCo upe
ent s
Æ°Æ¡ Ã¬
ĠFir mino
ĠNghÃ ¨
ĠViet Jet
ĠJor ge
el u
ĠMarc os
Ġ7 30
ĠNe uer
P al
ĠDep ay
Ġsá» ©a
ood y
ĠP od
ĠErik sen
5 80
Ġng Æ°Æ¡i
ĠCol le
Ġl Ã³
ĠCom ex
10 3
14 8
ĠT NDN
Khá» §ng
W est
Ġs mart
M áº¯t
VN PT
ĠAl ba
p an
G L
ĠV as
Ġ28 5
Ġchá» ±c
ĠDia z
ĠN ÆłXH
ĠCh iáº¿u
m áº·c
ĠTo ure
tor y
ĠM n
gi es
R á»Ŀi
L Ã²ng
y ch
A b
SGGP O
play er
ĠD á»ħ
if a
© m
ĠX y
p hÃ¢n
ĠLux em
ĠB ran
ĠR up
H ua
ĠRiver side
t hÃŃch
Ġth Ãły
ai ly
ĠJ ust
tr ai
Ġhá»Ļ c
Ph áº¥n
ĠW ook
to ine
11 1
ĠAc cent
10 2
ĠST EM
ĠNg o
Ġqu á»ĩ
M Ãł
buck s
ĠBug atti
ip h
ub lic
ik istan
» ¥ng
á »¥ng
f ish
g Ã¡i
Ġb anh
It aly
il ity
Ġd áº¥m
n an
L áºŃt
Ġ19 47
ĠVH NT
ĠMc Donald
ĠPr ad
ĠNhu áº¿
f ri
ĠN ich
ĠToma hawk
ons ai
iv an
Ġt uyá»ģn
thá» ķi
ĠchÃ £i
ĠPhÃ ¬n
Ġco c
Ġcá» Ĺi
ĠRap tor
Ġtrá» ı
ĠPelle grini
ĠSp ears
Ġ18 00
ĠQueen s
4 30
ra f
f acebook
ĠAll en
ĠL áº½
ĠW ei
ĠKat y
ĠC ÃĶNG
B en
Ġ22 9
ĠÄĲ á»Ļt
ĠNaj ib
l ah
ĠD ark
ĠMob ifone
ĠCh iÃªn
ĠVill as
ĠB ag
enc ent
ĠDen is
ĠK ash
Ġsá» ©t
ĠMatth ew
Ġ22 7
10 9
Ġ22 1
cho ol
w atch
S á»£
ĠX ay
ĠD oll
Ġth Æ°á»Ľt
is ton
ĠU m
ĠBá» ģn
ĠS amp
C Æ°á»Ŀng
S ham
ĠAl zheimer
ĠMoz ambique
ĠEzz or
ĠBar r
ev ez
ĠB á»ĳi
FI FA
ing rad
g ers
ĠTrip oli
U AV
oz y
id an
Ġ Ã¡ng
Ġ24 7
ĠCh av
W ashington
gi áº¥y
il ic
ib r
ĠÄĥ ng
ĠQu ay
ĠÄĲá» £i
12 3
Ġcar bohydr
ĠCT ÄĲ
dio xin
Ġx Ã¢u
Ġk o
ĠGl ass
ng ay
ĠAng ola
ĠGeor g
ĠTHá» Ĭ
r ich
ai do
G en
ĠP LO
ĠL it
ĠTT ÄĲT
Ġ23 1
ĠK ent
ĠScar borough
P N
ĠVi v
t áº¡o
D áº¡
Ġph Æ°á»Ľc
ĠPal myra
ĠTR áº¦N
s ha
Ġtrá» ĵi
Jenn ifer
ĠExp lor
ĠHo p
ĠVi ent
Ġo x
ĠNex us
ĠGreen wood
ĠTh áº±ng
ĠSu u
ĠY áº¿u
ĠL ÃĬ
âĹ ı
b le
ĠÄĳ Ã¡t
Ġsing le
ĠEVN N
ĠGho uta
ĠAbd el
ĠB ong
Ġ24 2
th áº¯ng
Ġg áº«y
ĠNg Ãµ
Ġ24 9
V Ã¡y
ĠTr Ã¢u
t á»ĳt
ĠUN CLOS
c áº£nh
ĠChan athip
ĠVN G
A v
Ġch áº§m
C Æ°á»Ŀi
ĠP Ã¹
Ġgi Ã¹m
ÄĤ NG
ĠR B
ĠHar per
Ġbo ots
ĠP ok
th iáº¿t
B Ãły
ĠV áº½
su it
ĠCap itol
l Ã©
is ic
ĠCyr us
ĠGi uá»Ļc
Ġenz yme
m ut
ĠM áº¡i
Ar gentina
Ġn Ã²i
Ġgu á»ĵng
J ack
ĠJ eon
ĠS ag
Th áº»
Ġnh áº¥m
ior entina
Ġt Æ°Æ¡m
Ġch Ãłm
6 80
il et
ĠD I
+ .
Nh iáº¿p
Ġph Äĥng
th Æ°á»£ng
evi ew
ĠK w
Ġr á»±a
lin k
ĠV SIP
ĠF ellaini
ido do
Ġr Ã¡ng
ĠC all
19 79
Ġg áº·m
Ġ6 80
ĠX ÃŃch
car e
ĠKe angnam
ĠKaw asaki
Iáº¾ N
Ġcá»į p
ĠAbb as
Ġ4 12
á»Ł m
Ġp H
Ġph áº£
eg u
F or
Th uyá»ģn
que z
ĠG le
ĠTr á»Ļn
ĠVN R
Ġl Æ°á»£m
ĠP TTH
ĠR iá»ģng
ĠKh oan
and i
ĠP ur
ĠPr es
M Æ°á»Ŀi
Ġcom ment
V á»ĩ
k áº¿
Ġlá» įi
ĠKas per
CÃ´ng ThÆ°Æ¡ng
Ġá»ķ ng
ĠNhá»ĭ p
EV FTA
tr uc
ĠSu khoi
land o
ĠFans ipan
R á»«ng
ed ine
SH B
au d
ĠA ur
ĠC Ãłn
ĠL Ãºa
ĠA H
Ġl Ã¢ng
ĠHad id
al ke
ĠK ilo
ĠFox conn
x tan
ĠTrá» ©ng
ÄĲ Ã¡
Th Ã¡p
ĠTu c
Ġc up
Ġm iáº¿t
Ġc rossover
ĠA se
b Ã¬a
phá» ĳ
un es
ra ft
ĠW idodo
ĠAt alanta
p ad
ĠB ull
I CM
! ",
nh o
f in
Ch áº¥n
Ser ies
ĠS tyle
ļ t
Ġr Äĥm
ĠE TC
4 60
ĠH ero
d Ã¹ng
ĠBLA CKPINK
Ġnh áº¡o
Vit amin
ĠF DA
ĠSh an
ĠHo on
Pod s
ĠG et
á»ģ m
ĠMos s
Ġdr ama
ĠIs k
Ġcá» įng
ĠM G
SD F
Ġf ashion
L á»¥c
D Æ°a
Ġden im
ĠD á»¥
qu ay
ĠAm b
ĠIP U
ĠNar endra
áº¢ NG
thá» ĥ
Ġdeb ut
C áº¥m
ĠBern ard
Ġn it
k iá»ĥm
b ong
ĠSá» Ĳ
Ġd áº£
ĠX oan
ĠA eg
ph Æ°Æ¡ng
ĠK BC
há» į
chá»ĭ u
ĠMá» ļI
let ic
Nhá» ĭ
co in
ĠR im
F P
ĠZ akhar
Ġ30 4
) /
** *
4 20
Äĳá» īnh
Ġh ip
ĠH and
ĠcÃº n
uch i
ĠDuc ati
h áº¡t
ĠPl at
oo p
Ġm Ã¡ng
K hÃ³a
Ġin ox
Ġ zoom
ĠBe at
Agr ibank
usse in
t ung
Ġtrá»ĭ a
ĠCo in
ĠI ng
ĠBrook lyn
S how
ĠF rid
Ġcaffe ine
ks and
ĠF all
T hÃ³i
Hua wei
Ġr Ãº
ar ov
ĠM uá»ĳi
ĠX Ãł
Ġc c
ĠvÆ¡ ÃŃ
Ġr e
ĠIN F
ĠAl c
PP P
G r
ĠThá» ĳt
ah n
ĠCh Æ¡i
Ġth áº£nh
tr á»±c
ĠSport ing
ĠHil ton
ĠIr ina
Ġph Å©
ard i
M il
Ġ23 2
hog gi
Ġv eo
19 68
ÄĲ Ã¢u
Ġ23 4
ĠGra echen
v áº«n
ĠInfin ity
M E
ĠM á»±c
ĠÄĳ Æ¡
X Ãºc
ĠFur ious
BC ÄĲ
b ury
ï ¿
ĠV á»«
ĠLÃªn in
Tr á»£
ĠJ is
s á»Ń
c z
ĠAngel ababy
Ġ $
Ġ24 3
Ġhá» ¯ng
Ġ26 8
Ġsil icon
ĠMer c
Petro Times
Ġhá» £t
ĠC ode
ĠT ÃŃt
ĠHy o
ĠS Ãło
ĠH VN
ĠJo y
Ġt one
ĠBlanc os
ĠthÃ ²
U K
ĠMotor ola
ĠGr ai
ĠM PV
ĠVient iane
ĠS eng
ĠYang on
ĠR ib
R Æ°á»£u
Ġp ar
ĠAl ph
Ġg áº£
Äĳ Æ°a
Äĳ Ãºng
Ġ22 8
Ġ3 12
F ran
10 4
ĠthÃ ¬nh
en ix
is se
lat an
ĠFel ix
h in
ĠN eo
tr áº¯ng
ph un
any e
Ġmá»į t
v ui
AN K
d Ãłi
ĠR ic
igh light
Æ¯á» ļ
Olymp ic
ĠA hn
Ġchi u
h er
ĠYoshi hi
ĠNh áº¯c
Th S
u da
Ġlá» ©t
ĠNh iá»ħm
ĠÄĳá»ĥ u
ĠCC TV
Y P
ĠTr á»Ļm
ra ham
Ġ15 00
Ġg Ãºt
D á»ħ
Ġv oucher
BH YT
au g
is ter
ĠT Ã¨o
Ġv áº¹t
15 4
C him
ĠV at
as o
ĠCru iser
Ġl á»±
T áº¥n
ĠÄĲ Ã³n
ĠG ong
ĠLuxem bourg
Ġlá» ¥i
ĠR Ã¹a
ĠSur face
AN TT
Ġchá»Ń ng
ĠU FO
Ġt uáº¥t
Ġ195 2
ĠNav as
Ġkh áº£m
ĠKhas hoggi
ter est
p ir
ĠN Ã©t
A FC
ĠUN ICEF
Ġv ol
Ġng áº©ng
Ġl áº¯t
5 20
ĠS z
ĠÄĲ oÃłi
ĠA eon
ess ing
ĠTh or
ed onia
ĠB Ã´
ĠH orm
Ġax ÃŃt
ĠSe an
Iá»Ĥ M
ĠT ong
o ch
Ġvá» ĵ
Iá»Ĩ N
ĠNS A
g am
j e
Ġtu Ã´n
N m
ĠvÃŃ u
ĠStock holm
6 30
ĠShe ikh
XH CN
is son
it or
is i
ĠS et
Ġl ithium
ĠTaj ikistan
L Ã£o
in ce
Ġv oan
ĠTP DN
ĠN Q
C áº§m
ĠS á»ĳt
Ġt áº§u
Ġsá» §ng
ĠÄĲo Ã²ng
ĠTH I
ĠSark ozy
Ġg out
âĢ¦ ".
ĠR OS
Ġx á»ĳi
z an
ĠT een
ĠL ake
ost ok
Ġst art
Ġ ),
b ro
all as
c over
ch áº¿
um an
¬ m
ĠBu ck
p etro
Ġs Ã©c
] .
ĠShar apova
ĠVI E
D on
al ian
" )
rov ietnam
s c
Ġchá» «a
ĠBan d
ĠRam sey
enc y
u al
Ġsu it
ĠN L
Ġb ot
ĠL ung
Ġlu áº©n
em ala
ĠT encent
S áºµn
Ġn áº¿t
T im
12 6
ï¿ ½
Ġc Æ°u
Kh Ã¡t
ĠchÃ ¹n
c ua
ĠN ino
hÃ ºt
b Ã³c
ĠÄĳ Æ°á»£m
ĠW erner
ht ar
b áº£ng
ĠK araoke
ĠB av
r ik
ĠS B
ĠMu ham
âĢĻ ),
Ġkh iÃªn
ĠTr á»Ĺi
ĠAc ad
ed l
áº¦ U
ĠS ig
Ġrá»§ a
Ġb áº½
( *)
ĠB og
Ġl iáº¿ng
ĠRe agan
ĠF it
ac et
ĠrÃ¬ u
Ġtá»ĩ p
ĠHo áº¯c
Ġ23 6
ĠGD CK
ĠJ ai
3 90
M exico
Ġx áº©m
acom in
ĠGD PT
ĠKH XH
ĠCon trol
ĠBrit ish
ĠL á»±u
Ng á»§
12 8
ĠKhÃ ¢u
w player
ĠN ass
ĠVin cent
ĠMuang thong
S Ã¡t
ĠS ok
ĠÄĳ Æ°Æ¡c
ĠSalv ador
M r
H á»Ļ
R Ãł
B TS
Ġ áº¡ch
ĠM D
Ġ3 35
ĠBra h
Ġmu á»Ļi
Ġl áº¡ch
ĠL ienVietPostBank
ĠIA EA
uat emala
khá» ĳi
Ġá» ³
ĠN ice
ind y
Ġb Æ°Æ¡n
ĠTP CP
ĠTr Ãło
G Ã¡i
ĠBey on
c tor
ĠExplor er
M as
ĠSH S
Ġtal uy
ĠHS X
Ġ22 3
Ġnh Ã³i
ĠNh Æ°á»£ng
ĠEm ily
Ġh áº¿n
ĠA ug
ĠJ al
ĠMig uel
ĠHo dg
M on
ĠA NTÄĲ
uc ci
Ġgh áº¹o
us a
ĠL ak
13 2
ĠN elson
ud ential
ĠPan asonic
ĠIS S
Ġ Ã¹
ĠM BS
Ġ3 24
Ġt Ãłnh
Ġc al
ĠE st
á»¥ a
ĠM áº¡n
ĠPhÃ ¬
ĠgÃ³ a
Ġnháº½ o
Ġ23 8
ĠA NTQ
if y
Sá» Ľm
Ġtrá» ©
ĠO PPO
f u
Ġn á»Ļm
Ġhá» Ľ
ĠTh Ãło
ĠBr os
ĠEl ite
ĠChá» ¯a
ith u
Ġd ata
ĠKo eman
V ic
ov an
N okia
ĠCr aig
ĠMar sh
Khu Ã´n
ĠJ MG
ĠMat xcÆ¡va
Har ry
od ay
ĠStar bucks
ĠM old
10 8
ĠCamp bell
C loud
Ġ30 5
Kho ai
ĠJul ia
6 40
6 60
E ver
ĠG Ã³p
ĠElec tric
Ġl Ã¹a
ĠO Ã¡nh
Ġan ti
ĠDis play
ĠSouth gate
ÃĢ O
H e
nh áº¡c
Ġáº¤ p
Ġvá» ī
17 5
b ull
Ġá» £
Kh áº©u
ch inh
Ang el
M Ãły
EO N
Ġng Æ°Æ¡Ã¬
ĠK Ãª
ĠhÃ ³ng
ĠFin ance
Ġc uá»ĵn
ĠÆł n
Ġm in
ĠVol vo
ĠNik ol
Ġh atchback
ĠH á»Ļp
Tr á»ĭ
Ġbá» ĩt
Thá» ©c
ĠN KT
ĠTT YT
ĠMark le
m and
Ġ19 40
Ġd Ä©a
Ġmet hanol
ĠAs an
ĠBh ut
ĠTR UNG
ĠV SA
ĠS as
ĠF ly
re a
ĠX U
P op
C á»±
ĠP LVN
ĠS ign
Ġg áº¥c
Ġhá» ī
ĠA MO
Ġm Ã³i
ĠNV L
ĠÄĳ Ã¡c
ĠFu j
ĠHá» ĺI
Pet rotimes
ĠGP U
ĠBR I
ad er
Ãļ C
P aul
ĠRe port
BC A
ĠH ussein
ĠRob ben
ĠEr n
ĠBuff on
il ton
nh Ã´m
K ÃŃch
On line
Chá» ¥p
ĠTuc son
ĠDy bala
Ġph Ãłng
Ġ30 1
âĢľ .
ht m
ĠMorris on
el ly
eb ack
SC E
ĠTh ak
ÃĶ i
ĠL iv
ei j
Ġtu r
ĠHold ing
Ġng Ã´ng
ĠDoug las
ĠY uri
b Ã³
ĠNh áº«n
ĠS ett
TC T
ĠhÃ³ t
ĠM ain
Ġshop house
Ġ24 8
ĠO M
ĠM ÃŃa
36 5
ĠO il
J e
ĠKn ight
ch amps
Ġ29 5
ĠMod e
C anh
Ġ25 1
ĠH ey
ĠE SP
un o
ĠFor ce
ĠD F
ĠColle ge
hÃ ²
8 40
ĠChu á»Ĺi
M ax
ĠChav ez
G ermain
ĠOr lando
x áº¥u
ar ay
ĠHo ward
n on
ĠMo ore
ĠT on
ĠPu erto
p en
ĠLar ry
ĠPrad esh
ĠF TS
ester n
ĠTH U
ĠMatt eo
Ġ25 4
gi Ãºp
ac an
m ai
V en
Ġd áº¿
ic ius
ĠK us
Ġ25 2
ng Ã£
ert z
v á»¡
ĠCh áº£
ĠJ ab
ĠAn toine
ĠSun ni
ur al
HÄĲ QT
ĠLat akia
7 60
ĠTitan ic
» Ľt
á »Ľt
Ġc p
Ġ26 4
G á»įi
Ġl áº¹
Ġw orld
Ġ78 7
u o
Ġthi u
Ġb onsai
Ġma fia
Ġ202 8
ĠCB RE
98 1
P CCC
C ol
ĠMar oc
ĠIndepend ent
V IT
11 4
; âĢ¦
Ġ4 90
H Ãłm
Ġbox ing
ĠLuk ash
R ON
ĠLe y
ĠOr ig
ĠMah m
ĠCarib e
ĠB áº¿
ĠMar ca
ĠPr ime
ĠZin edine
ĠLu ka
d áºŃy
Ġh áº¹
ĠNev ada
Ġp ast
ins te
land er
ĠAd idas
Ġh Ã¡ng
ĠR EE
Ġlá» īnh
ĠMir anda
K N
ĠL ip
ĠF ront
ĠCal isto
Ġkh anh
ÄĲ áº¥y
ier i
l b
9 20
iÃª Ã¹
do ch
7 80
ĠAdr ian
ĠAl ber
b iáº¿t
ĠE IB
A L
Tr iá»ĩt
n ic
ĠK BS
ĠD W
M ade
ĠAMO LED
H Ã´n
ĠT est
PhÃ ¹
ĠNav al
202 7
ÄĲ áº±ng
n áº¡n
ĠS Ã¡n
Ġqu áº«n
Viet Q
Ġ19 49
ĠKr as
N á»ĳi
ĠT evez
and ra
ĠH idd
ĠSil ver
nh áº±m
au n
ÄĲá» īnh
ĠT ung
sh ine
Ġto ang
v iÃªn
ĠU g
ĠP earl
ah r
ĠCH XHCN
k ong
Y áº¿n
ĠJ ens
og o
M azda
Ð ¾
ĠGre g
l Ãª
ĠKho áº£nh
Dr ive
ĠV ardy
c op
15 2
Ġ ev
ĠP ic
ĠRe view
ĠComp lex
t á»Ļi
tr á»įng
ĠXX I
ĠD á»ĳc
Ġ3 19
1 45
rog ba
ĠSub aru
ĠS ÃŃp
ĠSt ew
ĠCl ark
ĠDid ier
ĠSt ur
ĠRom ney
Q U
Ġn ot
E CB
hi ll
ĠT ob
Ġchá» ĵi
Ġxo ong
ĠUy á»ĥn
DI Z
Ġb Æ°á»Ľng
ĠNhÃ ©
ĠT oni
5 40
ĠB ou
ĠthÃ¹ y
end i
Ġgi Ãªng
w o
ĠHe at
ĠG uatemala
ĠK oi
ĠSch we
il ia
ithu ania
it ime
ĠCar ina
Ġs iÃªng
ĠL X
ĠP ang
ĠK Ã¨m
ĠD ance
ĠS SD
Qu Ãª
0 60
bao dautu
ĠWeb site
ĠP LA
ĠD ae
e em
Ġ29 9
Sai gon
il m
ĠJe ong
ĠAM D
ĠS OS
ĠMic ro
ants ir
Ġcarbohydr ate
Ġtest osterone
ĠM iá»ħu
Ġs áº¿n
gr ande
ĠSmall ing
0 20
t ail
Ġt Ã²ng
ĠY uan
Ġ Ã³
ĠCar rick
ÃĤ u
ĠRed mi
izz ie
ĠQu in
ell es
q i
ĠJ azz
U T
ĠCol l
id ent
ĠWill ian
es p
ĠNhÃ £n
W in
b á»©c
V áº¿t
ĠFut ure
K HHGÄĲ
ĠBV SC
ĠV B
ĠF arm
ĠGCN QSDÄĲ
f ast
Ġnh áº·n
D áº¡o
ĠKyl ie
ĠL ittle
ines e
0 90
Ġf rom
Ġx oan
ĠTr a
88 8
ĠG yeong
Ġnh Äĥng
ĠPol y
Ġn Ã¡
ĠPo int
N Ãªu
z ania
ĠHo ang
Ġ23 3
Ġg áº¡c
ĠSi em
is ha
ĠChÃ ¨o
ĠIs lam
KhÃ³ i
Ġchá» Ľm
ĠD AP
K TT
ĠAb raham
Iá»Ģ U
l inh
ĠY ak
ill o
ĠWik ipedia
ex co
ĠV Ã©
ĠTr ue
ĠSte in
ĠVid al
inste iger
Ġnh Ã³t
Ġt Ã½
ĠM SB
ov inam
11 6
Ġ24 1
ĠChi ang
ĠPr im
sov petro
S ol
m at
ira vir
ĠAth letic
ov sky
P O
ĠWag ner
6 10
Ġt Ã³e
ĠC ell
ĠF iorentina
f ax
Ġso Ã¡n
Y D
ĠW iki
Äĳ o
qu ets
15 5
Th Ã¡nh
Ġs ne
Ġd Ãºi
Ġr áº¿t
ĠHu ang
m Ã¡u
ĠH ÃĢ
Ġsoc ola
n áº·ng
ĠMA X
ĠH eb
ĠKho ang
ĠJag uar
ÄĲ Ã¨n
ĠT Ã¡nh
ĠQ Q
22 7
ĠFrid ay
Ġn á»ĭnh
23 5
M L
ĠSkr ipal
ing o
ĠP age
us k
g io
Ġh Ã¡
ĠWel beck
ĠA st
ĠHu Ãª
ĠGI Ãģ
N ay
Ġn itr
ĠR iv
ĠTá» ģ
ĠDu á»ĩ
ĠD R
as ia
ĠPho enix
n CoV
b urn
ĠH UD
V A
ĠVL XD
ĠDoll ar
ol et
D á»«ng
ĠPark er
ĠAse an
Ġs Ãªn
ĠC opy
ul ia
ĠHarv ey
ĠBlock chain
con i
ĠShang ri
ĠCH Ãį
E conom
id s
m os
ĠHo s
ĠIsk ander
ĠEng lish
iá»ħ ng
Ġ26 7
Ġ20 40
ist ic
ĠBe ek
5 30
ĠIs co
ĠE va
12 4
gi áº£
Ġtr Ã¡m
Ġch áºµn
ĠN ur
ĠAir Pods
ary an
Ġk á»ĭ
M in
ĠLib an
ĠCap tain
g Ã³i
TS KH
ĠV ung
ĠN iá»ĩm
tr iá»ĩu
b iá»ĥn
Ġ25 8
F in
. '
Ġc r
Ġch Æ°á»Łng
ĠÄĲ áºŃp
ĠSe ABank
nh Ã¬n
QL TT
' '.
ĠI NS
ĠLib erty
n Ãªn
2 23
SL NA
A f
ĠN á»ĳi
ĠY áº¿t
ĠJim my
Ġx Ã¬nh
ĠOl iver
Ġ24 6
hÃ² a
l Ã²
Äĳ áº©y
Ġmag iÃª
in fo
EU R
ĠSus an
ĠK ep
D Å©ng
Ġg roup
Ġ !!!
ĠL U
tr anh
ĠStan ley
l iá»ģu
mp ic
V al
ff ield
AM G
ĠBru ce
Ġ30 8
Ġcá» £t
Ġv ac
ĠkÃ¬ a
t hÃ¢n
ĠComp any
Ġ19 48
orn o
Äĳ á»ı
ĠÄĳ áº§n
Ġmo Ã³c
ĠAr k
Ġ10 80
ĠR Æ¡i
ĠÄĲ oa
Ġphot oshop
H ong
ĠChÃ ¨
ter n
Qu áº¿
ĠV pop
ĠKhÃ ´n
H Ã¡t
ĠK Ã©o
âĢĿ (
S S
» §i
á »§i
Ġ ion
ĠV áº¿t
ĠKh iáº¿u
Ġ or
ĠPh iÃªu
ĠMat s
ĠMi y
ĠG áº¥u
ĠDes champs
ĠSch alke
T axi
ĠTh Äĥm
ĠmÃ£ ng
ĠZo om
st one
ĠDr ive
ĠJan eiro
ĠCH á
ĠCHá »
riz io
ĠGat eway
Äĳ á»ĭnh
ĠÄĲ un
10 6
ĠSp ot
ĠSub eo
ĠH L
phá» ¥c
it on
ĠB Ãłnh
Ġ8 20
ĠHam ilton
Ġv áº©n
o xin
Ġ35 6
ĠHiroshi ma
uc ation
ĠE PS
ĠIv anka
ĠB ack
ĠAl tis
Ġ27 4
te c
Ġngá» Ĺng
ĠEd u
ĠOliv ier
k á»¹
Ġ24 4
ĠQU ANG
22 2
t ex
0 40
4 70
a hi
Con n
r ice
ĠGr ace
ĠK eo
s or
ĠSecur ities
ĠL Ãłi
ĠInter pol
ĠNg áº§m
ĠÄĲHQG HN
: âĢľ
ĠAm ber
Ġ27 2
V EC
ĠN áº¥m
ĠY ellen
ĠRen ault
Ġ29 8
Ġkhá» Ŀ
ier ra
Ġpast el
v áºŃn
ĠMTTQ VN
x on
; ...
d iá»ĩn
ĠK ao
ĠS SC
ĠB ever
6 20
d om
Ġv Ã¡i
let t
ĠR ac
Ġto ilet
ĠStan ford
ĠC Æ°á»Ŀi
Ġv Ã³t
ĠI an
ĠF ind
ĠBar t
ĠA ud
ĠSaigon tourist
My anmar
ĠHol mes
l Ãłng
at as
ĠchÃ ¹ng
R Ãºt
Ch e
q uyáº¿t
ĠSant iago
k k
ĠChrist ine
1 19
10 7
ĠV is
ĠA UD
ac le
Ġ23 7
Ġnh Ã¡p
TT DL
A B
ĠSlov enia
ĠH Ãºc
COV ID
ĠB M
o it
Ġrá» £p
at ive
ĠWom an
ĠV il
ĠL et
ĠK uz
Ġ48 8
Ġd áº¥p
om b
k im
ĠRod gers
SM N
iz u
ĠchÃ³ p
iff any
19 69
ĠVal ley
ĠHy uk
ĠK á»µ
Ġn Ã©p
op ment
H iáº¿n
Ġ are
ĠX ong
af Ã©
ĠBrent ford
m ec
Ġj ack
c ul
ĠC Ãłi
Ġlip id
Ġn ua
ĠC orn
ĠStew art
S uz
ĠT á»ĭch
hi t
16 5
ĠKash mir
0 70
let on
T Ãºi
Ġty pe
ĠSuz y
ĠFernand ez
ĠAlexand re
Ġc ovid
» ²
TT C
H a
ĠSH TT
ĠFut ures
ĠTr áºŃt
ĠW emb
Ġho e
ĠV C
á »²
Ġm ac
av in
ĠAR M
C IA
ĠC ub
ĠM am
ĠF E
ĠPol king
ink a
ĠPia ggio
b Æ°á»Ľc
ĠM K
co unt
áº ¶
hn er
Ġph oto
ĠJ oan
M ob
ĠM itch
Ġ ).
enn es
ĠAqu ino
Kh Ã¡
ĠKos ovo
Ġkh áº¥t
IP O
ĠKh ark
cá» ©ng
Äĳ un
ĠL ithuania
Cr istiano
Ġm obile
Ãĵ NG
Ġcá»± a
ĠPhá» Ł
Ġqu á»ĩt
in ay
ĠMari upol
Ġd iáº¿p
ĠA Q
11 8
Ġ25 7
Ġs Äĥm
ĠD at
Ġlo anh
m Ãª
Ġhá» ·
ĠB akh
ĠD OC
Ġ26 2
Ġh Ã¡m
V a
ĠRos si
6 70
ĠF ocus
t Ã¬m
Ġ33 7
at ter
ĠThá» Ł
Ġgluc ose
ĠZ latan
ĠCOV AX
Ġx Ã©o
ĠKh erson
ĠBos nia
áºł N
con sin
ĠM Ã¢n
ĠThak sin
ĠTan zania
L á»Ļc
R á»Ńa
ĠC ort
ĠA EON
ÄĲ á»ĵn
H iá»ģn
om i
Ġmen u
? '
Ġhot line
ĠÃĶ i
Ġthá»ķ n
Ġl Æ¡i
ĠEver grande
Ä© u
Ġ30 2
ĠV K
B io
F DA
ĠV á»ı
ĠFor est
ĠBur iram
Ġ3 45
ĠI TA
ĠK anye
ĠWhat s
Ġn Ãºc
ĠCh áº½
ĠR Æ¡
ĠD iá»ĩm
ĠAlf red
c ong
ĠF ai
chá» įn
Ġch Æ°á»Ŀm
ĠM uk
ĠOne Plus
Ġngo ai
oth er
ĠP il
KCN A
Ġ45 8
ĠH M
ĠWemb ley
E n
uts che
Econom y
ĠA ce
Äĳá» ©a
tr á»Ł
T Æ°á»Ŀng
ĠB K
leg ri
S ony
ĠTh en
v id
et ti
Ġcar ot
ĠWil d
ĠAsan zo
N o
Ġnháº¹ t
Ġtrá» ģ
ÄĲB SCL
ĠZ ero
Tr ÃŃ
ĠnghÃ ©
ĠP y
ĠEs s
Ġhá» «ng
M obile
S un
Ġ5 10
ÄĲ á»ķ
ĠA o
po int
ĠD ak
Äĳ Ã´i
Ġ28 8
ĠNG H
8 60
ĠEm p
ad el
l ov
ĠÄĲá» ĺ
ĠLim a
p ink
ĠT IN
ĠP ele
Ġs ize
ĠS ton
t if
ĠCot ec
ĠC ES
ĠV RE
ĠPr udential
ĠM O
ĠNe il
ĠCh ai
ĠS id
ĠO ECD
ĠHun ter
ĠJer emy
ĠK ub
ĠVina Capital
Vietin Bank
ĠSett ings
ĠKTT V
ĠP antsir
s m
á»¥ p
ĠVi vo
I raq
ĠSe attle
N L
r ome
au me
Ġká» īnh
D uyÃªn
v oi
ĠVat ican
ĠTr end
ĠAm y
hi to
Ã ģn
ĠOp era
B áº¡o
ĠM Æ°u
s Ã³ng
ĠBus quets
ĠC and
ĠZ am
ĠlÃł o
TN AM
Ġdi oxin
ĠD iÃªu
ĠF on
ĠZ apor
Ġl ed
Ġk W
ĠMac edonia
ĠX iá»ĥn
ĠJis oo
ÄĲ áº¡t
il ever
ĠD á»įc
ĠKat ie
12 1
ĠMax im
Ġ4 000
ar es
Ng Å©
ĠVP CP
Äĳ Äĥng
Ġ26 6
Ġcho áº¡ng
ĠNic ole
ĠBet is
aph one
At letico
ĠL eop
AP I
Gi Ãłnh
ĠNT NN
TT LT
Ġlá» £
K em
Iá»Ģ N
ĠMor si
W F
EC H
ĠVi go
ĠGar ros
19 86
ik ov
ab lo
ĠL Ã¹ng
ĠPr Ã´ng
ĠVir us
ed o
ukov ych
Trail er
ĠSqu are
Ġg Ã¡p
ĠL ap
ĠTa ekwondo
ĠN á
Ġb áºŃp
ĠNá »
Ġnh Ã¡m
ĠSoo bin
Ġg Ã¡o
ch áº³ng
ĠT it
M b
ĠK IA
ĠCro wn
ĠV á»¯ng
m á»ģm
ĠX M
ĠÃĲ á»©c
Ġth at
ĠCl ar
t os
D OC
EA M
Tr ÃŃch
ĠAt lant
ng Ã¢n
v it
M c
ĠL iz
sk a
ĠN Æ°a
Ġ6 70
ech n
ĠJac ob
eth yl
ĠTP CN
ĠW AG
net t
ĠF ad
ĠSev en
Mich ael
T Tr
13 6
ĠMa j
ĠNest lÃ©
eo r
m Æ°a
ĠS Æ°á»Ľng
ĠDX G
ĠL Æ°á»£c
ĠE p
ĠM oody
c Ã¡t
ĠH NG
Ãµ n
ĠSM E
ĠB Ã¢n
B Ã´ng
m iá»ģn
ĠArm ata
Ġtr áº¡ch
n in
ĠMuham mad
ĠSo on
av y
ĠK endall
ĠEl l
j n
G h
ĠP áº¯k
Ġ >>
Ġh áº¡c
Ġ un
ĠL á»¥a
ĠEur ope
ĠPh Ã¡n
ĠC ir
T uyáº¿t
E W
ĠK err
Ġgh áº¹
ĠHorm uz
ĠSt ory
7 30
» §ng
á »§ng
Ġg áº¥m
tho use
lus coni
z on
12 9
k ook
ĠAir Asia
Ġn Æ¡m
Ġ7 80
Ġrup ee
Æ°á»£ p
ĠViet sovpetro
ans as
ho áº¡t
Ãģ T
ĠP un
en os
ĠFab io
ĠHar ley
ĠB le
ĠPin terest
ĠVel vet
ac as
ĠPal m
Ġu á»ķng
Ġl áº·t
ĠRom elu
ĠPir lo
oth y
ĠKal in
7 70
ĠCO C
n os
ĠShi ite
Ang ela
Ġca c
Ġ35 5
ĠM Ãły
ThÃ ¬
ĠYan ukovych
at ure
Ġm as
b ike
Ġca p
ĠS ino
ĠTT KS
V ina
NhÃ £
ĠInter est
ĠVn express
ĠWin ner
ĠGi Ã¡n
ĠÄĲ iáº¿u
Ġh and
M á»Ļc
ĠâĢ Ķ
ort ivo
ĠTur in
ĠD ra
nh áº¡y
Ġmod ule
Tom inay
M Ãª
ai ca
ĠWal cott
ng á»§
ĠO la
er ing
ĠRub y
Th áº±ng
ĠL PG
Ġnh Æ¡
ĠK ings
ha el
if ood
ĠHaw k
L á»Ńa
ĠAr thur
Æł N
7 90
ĠAc cord
out ube
Ġmicro SD
dow n
ĠMary land
ĠE th
lin ois
ĠY aya
m iá»ħn
H á»Ļp
Ġcá»¥ i
ĠGr ay
Ġpr essing
av on
Ġ ar
0 10
SD L
ĠNig er
pet rotimes
9 80
g áº·p
17 1
khi t
n Ãºt
ai ts
ĠSi ro
ĠH ÃĮNH
ĠM Ã£n
D á»įc
ĠLlor is
ĠDN TN
enn y
Ġnh áº©m
ĠTik i
ope nh
P ep
ĠWis consin
ĠBy ung
tr ao
ĠK omp
Ġs treet
Tá» ©
Ġv Ã³
8 30
ĠD uma
Ġn Æ°á»Ľu
khit aryan
........ ........
R obot
Ġ8 30
ĠI CBM
ĠSt ate
ĠC ul
Ġs andal
ĠAl legri
ĠHam burg
ĠCá» §ng
ĠL ily
0 30
ĠPro duc
âĢ¦âĢ¦ âĢ¦âĢ¦
ĠJav ier
Cho Ã¡ng
Ġq uyá»ĩt
ĠG uy
ĠSan na
B TV
ĠMil it
nh anh
ĠMar s
ap ol
g il
ĠQ SDÄĲ
ĠL áº¥p
ÄĲTB XH
ĠEl an
ĠAd ele
R ed
es is
ĠLukash enko
Ġ9 60
8 70
20 5
ĠUn ion
ĠY aris
ĠTr Ã¹
ĠL áºŃt
S Ãłn
ĠChu ck
Ġng Ã²
ĠTri um
h iá»ĩu
Ġg á»ĵ
V Ã©
ch ang
ĠLan e
ĠHu b
c Æ¡m
Ġd Æ¡
ĠM ÃŃ
24 7
ĠAllian z
c anh
ĠEm ail
ĠT ig
t oÃłn
ĠJan et
n Ã´ng
ĠAss et
ĠSchwe insteiger
Tr uyá»ĩn
áºł M
n up
ĠDev el
D Ãłnh
CP C
ĠC in
ĠS áºµn
ĠMend es
P ak
8 80
ĠF um
ĠCH LB
14 2
Ġg á»ķ
ĠSp eed
P aris
ĠDomin ic
ĠB ot
ĠDe ep
To quoc
ail ly
G l
ant an
es co
ĠGi Ã³ng
ĠD rogba
o und
ĠÄĲ u
ĠGi Ãły
Tá» §
any ol
ĠOm ega
ĠShe ffield
ĠS W
ĠW ard
ĠT iá»ģm
ĠV accine
N XB
Ġgi Å©
our i
¥ m
Ġng á»ĳn
NT K
av irus
ĠSA O
ĠEr ling
ĠBir d
n á»Ńa
ĠZakhar ova
ĠS Ã¢u
ĠG Ãłnh
ĠB MP
Ġ33 3
ĠDe an
chá» ©ng
U y
c áº£i
Ġ( ?
19 87
ht ag
ĠMah rez
6 90
Ġv in
ĠD Ã¢y
ĠN iel
ĠJe ju
ĠGi b
ĠSol eim
ĠLot us
ĠBhut an
ĠÄĳá» īa
Ġmu á»ĵi
ĠT áº£n
b iá»ĥu
m Ã¡t
Ġfol low
ico id
Th áº¯p
ĠChalle nge
Ġn áº¥ng
ec ca
ĠM SC
C uba
Ġx Ã²a
ĠBá» Ĺng
Ġph ung
u ong
ĠG LC
ĠD allas
tr Ã¬nh
giá» ĳng
ĠAlb ania
Ġph Ãłm
Th Æ°á»Łng
ĠKasper sky
ĠAR V
kh áº©u
ĠQ CVN
ĠE P
ie ng
Ġnh áºµn
ĠHS MT
m áº«u
ĠWom en
ĠcÃ³ i
D iá»ĩp
o ai
Ġm Ã³p
Ġ3 22
ĠTM V
ĠBakh mut
ĠF our
ĠTá» ıi
Ġd anc
ĠAr my
ĠNaval ny
: "
Äĳ áº£o
ĠBer lusconi
V irus
Ġt Ãły
Ġmai l
ĠN á»Ł
ĠNg Äĥn
ĠLu ang
ĠLo áº¡t
lan ta
ĠHu d
k Ãªu
Äĳ áº¯p
Ġ19 20
ĠL ite
ĠBá» ıng
ĠAcad emy
th ua
ĠHe art
ĠP CT
ĠS ierra
b reak
ĠT oan
CN TT
ĠSe ong
4 10
Ġd áº§y
Äĳá» ¥ng
ĠF loyd
ĠSoleim ani
Há»į p
ĠTh is
b áº¯n
qu Ãªn
ĠKH KT
ĠIl linois
M Ã´ng
ĠCh ad
ĠYo ur
ĠP on
Ġvir ut
ĠS U
TT CP
ĠC op
ov ers
ĠS uez
F L
ĠMar ine
ks how
ĠV CG
olo gies
ĠkhÃ ²
we ather
ĠL ed
ĠHá»į p
ĠSar ri
Ġn Ãłi
Ġn áº¹p
ĠM eh
Ġp ap
Ngh iÃªm
ĠGh ost
Ġg ala
ver t
l Ã´ng
J ames
Ph oto
ĠVill age
yo ung
Ġ6 10
qu áº£n
ĠWolf sburg
nup iravir
G H
Ġgi Ã³ng
Ġná» ĩn
12 2
ĠMold ova
A NH
s Ãło
x Ã³a
km en
CN N
ĠCA D
19 82
ĠÄĳá» Ŀ
ĠSun shine
ĠN Ã¡
ĠCon f
c Ãł
ĠC GV
C áº©n
ĠK won
x ÃŃt
ĠAsh ton
tr Ã¹m
ĠEng ine
ĠV ert
ĠVen us
ĠMis tral
T Ãłng
13 4
ĠStr aits
Ġ31 6
Ãģ CH
? ,
ĠNg á»±a
ĠDan ang
Ġh uyÃªn
ĠV QG
ĠW as
l á»±c
ph etamine
ĠP GÄĲ
ĠW EF
le v
ĠCh áº©n
nghá» ī
18 5
Ġcom eback
ĠT Ã¨
ĠZar if
19 67
ng hiá»ĩn
Ġtá» ĥ
p ost
Ġg Ã¹i
Ġthu i
Ģ N
ĠS ix
L áº§u
77 7
/ -
ĠAustr alian
c Ã¢n
Tá» ıi
Æ¯á»ľ I
n Ãª
ĠTr av
s oi
ur u
ous ine
V oi
ĠHar am
w orld
ĠKh uyÃªn
d oi
Ġbá»ĭ u
ĠâĢĿ .
Ġná» Ľp
ĠHim al
ĠF amily
C PTPP
Ġbar ie
ĠC hÃ³
ĠU d
ĠCÆ¡ m
ĠT ank
ĠM iá»ĩn
ĠAz ov
r ell
lo e
ĠC áº¥u
d ale
R ad
ĠN umber
ĠSeb astian
Ġ Ãº
ĠPet rovietnam
P utin
ĠL ille
CC S
ĠT Æ°ng
ĠEd ucation
Ġs ale
Ġvá» ±ng
Ġrá» īnh
am oto
ĠTik tok
s á»Ł
9 60
ĠBe ir
ĠAv ia
ĠSir i
ĠJo ao
ĠZh ao
n uÃ´i
ĠC atherine
Ġnh áº£n
ĠP ict
ĠR us
Ġu áº¿
UB KT
= "
ĠLight ning
k á»·
Ġc ui
ĠH áºŃn
ĠPep si
Ġz alo
for man
T áº§ng
pp e
ĠFTS E
ĠkhÃ ¹ng
AN OI
Ġoff line
Ġng Æ°á»Ľc
Ł m
ĠRen o
ĠVin atex
12 7
ez il
ĠHop kins
ĠAeg is
ĠBoy s
ph arm
Ġgi Å©a
thá» Ń
ĠÃĲ Ã´ng
ĠInd ian
l á»Ļ
Ġr iá»ģng
D j
C áº¥u
j wplayer
un i
te y
ĠBa ek
ĠF lip
ĠCS XH
Ġfol ic
on na
ov en
ĠCom mun
ĠH UY
ĠB uá»ĵn
il yn
ĠA sen
b and
h on
C Ã¢n
ĠM endy
ĠCh ong
ng on
Ġbá»ĭ p
Ġs Ãª
ĠH eo
áº® C
lyn n
ĠT á»±u
T an
19 50
Mos cow
Ġx áº©y
ĠUn ilever
su al
hÃ ©
h m
ÄĲ áº¹p
AT A
Ġvo á»įc
elo f
ch Ã¡u
ĠSaf ari
o ul
iÃª t
ĠT hÃ³i
ĠSecur ity
M H
Tr i
ĠmÄ© m
ĠLau ra
Ġ all
Ġ5 90
ud din
Ġcar ton
Iá»Ĩ P
ng he
ĠThá» ı
ĠD IG
ar ag
ĠGer ard
ind er
openh agen
lu áºŃt
ĠX Æ°a
D ani
B om
S outh
ĠL áº¯m
ĠC ass
ĠMau ricio
ren e
ĠShar p
ĠAn aly
B iá»ĩn
F ood
áº¤ U
ĠP os
Rob ert
Ġd ec
ho Ãłng
13 3
h ung
ĠSp ir
ĠUg anda
ĠEx po
8 20
40 4
it ic
ĠKy iv
b Ã¹ng
ĠP it
ĠE up
ĠTh a
ĠO TP
Ġkhá»© u
ĠG áº¯n
aze era
ĠHo REA
ĠGang won
S eo
Le aks
ĠWat son
eb r
Ġdo wn
It alia
8 10
Ġgi Æ°Æ¡ng
ch n
ĠHá» Ľn
Ġ4 25
ĠV E
ĠPh oto
Ġp ost
ĠHu ll
ĠAy un
nh u
ĠhÃ ªnh
ph y
B aghd
ĠHan n
Ġb eng
O r
Ġs kin
ĠVin icius
u ver
há» ĵ
an ie
h or
Ġá» Ľn
ĠPV T
Ġc áº§y
ill ac
c áº¯m
K arab
t uyá»ĩt
ag ship
ĠL ok
i ya
f one
Ġ35 4
ĠS em
ĠCel ta
b Ã©
Ġ( )
ĠMar in
Tr ans
sk aya
D iá»ĩu
Ġmag ie
ĠH elen
ĠCH K
ild ing
Ġ30 6
lad bach
ĠT ot
Ġ26 3
ĠB áº¿p
ick s
W ill
ĠhÃ ¹
R om
Ġnh Ã£o
Ġn Ãµn
Ġd Ã³
Ġ195 1
ub le
ĠTO P
ĠW endy
Ġá»¦ ng
N áº¥m
c tion
Æ°á»Ľ m
ĠV Ã¢ng
16 8
Ġ0 98
Äĳ áº¯t
ĠWhats App
G ame
ĠG á»ĳm
Tr Ãºc
ĠNh áº¡n
ĠNH K
ro e
ĠC ath
ĠP ET
ĠSt art
ĠDef ense
Ġ27 3
ĠDh abi
Ġl Ã¡o
25 6
Ġ27 6
ĠRos Ã©
ĠRM IT
ĠY el
Karab akh
ĠMc Tominay
ĠDep ortivo
ĠBO G
E d
8 90
Ġr áº·ng
han e
ĠPC A
áº ¨
uá»ĳ m
Ġcl ick
ĠS Ã¬n
ĠN ott
00 2
ĠA ff
ho ck
Ġ( âĢľ
Ġph uá»Ļc
ĠTH ÃĢNH
t uyáº¿n
ĠhÃ©c ta
ĠN em
Ġngh iá»ħm
ine ken
D ung
x ay
N ews
ĠHo m
ĠÄĲ Ãºc
ob e
ĠVin acomin
T Ã´m
ĠHQ C
Ġv Ã¢ng
Ġho en
ĠMar itime
ĠM ia
ber ra
Ġtr á»ĭch
ĠPL X
S mart
ĠF au
j un
p ro
ĠBrad ley
ĠR X
ĠHá» §a
x ra
c ara
Ġ28 1
ĠElan tra
Ġco upe
berl ain
Ġrá» §ng
Ġr eview
t uá»ķi
d otel
br ight
en kov
ĠTT ÄĲB
7 40
Ġ25 3
Y amaha
c et
ĠN BA
3 75
ĠL anh
m á»¹
ĠP B
Ġh Ã¡ch
acc a
ĠSl im
v áº¥n
ĠT Ãª
ed es
Ġxáº» ng
Ð °
ĠA IC
Ġkh Ãłn
Äĥ c
b un
Ġchá» £p
ĠOr gan
Nhá»ĭ p
p rus
ĠJam aica
Å¨ NG
im et
ab et
h ong
ĠnghÃ ª
19 85
Ãģ NH
a a
ĠKy le
ĠKal ibr
H á»¯u
P er
V accine
k or
ĠAl isson
ĥ nh
Ġ3 99
ĠEl le
ĠTechn ologies
r ier
ĠYouT uber
ĠGol an
Y M
c at
Ch uá»ĳi
ĠC oi
ĠR A
ĠChar ter
ĠTr ail
L i
ĠPart ners
ĠC indy
Ġáº ¨m
ĠL V
ĠT iffany
19 5
Chá» ©c
Ġn Ã£y
X Äĥng
ĠH PV
ĠF at
us ic
Ġnh áº±ng
ĠD B
ĠM N
ĠMes ut
az ette
Ġc ut
t z
C hÃ³
S á»ĳt
ĠSte fan
ĠÄĳ Ã¢
ver de
Ġthá»ī u
ĠTG PL
Ġsho ot
TS C
X uyÃªn
ĠR as
ĠPro per
áº® NG
ck tail
ĠNat ure
ĠTed ros
Ġl áº¡p
Ch rist
ĠPl Ã´ng
Ġl iáº¿m
Ġcá»Ļ c
ĠKu in
Ġet hanol
y ang
20 4
ĠW ith
ĠJosh ua
ĠSin ai
ĠB Ã¡u
ĠD iá»ģu
ĠQueens land
ur ch
Ġ27 8
Ġxu á»ĥ
R NA
Ġtr áº¯m
ĠTHA CO
ĠAt lanta
ĠGi Ã£
Ġ6 36
al ie
ĠUn i
Ġmá» ģ
2 45
ĠKhá» ķ
ĠP om
Ġp an
Ð µ
al ez
ĠEnter pr
ĠCar e
ĠHD B
Ġyá»ĥ u
) âĢĿ
ĠRob usta
ĠM áº¡o
c ess
l á»Ĺ
b Ã´ng
ĠNev ille
ĠCÄĲ S
Ġg Ãłu
ad an
s how
Ġc ot
Ġm á»ĳ
Äĳ á»ĳn
ar at
ĠTeleg ram
ĠF ol
ĠmÅ© m
Ġc ur
Ġw e
ich el
ĠJac qu
ff et
29 5
yr on
ĠD M
Ġ28 2
ĠGel ex
ay o
ĠD VC
Ġn Ã¡n
d áº¡y
v ax
UN CLOS
Ġba king
Ġc áº·m
Ġ9 30
CÆ¡ m
U BCK
x b
ch es
ĠHD R
ĠtrÃ¬ u
Ġr á»į
en berg
ĠH au
Ġf in
Ġ26 1
ĠTIáº¾ P
ĠRap hael
ĠHerm es
ĠM Ã¡
Ġs hip
ĠOd essa
ĠPap ua
V á»ı
k Ã©o
Qu Ãł
ĠTh ink
n Ã©
ng á»±a
id on
Ġ28 6
Ġlo Ã¡ng
ĠAlv aro
ng Ã¡o
ĠM khitaryan
ĠJohn s
ĠJoa chim
Ġr Æ°Æ¡i
ĠTN G
P o
Ġl áºµng
ĠB LV
ĠS R
Ġb im
Ġkh Æ°á»Ľc
ic ot
ĠZ TE
Ġ32 8
ĠG in
phi s
Ġtr áº¥u
ĠBro ad
Ġ9 90
ĠKar ik
T iá»ģm
ĠGuill aume
ĠRonald inho
ĠCotec cons
ĠBat man
th oi
ĠCharl otte
ĠY eo
H áº¡ng
ĠAir es
n uá»ĳt
Ġghi m
5 90
ent a
iet y
Äĳ áºŃp
ĠC Ã¡o
Ġg áº·ng
ng Ãłnh
s tr
ĠAndre as
ĠSl av
ĠC á»ĵ
ut i
ĠTh Ãł
ÄĲá» ©a
ĠVlad iv
ĠEm ery
13 7
Ph áº«u
ĠHodg son
ĠPhil adel
ĠCan berra
Ġgolf er
27 5
v ay
ĠR ho
ĠK iá»ĥn
ĠGor don
ĠWars aw
Ġvac xin
Ġg Ã£i
st agram
ĠLu han
ĠBay er
B áº£y
15 8
ch Æ°Æ¡ng
H TC
Baghd adi
eth ad
ĠAr iana
ĠHind u
d á»Ł
ĠMar ri
Ġ4 75
ne ider
ĠJo ko
ĠNat ions
g Ã¡nh
Ġm á»ĳng
ĠTr á»¥c
hÃ ©t
ĠF un
ĠBl ind
Ġd áº¹t
Ġkh am
ev o
ĠFum io
ĠPhiladel phia
Ġg Ã´n
ĠL loyd
Ġ0 24
Y ou
ĠthÃ³ p
Pak istan
Ġt Æ°á»Łi
co uver
ĠMy ung
ĠC openhagen
Ġn Æ°á»£p
ĠF ive
ĠT áº©n
lo gger
H iáº¿p
ĠSo und
U SA
ĠB Ãº
en burg
ĠT ui
19 80
ĠPar aly
L TS
tho Ã¡t
ĠMahm oud
Kh en
ĠIP S
Ġb áº¹
Ġn ews
ĠHav ertz
cover y
Ġb alo
ere um
ĠJ adon
Ġv Ã´ng
ent ino
Ġn áº£i
ĠH á»±u
ĠBit exco
d á»ĭ
á»ĩ ch
B á»Ļt
ĠBRI CS
Tá» ©c
Ġi T
ĠT Ãºi
ĠDe ad
ĠSoft ware
Ġkh áº¥m
ĠP ablo
d ia
Ġd á»ĳt
ĠPH Æ¯ÆłNG
R os
th al
ĠC AT
ĠD ara
13 9
Ġs l
k ÃŃch
Ġsá» §i
ĠB ord
ĠAl li
95 9
ch áº¥m
ĠCM CN
Ġ7 60
Ġ55 5
ĠB ian
ĠR ot
ell ig
13 1
ĠCom ey
X a
19 65
ĠN CC
n Ã´
n á»ģn
ĠC J
c or
Ġ9 20
ĠJ esse
hÃ £
Ġl áº¡t
ĠN C
c Äĥng
P hÃŃ
ĠB Ã³
ĠY at
m Ã´
ion al
is es
âĢĿ ).
ĠhÃ ¢u
ĠUniver sal
ĠTr Ã´ng
ĠÆ¯ Æ¡ng
ÄĲ á»ĩ
Ġ31 7
ĠLit va
ĠS I
ab al
Ġm Ã¡nh
ĠMed ic
r iÃªng
ĠHag el
14 4
ow a
ĠS aka
Ġkhá» ĳ
Ġr Ã³i
C al
Ġo C
m á»įi
iz ens
ol lo
omp son
ĠL Ã¨ng
ĠM Ã¡u
ĠBig C
ĠGang nam
ĠLind elof
G reen
ĠWhit ney
Ng Ãłi
Ġg ly
Ġ7 70
Th ai
Ġtá»ĭ t
Ġo unce
ĠLin da
udi os
Ġs áº¯ng
ĠVSA TTP
ĠCh áº¿t
ĠMal ta
id es
ethad one
y uk
n á»ĳi
ĠSte el
ĠHong kong
Ġu á»ĥ
Ġ29 2
ol t
âĢĻ âĢĻ
ĠD Ãłnh
chá» ¯a
ĠK iáº¿p
Ġ38 5
ĠP ick
H am
N issan
ĠO re
ngu oi
C á»Ļt
ĠAl ess
ĠEsp anyol
b áº«y
ĠI LO
Ġh Æ¡
kh Ã¡t
k ar
Ġ12 00
ĠK Ã¨
19 76
Ġlá» ķ
15 6
ag hi
26 5
ĠHud son
0 24
S uper
ĠH ard
ed ette
Ġsal on
ĠCh au
Ro oney
Ġlá» §i
ĠAl am
D NN
18 3
k á»ĭch
Ġn Æ°á»Ŀm
ĠG mail
17 6
ĠCV ÄĲ
Ġph áº£ng
x u
ĠS iam
ĠG lor
m oi
ĠH áº¢I
ĠK ien
ĠV JC
ĠWar ri
ra p
Ġ36 3
Ġcoc aine
) ".
ox ide
áº¬ P
erm o
ĠKob e
ĠBeir ut
ĠV Ã²
ĠK ona
ĠK TX
c iel
ĠBu enos
R R
Äĳ á»Ļt
x á»ĭn
Ġnh uá»ĳm
ĠSton es
ĠY ok
ĠJ org
ud y
ĠTá» §a
Al bum
ĠHo ts
Ġ32 6
ĠPh áº©m
S á»ĳc
Ġl uy
Ġr iÃªu
im o
ÄĲ áºŃp
ĠT Ã³m
ĠJ CPOA
Ġout fit
kh ong
ĠESP N
B TNMT
TN GT
f un
ĠWell s
gi áºŃt
Äĳ Ã²i
19 8
r Ãª
A CB
Ġchá» Ńa
ri en
ag le
G á»£i
ĠA er
O P
Ġmá» ģn
ul f
ĠRe v
ĠO ezil
ĠL á»į
ĠGi use
Nh anh
uk et
ĠÄĲ Æ°á»Ľc
ĠG MT
23 4
ĠTC VN
ĠSah ara
iff el
en sen
18 9
S Ãºng
ĠK iÃªm
l Ã£o
ĠSchol es
h aka
ĠT áº¥u
m Ã¢y
atas aray
ĠNin ja
ĠCy prus
ĠÄĲ ua
Ġ28 3
win dow
ĠYoshihi de
van te
ĠNiel sen
ĠÄĲ áº£n
** **
ĠLeop ard
ega ard
W e
Ġrá» ©t
Ġng an
ĠS ik
ĠCy ber
B ÃŃch
Ġng oa
ĠHo w
ĠVladiv ostok
B Ã²
ĠH abeco
Ġm áº¿u
ĠW estern
R Ã¡c
A TTP
ThÃ ´n
Phá» ¥c
7 10
B áºŃt
ĠDi esel
A FF
ĠS AM
ut ions
ĠSt udios
ĠJ Ãºt
M Ã¢m
Ġnh Ã²m
ĠN orm
ĠHil ux
F e
AT XH
ĠOs ama
ĠMand ela
hi d
00 5
j ong
m inh
as u
Ġ4 99
Th Ã¡o
ĠSá» ıi
Ġlo áº¡ng
Ġp er
phá» §
14 9
ec on
ĠGran t
Ġto anh
TB D
ĠAl t
Xi aomi
ĠBe ast
» ©a
á »©a
ac a
Ġw hi
14 3
Ġtá» Łm
ĠC F
ĠG ear
Ġkh Æ°
ĠM á»µ
ĠKhá» ıe
9 70
Ġsá» ı
S n
Ġ6 90
ĠTur kmen
ĠCarib be
Ġlá» ³
2 15
ĠB á»Ļc
ĠKy oto
ĠRom ero
ĠT oáº¡i
ra e
ĠSapp oro
ĠB eta
ĠVan couver
PA C
ĠVIE TNAM
ĠCh ao
Æ¯á»ļ C
f eld
ĠC ÄĲT
3 25
Ġth áº«n
ex t
ĠXK LÄĲ
al og
ĠX Æ°á»Łng
ĠStur ridge
x Ã³m
an ov
ĠE iffel
S ch
Ġ37 1
ĠWal mart
ĠT at
ĠC afe
ĠCon cept
13 8
ĠCr ist
ĠB es
Ġkho áº£i
ĠF lynn
ĠVal verde
B R
Ph e
ĠA AA
ĠBar ry
ĠG A
ĠRad io
ĠA TTT
Ġt Ã³p
22 4
ĠCh ay
s ilk
ĠQ S
CN T
ĠBa e
B ike
il es
O s
Ġr á»Ļp
ĠK ad
Äĳá» §
ĠMn uchin
ĠJP Y
ĠQ CG
ĠF ore
ĠVND irect
ĠP OS
ĠAn at
ĠIC E
z Äĥng
ĠB um
ĠHe ineken
ĠGi anh
X L
ĠP SV
x Ã¡c
Ġn ail
ĠN im
ĠShay k
l ess
arth y
ĠR Ãª
eth er
ĠC Ãły
ĠRo jo
Ġ5 45
ĠHu á»ķi
Ġgá» Ŀ
ĠWe Chat
apl uat
iz h
D Ã¢y
ĠM M
im p
ĠK ap
n m
g roup
N SNN
. âĢĿ,
ĠÄĳÃ ¬
19 53
ĠCar acas
ĠStar s
ent in
9 30
ĠP sy
et er
ĠJeff rey
ĠS BD
vietnam net
m Å©i
ĠHab ana
M iá»ħn
ĠB ailly
ĠK ok
end an
ĠMar gar
tr Ã²
ĠVin mec
s hire
ĠL áº¡n
CO C
Ġ29 6
Ġ3 21
IS S
X Ã³a
Ġl Ãµa
l Ã¢m
S martphone
d ate
» ıng
á »ıng
ĠAlex ei
ĠIvan ovic
L á»Ĺi
m Æ°á»£n
Ġv Ã¹
ĠRi edl
ĠH á»ĵn
j ah
B á»į
m id
25 5
ĠCharter ed
Ġ7 47
l Ã£nh
Ġ30 3
Ġx á»Ļc
gi Ã¡m
Ġ one
B á»įn
N ick
á»Ĺ m
ĠH F
Th Æ¡
78 3
ĠF ant
ĠAbram s
Ġ4 15
Ġmá»ı m
ĠH áº§m
ho i
x áº£
M aster
ĠT ol
ĠG au
ĵ m
ch Ãło
ian i
Ġvi sual
Ġba by
Ġth iáº¿c
Ġ26 9
ĠTh ompson
ĠCS ND
Ġ33 6
Ġb Ä©nh
Ġt iá»ģu
Ch áº¿t
V á»Ł
ĠD PM
ĠnhÃł u
ĠKh Äĥn
m áº¯c
Ġm om
forman ce
R u
ĠBR G
Ġm oi
ĠOr ange
ĠB orn
22 8
ĠRuss ell
ĠVic em
ĠEng land
' ...
x á»©
19 61
ĠSund ay
m el
ĠPh iáº¿n
ĠDá»± ng
ass em
Ġs ter
ksand r
ĠB ib
inh a
ĠR Ãºt
Ġ25 9
H Ã²n
ĠD io
ĠÄĳáº½ o
ĠSol ar
ĠGi ll
Ġ9 80
ĠY en
r ise
... /.
F one
thÃ ¬
ĠCap e
ĠW es
Ġam i
et on
ĠCA SA
D B
Ġ3 23
66 6
ĠLo ew
eria l
Ġcot ton
ĠAct ive
ĠEup hr
ĠP Ã¡c
ĠChi ld
nes ota
Ġhas htag
18 6
l ob
) âĢĿ,
ĠRo os
ĠM MA
» Ĵ
Ġ inh
ĠTá» §
Ġn Ã´m
ĠToshi ya
ip l
eg ro
S en
th ai
Ġ <
m ingham
á »Ĵ
Ġmá» ¥
ĠA udio
Ã §
Ð ¸
B áº¿
Ġ27 1
ĠFal con
ĠCA O
ĠB oko
L ife
V ol
ight s
nh eim
ĠKr is
S SI
Ġm Ã²i
Ġlá» įn
Ġnh Ã£ng
ah an
Ġx Ãºm
Iá»Ĩ U
ĠTN LÄĲ
c hÃŃ
D inh
ĠT TTT
ĠMad onna
h ua
Ġd Ã£n
t ÃŃch
ĠLe vante
burg h
Cap rio
Ġrub le
ahr ir
ĠAl ice
Ġ28 9
2 99
GR DP
T áº¯m
ngh Ä©a
b áº©n
ĠK á»ĭp
Ġ4 35
ut ure
ĠTh s
ĠServ ices
Æ°á»£ i
ĠCl as
ĠB ÃĮNH
Ġ {
ain a
4 35
T Ã´
19 60
ĠArn old
M á»«ng
j s
ĠDe utsche
Ġ30 7
ĠResiden ce
ĠC á»ĳt
t ics
ĠH in
ĠPar a
ĠnhÃŃ m
ĠR ag
ĠZ ur
ĠP Æ¡
M á»±c
ipp i
ĠMo Mo
Y C
ĠF ish
Ġ31 8
T ek
ug a
u oka
d it
hi ro
ĠHur acan
uz u
ĠHá» Ĵ
N e
V Ã¢ng
ĠV á»Ł
ĠY ear
ĠR id
ĠPV EP
ER T
16 2
Ġop era
H ari
16 6
00 3
ĠB áº¡t
ham phetamine
Ġn ÃŃt
ighlight s
ĠNott ingham
ĠV áº¯c
ĠP anda
Ġlá» «
all a
d Ã¬m
ĠP á»ĵ
ĠE than
re gor
ĠDa egu
k ina
ĠTN VN
ĠlÃ² i
há» ĳ
ĠM áºŃn
ĠPh uket
ĠCar Play
m uá»ĳn
ĠT urn
ĠFil ip
ĠHav ana
Ph Ã¡i
es te
ĠSim p
Ph Æ°á»Ľc
ĠLac azette
3 45
ĠEd in
ĠR ab
Ġd Ãł
Ġx áºŃp
A ll
Ġg áº«m
ĠB áºŃt
AR C
l ike
ĠSte f
ĠT BN
ĠW S
ĠSir ius
Ġy outube
________ ________
áºł T
Ġl Ã³e
ĠTr áº¡c
Ġur ic
ĠP E
Ġ40 5
ĠShak htar
ĠHidd ink
ĠN áº¥u
ĠNg á»§
Ġl iáº¿c
Ġt uá»ĳt
ĠCN HT
ĠW en
ep t
ulin um
Bio NTech
ĠR áº¡p
ĠN ani
Ġph áºŃp
ĠCard iff
ĠB á»ĳng
et amin
tá» «ng
ph Ã¡o
ĠT CN
Ġr á»Łm
Ġnu Ã´ng
M Ã¹i
Ġtr uÃ¢n
Ã¢ t
ong he
Ġs ÃŃt
ĠMcC arthy
ĠQ Z
ĠAp ollo
ĠE van
xy nos
Ġi Cloud
ĠQu Ã£ng
ur ai
r ie
as oan
ĠO ver
ĠLau ren
le e
Ġfl agship
F estival
ĠL L
P B
S hi
ĠAl ab
Nghá» ī
Ph áºŃt
15 9
ĠMin nesota
ĠÄĲá» §
Â ·
G ar
Há» §y
ĠF ac
R ich
Ġkh eo
ĠRe us
ĠDe ng
Ġngá»¥ m
v ideo
ĠB ing
as in
ĠEuphr ates
20 3
Th an
Ġ organ
ĠDi Caprio
ĠParaly mpic
ĠV BA
Ġá»Ĳ ng
ĠH ell
ĠCon tinental
Ġtu abin
L en
Ġth áº«m
Ġrá» ĩ
ĠSh el
et y
Ġsc an
16 3
ĠMon te
od en
Ġchu m
omet ers
Pet rolimex
ch in
CS T
ĠCa hill
ĠSá» Ľm
Thá» £
ĠInter fax
Ġhorm on
Ġb á»±
Ġ8 10
ĠO TT
B TT
Ġbu ffet
um e
T p
ĠK wang
Th iá»ĩt
ib er
ĠVin aphone
ĠS oi
u eta
ai se
ĠD ut
Ġ Ãºa
Ġ9 70
ĠP yeong
18 8
ĠC biz
áº® T
ĠR oi
! .
K ong
s á»£
Ġmake up
ĠKuz net
A udi
ĠPC LB
onghe an
ĠMal aga
ĠMu á»Ļn
ĠGre y
Ġlá» £m
Ġ40 1
ĠFlor es
Ġchá»Ŀ n
Ġm Ãµm
ĠC Ãłnh
TH CS
lu á»ĵng
Ġ7 40
Ġnh á»Ļng
D O
ĠphÃ ºng
ĠAss oc
Ġt Ã¢ng
m edia
ĠKrist en
19 62
ĠJe ep
ES T
F err
ĠHimal aya
ĠM á»ĩnh
ĠN áº·m
ĠGiá» ıi
ĠCon t
s ch
ĠMah at
L á»¯
ĠL á»ĵng
ĠchÃ ¬nh
ĠE S
18 2
KhÃ ©p
l im
Ġd Ãºm
n á»£
ĠÃ Ģ
ĠL O
j ek
t t
ĠN ishi
ĠÃ ĵ
Ch áºŃm
ĠK aka
ast opol
ĠSch neider
ch áº¯c
ĠiT unes
ĠEc op
ĠKomp any
ĠQ aeda
ra phic
ĠNag orno
ĠH MS
Qu Ã¡ch
BN EWS
Ġ40 8
g ian
ĠPh Äĥn
ĠNG Æ¯á»ľI
Ġ8 70
Ġg Ã²n
est in
ĠToshi ba
ĠWAG s
it age
om at
ĠA U
3 19
26 8
ĠLib eria
lo gan
s io
Ġquá»µ t
ĠNN VN
AP EC
9 40
Ġ29 3
ad ow
land s
ĠKov ac
B iss
l Ã¡ch
Ġ28 4
Ġtrá»« u
ĠT ul
Ch iáº¿m
ĠV issan
ar ak
ĠMug abe
Ġb áº«m
âĢ¦ /.
ĠPol it
Ġch uá»ĳc
itz er
ĠG Iá»
ĠPer eira
ĠKir by
ĠSystem s
ĠCo co
ĠCh ern
son aro
vax em
Ġg Æ°Æ¡m
ĠCh iáº¿m
ĠMus tang
Ġr ob
d ang
ĠPao lo
ĠKh áº¿
Ġb áº·t
r áº¯c
ĠRobert s
ĠMol nupiravir
ĠF actor
ĠSc ud
ar oo
30 1
T al
es i
ĠT ahrir
ĠÄĳÃ ¬a
19 77
Ġm RNA
Ġ50 5
Ġv edette
ĠH áº³n
Ġlá» ¥ng
ĠN un
ĠRak itic
Suz uki
C Tr
p or
ĠX iáº¿c
ĠF V
ĠPr ice
ĠHe ard
ĠVn Economy
Ġs tory
ĠD Ã¢u
p ar
h ome
ĠÄĲ ÃŃch
Ġ5 25
ĠEco Sport
ĠPr iv
gi Ãł
Ġ36 7
Ġphá»§ i
ĠClass ic
p x
w ick
ĠMay weather
28 5
ĠHu l
ĠSull ivan
ĠGer man
UYá» ĢN
aw r
Dj okovic
ic ia
os an
V S
ĠSp ark
bi ent
ĠSouth ern
aver se
Ġg uá»ĳc
hÃ³ t
ĠC az
Ġho me
ĠWal ter
ĠD ennis
Khá» ķ
ĠT Æ°á»Ľc
or ama
ĠChá» Ĺ
Ġfashion ista
evel t
Há» ıa
n Äĥng
Ġr eal
Ġ3 11
ĠCon cert
Vic tor
ĠPr om
ĠDA B
p ilic
ĠV ip
Ġch eo
ĠlÃ² e
hÃ ´
ad dy
ĠKe ane
ch áº¡m
M itsubishi
g art
ĠP áº¯c
Ġ31 3
ĠEv ra
D X
ĠJo el
H ome
á»± ng
Ar n
ĠhÃ³ i
ĠUBMTTQ VN
ĠJung kook
9 10
net h
ĠBol sonaro
ĠE xynos
t es
Ġtr Ã¡t
d Ãłnh
ĠD Å¨NG
el i
Ġvá»ĭ n
ĠGonz alez
ĠR ick
16 9
ĠH iáº¿p
pilic ueta
Ġ19 41
Ġnh oi
ĠZ hi
ĠL ast
Ġcomp osite
ĠFl am
17 7
Ġc áº¡m
ĠM ÃŃt
ĠbÃª tÃ´ng
ill on
ĠBob by
T ao
s ar
th áº¥p
ĠÄĲ iÃªu
ob i
ĠMiss ouri
vid ia
k it
s hi
ĠV log
" !
oy a
B SC
L áº¯ng
ĠNh áº¥n
ap e
Le icester
ĠW ord
ĠVers ace
Ġm atch
el ess
ĠBl atter
Ġ33 1
Ġs up
ĠZ a
Ng Ã£
ĠV ASEP
ĠHeb do
ĠN FT
Ġcar at
ĠServ ice
ĠT E
ĠHots pur
ĠF low
ĠLey en
ĠOs p
m ers
ĠMon roe
ĠK le
M ad
ĠGD ÄĲH
ĠR ush
Q atar
sh ere
ĠWan na
ĠRun ning
w at
Ġm Ã©
BÄĲ Q
ĠLand mark
ĠBir mingham
B QL
ĠCo ol
ĠEs per
ĠIndustr ies
á»¥ n
á»Ķ I
ant ara
Ġhá» Ľn
kho áº£n
d ai
Ġkh áºŃp
ail and
ĠSte gen
ĠCo hen
nh á»ı
Ġho Ã³c
ĠSh ell
P ower
ĠX haka
Ġchá» ģ
Ġ28 7
Ġ8 40
ĠWood ward
B ill
19 84
ĠL iveshow
ĠCh arm
ĠN eg
Ġtho áº¡t
ĠPr ix
ĠMC U
Ġt Äĥn
ĠHo áº¡ch
ed i
ĠOl ivia
es ong
ra v
ĠG iáº¿ng
ĠU K
ĠGle i
ĠEconom ics
on avirus
35 5
ĠGun dogan
is k
ĠBeng al
S Ã´i
ĠÃ ģn
ľ I
GP MB
X K
y áº¿u
19 70
ch Ãłng
eh yd
as ak
Tay lor
N ET
Ġn icot
ĠE L
ĠR Ã¡c
14 7
ĠKhal ifa
T K
00 4
15 3
ĠH BC
ĠA GM
Ġi Pod
Ġn áº¹t
ĠB ok
ur ance
ng há»ģ
ĠV BÄĲQ
ĠYe ah
ĠAndre i
ri y
Ġth áº±n
acet amol
Ġr Æ°á»£i
Ġ00 7
Ġng áº¥n
ĠSAO star
27 9
ĠE instein
at ing
m Ã¬nh
ĠF ren
ĠSt artup
F E
ĠKh am
ĠDz eko
ĠN xb
BV H
ĠBal d
ink i
avon oid
ĠRan ieri
yl an
ĠGran ada
ĠV ovinam
ĠX o
ier s
ang a
ĠFin tech
Ġx Ãµa
ĠZ ara
th áºŃt
Ġ( ?!
ĠÄĲ Ãłng
55 5
ĠHo e
Ġqu áº·n
ch y
Tr áº¡i
KhÃ ºc
ĠU cr
' ;
M Ã³ng
Ġto asoan
ĠBer g
ĠT iá»ĩn
ĠL áº¡
ĠInd iana
ĠMeg an
j on
Ġ4 13
ĠLá» «
ĠRaz ak
enc er
ĠSull i
ĠSev astopol
Ġgi áº»
ĠUt ah
B us
do u
V áº¡n
ĠH áº¹n
ĠSo ul
ĠU FC
ard e
ĠHat ha
ĠN ix
Ġol iu
ĠL iam
Ġgá» £n
Ġm Æ°á»Ŀng
Ġ30 9
giá» Ľi
G old
ĠChi bi
ĠMil k
ĠRoos evelt
ĠL ike
19 59
ĠW y
Ġnh Ã©p
PhÃ ª
ĠTr ading
M od
16 7
c ab
ĠGo etz
ĠKar en
Ġb allet
Ġ7 10
Ġ31 4
p to
Æ° m
ic kr
Gi Ãły
ieg el
ĠG á»«ng
ar ning
st ad
g Ã³p
Ġl áº¿t
L HP
et ox
Ġhá» ¥c
ĠL á»ģnh
ĠW ir
Ġv áº§ng
le d
Ġá» ¶
l Ãłn
Ġy our
ĠHugh es
Ġr Æ°á»Ľi
ĠD Q
ĠD á»«ng
ĠPr ot
Ba onghean
ĠOre gon
ĠCad illac
ĠP and
á»Ĳ c
ĠkhÃ ¨n
ĠNav ibank
ĠSh u
ĠGi gi
os un
ĠHer ald
ĠHo kk
ĠPT I
ĠCit izens
Ġs ushi
ĠGonz alo
ch eng
s Ãª
ĠP ui
ir d
ĠN CB
Ġr Ã©o
ĠMarri ott
khá» Łi
ten egro
ĠRib ery
ĠC lo
Ġco cktail
ri es
ĠQuin vaxem
d áº¥u
ĠB eg
¡ i
ĠOr ion
S JC
ĠK sor
Vin amilk
Ġpro duc
N ov
ĠT F
ĠMar ilyn
Ġ50 4
ĠEcop ark
ĠKh Æ¡
ui gi
ĠTim o
ĠI owa
ĠSo fia
is ol
ĠDav ies
ĠAdam s
Ġ ed
ĠWiki Leaks
ĠN aomi
ck y
ĠBol t
ĠS ey
V ASEP
Ġd iá»ħm
H iáº¿u
Ġx á»ĳc
Ġdr one
aw at
w itter
ĠG y
ew on
ell ini
L Æ°á»£t
ag as
S iáº¿t
Ar t
ĠBrah Mos
ĠSo áº¡n
ĠG áº¥m
ĠS uss
ĠAN Z
ĠMag ic
M ag
Ġdá» ģ
Ġn anh
há» §y
Ġ4 19
ĠAc er
ĠNg u
ĠH Ã¹m
ay ev
ĠD áº¿
0 28
Ġs it
S el
ĠBr asil
v ez
Ġlo Ã¡t
ĠNap ol
t áº¥m
ĠÄĳá» įa
Ġo áº±n
ĠÄĳo áº£n
ĠTurkmen istan
21 3
ĠGal atasaray
s un
ot ion
ĠRom ano
Ch áº¥m
Sau di
ĠZapor izh
g áº¥p
ophi e
ate ng
tr á»ĵng
ĠSel tos
Ġcr Ã´m
ĠT Ã¡t
Ġ6 75
AT M
Ġn Ã¡y
ĠNg áº¡c
ĠK iss
ĠRom eo
ĠG O
19 81
23 6
L ion
od ia
v áº½
Ġp ano
ĠHatha way
Äĳ Ã³
ĠJi ang
C Q
am o
B itcoin
Ġl Ã³a
ÄĲH QG
âĢ¦ "
ĠA AG
Ä ¨
ĠTN T
ĠVI N
B áº¿p
Ġp a
phen ol
Ġ32 7
Ġ" .
ĠN NT
ĠLe i
ĠBlack pink
ĠAss ange
ĠSeung ri
ĠBarb ara
ĠÄĳá»§ i
Ġkh iá»ħng
ĠC ash
Ph un
ĠSeo k
ĠTW ICE
ĠSchol z
ĠBuff alo
ĠTr ib
Ġf iller
Ġg ar
ĠM Q
ĠR ong
ĠG ust
ĠAnd res
ĠB ee
Ġ19 42
Ġ19 44
16 1
ĠE k
ĠQ i
ĠHokk aido
Ġr inh
en ter
ĠI CC
pot light
Ĭ NH
Vi ew
B KH
ĠHal ey
ĠYat sen
Euro zone
Ġph uy
ĠBr yan
c ard
' t
ed er
J ustin
ĠE Q
Ch iÃªu
ĠTh iá»ĥm
k os
22 6
ĠB áº¡o
au ty
Ġlog istic
ĠFad il
HC DC
18 4
ĠAS EM
âĢ¦ );
Ġchá» Ľi
ch áº£y
Ho REA
ĠCh uyá»ģn
ĠAz pilicueta
ĠPar ad
y le
ĠD Ã¢ng
Ġtal kshow
L au
b ut
ĠX iÃªm
ĠP ath
Ch arl
ĠMel inda
b á»ķ
er ick
ĠWr ight
al ish
ord er
ĠV O
Ġj azz
char ito
ch Äĥm
ĠM Ã¢m
V Ãłnh
ĠAut om
ĠA IM
TT Y
ĠZ ag
! '
ĠMos es
ĠKum ar
ĠSad io
t Ã¢n
Tr Ã´ng
ĠBr endan
Ġcort icoid
4 99
ĠX R
C á»Ŀ
ĠB Ãºn
ly se
D ance
Äĳ Ã²n
ĠO GC
ĠL ook
ĠÄĲá» Ľi
17 8
man e
ac tic
Ġv Ã¨o
mer ce
P HC
ĠRa chel
oo c
Thu áº¿
ĠFlor entino
D H
Ġm áº£y
ĠL ÃĢ
ĠD IC
az ine
ĠT á»ĳn
bra him
s berg
n Ãºi
ĠVin son
ag i
ĠHai yan
v u
TT HC
J ose
Æ¯á»¢ C
ĠC ON
ĠK ara
ir st
ĠPh am
ĠJ up
ĠM ake
ĠAir b
n s
ĠTh áº£m
ĠO wen
awr inka
ĠGre alish
cho Ã¡ng
ĠU NDP
19 64
k Ã½
Ġ33 4
chÃ ©m
l áº¡c
ey eon
Ġd Æ°á»£t
ur ing
IA EA
ĠLuhan sk
Ã ĴNG
ĠClas ico
ĠS áºŃp
red it
ĠKhá» §ng
' ).
ĠRaf ale
Ar ena
ĠX ÃŃn
ĠCons umer
ĠÄĲT M
ĠMem phis
ĠG row
ĠTh áº£n
Nghá»ĭ ch
L ew
ĠL áº¯p
Ġ 000
av es
ĠCol lins
ĠSor ento
ĠHe ad
hÃ ª
20 8
19 74
Ġgá» įng
so Ã¡i
ĠS AT
ĠD ick
ĠAr ms
ĠB ast
Ġ27 7
g áº¡ch
ĠMo h
K e
z ai
ĠNS X
24 6
ĠP ose
ĠCh Æ°á»Łng
19 2
20 6
Arn old
Ġs áºŃm
ĠRah eem
ĠN ina
ĠAr d
m Äĥng
ĠTT ATXH
ĠN Y
Ġkhá» ĭ
ĠBÃº k
os tr
ĠRo usse
Ġtr Ãª
Ġs Ã¬nh
ĠCN Y
Ġg há»ģ
or ies
ĠVAM A
ĠB áº¡
S il
ĠÄĳ Æ¡m
C Æ°á»¡ng
Ġbá» įng
Ġá» ļt
ĠE vo
lá» Ľn
ĠMil ner
D á»ĭ
ĠT á»ĭ
ĠR el
ĠPlay boy
Ġph iáº¿m
0 15
ĠBav aria
stan tin
bu Ã´n
ĠAf rin
19 3
Ġr Ã²i
ay e
19 63
( "
yd er
ĠFood s
ĠD irect
VP F
K ar
ĠG ur
Ġ40 2
l á»ĭch
ĠH els
ĠS ob
ĠR áº±ng
19 83
tr á»Ŀi
PM organ
is lav
Ġphá» Ľi
Ph iáº¿n
Ġthá» ĳ
4 75
ĠHel lo
V R
r ina
Ġx á»ĳt
ĠA EC
ĠSky pe
ĠKh ao
av al
iF i
Ġ Ã¡y
iÃª p
ĠSan e
Ġblue chip
ĠJ YP
ĠPrinc ess
15 7
d al
NG UYá»ĦN
Ġ32 9
R á»§i
ĠL Ã¡ch
ĠCol a
Ġtr Æ°á»£ng
ĠKon ash
S acombank
Ġb Ãªu
Bá» Ĺng
ÃĢ Y
t iÃªn
ap est
ÃĬ U
ho c
Ġbá» ¥
ĠTom my
ĠXinh ua
ĠD Ãª
Ġ900 1
T y
thá» ıa
ĠHÄĲ ÄĲT
f ul
ĠAndre y
L áº½
ĠK HHGÄĲ
Ġn á»ĭch
M áº£nh
Ġthá» ĵ
ĠY PG
ĠNghá» ī
0 25
es port
ĠStr at
H K
Ġh Ä©nh
B Ã¡t
áº¤ y
ĠVent ures
Ġ- -
ĠHap ro
G eor
Ġng áº¥y
ĠMichel in
Ġb ook
Ġx áº¹p
ĠB reak
ĠZ hou
Ġo Ã¡i
ib a
ĠSun rise
ĠFri end
ĠEth ereum
et e
ĠSuss ex
P le
ier ry
ĠL DG
ĠPh Ãłn
r á»«ng
ĠmÃ´ t
un ya
ĠKras n
ĠNut ifood
Ġ55 9
f ile
ran t
an u
Ġ35 2
ĠCaribbe an
sw orth
ĠAQ I
Ever ton
Ġ19 43
ĠL T
SC IC
ĠFlor ence
j al
ul ar
G á»«ng
R am
O b
ĠK amp
Ġ29 4
14 6
ĠTH áº®NG
Ġt Ä©u
ĠKa esong
L Ã²
ri x
ĠS Ã´
ng á»įc
ĠV Å¨
u ter
ĠOut lander
áº ´
ĠPict ures
ĠR IM
ĠE le
gi Ã³
S m
ĠKhÃ³ i
g s
ĠN az
th áº¯t
4 25
B lo
ĠP DR
ĠSu isse
ti es
ĠSt u
ng hÃ
ĠG ao
Ġná» ı
r ing
ĠV or
as i
ac ao
ĠD Ã¬
tr á»Ļm
che ck
ĠAd en
Ġchip set
ĠGet afe
ĠI CD
Ġ39 5
ĠI ll
00 7
3 15
com Bank
Ãģ O
ĠArab ica
ĠSoc ial
ĠHK QT
ĠKalin ingrad
ĠGi ven
Ġnam e
17 9
Qu Ã¡i
Ferr ari
am el
ĠDo ctor
l Ã½
Ġphot oc
g ang
Ch áº·ng
ĠRe ap
ĠNg Ã¢m
ĠDu áºŃt
Ġform at
ĠX box
ti en
k et
ĠN ara
Vin Fast
Ġ36 8
ĠS GD
ol ution
ĠS Ãºng
ĠCB R
Ġta ekwondo
17 3
16 4
Ġd is
ĠDem i
ĠDak ota
c as
ĠJorg inho
ĠRe y
hÃ³ c
ĠÃĲ oÃłn
ĠXU ÃĤN
ĠM ey
áºł CH
Ġlo e
ĠVN E
w ing
ĠN vidia
ĠÄĲ áº¤U
ĠHun t
ĺ C
18 7
ĠF AT
Ġ38 4
W C
ĠI w
ĠH erb
h ee
Ġth iá»ĥn
ĠCh em
ĠSC G
ĠTr Äĥm
ph e
ĠPray ut
ĠP AC
ĠthÃ ªnh
ĠChá» «ng
aw an
850 1
ĠÃĲ Ã¢y
G a
x Ã¢m
Ġrob usta
Ġrá» Ľm
0 75
H i
ĠL oc
ĠMarsh all
B el
ol an
ĠSo y
l la
In ternet
ĠNgá»į t
Ġ29 7
ĠM ito
ĠReal me
ĠT err
B uá»ĵn
G á»¡
Ġk ar
etro it
d em
ĠL Ã³ng
ĠMar ch
ĠPH áºłM
es o
L I
i ent
ĠI ce
N ad
Ġx á»¥p
s Æ¡
ĠHu t
ĠChi p
ĠKam ala
ĠT enn
ĠR ost
ĠSum mer
ers in
C u
ĠS yn
ĠWin ter
ĠG ro
b Äĥng
m al
in al
Ġ6 25
Ġ33 2
Ġs port
ex us
Ġ37 2
ĠHum m
2 18
k ha
ĠA e
HH T
ĠTD P
AS T
tr á»ĳn
Ġc opy
ĠRam ir
s om
Ġki wi
á»ģ u
ĠD UY
ĠKonash enkov
Ġ34 8
ĠWil shere
Ġtu m
¤ C
thá»ĭ t
was ong
ĠMilit ary
Ġs ÃŃnh
ĠIslam abad
ĠMas er
ĠF eng
ĠWin s
ĠK bang
Viet lott
Ġd iá»ĩp
48 5
Ġb ina
ĠM k
ĠD ab
Ġá» ©a
z man
ĠA pa
ĠVin Mart
eth e
Ġ4 11
ĠI g
Ġ- >
ĠArt em
28 8
b au
l áºŃp
Ġ34 9
p hÃŃ
ĠD á»±c
bient ap
ĠV CSC
K E
Ġ8 60
ĠPhill ips
I m
ĠMon tr
l Æ°u
ĠTR ONG
ĠÄĳÃ¬ u
ĠB eo
enz ie
ÄĲ o
ĠMon tenegro
ĠWol ver
ĠPr ince
ĠD HA
ĠSz cz
cr ai
ĠJ erry
Thu Ãª
ĠhÃ ¬
av en
Ġ us
» §a
á »§a
Ġban bientap
ĠHÄĲ H
Ġqu áº¡
ĠR ussia
Ãģ I
ĠAlph abet
ĠÃī n
30 5
Ġban king
ĠOr acle
v ili
23 1
sk iy
Ġho p
ĠP att
ĠEx xon
ĠTy son
ĠM ub
u do
19 71
iá» ĳt
p m
ĠÄĲ N
ĠW anda
chÃ ¬a
ĠH BO
P an
15 1
ÃĶ tÃ´
ĠN ong
ĠPh e
oth ers
Ġhand made
V X
ĠK á»ģn
Giá» įt
ĠKus hner
3 35
M Å©i
ĠRog ers
ics son
Ġ4 16
ĠGE TTY
P ogba
ĠTH E
ĠC á»į
ac tion
19 78
ĠCN H
ĠA DIZ
Ġt Ãło
33 3
Ġnghá»ĭ t
ĠE ug
ks hire
17 2
40 5
G ap
ĠNgh inh
ĠBil d
ĠH is
00 6
Ġenz ym
av ia
ĠRobert son
Ġ34 1
ĠInt ellig
K hÃŃ
ĠJ ake
ĠBr on
z uk
Ch anh
ul o
yl er
el ia
ĠCS ÄĲ
ĠDu al
ĠBo ateng
áº¾ N
35 6
ĠVina chem
Biss aka
Ġnh Ãºc
Ġm uá»ĳt
V áº¯c
Ġnh Ã²e
qu áº§n
t iáº¿t
ĠTh om
ĠRob inson
z ing
azz i
e aux
ĠDu ke
ĠRac ing
ĠK Iáº¾N
23 7
ĠSao star
ĠBL TT
Z or
f est
ÄĲ Ã¢m
T KV
ĠB uá»Ļc
Ġ5 75
ĠBud apest
Ġ34 3
B E
ĠP Ã´
ĠQ Na
w ord
hÃ ©p
ĠC SDL
Äĳ Ã¨n
thá» §y
ĠBu á»ĵm
ĠKT XH
v áº¿t
ĠFri ed
ĠAsen sio
c á»¥c
hi eu
dg ame
ĠB áº£nh
Sp utnik
ĠR ao
Äĳ Ãª
Ġngo áº·c
ĠSte v
ĠBern ardo
Æ¯á» Ľp
ĠKuznet sov
âĢĻ )
Ġ35 3
ĠSC TV
Ġn á»ĵm
ĠD in
23 2
áº¤ m
ĠFul bright
as co
Ĩ Ĵ
ph in
y on
19 6
ĠB á»±c
ĠL Ã£n
C as
Ġ8 80
ĠClau dio
ĠkhÃ ¨
HCM C
og ne
ĠkhÃ ª
ĠTR Æ¯á»ľNG
ĠF oden
ĠPV O
w ha
ĠAnton ov
ĠNix on
M Ã¨o
Ġng á»ķ
ĠFil m
t iga
TN ÄĲ
Ġur ani
Ġ36 4
s tein
Ñ Ĥ
ĠI L
Ġ5 99
Ġ5 15
h l
ĠMur phy
ĠDevel opment
ay dung
ĠEd inson
en do
han ouk
ĠEn d
Ġâ ī
ĠK Ã¬
ĠMus ta
ois ao
ĠBak er
ĠÄĲ áº³ng
ĠL if
b iÃªn
c umin
18 1
ĠQu Ãł
S áºŃp
ĠH Æ°u
ĠE A
ĠÄĲT ÄĲ
19 1
ĠST ART
Angel ina
ĠL Ã¹
ĠL DP
ĠAd el
Chá» ¯
pho on
Ġch rome
IN I
d is
ef ox
ĠM ick
ĠJam al
ĠGi áº¥u
ĠF itch
ĠLouis iana
ĠZh ong
ĠTikTok er
ĠMaser ati
ĠN TBD
ĠPra ha
B ong
ĠN Ãª
s ing
ss ID
24 2
uck y
ĠNH ÃĤN
ĠPose idon
3 99
ĠMSC I
Lá» Ĺ
b á»¯a
Ġs in
H U
ĠM BA
Ġo Äĥm
ev ich
ch uk
ĠS BT
ĠXÃª Ãºt
ĠTr iton
CO N
ĠFrank lin
ĠH wasong
ĠF aso
t hÃŃ
g it
Ġ8 88
ĠDang da
B Ãºn
G etty
ĠMahat hir
MS T
ĠN Ã³ng
ĠZur ich
ĠMag n
ĠC ry
Ġmil ig
ta wa
mid t
ĠH ui
ak ers
Ġ47 1
Ġ29 1
H Ã¨
ĠNghÃ ª
ĠBeyon ce
E B
r au
v y
oa h
24 3
ĠAm anda
ĠDá» °
19 66
Un ited
ĠBever ly
Ġc os
oa ch
ĠW id
Ġnh Ã¨
Gi áº£ng
20 7
Thá» īnh
ĠHai ley
17 4
ĠOle g
Ġ" ,
ch áº¥n
ĠJon as
echn ya
ĠA ge
eb rey
ĠCH O
ĠTh at
ĠHo pe
Ġng Äĥm
Ġ+ /-
es ny
ĠCN XH
ĠBald win
gra phic
Ġchá»Ļ p
ĠSpec ial
PV C
mon ella
0 36
ĠÄĲá» ¨C
ĠV á»±c
ĠHu oai
ick er
ĠH ank
Ġf un
Ġvá» ©c
ĠTh ailand
Ġthi s
ĠSh yn
Äĳ Ã¡p
áº´ NG
Ġsho pping
ĠG ent
Ġch Ã¡c
ĠBin z
Ġ58 4
ĠRy ab
ĠD ana
ĠD etroit
In f
ĠEVNN PT
L CP
v áº¡n
ĠJar ed
ĠN áº´NG
en ue
ĠDis covery
ia z
Ġ34 6
R á»ĳi
ĠO xy
ĠTáº» h
38 5
Ġto Ã¡c
cher ano
ĠH iáº¿m
Ġx Æ¡i
ĠÄĲ áº¦U
ĠHD V
Ġnh oÃłi
Ġ9 40
K at
ĠB CG
ĠG um
ĠApa che
kinh tex
ĠV iss
ĠThá» £
ĠTot al
ÃĤ U
ĠWarri ors
om er
Ġ( ~
kinhtex aydung
ĠB Æ¡
Ġkáº¿ ch
ĠGh ebrey
ĠâĢĿ ,
Ġ36 6
ĠSu d
ĠW or
ĠSá» £i
h em
t ag
ĠHo mes
2 17
chá» ¥p
ĠFortun e
Ġw ill
amen ei
B áº§y
Lion el
50 5
ĠNich olas
ĠCh al
or ia
Ġm ao
l á»Ĺi
Äĥ h
Ġ7 90
ĠW ifi
ab let
Gu ard
ĠM áº§n
ĠChu á»Ļt
H ighlights
ĠAnd ers
ĠÄĲ Na
I CBM
ĠMu ay
ĠPV X
ĠX iÃªng
28 6
ĠS martphone
99 5
ĠF us
0 35
ĠViet Nam
âĢľ ,
Tho Ã¡t
L CNT
ĠNg Ã²i
ul ife
ĠAlber to
Ãģ P
Ġd áºŃm
Æ¯á»¢ NG
Tr áº£ng
ĠMor eno
ĠSC R
S tr
26 6
ĠP eng
ĠCh echnya
Ġ34 2
ĠJ PMorgan
kin son
C oi
ĠA il
sul a
Ñ ģ
ĠChu Ã´ng
ĠE agle
ĠKH ÄĲT
Ġm Æ¡n
ĠK Ã¬nh
kh Ã¡c
Ġhu á»ĩ
l ife
Ġthá» Ľ
ĠPan ther
ĠTom as
Ġs ur
ĠT ea
ĠG á»ĳc
Ġca t
3 36
ĠW iFi
ĠEr tiga
Ġ33 8
ĠCoun try
khá» ķng
c uá»ĳi
2 19
Ġv Ã³n
ĠKh amenei
ĠEn dgame
ĠSa w
26 9
h ara
ĠV Ã£n
ĠM ore
ĠGhebrey esus
ĠK il
ĠTim othy
Ġev ent
os p
OO OO
SD T
ĠNh áº£y
Ġngo áº£nh
Ġphotoc opy
ĠDay s
os o
H ang
m ey
ĠH CDC
ÄĲ áº§m
ĠGr iff
ĠPO W
Ġfl avonoid
ĠHels inki
utt gart
ed ira
ĠKu o
19 44
ĠTS MC
20 9
ĠMT QG
ag ne
re at
ĠA ero
ĠHu ff
kho a
H Ãºt
nh á»Ŀ
og raphic
asm ine
TT CK
ĠIs mail
ĠÄĳ iáº¿m
ĠC ow
es pa
CS VN
ĠKenn y
ĠQu i
Ġ9 18
am co
arag ua
ĠT áº¯m
ĠO z
Ch áº¥p
ez o
ĠVin mart
Ġng hÃŃa
45 6
A z
an z
ĠJul ie
Ð ½
ĠSSC ÄĲ
W al
ĠD erby
ĠMar awi
ĠT áº£i
ĠBer kshire
d áº«n
id ay
ĠAng kor
b uk
ĠCel tic
l áº¡m
r er
ĠW awrinka
ĠMark ets
ĠS ew
ĠU BS
ĠE SO
s it
asm us
ĠM az
5 25
ĠVD SC
enc ak
ĠGi áº£n
ne ft
ĠHer itage
R ock
ĠCh op
Ġ35 9
ĠI F
ĠEd die
d áº±n
Ġt áº¡nh
ĠSum it
ĠR ik
ĠH SC
Ġ5 33
ĠB uch
ĠKo ol
ĠB Ãło
et to
an th
c á»Ļng
o on
ĠPhÃ ¨o
b ak
ĠN ation
z burg
ĠC afÃ©
ĠO ri
ĠKai ty
ĠMedia Tek
V E
23 8
ĠB QT
pir in
ĠW igo
50 1
ĠCur ie
ĠHor net
ĠP MI
ĠBr ug
U EFA
ĠM ess
ĠKhai silk
ĠUt tar
Ġ43 2
Ġr et
Ġcon dotel
ĠKep a
ĠCar bon
Ġd áº±ng
O ECD
m iáº¿ng
ĠOt tawa
ĠKer ch
H á»ķ
ic ut
ĠSt orm
ĠBai du
Ph Æ°á»£ng
Ġ ag
im ov
Tr Ã¹m
ĠQu Ãłng
P E
ĠCh on
ac in
29 2
Ġn ew
ĠFuk uoka
ĠQ PR
K K
ĠL AN
' ',
ĠU H
ai d
ĠC Æ°ng
ĠP s
ep ard
es hi
ĠNhá» ¯
ig e
C TV
Ġ ab
IM ARS
ĠJim in
A U
ĠVNA CCS
Ġb áº¹n
ĠR á»ĳi
ĠK áº¾T
n oi
ĠQu Ã¡t
ĠBl an
S ir
ĠmÃ¹ n
B G
ĠProper ty
ĠSen se
ĠRousse ff
ĠD ustin
lah oma
S et
Ġho st
Ġ37 7
ĠPray uth
Ġho Ã¡
2 14
00 8
g á»Ńi
ĠE to
ĠNu tr
ĠMargar et
Q ue
ch ol
ĠX N
ĠMo un
ĠXD NTM
ĠTrium ph
ĠOn ly
C ard
B ia
ĠB áº¯p
m b
w oo
ĠHot line
ĠZh u
19 7
ck i
b ana
au r
ĠPh arm
Ġ4 18
ens tein
2 16
39 4
23 3
ach er
ĠSk ull
G rab
Ġs logan
ÄĤ M
Ġ19 39
ĠMon ster
ĠSi hanouk
K á»ģn
ed e
l áºŃt
5 45
22 9
ehyd e
25 4
ĠN FC
ĠD ÃŃnh
24 8
c g
Ġáº¢ ráºŃp
ĠW ork
ĠS int
âĢĿ ),
ĠPlan et
ĠDim it
H ÄĲT
ĠTh ierry
ĠA TNÄĲ
ĠIs uzu
ĠSpr ing
ĠH KD
ĠHumm els
Ġv áº¡y
ĠWeb b
x tr
Ġam idan
Ġcac bon
ĠEm dep
ĠB áº¯n
ĠghÃ ¬
om berg
ĠRyab kov
Ġr Ãªn
ĠPl atin
f ort
zuk ic
b Ã©o
ĠP Ãł
ipp on
0 99
ĠH ana
C ro
nh áº¹
Ġan tif
PC I
ĠSA NA
ov ac
ĠWood s
L uc
ĠVá» Ģ
ĠCar ey
ĠRic ardo
Ġgar age
ĠMW C
I E
S ky
ĠM AC
Ġ ez
Ġá» Ńng
ĠVN EN
m Ãłn
ĠB old
ĠJ ing
ĠErn est
Ple iku
ĠL izzie
eman ja
ĠAtlant ic
R Æ¡i
igh ter
f ol
ĠUr sula
T el
Ġbá» īnh
ĠV áº£
ĠP ich
Ġblo use
ĠFu ji
Th Äĥng
ĠTenn esse
ĠTh ua
X Ã³t
ĠC AR
nd ai
LÄĲ O
ĠCQ CA
IF T
ĠF M
ĠBur kina
ĠZ one
ĠH oney
ĠRub en
ĠSzcz esny
ĠEr icsson
ĠTer ra
ĠSal eh
ĠxÃ© m
K Ã©o
P ar
d ul
ĠK ind
ĠV edan
D an
r Ã¡c
ag lia
ĠhÃ ¹n
Ġ35 7
5 77
ĠZaporizh zh
ect ion
25 2
ĠX en
ĠC áº¯n
QP PL
ĠM E
do c
thá» «a
ĠAN TV
ĠHi ro
Ġ9 10
Ġmang an
ĠTy phoon
ĠBeck s
ĠSum mit
cap e
Ġ46 8
Ġchá» ĵm
Ġdo c
man i
27 4
ĠVe yron
ĠN ole
36 6
ĠMidd leton
ĠKh áº³ng
on ic
ĠI OC
ĠC NG
Į NG
30 2
Ġ33 9
EF L
áº¢ NH
202 8
r ac
th uyá»ģn
agh er
P in
ĠB á»ķn
ĠT áº¯t
ĠT iáº¿u
ĠB Ãºp
M eg
ĠCh ase
Ġ %.
ĠHá» §
c á»Łi
ĠM BC
Ġnh áº¡i
Ġ7 65
Ġtá» Ŀi
ĠCh ua
ĠNO XH
ĠT CH
ĠS ym
an za
ĠM itt
ĠRá» §i
ĠL INH
ĠZ ah
ĠGust av
ĠPark inson
erg en
ĠF en
ĠLil ama
l ang
25 8
te Dance
Â ³
Ġ45 5
b áº¿n
ĠX O
ĠOk lahoma
i Pad
ĠV ia
Ġvu á»Ļt
Ġtho Äĥn
b Ãª
ĠX á»©ng
ĠSpot ify
tá» ©
ĠG ate
ĠÃª kÃŃp
B á»ĳi
ĠT ass
ĠM Ä©
Ġchat bot
0 12
b inh
ĠMcG regor
ĠTá» ı
19 48
ĠYo ona
ĠKien long
t ur
ĠD us
ĠCh áº£y
38 6
Ġ5 85
iF ood
V AM
ib ar
s mart
x it
og h
ĠTur k
V á»ĭnh
19 4
ĠD um
ĠHon or
há» ķ
ĠJ azeera
ĠWeek ly
Ġp ate
ĠAl aba
ON E
aki ra
0 18
Ġ37 9
Ġantif an
eth ao
ĠH ague
V CB
ND T
38 8
t á»±a
Ven ezuela
ĠCav us
R i
0 85
L os
M or
ic y
te k
ĠMu Ã´n
0 11
27 2
iv ir
ist ar
ĠDol ce
ĠCh áºŃm
ĠPh en
K I
Äĳ áº£m
L E
Ġnh Ãºm
and om
Ġb io
Tr Æ°ng
36 8
n ien
ĠTr ÃŃch
ĠL una
ĠW igan
T Ã¡m
D ie
ĠSino pharm
t uyÃªn
Ġh ist
d Ã²ng
ĠMay bach
ĠChi l
L eo
C AND
ĠQU áº¢
s ur
» ıi
á »ıi
ĠBen nett
ĠSol utions
ĠCr Æ°m
Tech combank
24 4
il s
ĠCes c
H Ã¹m
Ġb Ã¢ng
Ġs iro
g es
phun u
6 75
ĠA A
Ġsá» įt
chÃ ¢u
Ġsne aker
f r
Ġsit com
ĠÄĳ áºµng
ĠZ ay
ĠTI SCO
ĠC ob
Tr á»«
ĠLy nh
' +
Ġx Ã³
ĠJav ad
V V
ly wood
26 3
Ġl Ã¡y
ĠKQ XS
ĠM ack
ĠTh áº¡o
ĠNic aragua
ĠSum atra
== ==
ĠAlab ama
ĠMed ical
Ġs potlight
ad d
ĠK DL
ĠK B
A CV
le ck
ĠCer ato
ĠX EM
ĠUSA ID
I PA
S ay
B Ã¡m
ĠHá»Ĺ n
ĠTr ade
ĠS J
ou ch
ĠUn der
ĠAs p
! ).
Th áº£
24 9
ĠTru Ã´ng
ĠB ÃĢI
ĠK iá»ģn
ĠN ao
ĠE DM
D aily
t Ãºi
us mane
ĠY uk
ĠD ion
ThÃ ©p
ĠRos ario
S á»©
ĠMontr eal
Ġ( !?
ÃĬ M
ĠL á»Ł
ĠL ÃŃnh
Ġcrop top
al ife
39 6
ĠRoad ster
ĠV CS
Ġ36 1
v as
ĠMer sey
CC N
Ġb ack
ĠB urg
ĠV FC
Ġ4 45
ĠN ab
ĠPa j
Ġch Æ°á»Ŀng
ĠGian l
ĠCh ul
ĠM its
0 45
ĠR ing
ĠVCB S
ĠEnterpr ise
ĠT ata
ĠLe one
Ġ36 2
ĠH ector
ĠTennesse e
Ġas en
6 17
Ġqu áº¡nh
ĠNas ri
ort a
ĠK agawa
CC o
ĠConnect icut
ĠCavus oglu
t imes
ĠX s
ĠP am
es k
ĠIs ab
ĠEd erson
ĠGr ig
L ove
ĠSal e
ĠTal k
ĠA ch
ĠW er
ĠPC D
ĠReal time
Ġmas cara
19 55
ĠPlatin um
t as
ĠCoun ty
ĠG MD
ĠF ield
ĠM áº¡
ĠM X
ĠKh edira
P I
Ġn iÃªu
B al
ĠD iva
C E
ĠM eng
Ġta g
ĠGeo graphic
Ġ5 65
om y
ĠFernand inho
I LO
Ġcá» Ł
Ġdi oxide
P F
ĠHH VN
Ġcor onavirus
ĠB áºłN
ĠInst it
ĠFir efox
ai a
ag er
fri ed
ĠSA A
b Ã¡
l á»įt
ĠS earch
ĠZaporizhzh ia
o f
ĠP Ã¡o
ot hi
22 1
ĠFel ipe
ĠP ent
ir con
ĠM AI
23 9
b is
enz i
m ins
00 9
ĠI k
qua t
ĠKe ith
26 2
M uá»ĳi
ĠG áº¡ch
Ġth Äĥn
Ġlay er
á ¸
0 55
Ġsmart watch
b á»ĳn
on es
ĠHous ing
ĠCh áº¥m
ĠVI NA
K Q
0 65
A g
CN C
H áº§m
Ġ38 2
im an
at hi
ĠVer ge
ĠNew ton
ĠMad e
kh áº£
ĠDav e
ĠMas cherano
ĠPer formance
CK H
apol is
SC T
cel o
Ġ35 1
ĠChi ellini
ĠRoy ce
y i
CS ÄĲT
E s
ĠM Ã¹ng
gi áº¥u
ĠMoham ad
Ġmilig am
Ġc y
ĠF ax
Ġ19 36
Ġ35 8
ĠHá» ĴNG
46 5
om oto
ĠSup ach
ĠAB B
ĠBuck ingham
EP R
ch ange
Ġ50 2
os ta
ĠB MI
or la
Ġtim e
KD T
Ġlá» ¥p
VC IS
Ġt v
ĠRaf a
ĠJohan sson
2 11
ĠV all
ĠTr Ã²n
Ġ38 8
ĠLá» £n
ĠS ophie
ĠD áº¡o
g ie
ĠM áºłNH
Ġkhá»ĭ a
M ir
ĠM LS
ĠSp iegel
ĠIP v
uck land
y ahoo
ĠN au
38 9
Ġn áº¡ng
ĠVi e
EA D
NS T
ĠGiuse ppe
Ġd iáº¿m
Ġng Ã²m
t áºŃn
Ġqu áº©y
ch ong
ĠF ah
Ãģ N
ĠK O
s uy
ĠM it
co de
Ġin f
xtr Ã¢y
SD LÄĲ
H á»ĳ
s op
Ġ Î
ĠLP B
ĠM áº£nh
ĠCh ry
ĠSP F
ĠÄĲ Æ¯á»¢C
Ġvi olin
gi Ã¡p
ĠMir age
an te
qu á»·
ĠMetro pol
ĠMersey side
ĠD ylan
Ġr áº¯m
ĠÄĲ á»ĳp
Ġsh are
p ole
ant es
ĠDio go
45 8
ov irus
ĠTor ino
ĠKhal id
X anh
m Ã³c
x Ã©t
ĠTr áº¯c
X inh
nh ung
tr á»£
ĠCarn ival
O l
k n
lin er
akh on
Ġ7 25
Ġn ia
ĠIs hi
w al
ĠN TC
Ġau dio
tr Æ°á»Łng
19 41
ĠW ow
ĠSpir it
b ps
ĠJord i
ĠCho e
ĠTurn bull
Ġ4 14
Ñ Ģ
ĠT ia
ĠAt las
ĠGrab Bike
ĠN á»ķ
ĠH ao
G ENCO
Ġm Ãº
27 3
C Ãºp
gi ang
ĠPC TP
an tino
Ġkhu Ã¢n
ĠLind say
ec ao
ĠS ou
hn ikov
Ġxá» īa
Ġ4 95
ĠM ut
X á»©
ĠDW T
ĠMub arak
ov ation
c io
Ġqu áº±n
Ġ37 8
n á»Ĺi
ĠChi charito
Ġ34 7
ĠVal des
6 25
7 65
C ua
U p
ĠBr em
7 25
ek e
ĠR ia
y ah
ĠH ip
ĠGu ang
0 16
ĠLag arde
Phá» ķ
Mb appe
S áº¡t
Ġáº¤ m
Ġhá» §i
ĠÄĲ Ä©nh
ĠE ye
dong san
Ġqu áº»
b Ã£i
ĠD ipl
ub an
ĠMar qu
IS T
ĠDaw n
ĠRost ov
ĠGl ong
ciel ny
ĠV ssID
ĠThÃŃ t
26 4
Ch Æ°
ĠCol in
tr uy
ho ang
ĠMac book
Fed er
ĠCBCC VC
Ġ6 15
inam o
khÃ³ c
ĠM ICE
iz a
Ġbe at
ĠO SCE
Ġqu Ã¡nh
ĠK ud
Ġm iá»ģu
Ġlá» §ng
ĠBuk it
ĠY us
ĠCes ar
V AMA
ĠI B
ĠTo dd
b ine
Ġgi Ã£y
ass o
ĠCho ice
j ima
Ġh iá»ģm
ĠMer lo
k al
Ġkh áº¡c
ĠS Ã³i
abi ot
Ġt Ãºp
ĠH eng
ĠÄĳÃ³ m
Ġf ly
ĠD PR
Ġnh em
X M
r eb
BC H
ĠYatsen yuk
n b
n Æ¡
ĠO K
K iáº¿m
p es
ĠI FC
ĠToul iver
ĠIc ardi
ĠCh osun
Ġb Æ°Æ¡u
Ã¢ p
ĠBl air
ĠZh eng
Ch ris
C Ã¡m
D ortmund
Ġ38 6
Ex imbank
ĠH id
N Ãºt
Ġs and
ĠS ide
ol u
Gi Ã¡ng
Viet Times
Ġ37 3
c ore
Ġ45 6
S ide
gi áº·c
ĠL er
ĠBT R
ĠSt uttgart
ĠAlv arez
va jal
ĠM ethadone
ĠI ker
ĠUn ai
ĠSam an
ĠthÃŃ m
ul d
ĠJal il
agas car
ob ic
ĠBB Q
ĠH wa
as ha
ĠHU T
And roid
T iáº¿c
Ġqu áº¯t
ĠH ND
ĠDynam ic
48 4
ĠSiem ens
ĠP ack
Ġc ity
ĠL M
PC W
Ġxu á»ģ
ĠSong kr
um ma
ChÃ ªnh
ĠSt at
ĠJ ak
TC TD
W E
Ġc lo
b Ã´i
BVH TTDL
Ġ6 000
ĠF ati
d á»įn
ĠBá» ĺ
ĠDong A
ĠMand zukic
Ġlo áº¹t
ĠG TS
ur ri
ĠM Ãº
yan ua
ĠIv y
ĠBo ur
4 45
ĠVic ente
ĠCen tre
C Ã´n
ed om
ĠSo phia
ĠFI T
ĠEm il
ĠHá» įng
w orth
ĠCh loe
ĠH adi
29 8
B á»ĵi
po on
Ġ37 6
Ġca po
ĠMoun tain
c af
ĠS ty
Ch ina
Dani el
J ICA
ĠP AN
ĠGam ing
ĠCh ae
Ġv log
Ġ48 5
34 6
ĠCatal unya
Giá» ıi
GD ÄĲT
Mu Ã´n
Iá»Ĥ N
ĠD arm
ĠGl as
Ġk iá»ģng
ĠÄĳÃ ²ng
Ġ19 38
as una
ĠBr y
ĠghÃ© m
ĠBá» ģ
ĠM RI
ĠGIA NG
ĠBos que
37 8
fer ence
Ġsil ic
V D
ĠT ÃĤM
ph áº¡t
RC EP
ĠlÅ© i
Ġch ong
ĠP ew
ĠF oster
Ġu áº©n
3 12
f eng
k orn
ĠX oay
ĠTu áº¿
iz ation
ĠAlc antara
ĠMitch ell
ĠH wan
ult ure
Ġv Ã¨
an in
vent ure
Ġl áº©m
Ġtr ans
Ġl eg
ĠP ai
ĠC ream
ĠESO P
Ġl Ã¬m
ĠS kin
ĠS F
Ġngá» ¥p
lec ano
ĠTr ain
ĠH OT
Ġcháº¿ ch
ng uoiduatin
ĠY ar
ĠGlobal GAP
Ġcl ub
ĠÄĲá»ĺ NG
ĠT et
ĠR F
ĠY ale
S he
Ġng á»ĳ
ÄĲ CSVN
38 3
M R
ĠMat h
ĠÂ ¼
Ġdá» Ńng
gh en
Ġj ump
J P
ĠCl aire
ĠSongkr asin
30 9
Ġv áº¡m
11 00
Th Ã¡c
5 95
27 8
Blo omberg
ĠGl azer
ĠM áº£ng
b ur
Ġfol ate
David son
4 95
ĠRol ex
ĠY ulia
n ab
Ġgi áºŃm
ĠMR CC
ĠRe yn
d ech
ĠW TA
uz a
Ġ36 9
Ġ4 37
Nad al
ĠL omb
Ġbá»ĳ ng
ĠHD MI
Ġqu áº¡i
ĠDar win
v ien
os ph
ĠHa j
ans a
ĠT ake
ĠN it
Ġvi lla
com e
ĠBell ingham
K ate
ĠB au
f ram
Ġb Ã´n
CC B
T áº¡
t áº©y
ĠTP B
han om
T our
ĠNut iFood
N I
g ai
ĠOd egaard
ĠTh ib
ĠGh áº¿
ĠX Æ¡
ĠphÃ ¹ng
ĠP ag
ĠKim m
M el
Ġlá» ĥ
mo Ã³c
o ot
Ġv acc
ĠJ ur
ĠI PC
t Ãª
ĠG hani
on n
ĠUr ban
ĠC ÃģC
Ġ40 4
Ġshi sha
l áº¡i
Æ° h
M id
T ime
R áº¯n
w h
ĠM Ã¬
J ung
ĠI rene
ĠN ippon
ĠRang ers
ĠÄĲá» ĬNH
ĠSch midt
ĠBol og
b ok
c n
New castle
H áº¹n
ĠAd hanom
CP MC
29 3
ĠOp t
ĠO usmane
As ton
Ġvol ley
h áº¡n
» īa
á »īa
ĠC eb
Nh Æ°á»£c
ĠHuy ndai
ĠHolly hock
o use
Ġ >>>
akh et
ĠUcr aina
ĠNV QS
C ov
ĠBord eaux
Ġp re
ĠBl ake
27 6
34 7
van ced
ĠTr oy
ĠMi x
ĠHul k
ĠB iá»ģn
cÃ´ la
d el
ĠA uckland
ĠVTV cab
ĠUd inese
g ing
27 7
Ġb ill
Ġ4 47
ĠAle j
D D
ĠY ersin
ĠE MA
ul u
ĠSand ro
m ong
28 3
ch am
Tr Ãło
ĠS ed
ĠA Z
ĠT ina
ĠTO EFL
thá» £
ĠCo V
ĠÃĶ tÃ´
T or
dor ia
Ġchá»Ļ t
Ġb r
ĠCr is
ĠRam adan
ng Äĥn
Ġn Ãºng
25 3
ald um
s á»Ŀ
ew oo
Ġ46 5
ĠGreen land
f rey
Phá» §
os ology
Bl ue
ĠVin ci
Ġs ec
ĠPh iÃªng
Fin ance
f en
t áº·ng
3 22
F LC
Ã¨ s
ĠBy teDance
ĠGu o
Tr u
it ect
37 3
UN ESCO
ĠB á»ķng
Ġ4 22
Ġph Æ¡n
S á»ķ
30 8
ĠChrist ina
h uyá»ģn
ĠMu am
Ġn áº±ng
ĠKaz an
0 13
ĠTr in
ĠM ei
er ic
Ġt ie
V VN
p y
k iáº¿n
ĠH ÃĲ
ĠB Æ¡i
Ġ5 35
ĠAP G
28 9
ap a
ĠBr others
ĠMor ales
P orsche
m áºŃt
jn aldum
Ġ40 3
ĠRal ph
ĠO to
18 90
ĠFab ian
Ġ50 1
ĠPaj ero
ĠN emanja
Ġá» ª
ĠKos cielny
ĠCHÃį NH
L exus
ĠCar vajal
l Æ°Æ¡ng
ĠHy ung
az y
Ġc ol
Ġthá»§ i
ĠKH LCNT
ĠPlat ini
ĠKovac ic
5 75
l Ã¡i
Gh áº¿
Ġváº» n
ĠRal f
xx x
PN J
om in
T L
ĠHam id
eller in
ĠCh erry
J un
ĠTá» ıa
nh at
Ob ama
8 25
t áº¯t
ĠR iz
Ġtá»Ń u
ez i
S CMP
r á»Ńa
ĠCent ury
7 75
30 4
ĠÄĲ Ã£ng
le ep
ĠTT F
ind h
ĠSol omon
7 99
7 29
b as
Há» ©a
p hÃ³
ĠFin als
Ġl á»¯ng
eg ui
ot ic
me ier
B est
l ak
F M
ĠZam bia
Ġ5 95
Conn ell
Ã ¤
Ġ40 6
ĠÄĲ em
Ġg ran
ĠNG Há»
ĠRud iger
W atch
Ġ7 18
VN A
ĠNg áº§n
08 2
Pr em
4 15
ĠAP I
PL A
ĠZ iy
gi áº¥c
ĠVictor y
0 22
ĠCaz orla
ĠF SA
Br ad
c Ã©
ĠT ian
Ġs elen
ust ic
SV H
ĠCov ax
ĠX Ã³a
ap on
ĠTu á»ĵng
L ou
S Ä©
7 35
8 99
ĠStef ano
s ler
Ġngo áº±n
ĠEm my
ĠB uy
ta ewon
ĠPolit ico
l áº¥n
há» ĵn
ĠDA TC
ĠAst ana
Ġe Bay
Ġphá» Ŀ
CI EM
c áº¥t
... );
ĠO ak
ĠGS M
Ġr ua
Th iá»ĩn
TC HQ
Ġgi áº·m
nar umma
ĠRe cord
Ġ47 3
W hi
ĠÄĲ Ä©a
ĠKon stantin
t Æ¡n
ĠL Æ°á»£t
e nh
ĠX P
Gi Ã¢y
28 7
Ġk á»ĭt
ĠBo un
ĠBa za
Ch Ã¡o
oun t
ch un
Ġf ac
c Ãły
L uk
ĠP avel
TS A
ĠC Ã²i
ĠchÃ ²
45 5
BS T
ĠcÃ³ ng
ĠâĢľ âĢ¦
h uy
Ġl Ãªu
Ġac count
ĠAB Bank
ĠD Æ¯ÆłNG
Cl au
ĠB iel
ĠP ix
c Æ°á»¡ng
ĠVal lecano
ĠNG UYÃĬN
ĠGer ald
ĠSanta Fe
Ġkhu i
ĠPhot os
ĠChamp ion
hÃ£ y
B ÄĲT
ĠH AI
Ġ19 37
raph y
ald ehyde
Ġr áº£o
Ġh ave
ĠI G
ĠBH TG
K ing
k ie
ĠÃģ c
me ichel
ĠCL IP
Ġ50 8
Ġ40 9
Ġmod em
ĠZen fone
t Ã´n
ĠCh áº·ng
3 95
Ġp eso
er co
ĠJos ep
cr ip
n áº¯m
ĠCh ro
28 4
ĠS Ãłng
ĠBa ch
8 75
K l
ÄĲ em
ĠR áº¯n
erg round
ĠS ee
ĠNun ez
ĠHem sworth
0 95
n en
m ing
ĠDá»ĭ u
Ġ arab
6 68
Ġá» į
ĠY az
ĠBon ucci
Ġur Ãª
ĠEl li
ash vili
h ack
ĠThan os
5 99
26 7
CL IP
ĠCarol ine
m Ã´i
ĠHe ath
ĠP ou
ĠIn doch
ĠSh am
D Æ°á»£c
ĠTur ner
ĠÄĲ O
ĠNat alie
ĠV ong
ĠP Ã¡
8 35
ip er
ap o
Ġr ÃŃu
ĠJenn y
Ġnh e
X Ã³m
ĠNg áº¯m
x áº»
ĠWS J
ĠS ass
ĠY os
ĠP Äĥh
H g
D IC
ĠD ir
j ung
t ed
ĠB ore
24 1
k iáº¿m
Ġfin tech
s hop
Ġrá» ıi
m im
Tr á»Ļn
S X
Ġpr ot
B BC
Ġbá» ¥t
j ic
ĠSam dech
BV CB
k Ã©m
78 7
ĠRed dit
0 14
ĠÄĲá» Ŀn
T iá»ĩm
il ly
ĠSal zburg
ĠTr iá»ĩt
B Ãºp
t Ã¡t
ĠCon sul
b Ã¡t
ĠEmp ire
s áº¿p
ĠHo sp
á»¦ ng
R un
há» įa
th ang
ĠT iá»ĩm
ĠJ asmine
0 23
ĠTang o
ĠRum ani
ĠGo jek
ĠBio NTech
Ġx uyáº¿t
orks hop
ĠBolog na
ĠVan essa
ĠT áº¤N
ĠIS IS
Ġngu á»Ŀi
ĠF SB
Ch ev
ĠL ie
29 6
ĠKhark ov
ĠL iá»ģn
Ġph ay
ĠSimp son
ĠU rus
ĠÄĳ iáº¿ng
ĠX T
ÄĲ am
ĠChÃ ¹m
ĠW ed
ĠPs aki
M ake
Tr á»ĳn
ĠGi org
ĠMetro pole
V B
ĠV W
tr Ãºng
DNN N
ĠP ax
ĠArd ern
Ġthá»§ a
ĠAg ency
ĠPhilipp ine
le igh
ĠH Æ¡i
ĠQu ad
Ġ Ã©n
Äĳ Ã¬nh
ĠT au
ĠJ ota
ĠO a
car ot
ĠNic ola
ĠBil ly
ĠBak r
ĠSam ba
ĠBra vo
ĠHarris on
ĠArms trong
ĠDI FF
ĠTU áº¤N
ĠD ing
M áº¯c
ha e
ĠAtt ap
Ġcarot en
Ġrub ella
Ġn il
ĠC E
ĠMon ica
Ġpoly phenol
ev l
Ġma xi
v ong
ĠS ÆłN
ĠLyn k
47 8
Ġtr Ã¢m
ĠJu ergen
ĠChalle nger
H CV
ĠP PC
ĠÄĲ áºłI
ĠShi b
L ib
0 48
Ġcon s
28 2
lá» ħ
ĠJun cker
ÄĲ L
O cean
ĠN á»Ļp
Ġser i
f ire
BL ÄĲTBXH
ĠAnat oly
Ġv Æ°á»£n
Ġk id
ĠEngine ering
ĠBe ar
ĠTh áº¥m
Ġb áº±m
nh Ã¡i
ĠH IMARS
ĠI b
ĠR ui
ok er
Ng Ã´n
IN E
L áº¯p
ĠMad agascar
ĠNav y
c raft
Ġgl ut
un k
ĠHá» ĮC
U I
ĠK p
ĠGen oa
x Æ°Æ¡ng
ai th
ĠPer isic
ion a
ĠAgr ico
bro ugh
ĠCal vin
7 85
Äĳ á»ĩ
V ay
m á»įc
ĠGor illa
ĠVKSND TC
Ġ Æ°Æ¡i
Ġs ulf
D Ã¡ng
ĠKir k
ĠTTC N
Ġná» ¥c
ĠEVNN PC
ĠN ine
iÃª c
ĠDal ot
ĠLig t
Nh áº¥p
ĠPh anh
ĠMal lor
ĠQu anh
ĠPer f
ĠGen esis
ĠIntellig ence
ul i
ĠDeng ue
we ek
ad eh
38 2
ĠGlor y
ĠV EAM
Ġchá» ı
ĠP Æ°h
O ff
ol on
ĠP ure
g ow
ĠÄĳ áº£nh
ong a
L áº¡
ĠS yr
ĠSoft Bank
ĠG AP
ĠPl ace
L iveshow
Ġnh Äĥm
ĠVer izon
Ġngh áº¿ch
uz aj
Ġlá» įng
ĠG W
ĠR ut
g ame
Ng uyá»ĩt
ĠA man
C afe
H áº³n
Ġ af
Ġcho Ã¡n
ĠAnder sen
ĠSew ol
ĠKD H
m á»ķ
s áºµn
ID O
Tal iban
ÄĲ C
ĠBook s
s is
ita chi
ĠAj in
Ġf ax
az ing
33 9
ĠV ital
ĠCel ine
con tinental
ĠOpen AI
ĠS uri
do ck
ĠPark son
ĠMan ulife
0 19
b al
ĠGr oss
uc t
ĠNG ÃĢY
GD TX
ĠLau t
iÃª á»¥
Ġ38 3
ĠJ W
UN ICEF
ĠToul ouse
ĠKh au
ĠJ D
thá» ĳng
arao h
ĠWal t
ĠL ONG
ĠCh and
Äĳ Ã³n
ĠRiv era
» Ľc
á »Ľc
Ġx ÃŃnh
) ",
á»ŀ NG
Ġ4 28
x áº¿
46 9
Ġbik er
col m
ĠÄĲ iáº¿m
ĠTas co
ĠCA X
F actor
ĠPar ty
26 1
Ġ47 4
Sh ar
em ber
ĠSch w
St ation
ated o
t est
ĠG BP
Ġdá»¥ i
ĠV SD
25 7
3 37
Ġk iáº¿t
Ġnh á»Ń
ĠAm ir
me im
ĠChrist ie
ĠKal as
L ive
ĠD Ã¡ng
S ub
ari us
Ġt oáº¡i
iden se
m ac
x Ã©
ĠDef ender
ĠN Ãºt
ĠTa eyeon
Äĳ Ã¡m
ĠhÃ ¹a
Ch ang
ĠVi ber
ch áºŃm
ĠA w
c ook
ac er
ĠÄĲV HD
ĠRe ed
ĠDav os
X áº£
ĠP TC
Ġ39 1
b áº»
Ch áº£
ĠCout ure
H Ãłi
ĠBe an
36 7
36 9
Ġnh iÃªÃ¹
ĠI NT
Ġm otor
ft ar
B OT
ĠL on
ĠG Ã¡nh
tr Ã¡nh
KS S
c á»Ĺ
29 4
S hop
ul y
ĠB ass
Ġgiai tri
i h
Ġtr Æ°á»Ŀn
ĠDo uma
GV X
há» ıi
34 4
ĠMiss osology
Ng hÃ
ĠHy dro
ĠIl bo
Ġngá» įng
ĠSnap chat
ĠThÃ ª
T áº©y
j aya
Cro atia
ĠIr is
W EF
Ġr Ã¢y
ĠB ody
ĠSumit omo
ĠF ay
8 46
ĠR asmus
ĠCle ar
E ur
ng uyen
00 00
TU á»ĶI
ĠVE TC
Äĳ áº£
ĠF rom
Ġt ele
ĠR OM
Ġch Æ¡
ĠH mey
Iá»Ĥ U
0 68
ĠF ury
ib aly
Ġl iá»ĩm
25 1
ĠBal kan
ome u
ĠVes ak
ĠNikol ai
Sol skjaer
G Ã¡nh
l á»Ńa
x o
ĠEconom ist
Ġ7 99
Ġpoly p
ĠN áº¿p
ĠSch meichel
v eland
ĠV FA
ĠcÃ ¹m
hn t
HÄĲ BA
ĠFau ci
ĠCA HN
6 95
ĠTá» ¥
II B
Viet jet
bao v
ĠAjin omoto
TB T
ĠAv atar
ĠKent ucky
ĠY O
ĠNG UY
ĠB ed
áº¿ nh
oll s
g á»ĳc
Ġf estival
ĠSil v
Ġ8 90
Chá»ĭ u
ĠD ome
Phi l
0 27
9 75
H Ãło
s áºŃp
Gi Ãł
dr ess
Ġn Å©ng
tr áº¡m
34 1
d á»±a
ĠA IA
6 99
Ġd ÃŃu
ĠLu zon
ĠQN CN
Ġarab ica
ĠQ BV
ĠTH T
Ġh Ã¡c
ĠK ak
aph aco
Ð¾ Ð
C or
O B
0 88
5 78
A Q
ĠShim bun
ĠFab rizio
th eon
N ic
0 37
s am
H I
ĠV on
ĠCS KA
Ġngo Ã¡y
Ġw as
ĠBr ig
G W
ĠGi r
PC TT
ĠOla f
chÃŃ n
ĠP ush
ĠK ansas
A mer
et ic
7 43
ĠGu zman
3 11
ĠAff leck
Ġ art
ĠX SMN
eb y
I EA
b ane
ab ook
ĠÃĲ iá»ģu
á»² NH
ĠhÃ ºp
Ġá» ¨
UBCK NN
65 8
H á»ĵn
Ġr ep
do be
ĠScar lett
ĠK C
28 1
3 38
ĠPr ague
PV PHC
l Æ¡
Ġb al
im Äĥng
und erb
BTT TT
im co
ers field
ĠFA O
Ġr á»¯a
ĠF U
ol ski
ĠND VN
ĠP Há»
ĠS ic
ĠSt ad
40 2
ĠQ B
ĠViet Gap
N Ãły
ico gi
0 17
Ġc Æ°á»Ŀm
Ġd on
o e
ĠCle veland
ĠEl len
mand u
re ad
ĠT yler
KH ÃĶNG
h Æ¡i
r Æ¡i
ĠTh áº¥u
ĠPh Ãł
H M
um o
ng áºŃm
ĠK ry
al ong
I brahim
int age
ĠRai ola
S ev
p hÃ³ng
s il
47 9
ik en
nik ov
Ãģ NG
D TTS
T ik
Ġ47 7
H iáº¿m
ĠCT D
ĠP ie
ĠDa ewoo
thoi baov
thoibaov hnt
z eg
ChÃº a
Ġ4 29
ess en
ĠTH VL
ĠM á»ĳc
ĠI mm
ĠCle ver
Ġdanc esport
ĠD ÃĤN
78 9
S áº¿p
ĠWi jnaldum
Am azon
ĠN om
ĠN ile
ĠB IC
Ġ80 2
Ġ39 2
Äĳ Ã´ng
v ar
Ġh igh
ĠCom mer
av ier
T ui
ĠO N
ĠPul isic
ĠTh ani
ron es
L ago
ĠP TSC
30 3
Kh Æ¡i
ĠSh ort
ĠAN ÄĲT
ĠVin fast
Len ovo
ĠP ing
us ha
eg y
Ġs Ãºy
ĠR and
ID I
ĠHar a
ĠOs asuna
VP Bank
G CN
ĠWin ds
t áº§ng
Ġi S
4 12
ag uchi
ÄĲá» §
d áº¡ng
Ġ38 1
istan t
ĠCay enne
H áº¯n
ĠB Æ°á»Ľu
ac ter
37 7
ĠChá»§ ng
Bá» Ŀ
Ġr ÃŃch
Ch áº¡m
ĠOs lo
ĠBaza ar
Ġm Ã³t
Th omas
ĠSteph anie
3 23
ĠL aser
en i
PhÃ ¹ng
T ur
ĠChá»ĭ u
ĠJ ill
ĠSh inh
meim im
R es
ĠHy per
4 88
d áº§u
ar azzi
ĠRe ading
5 15
Ġ end
ÄĲ iá»ĩp
34 3
cheng ladbach
z hou
ĠSav ann
ĠZiy ech
Ġt Ã¨
ĠSEA L
Ġser um
ĠX C
Kho ang
ĠLy bia
ĠCer ezo
ĠL ol
ngh iÃªm
ĠParad ise
ĠK ul
Ġy ear
Äĳ e
6 88
t áº¯c
ĠRod ong
t ier
0 29
ĠM ou
h ampton
» Ľm
á »Ľm
Ġkhu a
mins ter
Ġu á»Ļt
M at
ĠK ot
ĠCI EM
ĠTh áº§u
Ġ39 6
Ġnh Ã³
ĠSm ile
ĠTB NN
t Ãłng
ĠCol ogne
Ġs n
at an
Ġ37 4
Ġcort isol
Kh Ã¡i
ĠWin nie
ĠB QP
ĠÄĲT LA
ĠT art
ĠÄĲS VN
k top
in ja
75 5
37 9
Nh Æ¡n
06 3
ĠR Ã¢u
D el
Ġv áº¡i
ĠR Ã¡ng
33 2
8 55
K GVX
U E
7 45
ĠStev ens
Ġd etox
T iá»ĩc
au ss
Ch an
ĠH I
ess ie
iy asu
ĠEdu ardo
ĠM INI
ĠFab inho
ill ing
Ġru á»ĵng
ĠN I
ĠDan ilo
ĠK ei
ĠAS US
ĠB áº¢O
. -
p atch
ĠM IT
Ġ34 4
Ġr Ã¡m
M AT
l Ã£i
NS A
yan sk
Ġsá» ģn
ĠVer ma
s ak
ĠI HS
0 46
e co
ĠKN TC
ĠKh ay
ĠD inamo
ÄĲ ÄĲ
ĠDT LCP
Ġ ..
3 29
Ġb as
J ang
ĠR apper
ast as
ĠThu Ãª
ĠPA K
0 43
Äĳ áº»
ĠHá» §y
ĠN iu
ĠTw in
25 9
ĠA CC
47 7
M Æ¡
ĠSand y
L ady
v ey
Kho e
5 12
ĠOt to
: -
Cham berlain
B ox
Th áº¥u
ĠHu dd
qui ao
C ong
. âĢĿ.
ĠChrist mas
ĠOp tim
Ġn á»ĭt
Th áºŃn
ĠCal der
ĠTá» Ľ
34 2
ĠG im
Tr áº¡ng
37 6
ĠDipl omat
ĠPV B
Br exit
ĠMa as
br al
z ia
ĠT iá»ĩc
w ater
ĠV Ã¢u
33 1
ĠP izza
m ic
ĠB iz
Ng á»¡
ĠGr en
K á»ĭp
Tr Äĥm
ĠAn iston
B Æ°á»Łi
m Ã©t
ing a
5 85
ĠVid ic
Br it
ĠGul en
ĠDon narumma
ĠBright Side
ĠSil k
ĠHa ftar
ĠFl ickr
Ġ4 27
3 18
29 1
35 7
ĠS áº¡ch
ho on
6 65
ĠNav ara
ĠM L
ĠDo k
ĠVN N
Ġl Ã©m
ĠAl ps
ĠKur t
ĠNA Y
er an
3 28
Ġr im
36 2
ĠW ak
ĠKath y
ĠPas cal
ĠRim ario
ĠTá» ĩ
ĠH ÃĻNG
ĠInter continental
Ġx Ãºng
ya f
Ġox al
Ġ4 26
Ġ68 9
U NDP
Ġk en
ĠV Ã¡y
Äĳ á»«ng
ĠMar ian
34 9
ĠIC U
L ondon
05 2
ĠDel oit
ut oday
ĠChi ron
ĠTh Ãłng
6 55
Ġtr ue
oton in
5 65
ĠPet e
kh áº¯c
3 26
ver ter
Ġph áº©n
ĠHerb alife
ĠDeloit te
ĠN LG
ĠJust ice
P ort
ÃĶ I
ĠIndustr y
m ler
ĠT usk
Sh ark
ĠSad dam
n Ã©t
LÄĲ TT
du ong
Sport s
Ġster oid
T Ã´ng
Ġng áº¡n
Ġr áº¯p
27 1
ĠLyn ch
Ġng Ã¡p
ĠTr Ã´m
I BVCB
BV SC
Ã© r
ĠI PP
phÃ ©p
khá» ķ
dor f
ĠL ens
Ġ5 77
ChÃ ¨
ĠB ellerin
ĠHosp ital
ĠHe ather
Nh iá»ħm
ĠValent ino
3 17
ĠT ut
S ar
8 28
ĠBos ch
S tyle
in z
ĠG MP
Ġ5 38
âĢ¦ ",
Ġto áº¡c
ĠCol lec
ĠRob bie
67 8
ran a
45 2
all ah
Feder er
ĠPan orama
ĠMan o
atch er
Ġv áº¡c
ĠÄĲá» ĴNG
45 9
cop ene
ĠD il
ĠEuro window
ĠT á»³
ĠMal colm
80 4
Victor ia
s tream
st en
km an
Ġth inh
ĠBrug ge
ĠMans our
7 95
Ã§ ois
S erg
Ġl Ã¨
Ġcaffe in
ĠV err
ĠP rab
ĠTh uá»Ļc
Ġ4 23
ĠCur acao
x ia
ĠFlam ingo
Kh uya
ĠSuper man
ĠStu art
ĠB Ãºa
ĠB ert
tr áº£m
du oc
Win dows
ĠQu ick
th áºŃm
ib u
ĠQ LÄĲ
ĠAr c
m á»ı
ĠH amps
60 8
all on
th ep
CCC D
ĠJ ian
oz nia
ĠStein meier
ĠNag asaki
ĠN CKH
ĠShi eld
ĠW ake
ĠBur ke
ĠC IT
N áº¥u
ar ro
ĠÄĲT NÄĲ
Tok yo
ĠG and
ĠSt ade
ĠNhá» ĩn
06 9
ĠBin ance
ĠGener ation
ĠNapol eon
ĠCar a
ĠLá» ĬCH
ĠGeorg ina
7 15
Ġan alog
ul ibaly
Ġ47 2
ay ak
ÃĴ A
Lá» Ľn
ĠSch war
3 24
35 2
FA O
Ġs ub
Ġk e
ĠAT R
3 16
Ġgiá» ¥a
ĠK TM
35 8
May bach
ĠSe ason
ĠkhÃ ªu
ĠBe er
49 7
gor od
35 9
ĠBur berry
ĠAs ahi
ÃĶ M
s Ã´ng
ĠV US
k iá»ĥu
» ®
ĠHo b
but amol
ĠH Ãºt
Ġca cao
ĠCas ino
Tho áº¡t
ĠG iÃª
p d
CQ ÄĲT
c s
ĠH us
C ry
ĠC ip
ĠM iz
ĠPan etta
á »®
est one
les brough
tar io
19 31
bi j
al am
ĠHmey mim
ĠPhil ips
05 6
ĠJohan nes
ĠN er
ĠH z
ĠW ing
Ġf ran
ĠDol by
v tv
60 3
6 45
ĠL ÃŃ
ĠNg ao
3 27
46 8
old s
M Äĥng
ĠÄĳá» įt
38 4
ĠC Ãĵ
po und
Lam borghini
R AM
ĠSol o
Ġ(? ).
c Æ°a
40 1
ĠFl appy
ĠKath mandu
Ġth áº£ng
60 5
ĠMon de
8 45
ĠSp e
ĠCB NV
Ġ[ +
Ġn áº¡m
im s
ĠSh akira
ĠPr ada
ĠMov ie
0 26
ĠL áº£i
á»ĭ u
F ox
Ġnh á»ĳn
ĠR á»Ŀi
39 2
ĠI taewon
ĠP D
ign o
ĠZen it
ĠBen ed
S av
Ġban k
ĠSc an
ĠZen Fone
ĠV MS
ĠPh un
ĠM omo
Ġ47 6
Is lam
) ?
ĠBart omeu
d ge
ĠF ig
h Ã¡t
ĠAl ain
W TI
Ġ( "
B XH
Ġn iá»ģng
ĠS qua
El on
in ol
th áº±ng
ĠHá» ħ
Ġn eon
ĠCas a
Ġp ass
ĠL E
per ation
D áº§n
30 6
ĠL I
ax o
ĠB ua
0 32
ĠMiss iss
ĠThib aut
en ez
Ġ4 24
ĠC ra
ĠD ah
TT N
ĠTIáº¾ N
ĠF iesta
19 57
Ġ55 1
+ +
G áº¥u
V y
Ġ43 3
Ġ8 55
and o
ĠBr emen
ĠM iáº¿n
ĠChrist ensen
47 2
ĠD n
Ġ4 38
0 38
te en
3 34
Ġr ing
ĠSe on
Ġx Ã©p
ch áº£o
ĠCh urch
ĠRun way
ĠE M
Ġ4 46
ov ina
an ne
nh iá»ĩt
ĠS ylv
ĠD P
5 35
K Ã¨m
v Æ°á»Ŀn
od ie
M áº¡c
ĠLo han
0 77
G olo
ĠF iat
Há»Ĺ n
art ment
lá» ¡
ĠNim itz
r ong
ĠBr is
ĠZ ircon
B á»±c
ĠR á»ĳt
tá» ī
ĠPan am
Clau de
Ġngh Ãłnh
ĠChÃ ¬a
M Æ°á»Ŀng
Ġph áº§m
ch ev
Ġsá»± c
ET RO
ĠI CTnews
ĠCam b
ĠD iv
ĠAmb ros
X Æ°a
ĠPr ed
ĠRet ina
Ġr áº±n
ĠK FC
ĠCommun ic
Ġjump suit
K P
th Æ°
B Æ¡
T en
ĠTÃŃ m
Ġv intage
ĠBor ed
ĠL iÃªng
05 4
ĠHor izon
Ġfun ction
ThÃ ¢m
ĠAr amco
ĠnhÅ© n
Vietin bank
ĠBlack burn
ĠWinds or
ĠT ad
j ad
se v
ĠKalas hnikov
Ġkáº» ng
Ġb it
ĠÃ ¨o
ĠAlej andro
ĠSamp doria
Ġskin ny
ic in
ĠVir gil
f am
ab aya
ĠGiorg io
ĠP uka
im art
Ãģ i
ĠK ung
Ġbá»ī u
Ġb áº¥u
Äĳ á»įc
30 7
bral tar
áº½ m
LÃªn in
Ġs Å©ng
Ġ40 7
d n
ung e
ĠNam ib
ĠE ven
ĠHotel s
ĠM á»¡
ĠVB QPPL
Ġd evel
ĠT aw
lu Ã´n
in er
Ġv ani
49 8
9 19
ĠP Ã²
ĠChr om
s chool
ĠS ÃŃnh
ĠHuff ington
ĠH ist
3 13
8 15
Bo as
U FO
ĠPH ÃļC
et egui
ĠK iá»ĥng
98 3
ĠZ um
Ġami Äĥng
Ġf r
ĠB am
Ã ģm
Ġnh Ãº
ĠÄĲS Q
ĠHV G
ol and
0 21
ĠÄĳ Äĥm
5 29
ĠSau l
ĠHaw king
Que en
Ġn Ãª
ĠJ ob
S abeco
u tra
34 8
ĠHá»Ĵ I
ob yl
G an
Ġb lu
b il
ĠNH áº¬T
44 2
Ġtr áº±n
phunu vietnam
Q N
ĠS AG
oo ter
ĠLi ang
ĠK es
Ġ4 36
Ġtho ang
ĠHen ri
ĠX E
68 5
Chá» Ĺ
For ce
is ak
ĠJan uzaj
ĠÄĲ á»±c
5 24
Ġb Ãµm
Ġnitr at
ĠBib ica
food s
V Æ°á»Ľng
§ n
C Æ°á»Ľi
Ġr á»ĳc
Ġ4 48
40 6
70 5
. ",
Ch amp
ĠBr ist
Ġ38 7
ĠVá» ļI
ĠÃĲ iá»ĩn
ĠG omes
5 23
H appy
ĠB ion
erm ont
ĠT iá»ħn
ĠChang i
b Æ¡m
tr ak
37 2
ĠEn zo
VAM C
S im
Ġm áº¡p
ard s
Ī NH
b Ã²
Ġ39 4
44 3
Ġtá»§ a
g om
60 9
R á»ĵng
ĠChe ck
le ans
ĠNhÃ ´m
H er
ĠHamps hire
U r
V á»¡
c ity
Ġcan o
Ġbot ulinum
Ġ Æ¯á»Ľp
5 47
f ly
ĠNg on
ĠOn tario
ĠVin am
38 7
Ġ?? ?
N M
ĠH ig
ĠL ist
ĠP API
ĠP ear
19 25
Ġv iá»ĥn
ÄĲ en
ng o
ĠB á»¥t
Ġmá» £
er al
Ġl áº¹t
ĠH itachi
ChÃ ¬a
vis or
Ġw ushu
Ġas pirin
9 25
Ġlo i
ĠLuc y
ĠÄĳÃ¢ Ã¹
ĠBa ham
ĠS tre
onia c
v áº¡ch
se in
ĠRos a
ĠIm age
ĠA pr
ĠPV comBank
ĠVR G
M á»ı
7 37
Ġr ai
ĠNg áº£i
Ġdi ez
k Ã©p
ĠA mar
ĠNh áº¹
t uyá»ĥn
ĠSin ovac
ĠP ung
K ey
39 8
44 4
J essica
ĠJ as
Ġkh em
áºł NG
ĠMay er
iy ah
IR GC
j en
ĠB ANK
ĠMc Connell
3 14
ĠUr al
ĠCD U
Ibrahim ovic
ĠB ain
ĠF X
or ter
Ġ ap
Tr inh
,âĢ¦ )
NhÃ £n
l iu
ĠMan bij
09 6
ĠBLTT HS
ÄĲV O
S ARS
u xe
Chev rolet
r ung
C arl
ang el
om bia
SO HR
ÄĲá» £i
Ġ43 1
ĠPh om
chá» Ŀ
Ġtv N
ĠC ec
Ġr ia
ez a
6 15
v on
ĠP Ã¬
se i
S Äĥn
ĠK av
Ġ6 45
58 7
O SCE
ay an
Ġ6 66
ĠI ly
ĠTit anium
N ap
39 7
áº¤ P
ĠVD B
Ġnicot ine
Ġ45 2
36 4
ff ect
ly cer
ĠNav ig
Ġchu n
ĠFit ness
ĠZag reb
ĠSh en
ora emon
M atic
k hÃŃ
yo ut
eij der
Ġpar acetamol
j ee
w ald
J ord
M iáº¿ng
ĠCon tainer
05 8
ĠMag azine
ĠM áº¹o
Ġpoly mer
ĠS ex
ĠK ram
ĠAm a
ĠTr aphaco
ĠEthan ol
Ġs Ã¡m
ĠTRá» ĮNG
Ġchá» ħ
ĠNh Æ°á»Ŀng
ĠVN S
Prem ier
ĠÃª kip
ĠNav er
ĠT ap
ĠM Ã¡ch
ĠtÃŃ p
ĠNK G
X PVPHC
m obile
ĠL un
Tr áº¯ng
ĠE aster
eij ing
% âĢĿ,
b uá»ķi
ĠNass r
ĠLav ie
Ġb áº¥n
os port
V IB
29 7
thi ng
Ġcard igan
ar ev
ÃĴ O
ĠC Æ°á»¡ng
ĠM oo
88 9
ĠPet rol
ĠB Ã´n
ĠV ay
ĠSign ature
ĠT erm
ĠH TS
ĠDia s
Ĥ N
" ).
Bao dautu
ĠSW IFT
Ġtr áº©y
Äĳ áº§y
ĠYou th
ĠInstit ute
k ori
á»ĳ k
ĠMaria h
40 9
ĠLor enzo
T á»ĳ
t Ãłn
ĠO F
ĠE B
k Ãªnh
Nhu á»ĩ
ĠArch itect
ab o
Ġp od
ĠÄĲ KDT
ĠTh rones
Ġnit Æ¡
H ol
ĠFerr er
ĠJu do
7 47
ĠP iano
ĠU R
ĠCo x
ĠK GB
ĠG epard
ĠCH F
ĠRos neft
Ġb enz
ch on
40 8
kh iáº¿n
sp ace
Pet er
USA ID
Ġcos play
t á»Ľi
ub b
ĠSaman tha
ĠCo urt
to um
ĠDab aco
S PC
Ġb aux
ĠMallor ca
g iÃª
iz ed
ĠPT DT
H V
w eb
Æ¯ á»ŀNG
ĠTT K
lu an
l áº¡nh
07 9
ĠTrans fer
Ġ39 3
ĠÄĲK XT
ĠLev y
t ao
ĠK atherine
ĠdÃ¹ m
th Ã¡ch
ĠJacqu es
c ai
yr i
á»Ĳ ng
Ġf air
st atic
Ġâī ¥
09 4
Ġb iá»ģn
ĠArt ist
N oo
ĠG ay
ra z
du ce
7 68
w ana
EX O
t uy
ĠPh el
ĠTr uss
Ġi M
05 7
8 65
35 3
X SMN
k ham
ĠR ennes
ĠSer ge
ĠN is
Ġvacc in
ĠJ ia
ĠT ag
ĠAki hito
if fe
T áº£i
t uyen
Ġc áº¡ch
05 3
4 22
Ġ4 21
ĠBaham as
ĠAc cess
VN ÄĲ
Äĳ á»Ŀi
0 98
Ġtrá»į i
Tr ai
ĠsÆ¡ mi
ĠÄĳá»ĵ m
ĠAN ND
P en
Äĳ Ã³i
An ton
Ġ4 49
ĠPer th
Æł n
AF I
0 49
6 36
ĠVI ÃĬN
Ġ5 28
ĠSand ra
y stem
ig roup
ĠTá» ¥i
áº º
ĠphÃª n
Gi áºŃt
ĠCo ast
35 4
ı n
05 9
ĠVal ery
thu áº¿
ĠTCC N
ĠFPT S
Ġvá» ĳi
ĠL icogi
ĠMcK in
M Ã¹ng
P MU
ip ras
Ġnh Ãłi
ĠA ND
Ġnháº¹ m
4 11
ĠW ai
ĠDomin ica
ĠSup ran
b el
ĠB Ã¡m
ĠAn ad
ud an
t ent
ĠNat alia
ĠB D
ĠL NST
ĠV im
ĠTh oan
ĠMuam mar
ĠB oss
is tr
35 1
Chu á»Ļt
S IM
ĠCin ema
j l
Ġlim ousine
S isi
ĠAd ren
9 11
» ļt
á »ļt
om bie
60 4
Ġ19 32
ĠSel ecao
ii i
Ġ overs
ĠE ther
to ck
ĠN SDLÄĲ
Ġá» «
ay ama
9 65
Ġ4 17
Uy Ãªn
ĠT os
ol s
48 9
ĠKind le
ĠL Æ°á»£m
ĠEl vis
Ġ46 2
ĠBen igno
ic ial
37 4
ĠOx lade
Ġh al
ĠKienlong bank
" >
b Æ¡i
Ġ45 4
ĠCap ello
Ġph áº©y
ek a
ĠKo ch
Ġkh áº£n
ĠG LS
Ġ47 9
OR T
ĠMad ison
Ġxá»ĩ ch
T esla
di en
P oster
qu en
S UV
ĠTh áº£
ĠMi rae
ĠDes ire
V CSC
ĠT eo
ch ard
ag ar
46 2
ĠLop etegui
Ġ icon
Gl obal
Ġt uá»ĳc
ĠTh iÃªu
ĠEuro Cham
Ġc lin
ĠhÃ² i
ĠÄĳ Æ°á»Ľc
ĠCan celo
39 3
zh al
Ġkhá» ©a
ĠTw o
S ung
m áº¡ng
ĠG TB
80 2
ĠNorm andy
V er
ĠCT R
c ial
0 33
ĠTh al
ÄĲ u
ĠAr e
ĠFacebook er
47 3
z illa
des ivir
ĠÄĲB VN
Ġcáº£ o
ĠO NE
ĠHy ori
Ġd an
ĠE RP
oy e
L isa
ĠTT XD
uc a
ĠKe ita
ĠMun do
ĠSpr int
ĠNik ki
crip t
r á»ĵng
Ġ8 35
ad ezi
ĠGlas gow
c ac
ĠÄĲ ÃĮNH
ĠRah man
ĠBis hop
ĠV az
n Ã³
ĠBern ie
ĠYuan ta
ĠB Ã¹ng
Ġ8 45
ffe nheim
Ġed ge
ĠPVO IL
Ġqu Æ¡
ĠS Ã¬nh
l áº§y
ra j
ĠP ublic
ĠK TTT
p ers
car bon
58 6
ĠT ym
ĠO sen
sh are
Äĳ inh
Ph Ã¡n
ĠC U
ĠU T
ĠTr áº§u
50 8
Ġ4 34
ÄĲ HÄĲ
SN SD
ĠMartin o
A dam
ĠX á»Ķ
88 5
ol id
ĠÄĥ m
Af ghanistan
ĠSen do
ĠClin ic
B er
d ore
49 6
ĠAp ax
ĠSupran ational
ĠGiá» įt
ĠG ermain
55 9
South ampton
Ġl Ãº
ĠS ov
TC N
06 2
l Ã²ng
ĠG ut
Ġnhá» ¥y
te ga
ĠMal acca
65 6
ĠC ost
47 6
Mil an
5 68
ĠT áº¾
ĠT EU
ĠsÃ´ cÃ´la
E rik
ĠV CI
ĠLap orta
SG K
P at
v ing
ã ħ
Ġt áº±n
Ġá» Ľ
ĠShar if
ig l
07 2
ĠLou ise
7 41
Cap ita
ĠQ NK
gi am
ĠRad ar
ĠT yr
ĠW it
Ġch lor
ĠV era
Ġ39 7
Ġ60 1
ĠK ier
ÄĲ D
ĠGi braltar
ĠbÃ¬ u
UYá» Ĩ
w s
ĠQ T
ĠK ali
ĠG w
ĠKore an
ĠKang aroo
n ight
ĠA WD
Ġá» Ĵ
Ġsand wich
eo k
Ġkhu Ã¢ng
99 8
ĠE qu
4 17
am ac
ĠLa hm
60 1
ĠT á»Ļ
ĠTour ist
Qu Ã£ng
O ppo
ĠN ÄĤM
57 9
Ġfly cam
H ANOI
b uri
G E
48 7
Ġd ep
ĠDT NN
Ġt alk
57 6
- ...
p sey
ĠM ist
ĠRo om
ĠdÃ² m
Ġvá» £i
Ġtáº¿ u
ĠW he
eb ec
ĠARM Y
ĠHo áº£ng
ĠSt or
c ur
ak ed
ĠBoris ov
5 88
Ġ46 3
0 34
ĠChern obyl
ĠOr leans
k az
Ġkhu Ã¢y
ĠEx change
ĠMel issa
4 14
8 95
LÄĲ BÄĲ
ĠJo ker
Ġ57 9
arl ison
L iá»ĩt
ĠD et
Ġlá»Ł m
ĠN ash
ĠL iá»ģu
da h
5 13
Ġ5 13
tr áº£i
Ġpap arazzi
ĠGi Ãłnh
ĠcÃ ¢
ĠAvia tion
Tr Äĥn
ĠPick ford
v ette
Ġph y
Ġ10 22
ĠN P
ĠR ita
19 58
ĠVH C
Ġd áºŃt
ĠPlat form
ĠthÃ ¢y
ph am
Ġ45 1
chá» Ĺ
app a
Ġser otonin
Ġ44 2
k es
ĠD ag
ĠS áº§u
07 6
Ġ60 4
dou ard
Ġ7 000
ĠDel uxe
thÃ ªm
Ġká»ĩ ch
ĠW oznia
ĠLen in
Ġ45 7
ĠI gn
Ġ44 1
chÃ ¹a
ĠMississ ippi
? '.
ĠR abiot
truc tion
Ġm ad
ĠRa ff
n ang
Ġ amp
ĠQ UY
Ġ45 3
ĠphÃ ²
ton a
x oay
N Ãło
ĠT TT
Tr áº§m
68 6
), âĢ¦
ann el
m Ã¡i
Ġp iston
Ġ45 9
ĠTs ipras
ĠPac quiao
, .
L Ãºa
Ġm áº©y
ĠTh uy
50 2
ĠQuÃ½ t
ĠV CPMC
ng á»įt
aren ka
5 22
F uture
ĠK oz
ĠPod olski
0 66
ĠSin mun
ĠDig i
ĠC isco
ĠRay mond
Ãĵ A
ĠAv anza
Fan page
36 3
ĠTh under
ĠBar bie
ĠQL HC
ĠBu zz
b ai
m ot
ĠL enn
ank o
Ġ60 5
ĠÄĲÃ´ la
ĠCalder on
Ġngh iÃªp
ĠA dobe
ĠPV TM
Col ombia
Ġ over
ib e
r Æ¡
ĠF lex
Ġ48 6
ĠB á»¥i
ĠP Ã³
el ift
ĠKh iÃªu
ĠJ VC
Ġ14 00
co ck
kh Ã¡
80 5
ĠTD H
A ct
ĠN ed
ĠS ÄĲT
ĠthÃ ²ng
ĠIR GC
c uá»ĳn
45 1
Ġnh á»ĳ
ĠNg Æ°á»¡ng
w C
Ã© s
ĠE OS
ĠSá»ĳ p
ĠA TC
Ste ve
ĠN Ã³c
chÃ ´n
ĠH ÃĶM
ĠL ord
ts ov
F PA
am u
ĠÄĳÃ º
Ġr Ã¡y
ĠKH ÃģNH
CH I
chÃ ¬m
co c
ĠWow y
Ġ9 55
Ġ19 29
ĠChe ong
ĠK IS
68 1
ĠFeder ico
4 16
T Há»
ĠK K
ĠG ue
ĠEx cel
ĠVina food
ĠLu la
HO ÃĢNG
ĠSe pp
ah ce
49 1
Ġ5 18
ĠBeck er
77 6
Con tinental
46 7
S ec
thá» ©c
PC A
ĠVit aly
. âĢľ
d uy
Ġd emo
ĠL ives
Ġshort s
ĠS ut
Ġ5 23
ashi ma
ĠCom m
Ġch iá»ģn
ĠO g
ĠDavid son
ĠI EA
G á»Ĺ
c Ãłi
m ob
Ġp Æ¡
ut ch
ĠVNA H
X Ã´n
c end
ĠV od
Ġin vest
V iá»ħn
h un
ĠL áº·p
dy ch
Luk aku
4 26
E co
DX Y
08 3
ĠVerr atti
ĠPlay Station
ĠKle in
ĠC Æ°á»Ľi
H Ã³c
Ġmá»Ł n
ĠGustav o
c orp
09 3
ĠW ah
ĠAss istant
F SA
ng oisao
ĠSp l
int endo
d uyÃªn
Sel ena
B á»ĥ
od om
ĠÃĲ á»ĥ
ĠGab on
U ber
ĠL C
at su
% âĢĿ.
48 6
ĠWest minster
p le
qu id
ĠSt ark
ĠGu us
ĠMin dan
Ġ44 4
uy u
ĠV iá»ģng
au gh
ĠViss ai
06 4
ĠBeyon cÃ©
fish co
h áº§u
ĠB IM
V F
Ġ6 99
tu Ã½t
ĠMindan ao
R ap
ĠQuy nh
ver ev
Hung ary
Th uá»Ļc
hi zer
ĠVN VC
60 2
c oi
nh áº¯m
ĠTh iáº¿n
Ġs un
A c
l ana
ĠHero es
46 6
ĠTR ANG
ub o
Iáº¾ U
E r
d á»įa
ĠP ico
ĠKh ar
Po int
ĠD ÄĲ
ĠSak ura
ĠF av
lá» ĩnh
A sh
M ur
ĠCath ay
v ers
w anda
C TT
Ġ ~
Ġt om
Ġv logger
Ty pe
4 38
ĠTP L
os lav
ĠG Ã¬n
ush el
ant ile
ĠTho áº¡t
Ġâ ĨĴ
ĠSp ar
W ar
cul es
ĠE lyse
eng en
K yl
ĠSh adow
ĠTe er
ĠBris bane
F ri
f ur
Ġse quin
ĠU áº©n
Ġvi et
Ġo xi
07 8
B Ã¡
Ġm Ã¡o
ĠHo ff
ĠDis patch
ĠthÃ £i
ĠSul tan
08 6
ĠBh um
re ira
ĠV M
ĠP uy
Ġ50 7
ĠBox ing
P e
p us
art ner
7 88
F ab
Ã´ c
Ġ46 9
ĠLab s
ĠEdin burgh
áº ¨n
Ġng Æ°u
ĠAdr iano
ĠReb ecca
Ġl ine
ĠVietnam obile
Ġ(?! ).
Ġt iá»ħu
Ġhat trick
T ag
LC L
do or
ha zi
4 23
L NG
up h
ĠMob i
4 28
C are
Ĳ I
Ġb ass
ĠDH G
6 35
Vol kswagen
ĠMerc antile
B ur
g Æ°Æ¡ng
Ġ6 12
l Æ°á»Ľt
ĠHudd ersfield
ĠThÃ ªu
,âĢ¦ .
och oi
L Äĥng
ĠH ep
ĠCh áº¡m
ou g
ĠKy aw
4 36
tr Ãł
ĠMin o
ĠRam s
ĠRy u
ĠSub oi
ĠKid man
ĠTH VN
ĠR atch
Ġ19 33
48 2
ĠFran Ã§ois
an ova
g ad
ĠVert u
ĠÄĲ iá»ĩu
4 33
Phá» Ł
Ġm áº«m
ĠN Ãły
uss a
Q C
ĠM áº¯c
Ġ48 2
%) ...
67 9
ĠWal sh
ĠPar c
qu et
ĠCT XH
f ess
Ļ n
T á»ĭnh
v ang
ĠC raw
Ġ39 8
apl ua
Ġc all
ĠWolver hampton
ĠTr oll
ĠVietnam Plus
M á»ĩt
ĠG EX
t iÃªm
ĠJoy ce
66 9
T eam
ĠYout uber
B Ã¬a
ĠRichard son
ĠCh Ã¡o
ĠVin c
40 3
iph one
0 42
ĠE asy
ĠP te
ĠViet Times
ian ce
ĠG os
ad ar
ĠZa ha
à ¸
ÄĲ ua
gr ade
4 48
ĠCh Ãłi
9 85
Ġcu á»Ĺm
Le on
m á»ĵi
ĠLight hizer
ĠNova World
B ale
37 1
Br uno
ĠDem psey
ĠT ing
ÄĲ Äĥk
ĠEl sa
ĠMau rit
ĠSar s
ĠCarr oll
C á»§ng
Ã½ ch
Ġw in
ĠAz z
B LA
V áº¯ng
ĠKh áº¯p
ĠDarm ian
ĠV X
it en
ĠPanam era
Bo eing
l á»Ļc
50 6
em in
ĠEl ena
ĠResiden ces
ĠY ev
assem ia
V áº£i
D J
ĠW yn
ĠTrav is
thu áºŃn
b Ã¡m
Ġ8 99
BV ÄĲK
Ġworld ometers
ĠM Å©
Ch en
ĠL áº§m
ĠTÆ¯ LÄĲTT
ĠB eth
ĠL Æ°á»¡ng
D ig
b áº¡o
ou ter
qu á»¹
bach ev
amp lus
eg ie
S ha
Ġ7 68
ĠE ra
B Ã¹
B QP
Ġdown load
ĠTheo dore
ĠD w
k ova
ĠX ing
ĠKit ty
ĠBrem bo
B Ãª
am endi
ĠM ash
HO NG
ĠB izLIVE
v iÃªm
Ġal umin
ar ch
ĠnghÃ ©t
45 4
kh iÃªu
ĠM TP
M INH
79 2
ĠVá» ¤
q lo
ĠEl i
ĠShinh an
B or
Gi Ãłu
I RE
ĠMidd lesbrough
tr ip
ĠÃģ N
ĠLu b
j ab
ĠN Ãªu
ĠSP DR
Ġw ork
08 4
b ow
5 36
Ġ54 3
0 31
c áº©u
ent ine
oc yan
m ax
Ġtu áº¿
ĠPle i
ĠRamir es
ĠKhÃ ´
Ng á»Ļ
", ...
k on
t Ãº
ĠP ug
ĠAd venture
inh os
ĠGiá» ĳc
ÃĶ m
ĠKen neth
ChÃŃ n
g áº¡o
ĠJ ud
ĠStr ange
R af
uy ff
ĠM iáº¿ng
Tr Äĥng
Ġngo Ã¨o
ĠBar k
5 16
Ġth áº©n
Ġ60 3
ĠSn eijder
t áº¯m
t um
46 3
ĠChry sler
ĠhÃª n
S uá»ĳi
ĠAT K
ĠB YD
ĠtÃŃ u
ĠÃĲ áº¿n
Ġb ua
88 6
! )
ĠM á»ĭ
Ġ6 65
Ġk ayak
ĠLu cky
. /
ĠCP P
Ġ48 9
ĠNor u
Mo ham
ĠMau rizio
ĠTá» ª
ĠColl agen
ĠPui g
ĠV GC
ĠG X
ĠW ealth
ĠHen rique
e um
ĠG wang
75 2
ĠLan cet
e ID
ĠG aul
Ġ9 15
ĠC Æ¯á»ľNG
erb ahce
ĠH ANOI
ĠOp rah
ĠNg oáº¡n
ĠQu oc
ĠEs ports
ĠTh inh
ĠCl ara
ĠLuk as
ĠBr io
Ġá»Ķ n
t iti
ĠKr ug
ĠRu á»Ļng
Ġkh áº£i
ab h
Ġch erry
6 11
ĠX áº¡
ĠShar ma
ĠJohn athan
I NG
oz in
k W
Ġl azy
ĠEver y
ĠQLÄĲ B
Ġ9 46
Ġst ent
K DC
Ch oi
Ġ9 25
Z ero
Ġr iu
ĠS ek
Ġ56 8
áº ¨m
ÄĲ Ã²i
T witter
Ġ48 3
Sp ace
5 66
V Ã³c
60 7
ec tin
dr ama
d at
ĠcÃ³ t
Ġhot boy
ĠCSÄĲ TTP
ĠEven ing
ĠF itz
ĠÃĵ c
ĠLaut aro
ĠQu ebec
ah ar
Ġl ia
op er
ĠNamib ia
B rien
ĠX TTM
ĠZ ap
4 29
B áº¯n
ĠS ac
Ġ0 69
ĠMet hamphetamine
Su arez
7 67
J im
Ġsá» ĵi
Ġáº¢ ng
ĠHÃĲ ND
I d
ĠM ab
ĠL áº¯ng
SN A
y un
ĠSp encer
ĠCN A
Ġng oi
dr ado
ĠAttap eu
Ng á»±a
ĠNS W
ĠT ien
Ġhá» Ľp
4 34
J in
» ª
al on
Ġtrend ing
ĠC hÃ³ng
ĠV oy
lo c
ĠCN RP
0 44
ĠOto fun
Ġa er
t own
á »ª
G O
ĠGl obe
ĠEconom ic
ĠHM TN
apor te
ĭ ch
ĠD ier
ĠAil en
ĠC EP
50 3
aw are
C á»ı
tr an
KH Q
Ġx á»ķi
Ġlá» ķng
06 1
ĠN ia
N O
uk u
chÃ ª
ĠRay theon
, ....
4 18
c Ãłnh
C ERT
h au
EVN N
Ġbio gas
amac are
er ini
Ġ46 4
Ġpen thouse
or ov
Lou is
h ui
ĠSaf ety
Be ck
aton in
Ġthu á»Ļm
ĠAc tion
ĠG ua
Ġcu á»Ļi
EM A
ĠBT L
t á»ĳc
Ġnh Ãłnh
Th s
T ee
f th
ĠN oah
ĠI con
ĠStr as
aug rana
á¸ ħ
In tel
ĠGr ad
c áº¡nh
Ġ7 49
ĠSal monella
ĠGood ison
ĠM á»ĩt
ĠSul aw
ĠLer oy
thÃ ¢m
ĠAC E
Bel arus
0 47
r ai
ay ga
tr Ã¡ch
98 9
ĠDel e
ak is
ĠOt amendi
r Ã¢u
Ġqu áº¯p
48 3
ĠV ero
ĠSD ÄĲ
' !
Ġk iáº¿ng
ĠBion ic
Ġng Ã¡ng
en er
6 18
CN VC
ĠClar ke
ĠSp yder
i OS
ĠID ICO
ĠTart us
ĠN oi
Ġ47 8
ĠSher aton
âĢ¦ ?
ĠM evl
Ġ65 5
áºł O
ĠTrans it
ĠNishi kori
9 45
s ol
ĠPlay er
66 1
You T
07 3
ĠN aw
46 4
ĠAt om
ĠWall ace
ĠLog an
Ġr áº¡o
ĠThe er
ĠJac obs
5 38
sh in
ĠN Ãªm
ĠÄĲ Ãłnh
0 39
ĠHe idi
ĠKhark iv
Ãį CH
M ed
las ma
Ġgi Ã²i
ĠS oth
AR A
ĠSc reen
78 6
L ine
ĠSan aa
ĠInvestment s
88 2
ĠPVF CCo
ĠF ro
ĠJ SC
ĠMo ong
w all
l Ã³t
Ġb ra
tu al
ĠMay bank
ĠB ÃģO
ĠSp O
mark t
ĠKel vin
o cha
Ãį NH
ĠN Ã£o
iv ar
ĠT CÄĲ
Ġr Æ°á»Ŀng
gen y
Ġk ey
ĠS oÃłi
ĠK is
en ig
s te
ĠK M
Ġ50 6
ĠHá» ¢
07 1
ĠFish er
Ġm ore
Äĳ uá»ķi
est an
Av engers
H oan
ĠAle ksandr
ĠMartin elli
ĠN B
ĠA mp
ĠOr tega
ĠR est
ĠW W
ĠE ps
ĠSulaw esi
ĠP ah
55 6
ard in
45 3
90 5
ĠMau ro
ĠDar ren
O unce
ĠL N
ĠTr op
Seo ul
Ġ19 31
ĠMal ik
ĠBrook s
J CPOA
ĠN Ã¢u
ĠGab bana
Ġph one
ĠNA FTA
8 12
ĠFl ick
40 7
47 1
ĠP eg
ĠAm azing
MAT IC
), ...
5 28
D is
ĠT aro
ĠM ish
50 9
og lob
F N
US B
ĠTB T
0 67
ĠHu á»ĵi
36 1
ĠAd vanced
MK I
ic er
H CT
u olo
ĠcÅ© i
Ġchá»Ł m
ĠAnad olu
Ġ order
ĠVÃµ ng
Sh in
H ope
Ġm áº§n
ĠQu ao
ĠAr g
ĠGall ery
09 2
ĠNor man
ĠV ista
m áº£nh
Ġc ell
ĠAg ain
08 9
ĠBL DS
kr am
P ier
s at
m Ãły
Ġchá» ¥m
50 7
ĠSt ella
uk o
K CB
ĠColom bo
ĠPau la
4 37
4 32
ĠBK AV
ĠC od
ph Æ°á»£t
KhÃ ´i
ser ies
ĠM IL
Ġá» Ľi
ĠBe h
ĠNgá»į a
ĠT orn
ĠThÃ ¹ng
kh uyáº¿n
Äĳ u
85 8
Ġser ver
M Ã¡u
ÄĲ á»ĳt
ĠAt tr
Ġh em
ĠR icky
ĠBer ry
ĠTan aka
ĠPH ÃģT
ĠSign al
ĠIS I
ĠPCCC R
C á»±c
ĠS ÃŃn
ĠBarc lay
%) âĢ¦
ĠMr s
ĠBrist ol
ĺ T
ĠS AP
Ġcá»¥ p
5 67
Ġv iÃªc
ĠH ÃĴA
ĠBer dych
ĠFri es
Ġb ob
7 16
ĠAssoc iat
N at
ĠHar m
Ġ8 65
ĠU ran
46 1
ĠGul f
ĠL Æ¡
ĠDO HC
Ġd iÃªn
ĠGi s
50 4
ĠKur z
68 9
Z idane
ĠFi ji
ĠLu d
ĠCr eta
him i
Ġv al
os in
ĠFal ko
ĠL K
NT D
ĠLink ed
ĠHau te
d ez
es ar
08 7
carot ene
Ġ50 3
6 67
X Æ°á»Łng
b t
y eon
id al
ent or
77 9
ĠSir te
lo h
ĠThi em
ĠCK II
ĠSab ah
Äĳ an
Ġly copene
ĠLe go
oc ar
ĠSon ata
' m
ch áº¥p
ĠBo ut
ĠVI X
ĠMAC D
ĠBl ood
ĠCH á»¦
Ġlu á»Ļm
Ġl Ã³i
05 1
ĠOs ius
Ġ56 7
Ġ54 2
90 9
5 26
c Ãµng
Ġph ablet
s han
ap t
an an
ĠM á»¥
lin an
ĠSun ak
5 11
ĠEVN GENCO
k ay
Ġd á»Ļng
ĠChi ba
Ġco in
ĠAndr ews
ĠSo Ã¡i
ĠEss ex
ĠN akhon
ĠPH AN
ĠRog ozin
8 68
nh ÃŃ
Ġ46 6
Ġl Ãºm
ĠW ant
ĠPol o
4 19
M áº£ng
v á»ı
ĠÄĲ Ã²
ĠAr ts
ĠAmb ani
ĠDara a
ĠK ill
55 8
Ġnhá»Ł n
R F
ac ey
Ġ55 8
ĠEdward s
ĠXX II
b ler
ĠR AT
az iz
l ÃŃnh
s iáº¿t
ap ro
ĠKin zhal
M Å©
T ung
ĠL LC
Ġcar o
ĠLÄĲBÄĲ VN
Ġnh Ã¨m
ell ier
ib ol
AD E
iar ds
ĠC á»Ļp
Lu is
B oy
ĠG Äĥng
ĠAlexand ra
ĠNa cho
v at
K o
60 6
ĠWin frey
67 3
i os
Ġin ter
ĠKhu Ã´ng
Ġring git
Ġ6 49
ans om
á»Ĳ NG
tá» Ŀ
áº¬ U
4 27
H al
D ai
ĠF ey
58 4
r áº»
ĠÄĲ áº§y
ĠCarn egie
ĠG MS
G hen
Ġl act
ĠR wanda
ĠBH D
g Ã³c
Ġv áº³ng
Ġtu lip
Th áºŃp
ĠGl ob
L H
ĠPhilip ines
4 47
ĠSt op
dy s
ĠR Q
ĠFus ion
ĠCr uyff
ĠWin d
Iá»Ĩ M
Ġin d
Ġ00 1
Ġso áº¡ng
ĠW ings
ĠMar quez
ĠD rop
Ġ6 22
ĠHum an
K O
Ġnh iáº¿c
Ġchá» ıng
ĠSon adezi
j ay
ĠAir line
55 1
5 17
r ador
arm at
ĠMis ter
ĠLe c
ĠR Ã¬
L N
W ay
ĠT Y
ĠHann ah
9 15
u tr
ĠPr enn
ĠGu aido
ato xin
4 49
7 19
ov ern
ĠAnn an
THA AD
6 12
ĠBai ley
Ġcomp act
zeg ovina
fth ansa
ĠM áº¥u
Ġ %,
ĠT IM
Ġg oogle
8 26
b á»ĵi
ĠEVN HCMC
ĠNá» ĺI
x tin
Ġn á»±ng
ĠUP U
ĠJul iet
az i
ĠKn ow
ĠBeat les
ĠAm ata
ĠSay yaf
Tr Ã²n
ap s
Ġ44 3
ors et
ĠBQL DA
ĠGor bachev
á»® NG
ĠMob il
r Ã´n
ĠInf antino
8 23
ĠM ud
IN F
ĠBent ayga
Ġg áº«u
ĠWan bi
ĠGelex imco
CM T
ĠB eijing
j c
ĠP J
ĠTh ings
Ġbus iness
v Æ¡
ov al
ĠThe in
ĠSE K
F SB
th Æ°á»Łng
ou ane
val ho
ĠJab hat
N á»ĳt
Ġ5 22
ĠR ashi
79 3
ĠSch engen
ĠShib uya
6 22
J ul
ĠZ verev
m or
ĠI pad
Will iam
5 98
Ġch áº¡ch
And re
ĠÄĲ Iá»ĤM
99 6
ĠS IP
it es
ov i
ĠKhá» ī
47 4
Ġ55 2
Ġhá» ¡i
ĠW ho
Ġ60 9
ĠSc andal
n amplus
ĠGianl uigi
ĠD estin
ĠG TN
Ng Ã¢m
Ġg á»Ļt
Ġ5 88
ĠR oth
w ai
se ong
V u
Ġng Ã¡i
ĠP ong
V áº½
c ovid
ĠCle an
GH B
ĠAirb nb
c Ãłng
Ġg á»Ļc
Ġin stagram
ĠReyn olds
9 35
ĠN oda
ian t
EA S
75 6
form ers
b ase
ipp o
ĠCoo p
6 24
ĠTr á»¯
48 1
r ess
Ġd áº·c
67 6
ĠN ung
ok u
ĠAv enue
ĠUm titi
Ġp ol
ĠM SI
ĠMont ana
ĠR SI
ĠMevl ut
L ogo
07 4
ĠSt alin
09 7
57 1
ĠA us
An dr
Ġb Ã²n
ĠT av
ber s
E IC
Champ ions
Ġthá» ĳc
ĠÄĲ X
ĠCA C
38 1
let cher
ĠB CA
tr uong
am ic
70 7
amin o
iver s
ĠN iÃªm
ĠSu gar
ĠIt ar
Ġ49 6
ĠKur il
ĠMedic ine
ph at
ĠHer cules
ie c
ĠN CS
ĠM ign
MD B
ĠSo f
4 13
N ik
az aki
B uá»Ļc
Ġgi áºŃp
ĠGV R
ĠMina j
ĠSapp hire
C á»Ĺ
08 1
ĠCur tis
Ġ57 8
Ġ6 24
ĠKh ab
ĠPal ermo
ĠAce cook
ĠNutr ition
ĠBar n
49 2
ĠT YT
att ah
Ġx imÄĥng
VN N
ĠErik sson
Mid u
l em
ĠSu thep
ĠÄĲá»ģ u
x Ã¬
ĠTh underb
am y
ĠK G
red o
h inh
tr á»¥c
D y
iv ing
ĠPar tey
tin son
al is
Ġrá» ģn
f on
95 5
ĠDel aware
Ġrup iah
Ġkh áº¥p
59 4
ĠLim ousine
Ġth Æ°á»£c
ĠLen o
L áº¥p
Ġqu Ã¡ch
DP R
ĠFar s
ĠC oach
ĠM AMA
ĠQu Ã¡i
ĠZ or
ĠVI T
c áºŃp
Ġ5 37
ĠPr otein
85 2
Iá»Ĩ T
ĠKH TN
69 6
ĠAm way
Ġ78 9
Ġ7 15
4 46
Ġ ul
Ġm ash
ĠG á»ĵm
80 8
b Ãºp
Ġ49 8
ky un
Ġbo ot
Ġmet averse
ĠGam uda
ur in
Die go
Ġp age
ÄĲá»ģ u
h ard
ĠTw ice
ĠSim one
ĠEVN CPC
ter dam
Ġphen ol
7 23
ĠN ing
ĠKing dom
Ġbaux ite
Ġh áºŃm
ĠKara chi
ĠW a
Ġmac ro
ĠFran ck
Ġbá»ĩ n
bu Ã´ng
m á»Ŀi
s ac
ĠB X
on ie
Ġcar b
c oli
Ġv áº¡ng
ĠL aporte
ĠÃļ y
r un
Ġ7 19
ĠT amp
ĠÄĲ ai
Ġ5 17
J i
our ce
ĠOrig in
75 9
88 1
09 1
nh áº¯c
5 32
v Æ°Æ¡ng
Ġp pi
7 27
ĠPr ado
d Ã¡m
ĠT ite
ĠCh um
io id
7 26
Ġ46 1
ĠE gy
Jo e
ĠKier an
E IA
Ġkho m
qui pe
6 34
M et
b ung
ng á»įn
ĠP hÃ´ng
ad in
gi Ãłnh
8 48
ank ham
6 28
ĠAz arenka
ĠCh eon
ĠY eol
tron ic
along korn
ĠCS KV
ĠHol iday
ĠÄĲK KD
N or
ĠK af
sen d
ĠL NA
Th ang
b á»ĵ
Ġr Ãºm
ĠJ T
ĠGaul le
y ar
ĠTr ee
Vin ac
ĠthÃŃ t
Ġ43 9
An na
thu Ãª
ĠBhum ibol
ĠDai mler
ĠWal k
ĠArk ansas
ĠChild ren
G ab
Ġ7 43
ĠSp ice
49 4
all ana
ĠKar zai
ĠPul ga
out i
ĠWes ley
ĠL áº£
ĠK á
Ġf re
Ġ6 35
Ġ6 68
qu Ã¡n
45 7
ĠMah ar
Jord an
ĠKá »
Ġ6 16
77 8
ĠTr ipp
ĠLam bert
n it
Ġv Ãª
8 64
ĠB ik
ÄĲ SCT
ph ao
ĠH ack
ĠH Iá»ĤM
ĠVin school
Ġ46 7
Ġ04 37
L LVT
ro bi
amb ang
ac io
he ad
ĠHF NC
ĠTr Ã¡t
Ġrem ix
ch Äĥn
ĠS áº¿p
ĠPre ah
Ġsl ot
g áº¯n
q iri
19 49
Ġcarot ene
c ay
Lá» £n
chá» ©
65 3
Tik Tok
z yn
Ġ50 9
ĠUni qlo
Nh o
l á»ĩch
os n
ul ith
9 27
f al
h ao
ĠVaz quez
ĠSw e
ĠD E
ĠDu o
ĠSev er
r ica
us to
Ġ16 00
ĠRam adi
s áº¯c
ĠS atra
ust om
d Ãłn
Ġ48 1
ĠPK K
ĠPat tinson
MA X
ĠS AS
ub ai
od ar
Ġw id
ear e
ĠP Y
ĠGD KHQ
ĠJo ur
Ġpl ug
Tr a
IG A
ĠB oo
µ ng
Ġ49 2
Ġsne akers
ĠVÃĢ NG
ĠAnn ie
ĠAP S
ĠVal er
ĠHak im
5 62
P ass
ĠN eb
Ġsá» Ľ
ĠAz iz
Th iá»ģn
ĠRich arlison
I l
Ġt Æ°á»£c
ĠI da
ĠF OR
tr end
ĠPok emon
ĠCua drado
Ġv n
Ġn aked
ĠR is
Ġ56 3
ĠFly ing
Rad ar
Ġtru á»ĵng
ĠX Ã¡ng
ĠG ym
ĠJav elin
9 26
J am
Ġ5 16
om an
ĠSoy uz
B áº¯p
T i
Ġ5 39
4 24
O COP
Ġl áº¡n
Ã´ l
or es
90 8
55 2
X oÃłi
ĠM ok
ĠM Iá»ĢN
ĠcÃ² m
ĠAn andi
ev es
ĠJ ude
tp lus
od i
5 33
6 42
ĠH ano
und e
th ao
K Ãªu
ĠHyun A
ÄĲ ÃŃch
75 1
thÃ º
5 49
e ong
as an
ĠHel io
BLA CKPINK
ĠC Ã´i
ĠX Ã¡m
Mo on
ĠOsp rey
Ġtrá» Ľn
ĠPhillip ines
ĠBag gio
ĠP ast
55 7
CA F
ĠS ent
Yo nhap
ovan ni
ĠPuy ol
Ġp ound
Ch Äĥn
ĠCul linan
44 1
ĠJos Ã©
ĠStras bourg
ĠC ord
ĠPom ina
19 56
... '
ĠAr iel
K az
ass ic
ģ u
Ġmá» Ľm
ĠO ur
ĠkÃŃ t
ĠSa ab
t áº¡
u es
ĠM Ã£nh
ĠM áº©y
ĠR ung
aro en
IRE CT
Ġ5 26
ĠHCM C
ĠTD DC
ÄĲ P
Ġsho ck
B VN
t ens
Ġvá» Ŀn
Ġr Æ°á»Łi
ĠSh ear
ĠA CT
ĠBran son
Â º
Ġto ken
ĠMign olet
ĠE R
ĠWid ow
l á»¥c
ĠFor ester
cu á»ĵng
Ġol ive
ĠA kh
Nh áº£y
ĠSc ol
7 22
ĠHo ffenheim
ill ion
70 8
T áº§n
ĠÄĳ áº«y
em dep
Ġ54 4
ĠMor i
ĠJai sh
c Æ°
áº ª
ĠP RO
ĠGi ul
br ink
Ġngo e
ĠMo gh
ĠhÃº i
ĠJup iter
m atch
n á»Ł
ĠT Ã¡n
Ġg ÃŃ
ĠCá»¥ t
Ġcent imet
Ġ55 6
ĠTak ashi
T á»¥i
Ġbá» §n
79 1
ĠB áº¥y
ĠCan xi
ĠKh uyáº¿t
Nap oli
ter ia
Fran k
" ),
ĠS old
ĠS MC
ĠÄĲ TCK
ĠSal is
s ex
ĠCit igroup
ĠJ ew
KT NN
ĠAn im
79 7
aplua tplus
v ice
ĠCS TT
Ġ5 24
ĠMB Bank
Sc andal
ĠN áº·ng
ĠDQ TV
Ġ5 21
ID IA
ĠAl der
z in
ĠN X
ĠPepsi Co
ĠCO D
Ġdec al
Phun utoday
ĠEaster n
6 14
Äĳ Ã¨
Ġphá»ķ ng
ĠDragon s
do x
Hy un
ĠP yo
uy nh
ĠL Ã¨o
Ġ5 19
R á»Ļ
R od
ĠB ard
ĠDen ver
d á»¥
UYá» ĤN
4 39
ĠL iá»ħn
ĠS ep
ho d
ier e
19 51
5 18
5 14
D Ã¢u
ero x
Ġ56 1
ĠInn ovation
r d
ĠS edan
ĠÄĲ r
Ġ19 28
Ġ25 00
5 44
67 2
N hi
Ġ8 12
Chi le
ĠY ao
I O
Ġx Drive
aglia ri
ĠL ik
T e
ĠN intendo
ĠBar nes
66 2
ĠH á»ĳi
ĠX oa
69 2
ĠNgh iá»ĩm
o ung
ĠOlympic s
ĠMat hieu
56 1
5 48
b et
Ġlá»ģ nh
5 37
tr abook
ĠchÃ² e
ĠL á»³
ĠVIC EM
Ġ5 11
tp ellier
M Ã¬
ch iáº¿u
ĠA uth
ade co
áº» n
ĠStr auss
4 31
oss ible
a ar
D U
Ì ģ
Ġclin ker
ĠSc al
Ġcap tion
ĠTh uÃ¢n
ĠTá» ĪNH
ĠDec lan
ĠRho des
Ġr outer
ĠNH áº¤T
IN ee
7 69
m áº·n
ĠD ro
Ġp lus
CB CS
K evin
Ġr Ä©
Ġ19 35
ĠSag na
at ov
ĠShar on
Ġ5 48
ĠK IM
ĠRep ublic
6 16
Y O
n áº¥m
ĠLok i
w ide
on ment
Ġsáº© m
Ġk etamine
ĠÄĲ ÃĢ
... ?
tr áº§n
ĠVN eID
49 3
unt down
ng ang
ÄĲ iá»ģn
D Ã£y
Ġdi g
ĠB áºŃc
ĠK eng
ĠNass er
Ġs tr
ĠRasmus sen
ĠE in
ob or
Ġweb cam
ĠBro w
ĠNick i
ĠNg an
Ġ6 85
Ġco un
f ar
ĠVi king
Ġrá»ĩ p
Ġl Ã¹
Ġ48 7
ĠP DF
ĠAle k
7 44
ĠTh áº¯p
55 3
ĠRoll ing
ĠTO ÃĢN
ĠB aku
ĠSur abaya
ĠT z
ĠT Ãłm
Ġbu r
,... )
HD Bank
TR á
TRá »
Y u
ĠS CO
TM ÄĲT
ĠDub lin
há»Ĺ n
ĠClo oney
V ÃĢO
78 4
6 26
lo un
ax im
5 000
Ġdá» Ľp
Em erick
Com merce
lo áº¡n
ĠBul ava
ĠRO E
ir m
ĠXi ang
ĠBor rell
Ġ av
ĠV Ã¡n
Ġ56 2
ĠCro w
ĠX NC
ĠHerm Ã¨s
Tr Ã¢u
ĠW A
ĠTak eshi
k ut
ĠBlo g
Ġmod e
959 783
Ġ0437 959783
ã ģ
am ura
ia tion
ĠAn ast
att s
ĠOl imp
ĠB end
Ġ60 2
iet o
) "
ĠS iso
khá» ī
ĠVer ona
h al
ĠHu ay
ĠCh Ã¡
ĠTab let
ĠOlympia kos
Ġtra ding
ĠWe iss
X Ã¢m
id ium
' âĢ¦
ĠC i
ĠK ook
cl iffe
g á»¡
ĠPH áº¢N
5 27
ĠNews week
ĠV á»«ng
ĠL aptop
ĠKho Ã¡t
ick i
thu ong
Ġ8 68
Ġf t
M ah
ĠGyeong gi
Ġ55 3
ĠFen erbahce
70 4
6 39
k ir
ĠB ike
ngh iÃªn
ĠMain z
er man
Benz ema
th Ã¡i
ĠBl as
ĠFran z
---------------- ----------------
Pal estine
ĠRub io
F AT
ĠH Ã©
ĠPH ÃĴNG
Ġhip hop
ĠDo osan
id ong
ĠCS M
ĠTr Ã¹m
aw ay
t uc
K en
Ġ6 21
ch art
ĠIndoch ina
ĠF letcher
7 14
6 33
Ch áº·n
ho Ãłnh
ib outi
ĠPort land
ĠE SG
ic z
ĠJo int
ĠM Æ°Æ¡ng
Ġ( *)
Em ma
68 3
allad olid
Ġcur cumin
K ang
Ġ und
we ir
ĠLu fthansa
ĠT ito
ĠNg Ã¡t
ĠOn ana
Show biz
ĠDra ke
F l
M Ã¡
Qu Ãªn
Q E
8 38
ĠTH ÃĶNG
68 7
ĠSe ed
d ison
ĠK oo
Ġt Ã©m
Äĳá» ģn
W ork
ĠK iá»ĩu
ĠZ ub
ĠF MC
ĠCar valho
ĠOx fam
O m
Ġgi áº¯c
ĠLan c
CH DCND
ĠSavann akhet
R ashford
ĠR ÃŃ
Han oi
ĠYoshi da
ĠÄĲ ao
ĠI FA
Ġm á»ĭch
8 66
Ha aland
ĠTr ent
g ye
ĠPay et
7 13
Ġban d
N i
Â ®
ĠLÃĢ M
6 19
V M
ch ua
ĠI JC
ĠTá»ķ n
s Ãłn
ĠOr ban
8 33
] ,
75 3
o fi
Ġ5 32
ĠMar iano
cá» §
A EC
o ji
m athan
Th aco
ĠIndustr ial
ant as
bu ild
b Ã³p
ng Ãłn
Äĳ Æ¡
ĠSoth eby
Sal ah
ĠL ÃĿ
ĠS ess
5 31
ĠT eng
Ġo zone
Ġ70 5
o Ã³c
r ar
or ie
Ġl ife
ĠT áº±ng
ĠY ur
H áº¡m
ĠP wC
Ġsá» Ŀn
ĠMarqu inhos
ĠCor vette
ĠPor ter
ĠB Æ°ng
ĠA in
Ch Ã¡n
ĠV á»įt
esp eare
Ġth Å©ng
ĠKy u
ĠAD MM
N ÄĲT
Ġm áº¥p
ĠT atar
ĠInter Continental
ĠTV C
C ab
âĢĿ, âĢ¦
Ġ48 4
U Ã´ng
ĠFries land
® U
ĠC un
ĠE t
ĠSer gi
77 2
D ong
78 1
ĠLlor ente
ĠD oraemon
hi c
Ġf andom
c hÃ³
ĠO dys
Ġtá»¥ m
ass urance
ĠTV TU
. ).
5 64
ĠS eg
95 6
Ġ69 1
Ġg áº¡n
ĠC MT
ĠE T
ĠE ibar
Ġ58 9
ĠOb amacare
tu oi
ĠTCC T
m ag
Chá» «ng
ĠKhá» Ń
I ON
st a
ĠMo ussa
ĠRai der
ĠBu ilding
ĠVar iety
98 2
59 3
R yan
Ã ķ
ĠM AS
ank e
ĠCu omo
ots wana
65 7
ĠAx el
ab uri
Ġng á»Ļp
Kh Ã¡ng
ĠU sh
ĠHut ch
ik tas
he in
V á»īa
b ac
ĠManag er
áº¢ M
Ġf ood
ĠKimm ich
ĠTá» ¥c
5 39
Ġn á»ĭu
J an
70 9
ĠChil well
Amer ican
ĠT ec
Hot girl
6 13
Ġb áºµm
Ġ5 49
5 21
7 66
ĠC TS
ĠL DL
6 38
ĠN BB
ĠJ usta
%. /.
Ġ49 3
ĠKam al
ĠDal at
ĠGian ni
K iá»ĩn
ĠG ak
ĠC e
ĠP á»Ŀ
ĠD BS
ĠÄĲH SP
Ġm Ãµ
ĠQu inn
58 9
ĠRob o
Ġ57 1
ĠNg oc
ĠGI áº¢I
ĠTym oshenko
ĠSa ad
ĠCon ference
KTT V
ric ia
75 8
5 43
ĠBL GÄĲ
ĠTorn ado
ĠX Z
CS IS
gi Æ°á»Ŀng
fl are
ĠV Ã´i
68 2
ĠCarl sberg
Bong da
Ġtr Ã¡p
ĠTS KH
8 29
NV CC
As us
ĠLil ly
7 33
Ġd á»ķi
ĠMil os
ĠD LG
Ġbe auty
ĠPag ani
88 4
oc al
M usic
P D
nh Ã¡
is try
ĠSP D
ĠS Äĥn
ĠI CO
ĠKar ate
G s
H ow
ĠCl ay
ĠTheer athon
ĠV and
ĠCarr ie
39 1
Ġxá»ķ m
B Æ°u
ĠTá» ¥y
67 4
ĠFr aser
ĠcÅ© n
th áº¥y
ig lycer
ĠRot terdam
4 21
ĠT ier
ĠÄĲ D
ĠTH áº¾
en ing
tr Äĥm
ĠSe ul
ĠB astian
ĠBrand on
ĠN emo
ĠNag oya
ĠVF S
vez da
ĠScol ari
ĠPC X
s im
L ang
Ġ Ã£
Ġb áº¥c
Ġ5 27
ym astic
88 7
ĠHo Ã¡n
ĠKh iá»ĥn
ĠHam ad
57 2
ĠBel grade
y ot
ĠC andy
77 3
ĠTM Z
7 28
R Ã¹ng
ĠBuffalo es
w est
ĠRe id
ĠSh eng
ut inho
ĠDef ence
ĠOsen i
5 69
9 22
d Ã¢y
ĠMo ura
ĠKar n
ĠRock et
ĠTong a
bo und
5 19
ĠN ever
ĠPo tro
j om
ĠU RC
ĠCh ow
lo y
ĠNor odom
Ġblue chips
h ur
Ġ0 43
Ġ21 00
ĠBr enn
ĠOl ga
ĠSiso ulith
ĠVi va
ĠP ull
5 34
B Ã¹ng
t Æ°á»£ng
65 2
0 41
f arm
Ġ6 28
ac ia
Ġ58 6
s Ãºng
79 4
Ġorgan ic
E SA
ĠV et
m uá»ĳi
chá» ¯
ĠSe in
65 4
RO M
ĠTour ism
ĠKL F
Ġj udo
6 29
n iá»ģm
Ġmá» įn
ĠvÃ© o
75 7
65 9
ĠDynam o
ĠS OM
ĠE BD
ĠLan cer
ph áº¡m
ĠPriv ate
Ġproduc er
E I
l ive
Ġp ower
gi áº£ng
hÃ ´m
ĠL ines
ĠK ass
ĠQu Ã©t
ĠPar am
69 4
ĠYas uk
Ġ19 17
ĠAt kinson
ĠSte p
Bo ost
TH U
Ġmark et
ĠAnaly tics
ĠAd dress
58 2
Tu á»ĩ
ĠAd v
kh ung
6 27
v á»ĩ
r á»ĳc
ern a
ĠGran it
ĠSqua d
ess age
ĠWe instein
ĠAn war
ĠGP Bank
8 13
D ep
ĠG Ãµ
r áº¯k
ĠS Ã¡p
ĠCh eol
enz a
ĠXS MB
Ġd ello
XH TT
ĠL allana
ĠE y
ak ashvili
58 3
ĠKid o
9 38
l Ã©p
ĠW ushu
ĠNH A
ĠAlex a
Ġ59 2
ĠPap er
há» ĵng
ang o
ĠU SN
ĠBle us
Ġ19 34
BH TN
ĠGall ardo
Thá» į
ot ech
Rich ard
5 63
Ġho áº¯c
6 37
9 88
ĠV ega
ĠÄĳá»ĭ u
up co
h and
7 17
E ng
Ġnh áº»m
ĠCar les
á»£ c
ĠOs set
78 2
Ġmel anin
Ġx áº¹t
ĠThong loun
7 12
y at
ĠGi z
ram bler
Pier re
y Ãªn
S i
c en
ng Æ°á»£c
ĠH SDT
ĠÄĳ Ãªn
L iá»ģu
Ġtr áº¡c
ĠM ona
Ġ14 40
ĠCor rea
UP CoM
Ġ5 14
ĠRu á»ĵi
PA Y
ut on
ĠNo ong
ĠAl aves
ĠWhit more
ĠC ed
ĠX áº©m
G am
car az
h el
r ico
s port
ĠPhá» ī
ÃĶ N
ĠÂ «
ĠLin ux
ĠFre edom
G irl
I oT
ĠE douard
ru á»Ļt
M Ã¡ch
S w
ĠTr am
ro ck
ĠDr aghi
Ġ5 36
ĠAx it
77 1
Serg io
L ÃĬ
ĠK OL
Ġch au
Ġ19 27
8 18
ĠPr att
ĠI ND
26 43
k ÃŃnh
Ġ75 5
ĠMin ne
ĠGS X
ĠN olan
ac on
ĠGT ÄĲB
l Ä©nh
Ġ7 75
ĠF est
ev e
ĠV áº¯ng
ĠMer tes
ĠTai wan
Ġhu Ã½ch
ĠHá»¢ P
R olls
r á»Ļng
ĠK etamine
80 6
ĠTRá» °C
Ġmel atonin
c lip
80 9
Ġdr iver
7 46
s Æ°
? ).
U M
EP S
Ì £
tr ans
ĠNhÃ ¹n
NH TM
Ġth Ãło
th Äĥng
ĠMan n
ĠKy ushu
ĠKh Æ¡i
ĠOsset ia
9 68
V CK
Th ung
und i
6 48
M á»Ļ
Ġtur bo
ip ro
ĠAr mani
ob a
se gg
N CT
Ġ8 85
A udio
V FA
Ġ19 25
ĠCom an
Cal ifornia
ĠMogh erini
ĠT Ãļ
ĠD ew
M Ã£n
u j
ĠSam ir
ĠT elles
il ov
ĠCr es
ĠMat eo
k ÃŃn
ast ar
M BS
Ph iáº¿u
ĠPatt aya
ĠFe ed
Ġdig ital
Y S
M ail
h iá»ĥu
x Ã´ng
ĠR enzi
áº¾ ch
Ġ6 26
ĠHá» Ŀ
ĠMertes acker
ĠUn it
59 2
Ġ9 17
Ġnghá»ī m
s á»Ľm
ĠVP HC
ond ers
ĠCar ab
Ġ0 28
ĠAgu il
Ġvi rÃºt
ĠBun mathan
XS MB
Ġr etro
ĠP TT
ĠCh Æ¡
ĠScud etto
Ġr á»įc
ĠS Ã²
ĠS ushi
us o
ĠTH áº¢O
Ho áº£ng
ĠSal a
ĠLau n
S Ã¢u
ĠKr iten
ĠCraw ford
l ot
Ġ57 2
ĠL ÃĤM
ĠF ARC
58 1
esl av
ĠBian fishco
T ASS
Ġl ear
ĠN antes
ĠX Ã¢m
ez ia
Th ao
ĠMax well
ĠKhÃ³ c
Ġkh áº£nh
ĠTrao re
ĠSilv io
Ġh ong
ĠDj ibouti
ĠGun ners
Ġitem s
Sev illa
ĠV Ã³c
ĠCu á»Ļi
9 48
ĠR ott
ng áº§u
ĠM ie
Ġ6 18
ĠW ear
ĠC TC
ob el
Ġthá» įc
enig segg
c ell
m Ã¹
man ia
Ġrem ake
S Ãºp
S cript
ĠX avier
ĠOrgan ic
ĠRe ports
85 9
was upco
f all
ĠC inc
Tr á»¥c
at it
ĠTHá» ¦
ai de
ĠErnest o
Kl opp
d Æ°
ĠA IIB
Ġ8 000
ĠLad akh
ĠV á»ĭt
ĠAn bar
ÃĲ á»ĥ
Ġb Ãµ
app hire
ĠHO A
8 43
k at
Ġpro ject
ĠMach ine
ĠGriff ith
Ġ(!? ).
ĠPay ne
ĠBened ict
5 42
ĠM PC
san ne
VD SC
l ar
thÃ ºc
8 22
85 3
ĠAdren o
R en
b ard
ĠSass uolo
Ġn áº©y
it ano
tr and
ev ic
85 6
ĠMu á»Ļi
ĠPetr ovic
Ġ5 34
Ġ6 23
55 4
5 41
ĠG Q
ĠCort ex
ĠYel low
âĢ¦ âĢĿ-
ĠDong ABank
ĠD idi
n eo
ĠSher man
Os car
ĠAmbros io
8 14
ĠL al
ĠSw ee
ĠEs cape
ĠPro duce
ĠNGH Iá»ĨP
Ġ7 12
PM G
ĠKriten brink
b re
ĠF le
B TP
ĠCH ÃĤU
59 7
ĠKo ulibaly
ĠDream liner
c ade
p g
ĠBl augrana
ĠKon o
66 4
8 72
8 61
ad es
Ġi Mac
ĠDh aka
ĠRup ert
ansom ware
Ġb et
ĠÄĲ MST
ĠSc ient
El ly
Ġ9 68
ĠE z
I r
ĠN Æ¡
ĠAless andro
L Ã£ng
X á»ķ
ĠGl enn
ĠGar ner
ĠA MC
un ch
Ġrá» ©a
98 4
ĠFr esh
ĠPhel ps
há» ¥t
hing ya
ĠV IDEO
Ġel ec
ĠDA X
H L
V SD
Ġt el
ĠB att
ĠFranc es
ĠNest le
Mar tin
ĠDVC TT
nh Æ°á»Ŀng
Ġtr Ã¹n
ĠH AN
ĠV Ã²m
th Ã¡o
Ġw orkshop
ch lor
ĠKey lor
1100 2643
ek king
Ġláº¹ m
Ġ0 16
ĠF is
ĠE il
ĠAttr age
11002643 148
ĠB otswana
ĠhÃ£ o
Z Y
ĠP im
ĠGD MN
Ġd eal
Gi Ãłn
b Ã¡u
j as
8 77
K ai
ÄĲ Ã²n
ĠAn on
Ġtá»ħ nh
Ġam oniac
vir onment
Ho Ã£n
ĠLov ren
6 44
ĠD CM
ĠTO W
ĠThá» Ŀ
ĠCh ron
ĠA CM
S top
Ġs áºŃy
ĠPar ma
ĠLu z
ĠSp art
ashi r
ĠHan wha
Mob iFone
ĠB Ã¬
D ay
7 36
8 67
Ġv áº±ng
ĠM itr
ĠArt uro
g ether
tr Ã³i
ĠCN QSDÄĲ
Ġv v
ĠE ar
C rystal
le en
ĠAur ora
v Ã²i
ĠQu Ãªn
Ġ7 27
B log
Ġváº» o
âĢĻ ).
ond e
ĠSic ily
Ġb asa
ill us
ĠFO B
ar ie
ĠGh osn
ĠSu le
ĠPS SI
O OC
ĠÄĳÃ³ t
ĠJ LL
ĠPan mun
LHP N
n Ãºp
ĠK ick
ĠNghÃ ¨n
d ich
Ġph áº¥p
ĠM aine
ĠEurope an
ang er
.. ...
7 98
CC P
Ġv áº¥y
ĠS armat
ĠKS V
ĠCher yl
S CB
Y ang
n n
ĠÄĲ áºłT
ĠBN EWS
ĠPhot oshop
ĠBold sky
v re
80 1
ĠGand hi
E PA
ĠH MD
ĠÄĲo Ã¡n
ĠKey s
ĠV iÃªt
ĠÃĲ Ãł
Ġ ....
ĠWell ington
ĠP uma
Ġb ida
19 40
ĠE tern
ĠDep ot
M á
W il
Ġ80 8
ĠUp CoM
L in
nh á»Ľ
ine jad
ĠLenn on
ĠRo hingya
Má »
l iá»ĩu
Ġ6 13
way ne
qui rer
ĠC CV
áº¹ m
w ings
8 11
r Ãło
ĠE XP
GT GT
ĠS leep
ĠK ra
ĠVi eira
85 7
57 3
ĠÄĲ eo
ĠLinked In
and an
antan amo
Ġrá»ĩ u
Ġp art
ĠNH ÃĢ
8 44
Ġ6 48
ĠDN BH
chá» ¥c
ien s
ĠShi p
S pe
S XD
ĠK R
Ġ8 25
59 1
á»Ŀ ng
6 21
le an
ĠRock er
Ã «
ĠSil at
ID A
ĠCÄĲ M
ĠH enn
ĠVia gra
ĠT áº©y
ĠBV CC
70 6
ĠOptim us
ĠH áº¥p
ĠRod ri
fi q
6 46
ĠGib son
s á»¯a
Ġhydro gen
Ġhe ad
ĠGib bs
ĠFriend s
ĠF ight
ĠthÃº y
Gar eth
ĠG TC
rah man
7 18
ĠN á»ĵng
6 98
ĠN TT
90 2
eno ord
5 46
ĠD GC
ĠG NA
Ġ7 69
ok i
ĠBeng hazi
ĠS Ã¡c
Ġngá» Ĺ
ĠPic asso
8 16
j ae
Ġr eb
ĠL uá»Ļc
Ġsá» §
ĠPal mer
ĠB utter
ch áºŃu
ĠS uchin
67 1
l ook
ĠT ax
ĠRup ee
Ġ67 2
9 21
Yo ung
ĠB VN
ĠB PC
ĠU ly
ĠW WF
ĠTN R
Ġxu Ãª
ĠSa akashvili
ĠR uiz
B á»¥i
S oc
b á»Łi
r ine
ch ina
ĠGÄĲ KT
ĠTB KTSG
ĠV ad
kh Äĥm
ans ai
ĠSai f
ĠSha qiri
7 48
m Æ¡
ĠSt all
ĠSch umer
ĠLo ch
ĠWanna Cry
ĠB ase
ĠA LC
ĠZ i
ĠUl san
rÃ´ in
Ġch iá»ĥu
ĠS Ãł
ĠFren kie
V ir
âĢ Ķ
A DIZ
Ġph Æ¡
ĠW C
IA C
ĠCamb odia
8 21
há» ĳt
ĠR Ã¨n
ĠPH ÃģP
ĠB áº®C
Ġtu áº¥n
ĠMinne apolis
Ġb est
Ġkh Äĥm
ĠNem tsov
ĠR overs
ĠCollec tion
Ġ56 9
8 36
59 6
ĠCarn aval
ĠP CB
ĠD U
ĠG ui
ĠPin to
ĠDT QG
89 6
Äĳá» ©t
t Ã©
ĠGi ovanni
ĠBark ley
ff er
ĠÄĲ G
ĠPed ri
c á»ı
k Ã¨m
Ġh uyá»ħn
tr ÃŃ
ro y
S at
ĠF T
ĠCat fish
6 43
Ġ80 5
IS E
ĠNhá» ©t
95 4
Æ¯ A
ĠHy att
Ġ55 7
Ġ57 6
ĠNV IDIA
o xy
s áº¯p
ĠÄĳ áº·ng
Ġ49 7
ĠV alladolid
ĠIt o
Ġad min
6 32
B Äĥn
ĠCommun ity
c ut
Ã Ĺ
ĠÄĳ Ä©nh
ĠthÃ ¢
vert ible
ĠBo om
Mar ia
6 23
7 49
ĠLL TP
8 37
ĠAc id
Ġ6 88
Ġcá»Ļ p
99 1
x en
qu áºŃy
PhÃ ©p
ĠGu antanamo
its ch
aty usha
ĠCh ain
ĠZ al
ĠGu ide
Ġhu á»ģ
K YC
ĠVietJet Air
ĠOb lak
ĠID F
ĠMaster card
c hÃ³ng
th Æ¡
Ġl ist
Ġm idi
ĠP MU
ĠK and
L ab
9 36
it our
77 4
8 69
k iÃªn
ÃĶ n
ĠCham berlain
Ġc rom
ĠL Ã©
us an
P ac
axo phone
ĠHos sein
ĠGo ethe
ĠAlm az
u co
Ġd Ãµng
ĠX Ã´i
ĠMH B
ĠNou vo
Ġ00 11002643148
Q uyÃªn
g Ã´
ĠMa ha
er es
Ġ70 1
ĠhÆ¡ p
av ong
thá» Ł
hÃ ¢m
or ial
ĠASIA N
ĠMill enn
Ġkil omet
ĠG ogh
inn ati
g ot
ĠR ight
iv ka
ĠBa h
Ġco up
68 4
Ġform aldehyde
Ġleg ging
ÄĲ eo
Äĳ áº¿
ĠH uá»ĳng
C p
D es
ĠQu en
ĠMoh d
ĠY ass
ĠS ue
D iva
ĠD ÃŃ
Ġbu á»Ļt
VN O
ĠVang a
nab ry
X uá»ĳng
ģ nh
Ġm al
Ġn m
ĠV og
Ġá»¨ c
I OC
c á»Ļt
ĠcÃ ¹a
ak ing
old ings
C en
L az
ĠD MC
ol ot
ĠAsh raf
A K
ħ nh
ĠP Ãº
ĠR áº¯c
ĠSon ic
ĠTr á»ĳn
ĠVND IRECT
Geor ge
Ġh áºŃp
ĠB F
tr inh
ĠÃĲ á»ĭnh
dul ich
ĠJohannes burg
B K
¤ P
T á»ĳng
85 1
ĠB attle
7 64
ĠK itch
6 41
Ġt Ã©c
Vin alines
ĠD anc
ĠX abi
85 4
ĠV OA
ĠL Iá»ĨU
ĠTV QH
ĠFl ight
ĠJoa quin
ĠSalis bury
9 32
ĠTHá» ¨C
ĠLeg acy
P CTN
lip op
ĠSel f
Ġtr y
ĠM ON
ĠmÆ¡ ÃŃ
80 7
ÄĲ á»ĭch
70 3
ĠCH DC
ĠIr ma
els mann
ĠS EC
ĠTr uman
ĠHar poon
ĠDow ney
B LV
ĠÄĲ TTP
ĠO c
Ġst icker
ĠGot ze
V SA
ĠM um
ĠSt inger
ĠBel le
ĠF L
ĠNik on
r á»ĳi
Ġ Ã©m
ĠM á»ĵ
hÃ ²n
Ġcho áº¡c
ĠTh áº¥p
ĠAct iv
T áº¯t
s oo
ĠM ine
Ġfran c
Ġ55 4
B ul
ĠMac an
ĠDown ing
ĠShak espeare
Tru idense
N á»ĵi
eh r
ĠKrug er
Ķ NG
ĠK ag
ĠChá» ©a
ĠHá» ®U
h om
ĠP HONG
ĠG GHB
ĠDr ag
ig ne
ann on
ĠGL E
ĠPh iá»ĩt
Ġl Ã©t
ĠS áº¯n
ĠS YM
jan ic
99 3
il ey
ĠSa e
ym ous
ĠYam aguchi
ĠArn ault
indh oven
ĠChá» Ľ
ĠViet bank
G et
Ġr am
em ail
CC HC
ad am
Ġr Ãºc
Äĳ ua
ĠMon ter
m á»Ľ
ĠSal im
Ġ6 29
ĠTransfer markt
ch ao
ĠS INH
er p
88 3
ĠJack ie
SM E
ĠDynam ics
ĠKw ak
ĠCir cle
H az
ĠV icky
se ca
ĠPrinc es
Ġpod cast
7 34
id ad
Qu en
ĠÄĳ ung
um ar
Dá»± ng
Ġac ry
onex port
19 29
8 49
s n
tr á»įc
99 7
65 1
66 3
ĠN E
ĠP is
ĠDr ian
T á»¥c
or ity
ĠCar ney
ĠKir in
8 42
ov ax
há» ¯u
ĠK ant
ÄĲ BP
80 3
C á»§a
ĠT ir
ĠTo w
ĠT ell
ĠCr ew
John ny
V á»¯ng
B á»ĳc
ĠH Y
ĠG azz
ĠFore ver
ĠPung gye
l ich
s Ã¡ch
ĠIll ustr
ĠOdys sey
ĠS ave
8 78
Ġráº» o
Je ff
B aby
l atoxin
ĠCam illa
ĠK ute
Äĳ d
st ay
AR M
B ab
9 39
D Æ°á»¡ng
ĠG ag
ĠGi Ãłn
Äĳ eo
ĠVÃŃ a
D á»¥ng
S Æ°Æ¡ng
ĠS v
ĠBank s
SK ÄĲS
R B
U ni
ĠCol eman
ĠMet al
ĠClau de
cos mos
ebr aska
ĠFren ch
Ġ49 4
ĠErn st
ĠD DR
90 7
ĠSal es
ĠVerma elen
9 79
ĠCP C
á»Ĳ I
ĠRep orter
M Ãºa
S AT
hÃ ´n
ĠT ac
ĠTR A
8 24
Ġ5 31
Ġ5 29
ĠE indhoven
Ġ80 1
M á»¥n
t oi
ĠPol icy
C F
ĠLLVT ND
ĠT ivi
ĠB áº¥m
ĠO PCW
Ġro ad
ĠMiss ion
ĠSoc iety
ĠL ori
Ġ9 19
our ces
obor onexport
Ġn inja
h Ãłi
id is
ov ka
ĠSam i
ĠRag lai
Ng áºŃp
ĠLu ca
ell ar
ĠPG Bank
uf act
H áº¥p
N ig
aw att
BL HS
? )
Ġ econ
Ġ9 35
6 47
ĠÄĲ áº¯p
u h
ĠD ua
nghÃ ¨o
ĠS Ã³t
75 4
THA NH
9 77
J on
ĠTM DV
Ġan th
ĠJ F
t Ã¡o
ini que
ĠLeon id
ĠVa j
ĠTr izzie
ĠK ÃŃp
Ġox it
6 31
Ġ9 23
B Æ¡i
L og
Ġ7 35
om ics
ĠPhone Arena
Ġfac elift
Ġchá» įt
ĠQ ing
Th áº¥m
TM T
ĠCorn ell
B ev
ĠAud rey
ĠÃĲ B
Ġ49 1
ĠMusta fa
9 64
Ġkhá» ±ng
Ġ19 18
ĠTripp ier
K II
Ġs Ã£i
Äĳ áº£ng
Ġ05 2
EC ON
PM I
le cht
ĠFranc esco
ĠD oo
gi eo
L uyá»ĩn
v ath
ĠM ÃĢN
7 38
ĠAl icia
Ġac et
t ure
Ġláº½ n
t á»ĳng
ĠFlow er
Ġd áº¡c
Ġ56 4
ĠPenn y
95 1
ĠFor um
ĠRá» ©a
ÄĲHÄĲ CÄĲ
ĠÄĲV HC
Ġtr Ã¡c
ĠD RC
ĠI f
ĠPr ig
70 1
ĠFA A
Z F
Tr eo
Inf ographic
ĠN ah
ĠP ont
ĠD áºŃt
ud in
ĠWins ton
ĠD ial
ĠYasuk uni
x uyÃªn
ĠÄĳ áº«n
ĠMar a
h iáº¿p
ĠMon tpellier
PT V
ĠLa h
gi Ãłu
ĠGod zilla
8 98
Ġb Ãºng
Ġh er
Ġá» Ŀ
ĠNar u
s á»©
Ġphá» Ľ
ĠF ang
ĠFed Ex
T iá»ĩn
Ġ6 67
9 29
Ġl Ãºi
ĠhÃ´ á»ĭ
7 31
ĠB ebe
is mo
nh áº§m
ĠHK VN
abal eta
r em
ĠM á»³
ĠNh im
ĠSw itch
Ġg uá»Ļc
ĠLog o
Y PG
PV F
ĠD as
Tr iáº¿t
chu á»ĵng
ĠCit i
Ġcoc ain
A TVS
ash tra
ĠMich ele
Ġdanc er
y eol
oz hin
ĠKl aus
khÃ ¹ng
ĠL ada
ĠZ ac
ĠHam mond
79 6
ĠDr ew
Ġsup port
ĠH B
Ġlo ok
ĠSe ag
ĠâĢ¦ .
T áº¯c
h Æ°á»Łng
9 17
c il
Ġd iÃªu
Ġp o
Ġr eg
ĠJ AS
As ian
W ang
t et
Ġ57 3
Ġ60 8
v irus
am ar
TH K
ĠCinc innati
ĠX áº£
as ek
qu áº£ng
ngh iá»ĩp
ĠMan or
ry n
ĠDra x
uct ose
ĠPred ator
Ġs axophone
Ġnháº£ u
ĠR ace
8 27
8 39
ĠComp et
ĠKer ala
9 49
P a
q q
ĠW ick
ĠRe c
Ġphá»¥ t
ya ch
ĠShi r
BKH CN
f ighter
Ġx á»ĭ
Kh Äĥn
lor amin
oglob in
E quipe
ĠW itch
ĠSam ar
ĠFon seca
ĠM áº§u
tr Ã¢u
art z
ĠThu á»Ł
ĠKim ber
ff ic
jar at
ĠPhÃ ´
ĠNat asha
ĠAllian ce
7 11
n ell
ĠW I
TH ADS
Ġsec ond
r áº¯n
Ġs áº¿u
ĠM iá»ĩng
ĠS ato
ĠHak imi
Ġ }
ÄĲá» ¨C
9 18
áº °
ĠNai robi
ĠRos ie
8 34
e an
ĠN LD
ĠB ui
OS AI
ĠThay er
Val encia
g ay
Ġph osph
ĠTh iet
ĠI CA
ĠKan agawa
ĠC áº¯m
up ta
yl ene
69 3
ĠCap ita
ĠGP XD
ĠDun can
ens is
est yle
mu da
fri end
Ġ7 67
wi jk
r oo
ĠC agliari
Ġ6 39
ES S
ĠDH L
h iáº¿n
Ġt iá»ĩp
90 6
w alt
ĠLu á»ĵng
ĠAr row
ĠM im
tr um
ĠDK RA
Ġr Ã³c
ĠDirect ion
ĠÄĲO ÃĢN
ĠP iet
ĠAl caraz
ĠJac inda
8 32
Ġs apphire
ĠC Æ°u
Ġnhá» ¥t
Ġblu etooth
c alo
Ġx ang
tr iá»ĥn
ĠBrid g
ĠRichard s
ĠZo uma
K CX
ĠBarclay s
8 62
qu áº©y
ĠCard i
Ġtom boy
ĠK et
ĠSed ona
H Æ¡i
Ġnh áº·ng
ĠPe ace
ĠDá» ©a
ĠOrig i
nh áº¥n
in sky
ĠAnd riy
bat ov
Ġjack et
ChÃ ©m
Ġgh iá»ģn
Ġbal Ã´
ĠRashi d
ĠEx tr
9 24
Ġv ote
ĠK ut
90 3
ĠMD MA
G IA
Ġmá» Ľn
ĠR PG
ĠRos en
kel ey
S áº§u
Ġt ong
ĠS TO
ĠDo dge
ÄĲá» ¥ng
ĠBurn s
9 71
ĠAn ti
ĠDo uble
Ġr á»ĭn
ĠR Ã©
ĠW ander
ite ch
Alex ander
ĠK áº¹o
X p
Ġph ang
ĠLag er
7 62
ĠSing er
ĠRe z
ĠK PMG
ech an
fit el
ĠK á»²
ig ale
!! !!
ĠTh atcher
ĠAn s
9 34
Ġngo áº¡c
ĠY er
ey a
9 43
et i
Ġrock er
Ġsai d
g ari
Q A
9 14
A NTQ
ĠÃĲ Ã¬nh
9 76
Ġv anh
Ġtr Ä©nh
ak orn
9 42
K i
r al
t ap
ic le
ĠRe f
ĠArtem is
ĠMy TV
ĠGreg ory
C Ã²
ĠM ecca
ĠA ke
ph os
ĠVal entina
g re
Ġchá» į
ĠChá» ©t
Ġ9 21
Do Ã£n
ĠLU áº¬T
Ġr Ã¡i
' -
ika a
± t
te p
nho use
ĠFol ey
Ġ ]
dem ont
ĠM s
ro ugh
Ġf ace
69 7
ao li
ĠJ ed
ĠLor enz
9 12
K rist
ĠSh ia
Ġsandal s
ĠHis ham
ĠCÄĲ VN
ĠHe avy
ĠPerf ect
ĠB ose
hi ko
ĠBroad way
ĠOsp ina
ĠM ED
8 73
p ect
Ġk aki
Ġm Ã¨n
ch io
ĠSport age
ĠM aver
ĠTh eron
X ong
ĠD áº¡ng
ĠR AV
Ġ9 000
ĠDal ey
ĠRe eves
Ġ9 95
7 32
or row
ĠTao bao
O DA
Äĥ t
ĠP encak
Cafe Land
S Ã¢m
8 17
x inh
Ġ7 45
ub l
u idi
ĠÄĳá» ıng
................ ................
ĠTr Ãºng
L P
ĠEco Boost
Ġl áº¥t
Ġk ip
S YT
ĠUn ic
ĠH uyáº¿n
ĠCo en
Ġnh ao
ia k
lah ovic
ph or
caf ef
Ġs Ã©m
ĠB áº©y
ĠL á»±
ĠP IN
ĠCo up
K TN
ie f
ĠNan oc
Ġr áº¯t
ĠM IC
ub in
ĠBut ler
ĠRo ja
ĠMc Queen
ĠMb ps
K iev
T á»ĵn
x ing
onn aise
ĠU I
ĠE PL
TT G
C ienco
l Ã£ng
qu er
Ġxo áº¡c
ĠNL TT
Wal ter
ĠFig aro
ĠMcKin sey
zyn ski
S ex
Ġtr ui
9 37
70 2
Thu á»Ł
ĠSchneider lin
ĠPuig demont
95 3
ĠBol lywood
7 21
7 42
S tylist
w aco
ĠRh ymastic
ĠH Ã¡
Tá» ıa
gi os
Ġpro g
h Ã¡i
ĠN Æ¯á»ļC
az za
Ġba zan
Chá» Ł
ĠMo ya
89 2
z hi
ÄĲT O
Ġ67 3
ĠSL S
89 1
R og
l á»ĳi
Ġf ake
hn y
c á»Ń
w ear
ĠT hÃŃnh
ad os
9 47
ĠS áº»
eg ger
ĠAnast asia
C II
D en
il er
ĠAR T
ĠWhe el
ML M
8 79
ÄĲ un
NH CR
ĠKaw in
ĠSá» °
IDI FI
C ÃĶNG
S F
ĠS ook
ĠRad amel
ĠCarr era
b áº§y
ĠPrig ozhin
Ġ64 1
Ġdep ot
ĠKh uá»ķi
ĠUp ton
YouT ube
x ung
berl ake
ĠMahar ashtra
Ġnh Ã´ng
fe ed
ÄĲ A
ĠPr ov
ĠMin ut
ĠPat ricia
ĠMH z
Mil ey
Ġb áº½n
at is
Ġ57 4
aba ab
ĠG nabry
19 52
ĠChurch ill
ĠPanmun jom
M otor
r il
Ġngo áº¯t
Ġbá»Ŀ m
i j
ĠTr ack
ĠBá» Ĭ
tr á»©ng
ĠBes iktas
9 23
9 73
ĠN ieto
ĠM ell
ĠCA N
Ġ65 2
ĠRah ul
8 76
ĠMac ao
Ġson ar
ĠBer muda
ĠRá» Ľ
9 67
giá» įt
57 4
k un
n á»ĵi
ĠMc Master
ĠJeon buk
D K
Ġ6 95
m Ã¡
ĠT TV
Ġ9 75
c assurance
Ph u
ĠXD CB
Bang kok
ng áº¡i
ĠB áº®T
Ġup date
Ġchá» ķ
ĠK Ã´
ĠIn tr
qu Ãł
Ġqu áº³ng
Ġ9 98
ap ak
Ġg á»Ł
ĠJo hor
ĠT ie
tr Ã´ng
ĠSh are
SA A
em ic
D Ã¢m
ich ok
ara j
IM O
UYá»Ĩ N
9 16
k ol
t ica
ĠN ebraska
8 63
ĠTr ident
ĠPhÃ ©p
le ar
Ġcal ci
ĠCh ak
Ġ8 75
ĠÄĳu á»£c
Ġton er
Ġmac OS
-- -
ĠGrab Taxi
cas us
6 49
ng á»ĳn
Ġ ey
ĠG enn
ĠQu at
Ġ9 39
D iÃªn
ĠthÆ¡ Ã¬
weir eld
b áºŃc
Ġ59 4
ĠKit Ã´
ĠFore ign
Ġkh Ã¡o
ĠQ as
ĠFin al
ĠMits ui
d ad
hÃ ´i
ĠN TP
ĠPh áºŃn
ĠMon chengladbach
ĠMur doch
Ãĵ M
ĠKh iáº¿n
ĠEd ison
ĠB áº§y
ĠPer se
Tr Ãºng
eb ay
ĠChinh phu
ĠL AS
ĠPrinc eton
ĠFi in
8 19
ĠTr ev
ĠNV X
et el
KH CN
ĠÃĲ á»ĳi
KhÃ³ c
r Ãµ
y er
ĠRat ings
Ġx Ãºy
ĠTrans erco
ĠV AS
ua tu
ien ces
burg er
ĠUl tim
Ġban ner
ad ole
V IN
ÄĲ oan
er ald
Ch iáº¿u
ĠTim berlake
9 46
TN TT
Ġn iken
ĠVietnam Finance
? ;
an na
ĠZ abaleta
ĠPhom vi
z ar
Ġx um
ĠN TTS
ĠÄĲ TV
Ġrá» ¥m
ĠFront ier
B amboo
Ġtr áºŃp
ĠS ven
âĢĻ :
ĠthÃ³ a
ĠNag elsmann
ĠLyn n
76 1
r ao
ÄĲ áº¯c
tr uyen
ĠF lo
Ġmáº¹ t
ĠTown send
ĠB E
ĠE CO
ĠBer trand
89 7
ĠVas ily
VN R
ĠMal ibu
BNN PTNT
ĠHo st
95 7
ĠHal ep
im oto
ĠResort s
v ung
ĠLind sey
D áº£i
ĠV ac
ĠChÃ ¬
ĠP egas
it te
ob acter
d ap
Ġb Ã²ng
ĠCip utra
6 77
ĠCh ur
ĠBent eke
ĠCiv il
BKH ÄĲT
DL L
Ļ p
ĠNic ol
O K
ĠCh es
Ġ6 19
Ġ7 85
te e
ĠBer batov
ĠHist ory
t áº¿
ff iti
ĠTam my
Brit ney
ĠHan el
' );
m ont
han oi
ĠVI TM
ĠPan igale
tim ore
C AR
Ġp rop
Ġ9 37
ĠMar ino
ĠRay o
mp ho
ĠVIETNAM NET
ĠLar son
ĠCol d
ĠSc r
ĠTom ato
ÄĲ ÃĢ
ĠRam on
Ġ5 46
Ġ6 17
R á»§
ĠH af
ĠMel ia
Ġz ero
ĠHuay ra
ĠPh Äĥng
ĠKar ab
ĠCOP D
Äĳ áºŃu
Ġ65 4
ĠJ eb
Gi Ã¡p
gi oi
FA A
ĠSai d
ĠThunderb olt
ĠC áº¤P
Ġ54 1
ĠAk bar
do g
ĠBar ron
ĠVietnam ese
UB G
d á»«ng
ĠD ot
if lu
ĠAd mir
ĠHun ting
ĠBud d
9 13
Ġ7 41
ĠCrist ina
Ġtr áº½n
ĠTr Ã´i
ĠS PC
áº¶ NG
ĠMat rix
ĠCommunic ations
Vinac onex
Ġ5 47
ĠPos co
T ak
art ney
ver se
ĠRuss el
C Ãºc
b Ãºt
! ...
T ia
ĠS Ã¡i
ĠAf ter
ĠStar link
ĠOd d
ÄĲ á»ĵi
ĠNews flare
Ġ ure
ĠS KSS
ĠW eg
Ġdes ktop
ĠK Ã©p
ĠRobot ics
W orks
Ġ8 21
ĠNG O
ĠTur an
tha ek
ĠAd nan
Iáº¾ T
ĠZelen skiy
Ġt er
An thony
Mas dar
ĠT CL
ĠShow biz
D TBT
ĠÄĲ iÃªn
Ġdo ll
all ery
ĠEl che
oph y
ĠG MC
ĠP LC
ib urg
gu ero
Mob il
ĠC Æł
ĠL Ã¡o
ĠKrasn odar
G hÃ©
Ġ áº¹p
ĠÄĲT XD
ĠSo ur
7 63
ek i
ĠDe ath
b ol
ĠX Ã³t
at ur
ĠBol k
ĠL TT
ĠY ue
Th Ãł
ĠSteph an
ĠT CP
ĠH ew
89 4
ĠThink Pad
Ġs Ã¬
ĠK ens
Ġ56 6
ĠPre c
d á»¯
ĠDu k
Ġv Äĥc
Ġp ic
Ġ8 44
ĠE at
og n
ĠEug ene
98 6
ish u
g á»ĵng
Ġkar ate
9 72
er d
Ġ67 4
K áº¾T
ĠK Ã´n
Ng á»¯
ĠSh ev
ĠAle ksand
ĠHan sen
9 66
po wer
Ho ang
ug in
ĠCl ement
d Æ°Æ¡ng
Äĳ áº³ng
by on
ĠTeer asil
ĠH ÃĢNH
g Ã¡c
Ġtur bine
ĠB har
ĠTh ur
ĠWir eless
9 69
ĠK wan
M á»ķ
te am
ĠN Ã¢m
A rab
ĠN á»ĵi
ĠS Ãºa
Ġtr áº£m
es ol
ĠCS I
ĠRem desivir
ist or
ĠNH S
Ġgam ing
Sm ith
Whi te
Ġt it
ĠL áº«m
ar est
Ġ6 11
ĠSand s
D á»įn
Ġ ot
Ġ7 11
nghi ep
L ÄĲTBXH
ĠBar ak
ĠDer ek
7 39
zz i
L es
Z A
Ġtr iglycer
ĠN AV
ĠMic ron
ĠCom fort
ĠX Ã©n
ĠI E
95 2
ong hen
ĠM assage
ĠG ina
ĠNH TW
ĠM net
ĠConsul ting
R ah
f ran
Ġ6 27
ĠTR ÃĮNH
v ip
ĠS it
ĠPich ai
Ñ ĥ
AS IA
un ter
Ġ8 15
ĠT otti
ĠF TX
John son
ĠD BC
Äĳ á»į
ĠP GD
h áº¥p
y te
Ġvi olon
ĠE arn
ĠSo fitel
Ġgi áº§u
r est
ĠC IC
as is
ĠAdel aide
Haz ard
Ġgi Ã¨m
ro d
ĠFant asy
ĠT MT
Ã¼ r
ĠSlav yansk
C el
ĠI MO
Ġá»į p
r Æ°á»£u
ĠM izu
cl ub
ĠH ern
ĠMar x
?? ?
X Æ°Æ¡ng
ĠP janic
ĠCh ef
99 2
ĠL Ã¨n
ĠR D
ĠKh un
19 42
ĠNo h
ĠElli ott
ĠD HC
ĠJ L
t al
ĠY in
ĠZ uma
ĠNS LÄĲ
Ġnhá»ķ m
ĠLov ato
ĠDr iver
áºª N
S XH
ÄĲV TN
ĠBPC K
l Ãºa
90 1
Khá» ī
ĠJack man
ĠMak o
ĠKV PT
8 71
ĠN iz
Ġ89 6
ĠRain sy
Ġn áº§m
ĠFey enoord
ĠCarab ao
ĠD iá»ĩt
ĠHo o
ĠSh ap
C ode
T Æ°ng
Ġ66 1
ĠCarr ington
ĠAhmad inejad
8 74
Ġch áº¹t
Ġl ight
ĠV os
Ġ7 29
Ġmu á»ĵng
ĠphÃ ¨o
ĠA is
ĠX Ã¹a
Ġto Ã¡ng
[...]
