{
  "version": "1.0",
  "truncation": null,
  "padding": null,
  "added_tokens": [
    {
      "id": 0,
      "content": "<|endoftext|>",
      "single_word": false,
      "lstrip": false,
      "rstrip": false,
      "normalized": false,
      "special": true
    }
  ],
  "normalizer": null,
  "pre_tokenizer": {
    "type": "ByteLevel",
    "add_prefix_space": false,
    "trim_offsets": true,
    "use_regex": true
  },
  "post_processor": {
    "type": "ByteLevel",
    "add_prefix_space": true,
    "trim_offsets": false,
    "use_regex": true
  },
  "decoder": {
    "type": "ByteLevel",
    "add_prefix_space": true,
    "trim_offsets": true,
    "use_regex": true
  },
  "model": {
    "type": "BPE",
    "dropout": null,
    "unk_token": null,
    "continuing_subword_prefix": null,
    "end_of_word_suffix": null,
    "fuse_unk": false,
    "byte_fallback": false,
    "ignore_merges": false,
    "vocab": {
      "<|endoftext|>": 0,
      "!": 1,
      "\"": 2,
      "#": 3,
      "$": 4,
      "%": 5,
      "&": 6,
      "'": 7,
      "(": 8,
      ")": 9,
      "*": 10,
      "+": 11,
      ",": 12,
      "-": 13,
      ".": 14,
      "/": 15,
      "0": 16,
      "1": 17,
      "2": 18,
      "3": 19,
      "4": 20,
      "5": 21,
      "6": 22,
      "7": 23,
      "8": 24,
      "9": 25,
      ":": 26,
      ";": 27,
      "<": 28,
      "=": 29,
      ">": 30,
      "?": 31,
      "@": 32,
      "A": 33,
      "B": 34,
      "C": 35,
      "D": 36,
      "E": 37,
      "F": 38,
      "G": 39,
      "H": 40,
      "I": 41,
      "J": 42,
      "K": 43,
      "L": 44,
      "M": 45,
      "N": 46,
      "O": 47,
      "P": 48,
      "Q": 49,
      "R": 50,
      "S": 51,
      "T": 52,
      "U": 53,
      "V": 54,
      "W": 55,
      "X": 56,
      "Y": 57,
      "Z": 58,
      "[": 59,
      "\\": 60,
      "]": 61,
      "^": 62,
      "_": 63,
      "`": 64,
      "a": 65,
      "b": 66,
      "c": 67,
      "d": 68,
      "e": 69,
      "f": 70,
      "g": 71,
      "h": 72,
      "i": 73,
      "j": 74,
      "k": 75,
      "l": 76,
      "m": 77,
      "n": 78,
      "o": 79,
      "p": 80,
      "q": 81,
      "r": 82,
      "s": 83,
      "t": 84,
      "u": 85,
      "v": 86,
      "w": 87,
      "x": 88,
      "y": 89,
      "z": 90,
      "{": 91,
      "|": 92,
      "}": 93,
      "~": 94,
      "¡": 95,
      "¢": 96,
      "£": 97,
      "¤": 98,
      "¥": 99,
      "¦": 100,
      "§": 101,
      "¨": 102,
      "©": 103,
      "ª": 104,
      "«": 105,
      "¬": 106,
      "®": 107,
      "¯": 108,
      "°": 109,
      "±": 110,
      "²": 111,
      "³": 112,
      "´": 113,
      "µ": 114,
      "¶": 115,
      "·": 116,
      "¸": 117,
      "¹": 118,
      "º": 119,
      "»": 120,
      "¼": 121,
      "½": 122,
      "¾": 123,
      "¿": 124,
      "À": 125,
      "Á": 126,
      "Â": 127,
      "Ã": 128,
      "Ä": 129,
      "Å": 130,
      "Æ": 131,
      "Ç": 132,
      "È": 133,
      "É": 134,
      "Ê": 135,
      "Ë": 136,
      "Ì": 137,
      "Í": 138,
      "Î": 139,
      "Ï": 140,
      "Ð": 141,
      "Ñ": 142,
      "Ò": 143,
      "Ó": 144,
      "Ô": 145,
      "Õ": 146,
      "Ö": 147,
      "×": 148,
      "Ø": 149,
      "Ù": 150,
      "Ú": 151,
      "Û": 152,
      "Ü": 153,
      "Ý": 154,
      "Þ": 155,
      "ß": 156,
      "à": 157,
      "á": 158,
      "â": 159,
      "ã": 160,
      "ä": 161,
      "å": 162,
      "æ": 163,
      "ç": 164,
      "è": 165,
      "é": 166,
      "ê": 167,
      "ë": 168,
      "ì": 169,
      "í": 170,
      "î": 171,
      "ï": 172,
      "ð": 173,
      "ñ": 174,
      "ò": 175,
      "ó": 176,
      "ô": 177,
      "õ": 178,
      "ö": 179,
      "÷": 180,
      "ø": 181,
      "ù": 182,
      "ú": 183,
      "û": 184,
      "ü": 185,
      "ý": 186,
      "þ": 187,
      "ÿ": 188,
      "Ā": 189,
      "ā": 190,
      "Ă": 191,
      "ă": 192,
      "Ą": 193,
      "ą": 194,
      "Ć": 195,
      "ć": 196,
      "Ĉ": 197,
      "ĉ": 198,
      "Ċ": 199,
      "ċ": 200,
      "Č": 201,
      "č": 202,
      "Ď": 203,
      "ď": 204,
      "Đ": 205,
      "đ": 206,
      "Ē": 207,
      "ē": 208,
      "Ĕ": 209,
      "ĕ": 210,
      "Ė": 211,
      "ė": 212,
      "Ę": 213,
      "ę": 214,
      "Ě": 215,
      "ě": 216,
      "Ĝ": 217,
      "ĝ": 218,
      "Ğ": 219,
      "ğ": 220,
      "Ġ": 221,
      "ġ": 222,
      "Ģ": 223,
      "ģ": 224,
      "Ĥ": 225,
      "ĥ": 226,
      "Ħ": 227,
      "ħ": 228,
      "Ĩ": 229,
      "ĩ": 230,
      "Ī": 231,
      "ī": 232,
      "Ĭ": 233,
      "ĭ": 234,
      "Į": 235,
      "į": 236,
      "İ": 237,
      "ı": 238,
      "Ĳ": 239,
      "ĳ": 240,
      "Ĵ": 241,
      "ĵ": 242,
      "Ķ": 243,
      "ķ": 244,
      "ĸ": 245,
      "Ĺ": 246,
      "ĺ": 247,
      "Ļ": 248,
      "ļ": 249,
      "Ľ": 250,
      "ľ": 251,
      "Ŀ": 252,
      "ŀ": 253,
      "Ł": 254,
      "ł": 255,
      "Ń": 256,
      "áº": 257,
      "ng": 258,
      "Ġt": 259,
      "Ġc": 260,
      "ĠÄ": 261,
      "ĠÄĳ": 262,
      "nh": 263,
      "Ãł": 264,
      "Æ°": 265,
      "Ġv": 266,
      "Ã¡": 267,
      "há": 268,
      "há»": 269,
      "iá": 270,
      "iá»": 271,
      "Ġl": 272,
      "Ġtr": 273,
      "Ġk": 274,
      "Ġb": 275,
      "hÃ": 276,
      "Æ°á": 277,
      "Æ°á»": 278,
      "Ġs": 279,
      "áº¿": 280,
      "Ġm": 281,
      "Ġnh": 282,
      "áº¡": 283,
      "Ġn": 284,
      "ĠÄĳá": 285,
      "ĠÄĳá»": 286,
      "áº£": 287,
      "Ġth": 288,
      "Ġh": 289,
      "Ġg": 290,
      "Ãª": 291,
      "Ġd": 292,
      "Ġng": 293,
      "iá»ĩ": 294,
      "Ġp": 295,
      "Ġch": 296,
      "ĠT": 297,
      "áº¥": 298,
      "ĠcÃ": 299,
      "´ng": 300,
      "Ġvá": 301,
      "Ġvá»": 302,
      "Ã¡c": 303,
      "Ãªn": 304,
      "Ġtá": 305,
      "Ġtá»": 306,
      "Ġcá": 307,
      "Ġcá»": 308,
      "Ã¢": 309,
      "ĠvÃł": 310,
      "»Ļ": 311,
      "á»Ļ": 312,
      "Æ¡": 313,
      "uy": 314,
      "Ġkh": 315,
      "Ġq": 316,
      "áºŃ": 317,
      "Ġthá»": 318,
      "Ġgi": 319,
      "áº§": 320,
      "Ġph": 321,
      "ĠÄĳÃ": 322,
      "Æ°á»Ŀ": 323,
      "Ġx": 324,
      "ĠN": 325,
      "iáº¿": 326,
      "»ĳ": 327,
      "á»ĳ": 328,
      "Ľi": 329,
      "Ġhá»": 330,
      "Äĥ": 331,
      "Ġqu": 332,
      "Ġcá»§": 333,
      "Ġcá»§a": 334,
      "áº¡i": 335,
      "Æ°á»£": 336,
      "Ġr": 337,
      "ĠC": 338,
      "ĠlÃł": 339,
      "Ġchá»": 340,
      "an": 341,
      "ong": 342,
      "ĠcÃ¡c": 343,
      "Ã¬": 344,
      "áº¥t": 345,
      "ĠH": 346,
      "ĠcÃ³": 347,
      "iá»ģ": 348,
      "hÃ´ng": 349,
      "»±": 350,
      "á»±": 351,
      "Ã¢n": 352,
      "iá»ĩn": 353,
      "ĠB": 354,
      "Ãły": 355,
      "áº¯": 356,
      "Æ°á»£c": 357,
      "»ĭ": 358,
      "á»ĭ": 359,
      "ch": 360,
      "iÃªn": 361,
      "»Ł": 362,
      "á»Ł": 363,
      "Æ°á»Ľ": 364,
      "Ġtrong": 365,
      "âĢ": 366,
      "ĠV": 367,
      "ĠÄĳÆ°á»£c": 368,
      "Ġcho": 369,
      "inh": 370,
      "Ã´": 371,
      "iá»ĥ": 372,
      "ĠÄĲ": 373,
      "Ġvá»Ľi": 374,
      "Ãłnh": 375,
      "uyá": 376,
      "uyá»": 377,
      "Æ°á»Ŀi": 378,
      "ĠÄĳÃ£": 379,
      "Ġ2": 380,
      "iá»ģu": 381,
      "Ġ1": 382,
      "Æ°Æ¡": 383,
      "hÃŃ": 384,
      "Æ°á»Ŀng": 385,
      "Ã¬nh": 386,
      "Æ°Æ¡ng": 387,
      "anh": 388,
      "áº§n": 389,
      "»¯": 390,
      "á»¯": 391,
      "á»Ļt": 392,
      "ĠngÆ°á»Ŀi": 393,
      "Ã³": 394,
      "ĠÄĳá»Ļ": 395,
      "ao": 396,
      "ay": 397,
      "áº£i": 398,
      "ai": 399,
      "©c": 400,
      "ĠkhÃ´ng": 401,
      "am": 402,
      "áº§u": 403,
      "Ã´ng": 404,
      "ang": 405,
      "Æ°á»Ľc": 406,
      "©ng": 407,
      "Ãłn": 408,
      "ĠM": 409,
      "áº·": 410,
      "áºŃn": 411,
      "Ġmá»Ļt": 412,
      "ĠL": 413,
      "Ġmá": 414,
      "Ġmá»": 415,
      "ĵng": 416,
      "áº¿n": 417,
      "áº£n": 418,
      "ung": 419,
      "ĠnÄĥ": 420,
      "ÃŃ": 421,
      "Ġlá": 422,
      "Ġlá»": 423,
      "ĠTr": 424,
      "ĠhÃ": 425,
      "áº¿t": 426,
      "ĠcÃ´ng": 427,
      "ĠP": 428,
      "Ã¡t": 429,
      "ĠS": 430,
      "uá»ĳ": 431,
      "Ã¢y": 432,
      "Ã¡n": 433,
      "Ãłng": 434,
      "Ġ(": 435,
      "iáº¿n": 436,
      "ĠÄĳá»ĥ": 437,
      "ĠÄĳá»ĭ": 438,
      "ĠTh": 439,
      "ĠnhÆ°": 440,
      "á»¯ng": 441,
      "ĠNg": 442,
      "Ġnhá»¯ng": 443,
      "Ã£": 444,
      "Ãłi": 445,
      "ĠthÃ": 446,
      "iá»ĩt": 447,
      "Ġngh": 448,
      "Ġho": 449,
      "Ŀi": 450,
      "Ġtá»«": 451,
      "ĠÄĳÃ³": 452,
      "Æ¡n": 453,
      "Ġsá»ĳ": 454,
      "Ġtáº¡i": 455,
      "Ã½": 456,
      "»ķ": 457,
      "á»ķ": 458,
      "on": 459,
      "Ã¡o": 460,
      "±c": 461,
      "Ġvá»ģ": 462,
      "ĠnÃły": 463,
      "¹ng": 464,
      "Ãº": 465,
      "Ġphá»": 466,
      "¥c": 467,
      "in": 468,
      "ĠÄĳáº¿n": 469,
      "eo": 470,
      "Ġkhi": 471,
      "au": 472,
      "Ġá»Ł": 473,
      "ĠphÃ": 474,
      "Ġsáº": 475,
      "Ġgiá»": 476,
      "ĠnÄĥm": 477,
      "iáº¿t": 478,
      "ĠQ": 479,
      "áºŃt": 480,
      "Ġra": 481,
      "Å©ng": 482,
      "ĠK": 483,
      "Ġhá»į": 484,
      "iá»ĩc": 485,
      "áº¡n": 486,
      "áºŃp": 487,
      "Ġhiá»ĩn": 488,
      "áº©": 489,
      "ĠÄĳá»ĵng": 490,
      "Ġthu": 491,
      "ĠtrÃªn": 492,
      "00": 493,
      "ĠvÃło": 494,
      "Ġthá»ĥ": 495,
      "ĠA": 496,
      "ĠÄĳá»Ļng": 497,
      "Ġdá": 498,
      "Ġdá»": 499,
      "Ã´i": 500,
      "Ã¡ng": 501,
      "áº±": 502,
      "Ġviá»ĩc": 503,
      "ĠchÃŃ": 504,
      "Äĥng": 505,
      "Ġnhiá»ģu": 506,
      "ĠÄĳáº§u": 507,
      "Ġbá»ĭ": 508,
      "ĳi": 509,
      "Ġcáº£": 510,
      "ĠâĢ": 511,
      "iá»ĩu": 512,
      "Äĥn": 513,
      "ĠcÅ©ng": 514,
      "ĠD": 515,
      "iÃª": 516,
      "Ġsáº½": 517,
      "Ġbá": 518,
      "Ġbá»": 519,
      "Ã¡i": 520,
      "áº¡t": 521,
      "ĠngÃły": 522,
      "Æ°á»£ng": 523,
      "ĠG": 524,
      "iá»ĥm": 525,
      "áº«": 526,
      "Ġtrá": 527,
      "Ġtrá»": 528,
      "Ġquan": 529,
      "Ã²": 530,
      "Ġdo": 531,
      "ĠÄĳá»ĭnh": 532,
      "Ġsá": 533,
      "Ġsá»": 534,
      "ĠlÃłm": 535,
      "ĠnÆ°á»Ľc": 536,
      "ÄĲ": 537,
      "Ġsá»±": 538,
      "âĢĿ": 539,
      "ĠnhÃł": 540,
      "Ġhá»Ļ": 541,
      "ĠchÃ": 542,
      "áº¥p": 543,
      "Ã¡ch": 544,
      "ĠthÃłnh": 545,
      "áº¡o": 546,
      "áº£ng": 547,
      "»ĵ": 548,
      "á»ĵ": 549,
      "ĠNam": 550,
      "ĠnhÃ¢n": 551,
      "Ġdá»±": 552,
      "áº£o": 553,
      "Ġ20": 554,
      "ħn": 555,
      "Æ°a": 556,
      "Ġchá»ī": 557,
      "Ġ3": 558,
      "oÃłn": 559,
      "Ä©": 560,
      "Ġgia": 561,
      "¬nh": 562,
      "uyÃªn": 563,
      "iá»ĥn": 564,
      "áº¥n": 565,
      "ģn": 566,
      "á»Ļc": 567,
      "Ġláº¡i": 568,
      "Ġ-": 569,
      "ĠgiÃ¡": 570,
      "á»Ļi": 571,
      "ĠcÆ¡": 572,
      "ĠâĢľ": 573,
      "ĠhÃłng": 574,
      "ĠViá»ĩt": 575,
      "áº¯c": 576,
      "ĠtrÆ°á»Ŀng": 577,
      "áº¥y": 578,
      "Ġquy": 579,
      "ĠchÃŃnh": 580,
      "Ġtiáº¿": 581,
      "á»±c": 582,
      "ĠdÃ¢n": 583,
      "Æ°á»Ł": 584,
      "áº±ng": 585,
      "Ġpháº£i": 586,
      "á»ĭch": 587,
      "Æ°á»Łng": 588,
      "Ġnghiá»ĩ": 589,
      "Ã©": 590,
      "Ã¡p": 591,
      "ĳng": 592,
      "áº«n": 593,
      "Ġthá»±c": 594,
      "uyá»ĩ": 595,
      "Ġthá»Ŀi": 596,
      "Ã¢m": 597,
      "Ġhá»įc": 598,
      "£p": 599,
      "Ãło": 600,
      "ĠtÃŃ": 601,
      "ĠphÃ¡t": 602,
      "Ġvá»¥": 603,
      "ĠÃ´ng": 604,
      "ĠthÃ´ng": 605,
      "uáº¥t": 606,
      "ĠhÆ¡n": 607,
      "ĥn": 608,
      "Ġhá»£p": 609,
      "Ã¡nh": 610,
      "Ġkho": 611,
      "ĠÄĳá»ģ": 612,
      "uá»ĳc": 613,
      "ĠhÃłnh": 614,
      "Ġnghá»": 615,
      "Ġxe": 616,
      "ĠÄĳiá»ģu": 617,
      "Ġnháº¥t": 618,
      "er": 619,
      "Ġhá»Ļi": 620,
      "Ġy": 621,
      "īnh": 622,
      "Ġká": 623,
      "Ġká»": 624,
      "Ġtáº¿": 625,
      "ĠviÃªn": 626,
      "Ġchá»©c": 627,
      "ĠÄĳang": 628,
      "¢n": 629,
      "Ġtá»ķ": 630,
      "áº¡nh": 631,
      "Ã¹ng": 632,
      "uyá»ģn": 633,
      "uyá»ĩn": 634,
      "ĠNh": 635,
      "ia": 636,
      "áº·t": 637,
      "²n": 638,
      "Ġsáº£n": 639,
      "iá»ģn": 640,
      "Ġsinh": 641,
      "Ġbiáº¿t": 642,
      "Ġmá»Ľi": 643,
      "áº·c": 644,
      "Ġtheo": 645,
      "Ġcao": 646,
      "ĠcÃ²n": 647,
      "á»ķi": 648,
      "¥ng": 649,
      "ĠThá»": 650,
      "áº¯t": 651,
      "Ġá": 652,
      "Ġá»": 653,
      "en": 654,
      "ĠnháºŃn": 655,
      "Ġsau": 656,
      "ĠÄĳá»ĳi": 657,
      "Ġqua": 658,
      "ĩnh": 659,
      "ĠmÃł": 660,
      "hÃ³": 661,
      "Ã¹": 662,
      "20": 663,
      "ĠU": 664,
      "ĠPh": 665,
      "ĠlÃ½": 666,
      "áº£m": 667,
      "Ġnghiá»ĩp": 668,
      "ĠÄĳi": 669,
      "áº¥u": 670,
      "ĠnÃ³": 671,
      "Ġcon": 672,
      "Ġtiáº¿p": 673,
      "ĠtÄĥng": 674,
      "ĠtrÃ¬nh": 675,
      "ĠhÃ¬nh": 676,
      "ĠtÃ¡c": 677,
      "Ġkhá»": 678,
      "Ġxuáº¥t": 679,
      "Ġbá»Ļ": 680,
      "áº¹": 681,
      "Ġdá»¥ng": 682,
      "Ġtá»īnh": 683,
      "ĠcÃ¹ng": 684,
      "ĠnhÆ°ng": 685,
      "á»ĳc": 686,
      "ĠQuá»ĳc": 687,
      "áº¡m": 688,
      "uá»Ļc": 689,
      "ĠlÆ°á»£ng": 690,
      "ar": 691,
      "įng": 692,
      "Ġlu": 693,
      "áº¡ng": 694,
      "iÃªu": 695,
      "Ġcáº¥p": 696,
      "áº»": 697,
      "ĠthÃ¬": 698,
      "Ġtin": 699,
      "ĠÄĳiá»ĥm": 700,
      "ĠtÃ´i": 701,
      "Ġ4": 702,
      "oáº¡i": 703,
      "Ġtá»ĳ": 704,
      "Ġtriá»ĥn": 705,
      "²ng": 706,
      "Ġ5": 707,
      "ĠtÆ°": 708,
      "Ġtu": 709,
      "ºng": 710,
      "Ġkáº¿t": 711,
      "ĠtrÆ°á»Ľc": 712,
      "Ġan": 713,
      "Ġtháº¿": 714,
      "Æ¡i": 715,
      "..": 716,
      "iá»ĥu": 717,
      "ĠxÃ£": 718,
      "ĠÃ¡n": 719,
      "Tr": 720,
      "Ġlá»Ľ": 721,
      "»Ń": 722,
      "á»Ń": 723,
      "Ġráº¥t": 724,
      "Ġlá»±c": 725,
      "ĠTrung": 726,
      "»¹": 727,
      "á»¹": 728,
      "ĠCÃ´ng": 729,
      "Ġkinh": 730,
      "Ã´n": 731,
      "Th": 732,
      "Ġthá»ĭ": 733,
      "ĠQu": 734,
      "ĠlÃªn": 735,
      "Ġchá»§": 736,
      "ĠnÄĥng": 737,
      "ĠÄĳÆ°á»Ŀng": 738,
      "Ġcáº§u": 739,
      "ĠbÃ¡o": 740,
      "hi": 741,
      "áº£nh": 742,
      "ĠnÃªn": 743,
      "ĠtÃ¬nh": 744,
      "Æ°á»Ľng": 745,
      "al": 746,
      "iá»ħn": 747,
      "Ġ\"": 748,
      "Ġgiáº£i": 749,
      "ĠtoÃłn": 750,
      "ĠcÃ¡ch": 751,
      "Ġdoanh": 752,
      "Ġdá»ĭch": 753,
      "áº©m": 754,
      "»į": 755,
      "á»į": 756,
      "Ġnay": 757,
      "ĠÄĳá»ĭa": 758,
      "ĠmÃ¬nh": 759,
      "Ġkhu": 760,
      "ĠHÃł": 761,
      "Ġ201": 762,
      "Ã¡y": 763,
      "Ġbáº£o": 764,
      "áº¿u": 765,
      "uyá»ĥn": 766,
      "Ãªu": 767,
      "áº¡ch": 768,
      "«a": 769,
      "Ġgiá»¯": 770,
      "em": 771,
      "Ġbá»ĩnh": 772,
      "ĠthÃ¡ng": 773,
      "iá»ĩm": 774,
      "Ġtá»Ľi": 775,
      "Ġthá»§": 776,
      "oÃłi": 777,
      "Ġváº«n": 778,
      "im": 779,
      "ĠphÆ°Æ¡ng": 780,
      "ĠphÃ²ng": 781,
      "Ġquá»ĳc": 782,
      "Ġcuá»Ļc": 783,
      "ĠtÃ¢m": 784,
      "³ng": 785,
      "Ġsá»Ń": 786,
      "Å©": 787,
      "ĠÄĳÃ¢y": 788,
      "ĠÄĲá": 789,
      "ĠÄĲá»": 790,
      "ĠBá»Ļ": 791,
      "Ġquáº£": 792,
      "ĠGi": 793,
      "Ġgiao": 794,
      "ĠvÃ¬": 795,
      "uyá»ħn": 796,
      "ua": 797,
      "áº¯ng": 798,
      "Ġanh": 799,
      "Ġtiá»ģn": 800,
      "ĠkhÃ¡c": 801,
      "Ġthá»ĳng": 802,
      "Ng": 803,
      "Ġvá»ĭ": 804,
      "Ġlá»Ľn": 805,
      "Ġtáº¡o": 806,
      "Ãºc": 807,
      "Ġquyáº¿t": 808,
      "ĠnÃ³i": 809,
      "Ġgian": 810,
      "Ġgiá»Ľi": 811,
      "ĠNguyá»ħn": 812,
      "ĠÄĳáº¡o": 813,
      "ĠphÃ¡p": 814,
      "Ġ6": 815,
      "ĠTP": 816,
      "ĠkhÃ³": 817,
      "ĠMá»¹": 818,
      "Ġtá»±": 819,
      "Ġthi": 820,
      "Ġcá»©": 821,
      "á»ĳi": 822,
      "ĠCh": 823,
      "Ġbáº¡n": 824,
      "Ġhai": 825,
      "ĠtÃłi": 826,
      "ĠR": 827,
      "es": 828,
      "Ġtá»¥c": 829,
      "Ġtra": 830,
      "ĠtáºŃp": 831,
      "ĠtiÃªu": 832,
      "Ġhoáº¡t": 833,
      "ĠX": 834,
      "Ġcáº§n": 835,
      "£i": 836,
      "Ġná»¯": 837,
      "ĠÄĳáº¡i": 838,
      "Ã²ng": 839,
      "Ġpháº§n": 840,
      "ĠhÃ³": 841,
      "Ġbáº£n": 842,
      "ĠÄĳá»ķ": 843,
      "Äĥm": 844,
      "Ġtriá»ĩu": 845,
      "ĠliÃªn": 846,
      "Ġáº£nh": 847,
      "Ġmáº·t": 848,
      "Ġná": 849,
      "Ġná»": 850,
      "Ġráº±ng": 851,
      "Ġdiá»ħn": 852,
      "Ġvá»±c": 853,
      "ĠI": 854,
      "ĠnhiÃªn": 855,
      "ĠhÃ³a": 856,
      "Ġtrá»ĭ": 857,
      "Ġso": 858,
      "Ġkhai": 859,
      "Ġtá»·": 860,
      "ĠÃ½": 861,
      "Ġtrá»įng": 862,
      "Ġdá»±ng": 863,
      "Ġhiá»ĩu": 864,
      "ĠthÆ°Æ¡ng": 865,
      "Ġláº§n": 866,
      "iáº¿u": 867,
      "or": 868,
      "áº¯n": 869,
      "ĠphÃŃ": 870,
      "ĠNá»Ļi": 871,
      "ĠchÆ°a": 872,
      "Ġhá»ĩ": 873,
      "Ġmáº¡nh": 874,
      "Ġvi": 875,
      "Ġtham": 876,
      "Ġtháº¥y": 877,
      "Ġgiáº£m": 878,
      "ĠChá»": 879,
      "ĠkhÃ¡ch": 880,
      "ĠÄĳá»Ļi": 881,
      "Ġsá»Ł": 882,
      "ĠÃ": 883,
      "Ġty": 884,
      "Ã¢u": 885,
      "Ġthá»©c": 886,
      "¢u": 887,
      "áº©n": 888,
      "Ãµ": 889,
      "Ĺi": 890,
      "ĠtÃŃnh": 891,
      "Ġbáº±ng": 892,
      "ĠtrÆ°á»Łng": 893,
      "Ġcháº¥t": 894,
      "áº¡c": 895,
      "Ġtuá»ķi": 896,
      "ĠthÆ°á»Ŀng": 897,
      "Ã¡m": 898,
      "Ġpháº©m": 899,
      "Æ°u": 900,
      "ĠyÃªu": 901,
      "ĠxÃ¢y": 902,
      "Ġnhiá»ĩm": 903,
      "Ġtrá»Ł": 904,
      "ĠÄĳáº¥t": 905,
      "ĠbÃ¡n": 906,
      "ĠÄĳiá»ĩn": 907,
      "Ġ7": 908,
      "ºc": 909,
      "ĠÄĳÆ°a": 910,
      "«ng": 911,
      "Ġtrung": 912,
      "Ġnhá": 913,
      "Ġnhá»": 914,
      "ĠmÃ¡y": 915,
      "Ġphá»ĳ": 916,
      "Ġchiáº¿n": 917,
      "Ġhuyá»ĩn": 918,
      "Theo": 919,
      "ND": 920,
      "el": 921,
      "),": 922,
      "áºŃy": 923,
      "á»ĵn": 924,
      "ĠChÃŃ": 925,
      "ıi": 926,
      "000": 927,
      "ĠcÃ´": 928,
      "ĠtÃŃch": 929,
      "ĠVÄĥn": 930,
      "áº§m": 931,
      "ĠÄĳÆ¡n": 932,
      "ĠlÃ£": 933,
      "ĠÄĳá»ķi": 934,
      "ĠsÃ¡t": 935,
      "áºŃu": 936,
      "Ġsá»ĳng": 937,
      "Ġgáº§n": 938,
      "uyáº¿n": 939,
      "Ġchá»ĭ": 940,
      "Ġngá": 941,
      "Ġngá»": 942,
      "Ã©t": 943,
      "ĠchÃºng": 944,
      "Ġem": 945,
      "ĠHo": 946,
      "ĠquÃ¡": 947,
      "Ġcháº¿": 948,
      "á»ĵi": 949,
      "iÃªm": 950,
      "Ġchuyá»ĥn": 951,
      "ĠnÃło": 952,
      "ĠsÄ©": 953,
      "Ġquyá»ģn": 954,
      "Ġ10": 955,
      "Ġhay": 956,
      "Ãºp": 957,
      "ĠY": 958,
      "Ġkiá»ĥm": 959,
      "Ġvá»«a": 960,
      "ĠbÃłn": 961,
      "Ġhá»ĵ": 962,
      "ĠKh": 963,
      "Ġkhoáº£ng": 964,
      "Ġtá»ĳt": 965,
      "Ġbá»ĳ": 966,
      "ĠÄĳáº¥u": 967,
      "Ġkiáº¿n": 968,
      "et": 969,
      "ĠF": 970,
      "Ã³ng": 971,
      "Ġ8": 972,
      "Ġmá»©c": 973,
      "Ġcá»Ń": 974,
      "ĠÄĳo": 975,
      "Ġbiá»ĩt": 976,
      "uá»ĵn": 977,
      "ĠTá»ķ": 978,
      "19": 979,
      "ĠÄĳÃ¬nh": 980,
      "Ġká»³": 981,
      "áº±m": 982,
      "Ġkhiáº¿n": 983,
      "Ġbáº¥t": 984,
      "Ġnghá»ĭ": 985,
      "Ġthá»©": 986,
      "ĠPhÃ": 987,
      "Æ°ng": 988,
      "ĠsÃ¡ch": 989,
      "áº³ng": 990,
      "ĠAnh": 991,
      "Ġcáº£nh": 992,
      "ĠÄĥn": 993,
      "Ġtrá»£": 994,
      "Ġchiáº¿": 995,
      "Ġbáº¯t": 996,
      "ĠhoÃłn": 997,
      "ĠtÆ°á»£ng": 998,
      "ĠcÃ¡o": 999,
      "Ġtráº»": 1000,
      "uá»ĳng": 1001,
      ").": 1002,
      "Ġá»©ng": 1003,
      "ĠvÄĥn": 1004,
      "ĠgiÃºp": 1005,
      "ĠÄĳÃ¡nh": 1006,
      "Ġthiáº¿t": 1007,
      "Ġ9": 1008,
      "Ġcá»©u": 1009,
      "ĠÄĳoÃłn": 1010,
      "Ġpháº¡m": 1011,
      "ĠgÃ¢y": 1012,
      "Ġtrang": 1013,
      "ĠbÃł": 1014,
      "Ġváº¥n": 1015,
      "âĢ¦": 1016,
      "áº£y": 1017,
      "ªm": 1018,
      "Ġdiá»ĩn": 1019,
      "ĠquÃ¢n": 1020,
      "ĠsÃ¡ng": 1021,
      "ĠBÃ¬nh": 1022,
      "Ġloáº¡i": 1023,
      "Ġban": 1024,
      "Ġgiá»Ŀ": 1025,
      "uá»ĳn": 1026,
      "Ġtá»ĭ": 1027,
      "ĠngoÃłi": 1028,
      "Ġchu": 1029,
      "ĠÄĳá»ģu": 1030,
      "Ġcáº£m": 1031,
      "Ġmua": 1032,
      "Ġdáº«n": 1033,
      "ĠÄĳáº¡t": 1034,
      "Ġphá»¥c": 1035,
      "âĢĿ.": 1036,
      "ĠláºŃp": 1037,
      "Ġca": 1038,
      "Ä©nh": 1039,
      "...": 1040,
      "uá»ĳi": 1041,
      "Ġsá»©c": 1042,
      "Ġnghá»ĩ": 1043,
      "ĠthÃªm": 1044,
      "Ġtá»ĭch": 1045,
      "Ġ19": 1046,
      "Ġxá»Ń": 1047,
      "Ġtruyá»ģn": 1048,
      "Ãłu": 1049,
      "áº·ng": 1050,
      "áº·p": 1051,
      "¯ng": 1052,
      "ºt": 1053,
      "ĠgÃ³": 1054,
      "ĠngÃłnh": 1055,
      "ĠtrÃŃ": 1056,
      "ĠhÆ°á»Ľng": 1057,
      "Ġbiá»ĥu": 1058,
      "Ġvá»ĩ": 1059,
      "ĠváºŃy": 1060,
      "ĠE": 1061,
      "Æ°á»Ľi": 1062,
      "áº¢": 1063,
      "id": 1064,
      "Ġkáº¿": 1065,
      "ĠÄĳáº·c": 1066,
      "Ã¬m": 1067,
      "Ġlá»ĭch": 1068,
      "ĠÄĳÃ´": 1069,
      "ĠnháºŃp": 1070,
      "Ġmang": 1071,
      "Ġlo": 1072,
      "Ġlá»£i": 1073,
      "ĠhÃ´": 1074,
      "Ġta": 1075,
      "ĠThanh": 1076,
      "§y": 1077,
      "Ġbiáº¿n": 1078,
      "á»Ļng": 1079,
      "Ġquáº£n": 1080,
      "Ġgiá»¯a": 1081,
      "ĠgiÃ¡o": 1082,
      "ĠthÃŃ": 1083,
      "ĠbÃ¬nh": 1084,
      "Ġphá»§": 1085,
      "Ġtiáº¿n": 1086,
      "Ġcá»ķ": 1087,
      "Ġtá»«ng": 1088,
      "ĠcÃ¡": 1089,
      "ĠdÃ¹ng": 1090,
      "Ġhoáº¡ch": 1091,
      "Ã²a": 1092,
      "ĠAn": 1093,
      "áº¢nh": 1094,
      "Ġviá»ĩn": 1095,
      "ĠtÃ¬m": 1096,
      "ĠbÃªn": 1097,
      "Ġhoáº·c": 1098,
      "Ġtay": 1099,
      "201": 1100,
      "ĠluáºŃt": 1101,
      "ĠtiÃªn": 1102,
      "Ġrá": 1103,
      "Ġrá»": 1104,
      "Ġchá»ĳng": 1105,
      "ĠChÃŃnh": 1106,
      "ĠtráºŃn": 1107,
      "Ġthuá»Ļc": 1108,
      "įn": 1109,
      "it": 1110,
      "áº¹p": 1111,
      "Ġnhau": 1112,
      "ĠkhÃŃ": 1113,
      "ĠÄĳáº£m": 1114,
      "ĠnÆ¡i": 1115,
      "ĠchuyÃªn": 1116,
      "ĠthÃ¢n": 1117,
      "Ġkiá»ĩn": 1118,
      "Ġtá»Ń": 1119,
      "ĠnghÄ©": 1120,
      "ĠJ": 1121,
      "Ġchá»©ng": 1122,
      "Ġtá»ķng": 1123,
      "Trong": 1124,
      "ĠChá»§": 1125,
      "áº¥m": 1126,
      "áº§y": 1127,
      "ĠMinh": 1128,
      "ĠgÃ¬": 1129,
      "Ġhá»Ĺ": 1130,
      "ĠTá»ķng": 1131,
      "ĠÃŃ": 1132,
      "©p": 1133,
      "Ġphá»¥": 1134,
      "Ġmáº¡ng": 1135,
      "BND": 1136,
      "as": 1137,
      "Ġmuá»ĳn": 1138,
      "ĳn": 1139,
      "Æ°á»£t": 1140,
      "áº©u": 1141,
      "at": 1142,
      "Ķng": 1143,
      "ĠxÃ¡c": 1144,
      "ic": 1145,
      "Ġbá»ı": 1146,
      "ĠnguyÃªn": 1147,
      "Ġnguá»ĵn": 1148,
      "Ġchung": 1149,
      "Ġháº¡n": 1150,
      "Ġbay": 1151,
      "ĠtÃªn": 1152,
      "Ġchi": 1153,
      "Ġchia": 1154,
      "Ã³m": 1155,
      "Ġlá»Ŀi": 1156,
      "Ġtrá»±c": 1157,
      "is": 1158,
      "Ġtá»Ļ": 1159,
      "ĠvÃ¹ng": 1160,
      "ĠW": 1161,
      "ĠTrong": 1162,
      "ĠâĢĵ": 1163,
      "CM": 1164,
      "Ġháº¿t": 1165,
      "ĠváºŃn": 1166,
      "SD": 1167,
      "Ġmáº¹": 1168,
      "om": 1169,
      "Ġliá»ĩu": 1170,
      "áº¯p": 1171,
      "Ġthanh": 1172,
      "Ġná»Ļi": 1173,
      "áº¡y": 1174,
      "Ġto": 1175,
      "áº¯m": 1176,
      "Ġtiáº¿ng": 1177,
      "ĠThá»ĭ": 1178,
      "ĠváºŃt": 1179,
      "il": 1180,
      "Ġchiáº¿c": 1181,
      "áº½": 1182,
      "Ġbao": 1183,
      "Ġtranh": 1184,
      "ĠdÃłi": 1185,
      "Ġvá»ĳn": 1186,
      "ol": 1187,
      "ĠUBND": 1188,
      "ĠrÃµ": 1189,
      "ĠHáº£i": 1190,
      "Ġhuy": 1191,
      "ĠhÆ°á»Łng": 1192,
      "Ġmá»į": 1193,
      "âĢĿ,": 1194,
      "Ġthay": 1195,
      "ĠbÃ³ng": 1196,
      "ĠNga": 1197,
      "Ġnghiá»ĩm": 1198,
      "Ġcá»ĳ": 1199,
      "Ġdu": 1200,
      "Ġnáº¡n": 1201,
      "us": 1202,
      "Ġ202": 1203,
      "Ġminh": 1204,
      "Ã¡u": 1205,
      "Ġgáº·p": 1206,
      "ĠxÃ©t": 1207,
      "ĠÄĳá»ĳ": 1208,
      "ĠÄĳáº¹p": 1209,
      "Ġmá»¥c": 1210,
      "Ġkháº©u": 1211,
      "Ġnáº¿u": 1212,
      "Ġbiá»ĥn": 1213,
      "ĠBan": 1214,
      "ĠthuáºŃt": 1215,
      "ĠlÃ£nh": 1216,
      "ĠTuy": 1217,
      "Ã¢ng": 1218,
      "ĠkÃ½": 1219,
      "ov": 1220,
      "ĠÄĲáº¡i": 1221,
      "ĠBáº¯c": 1222,
      "ĠphÃ¢n": 1223,
      "á»Łi": 1224,
      "ĠchÆ°Æ¡ng": 1225,
      "ĠtÆ°á»Ľng": 1226,
      "»ĵng": 1227,
      "á»ĵng": 1228,
      "Ġmá»įi": 1229,
      "ĠkhÄĥn": 1230,
      "ĠUSD": 1231,
      "á»įc": 1232,
      "»Ľi": 1233,
      "á»Ľi": 1234,
      "ĠÄĳá»§": 1235,
      "ĠlÃºc": 1236,
      "iÃªng": 1237,
      "Ã³c": 1238,
      "ac": 1239,
      "Nh": 1240,
      "ĠÄĳoáº¡n": 1241,
      "Ġrá»ĵi": 1242,
      "áº«u": 1243,
      "ĠHá»Ļi": 1244,
      "Ġbu": 1245,
      "Ġchuáº©n": 1246,
      "Ġxáº£y": 1247,
      "Ġtiáº¿t": 1248,
      "Ġ12": 1249,
      "Ġmá»Ł": 1250,
      "Ġlao": 1251,
      "Ġmá»Ĺi": 1252,
      "Ġcuá»ĳi": 1253,
      "ĠThÃłnh": 1254,
      "Ġcá»Ļ": 1255,
      "Ġgiáº£": 1256,
      "ĠSÆ¡n": 1257,
      "Ġchá»įn": 1258,
      "Ch": 1259,
      "ĠO": 1260,
      "ĠÄĲá»©c": 1261,
      "Ġdanh": 1262,
      "uÃ¢n": 1263,
      "ĠsÃ¢n": 1264,
      "ĠÄĲÃ´ng": 1265,
      "á»ĭp": 1266,
      "Ġkháº£": 1267,
      "Ġcáº¡nh": 1268,
      "Ġsáº»": 1269,
      "ĠNhÃł": 1270,
      "áºŃm": 1271,
      "ĠgÃ³p": 1272,
      "Ġ15": 1273,
      "Ġsao": 1274,
      "ĠthÆ°": 1275,
      "Ġtráº¡ng": 1276,
      "iá»ĩp": 1277,
      "Ġchuyá»ĩn": 1278,
      "Ġngay": 1279,
      "Ġxem": 1280,
      "ĠluÃ´n": 1281,
      "ĠPhÃ³": 1282,
      "ĠnhÃ³m": 1283,
      "Ġnhá»ı": 1284,
      "ĠmÃ¹": 1285,
      "á»ĵm": 1286,
      "ur": 1287,
      "Ġmáº¥t": 1288,
      "Ġnhanh": 1289,
      "ĠtÃłu": 1290,
      "ĠphÃŃa": 1291,
      "áº©y": 1292,
      "Ġcung": 1293,
      "ĠkÃ©": 1294,
      "ĠnÃ´ng": 1295,
      "Ġnháº±m": 1296,
      "ĠÄĳáº·t": 1297,
      "ĠThá»§": 1298,
      "Æ°á»¡": 1299,
      "ad": 1300,
      "ĠÃ¡p": 1301,
      "há»¯ng": 1302,
      "Ġ'": 1303,
      "ĠngÃ¢n": 1304,
      "Ġtráº£": 1305,
      "Ġcá»±c": 1306,
      "ĠthÃ´": 1307,
      "Ġgá»į": 1308,
      "Ġcá»Ńa": 1309,
      "Ġphá»ĳi": 1310,
      "»³": 1311,
      "á»³": 1312,
      "un": 1313,
      "Ġyáº¿u": 1314,
      "ĠnÃ¢ng": 1315,
      "ĠluáºŃn": 1316,
      "Ġghi": 1317,
      "ĠtÆ°Æ¡ng": 1318,
      "Ġchá»ĵng": 1319,
      "Ġgá»ĵm": 1320,
      "Ġáº¢nh": 1321,
      "ĠvÃłng": 1322,
      "Ġká»ĥ": 1323,
      "Ġdá»¥c": 1324,
      "ĠÄĳá»ĳc": 1325,
      "Ġ11": 1326,
      "ĠdÃ¹": 1327,
      "Ġxuá»ĳng": 1328,
      "Ġsáº¯c": 1329,
      "ĠÄĳá»ĵ": 1330,
      "Ġvá»£": 1331,
      "ĠTá": 1332,
      "ĠTá»": 1333,
      "Ġ30": 1334,
      "ĠÄĲáº£ng": 1335,
      "HCM": 1336,
      "ĠÄĳá»Ŀi": 1337,
      "ĠtrÃ²": 1338,
      "ĠkÃŃ": 1339,
      "ĠChÃ": 1340,
      "ĠcÃ¡n": 1341,
      "Ġtuyá»ĥn": 1342,
      "ĠÄĳÃºng": 1343,
      "Ġtuyáº¿n": 1344,
      "ĠHoÃłng": 1345,
      "ĠkhÃ": 1346,
      "ĠÄĳÃ³ng": 1347,
      "Ã¨": 1348,
      "Ġmáº¯t": 1349,
      "Æ°á»¡ng": 1350,
      "ĠgÃ¡i": 1351,
      "ĠtrÃ¡ch": 1352,
      "Ġsang": 1353,
      "©a": 1354,
      "Ġbá»Łi": 1355,
      "ĠháºŃu": 1356,
      "ĠvÃ´": 1357,
      "ıa": 1358,
      "\".": 1359,
      "ĠphÃ©p": 1360,
      "Ġ0": 1361,
      "ĠÃŃt": 1362,
      "ĠbÃ©": 1363,
      "¢y": 1364,
      "ĠThÃ¡i": 1365,
      "10": 1366,
      "ĠÄĳÃ¡": 1367,
      "ĠcÃ¢y": 1368,
      "Ġtáº£i": 1369,
      "ĠÃ´": 1370,
      "Ġlá»ĩ": 1371,
      "ĠthÃŃch": 1372,
      "Ġrá»Ļng": 1373,
      "ĠDÆ°Æ¡ng": 1374,
      "Ġtáº¥n": 1375,
      "Ġhá»ĵi": 1376,
      "Ġtinh": 1377,
      "ĠLÃª": 1378,
      "ĠlÆ°u": 1379,
      "Ġná»ķi": 1380,
      "Ġtá»ĳi": 1381,
      "Ġláº¥y": 1382,
      "ĠTráº§n": 1383,
      "ĠÄĳÄĥng": 1384,
      "Ġtuáº§n": 1385,
      "Ġphong": 1386,
      "le": 1387,
      "Ġphim": 1388,
      "Ġchiá»ģu": 1389,
      "os": 1390,
      "ĠcÃ¡i": 1391,
      "tr": 1392,
      "Ġá»§y": 1393,
      "ĠtrÃ¡i": 1394,
      "Ġcá»Ļng": 1395,
      "ter": 1396,
      "Ġná»¯a": 1397,
      "ĠÄĲá»ĵng": 1398,
      "ĠvÃ²ng": 1399,
      "ĠÄĳáº©y": 1400,
      "ĠÄĳÃ¡ng": 1401,
      "ĠHá»ĵ": 1402,
      "Ġtháº¯ng": 1403,
      "Ġdung": 1404,
      "ĠchÆ¡i": 1405,
      "iáº¿m": 1406,
      "ĠbÃłi": 1407,
      "ĠnghÃ": 1408,
      "»¥": 1409,
      "á»¥": 1410,
      "ĠcÃłng": 1411,
      "Ãºt": 1412,
      "ĠquáºŃn": 1413,
      "¯u": 1414,
      "Ġnhu": 1415,
      "ĠhÃ´m": 1416,
      "ĠmÃ´": 1417,
      "ĠsoÃ¡t": 1418,
      "Thá»": 1419,
      "ĠQuáº£ng": 1420,
      "Ġkhoa": 1421,
      "Ġgá»įi": 1422,
      "Ġcá»¥": 1423,
      "âĢľ": 1424,
      "ĠNghá»": 1425,
      "ag": 1426,
      "ĠphiÃªn": 1427,
      "Ãªm": 1428,
      "ĠdÆ°á»Ľi": 1429,
      "ĠsÆ¡": 1430,
      "Ġká»¹": 1431,
      "ĠtuyÃªn": 1432,
      "Ġtáº¥t": 1433,
      "ĠTÃ¢y": 1434,
      "ĠgiÃ¡m": 1435,
      "ing": 1436,
      "Ġhá»¯u": 1437,
      "Äĳ": 1438,
      "Ġhá»ıi": 1439,
      "ĠLong": 1440,
      "§ng": 1441,
      "ĠSá»Ł": 1442,
      "iá»ħ": 1443,
      "Ġdi": 1444,
      "ot": 1445,
      "Ph": 1446,
      "Ġmáº«u": 1447,
      "Ġnguy": 1448,
      "CÃ¡c": 1449,
      "Ġtháº§n": 1450,
      "uáº¥n": 1451,
      "ÃĶng": 1452,
      "ĠhÃ²": 1453,
      "Łi": 1454,
      "Ã£i": 1455,
      "Ġtá»Ļi": 1456,
      "Ġlá»Ļ": 1457,
      "ĠmÃ¹a": 1458,
      "ĠkhÃ¡": 1459,
      "TT": 1460,
      "ĠchÃ¢n": 1461,
      "ra": 1462,
      "Ġvá»įng": 1463,
      "um": 1464,
      "Ġai": 1465,
      "įc": 1466,
      "ĠmÃ´i": 1467,
      "ĠriÃªng": 1468,
      "ĠlÄ©nh": 1469,
      "ĠnghÄ©a": 1470,
      "ĠÄĳáº§y": 1471,
      "ĠcÃ¢u": 1472,
      "ĠÃģ": 1473,
      "»¥c": 1474,
      "á»¥c": 1475,
      "ĠÄĳáº£o": 1476,
      "ĠthuáºŃn": 1477,
      "áº¡p": 1478,
      "ĠNháºŃt": 1479,
      "Ġthuá»ĳc": 1480,
      "ıe": 1481,
      "Ġlá»ħ": 1482,
      "Ġáº¥y": 1483,
      "ĠCÃ¡c": 1484,
      "ĠcÆ°á»Ŀng": 1485,
      "ĠNgá»įc": 1486,
      "Ġsuáº¥t": 1487,
      "Ġkhá»ıe": 1488,
      "Ġmáº¡i": 1489,
      "Ġthiáº¿u": 1490,
      "ĠLan": 1491,
      "ĠchÃº": 1492,
      "ĠlÃ²ng": 1493,
      "ĠtrÃº": 1494,
      "ĠHÃ²a": 1495,
      "Sau": 1496,
      "Ġhoa": 1497,
      "th": 1498,
      "Ġpháº£n": 1499,
      "Ġbá»ķ": 1500,
      "ĠTrÆ°á»Ŀng": 1501,
      "Ġngoáº¡i": 1502,
      "Ġchá»¯": 1503,
      "ĠÄĳa": 1504,
      "ĠSau": 1505,
      "ĠnhÃ¬": 1506,
      "202": 1507,
      "uÃ´i": 1508,
      "ĠXuÃ¢n": 1509,
      "Ġthiá»ĩn": 1510,
      "ĠnghiÃªm": 1511,
      "Ã²n": 1512,
      "ĠÄĳá»Ļc": 1513,
      "ĠGiang": 1514,
      "ĠmÃłu": 1515,
      "ĠThu": 1516,
      "Ġ200": 1517,
      "ui": 1518,
      "ĠchÃ¢u": 1519,
      "ĠTheo": 1520,
      "ĠcÆ°": 1521,
      "ĠhÃ£": 1522,
      "ĠÄĳÃ´ng": 1523,
      "ĠcÄĥn": 1524,
      "Ġphiáº¿u": 1525,
      "12": 1526,
      "áº¿p": 1527,
      "Ġná»ģn": 1528,
      "Ãłm": 1529,
      "Ġká»·": 1530,
      "ĠnghiÃªn": 1531,
      "Ġvai": 1532,
      "Ġkhá»ıi": 1533,
      "Ġháº¡i": 1534,
      "Ġkhoáº£n": 1535,
      "Ġtháº¥p": 1536,
      "ĠtÃº": 1537,
      "Ġtho": 1538,
      "á»Ńi": 1539,
      "ĠbÆ°á»Ľc": 1540,
      "ĠÄĳÃłn": 1541,
      "ĠmÆ°a": 1542,
      "Ġba": 1543,
      "Ġdá»ħ": 1544,
      "iá»ħm": 1545,
      "Ġdáº§u": 1546,
      "\",": 1547,
      "ĠniÃªn": 1548,
      "NgÃły": 1549,
      "ĠhÃ²a": 1550,
      "Ġhiá»ĥu": 1551,
      "ĠphÃ¡": 1552,
      "á»±a": 1553,
      "11": 1554,
      "ĠxÃºc": 1555,
      "Ġhiá»ĥm": 1556,
      "ed": 1557,
      "Ġlá»Ľp": 1558,
      "Ġcháº¡y": 1559,
      "Ġá»ķ": 1560,
      "Ġgá": 1561,
      "Ġgá»": 1562,
      "oo": 1563,
      "Ġ14": 1564,
      "ĠnhÃ¬n": 1565,
      "Ġbuá»ķi": 1566,
      "ĠvÆ°á»£t": 1567,
      "Ġgá»Ńi": 1568,
      "Ġ18": 1569,
      "ĠÄĳá»©ng": 1570,
      "uyá»ĩt": 1571,
      "Ġcháº¥p": 1572,
      "Ġpháº¡t": 1573,
      "Ġ16": 1574,
      "uyáº¿t": 1575,
      "ĠtÆ°á»Łng": 1576,
      "Ġtrao": 1577,
      "Ġ13": 1578,
      "Ġtai": 1579,
      "iá»ģm": 1580,
      "Ġmáº¯c": 1581,
      "Ġkhá»Łi": 1582,
      "Ńa": 1583,
      "Ġthuáº¿": 1584,
      "ĠmÃ´n": 1585,
      "Ġtiá»ĩn": 1586,
      "ĠLu": 1587,
      "Ġcháº¿t": 1588,
      "TrÆ°á»Ľc": 1589,
      "ĠthÃºc": 1590,
      "ĠtháºŃt": 1591,
      "¦y": 1592,
      "ĠÄĳÃªm": 1593,
      "Ġkháº³ng": 1594,
      "ĠLiÃªn": 1595,
      "Ľm": 1596,
      "ĠÆ°Æ¡ng": 1597,
      "ĠphÆ°á»Ŀng": 1598,
      "ĠPhÃº": 1599,
      "Ġnáº·ng": 1600,
      "ĠtoÃ¡n": 1601,
      "Má»Ļt": 1602,
      "ĠbiÃªn": 1603,
      "Ġtrai": 1604,
      "Ġngá»Ŀ": 1605,
      "Ġhá»įp": 1606,
      "Ġcáº£i": 1607,
      "Ġchá»ĭu": 1608,
      "Ġthoáº¡i": 1609,
      "Ġnáº±m": 1610,
      "ĠphÃ¹": 1611,
      "Ġnháº¡c": 1612,
      "ĠdÃłnh": 1613,
      "ĠtÃ´": 1614,
      "ovid": 1615,
      "Ġnhiá»ħm": 1616,
      "ĠthÃ´n": 1617,
      "ho": 1618,
      "ĠNinh": 1619,
      "ĠIn": 1620,
      "Ġsá»Ľm": 1621,
      "Ġnghá»ģ": 1622,
      "ĠBáº£n": 1623,
      "ĠtrÃ¬": 1624,
      "Ġá»¦y": 1625,
      "Ġtháº£o": 1626,
      "ĠBá": 1627,
      "ĠBá»": 1628,
      "ĠCovid": 1629,
      "Ġnam": 1630,
      "Ġgiai": 1631,
      "Ġduy": 1632,
      "ĠkÃ©o": 1633,
      "Ġháº¡": 1634,
      "Ġlá»Ńa": 1635,
      "ĠÄĳÃ´i": 1636,
      "ĠxuyÃªn": 1637,
      "ĠnuÃ´i": 1638,
      "ĠphÃºt": 1639,
      "á»Ńa": 1640,
      "ip": 1641,
      "Ġxin": 1642,
      "ĠhÃºt": 1643,
      "áº§ng": 1644,
      "ro": 1645,
      "Ġxa": 1646,
      "ĠvÅ©": 1647,
      "ĠsÃ¢u": 1648,
      "ĠGiÃ¡m": 1649,
      "Ã³n": 1650,
      "ĠtÃŃn": 1651,
      "ĠPhÃ²ng": 1652,
      "Táº¡i": 1653,
      "Ġ100": 1654,
      "Ġ25": 1655,
      "ĠHu": 1656,
      "ap": 1657,
      "ĠquÃ½": 1658,
      "ĠHÃłn": 1659,
      "©t": 1660,
      "ĠÄĲÃł": 1661,
      "ĠÄĳÃło": 1662,
      "»ĩ": 1663,
      "á»ĩ": 1664,
      "ĠQuang": 1665,
      "Ġvui": 1666,
      "ĠÄĲÃ¢y": 1667,
      "and": 1668,
      "Ġninh": 1669,
      "Ġá»ķn": 1670,
      "Ġtáº§ng": 1671,
      "ĠbÃ¡c": 1672,
      "ine": 1673,
      "Ġ17": 1674,
      "ID": 1675,
      "LV": 1676,
      "áºµ": 1677,
      "ĠTÃ¢n": 1678,
      "Ã³a": 1679,
      "ain": 1680,
      "Chá»": 1681,
      "Ġtá»ĳc": 1682,
      "ĵn": 1683,
      "ĠvÃłi": 1684,
      "Ġchá»īnh": 1685,
      "Ã£o": 1686,
      "hÃ¢n": 1687,
      "oi": 1688,
      "ĠÄĲiá»ģu": 1689,
      "Ġnghá»ī": 1690,
      "ĠÃ¡o": 1691,
      "up": 1692,
      "Ġbiá»ĩn": 1693,
      "ĠDo": 1694,
      "Ġmiá»ģn": 1695,
      "ĠkÃª": 1696,
      "ĠÃ¢m": 1697,
      "»ģ": 1698,
      "á»ģ": 1699,
      "ĠPháº¡m": 1700,
      "Ã£n": 1701,
      "áº·n": 1702,
      "Ġmong": 1703,
      "ĠphÃ³ng": 1704,
      "ĠHoa": 1705,
      "ir": 1706,
      "áºµng": 1707,
      "Ġchiáº¿m": 1708,
      "ÄĲT": 1709,
      "ĠlÃ¢u": 1710,
      "Ġtáº¡m": 1711,
      "Nhá»¯ng": 1712,
      "OV": 1713,
      "Ġly": 1714,
      "ak": 1715,
      "ĠNáºµng": 1716,
      "Ġtháº©m": 1717,
      "ĠNguyÃªn": 1718,
      "Ġná»£": 1719,
      "ĠthÄĥm": 1720,
      "ĠngÃ´i": 1721,
      "Tuy": 1722,
      "ĠBÃŃ": 1723,
      "á»ĭnh": 1724,
      "ĠÄĳÃ¡p": 1725,
      "ĠNhÆ°ng": 1726,
      "one": 1727,
      "ĠchÃ¡y": 1728,
      "Ġxanh": 1729,
      "Ġbáº§u": 1730,
      "Ġ24": 1731,
      "¨o": 1732,
      "ĠchÄĥm": 1733,
      "Ġthá»§y": 1734,
      "Ġgiáº¥y": 1735,
      "Ġkiáº¿m": 1736,
      "ĠdÆ°á»¡ng": 1737,
      "Ġvong": 1738,
      "ĠÃĤ": 1739,
      "Ġ2020": 1740,
      "30": 1741,
      "ĠTáº¿t": 1742,
      "ĠKá»³": 1743,
      "Ġká»ĭp": 1744,
      "ĠHá»ĵng": 1745,
      "ĠChÃ¢u": 1746,
      "ĠtrÃ¡nh": 1747,
      "Ġchá»¯a": 1748,
      "ĠKim": 1749,
      "ĠVi": 1750,
      "ĠphÃª": 1751,
      "Ġ50": 1752,
      "ĠsÃ´ng": 1753,
      "ĠTiÃªn": 1754,
      "Ġda": 1755,
      "ĠÃĶng": 1756,
      "»Ĺi": 1757,
      "á»Ĺi": 1758,
      "Ġvá»¯ng": 1759,
      "ĠÆ°u": 1760,
      "eb": 1761,
      "Ġsai": 1762,
      "Ġbuá»Ļc": 1763,
      "PT": 1764,
      "ĠquÃ¡n": 1765,
      "Ġdáº¥u": 1766,
      "ĠthÆ°á»Łng": 1767,
      "ĠTH": 1768,
      "Ġkháº¯c": 1769,
      "Ġtháº¥t": 1770,
      "ĠLuáºŃt": 1771,
      "Gi": 1772,
      "Ġuá»ĳng": 1773,
      "Ġnghi": 1774,
      "ĠkhÃ¡m": 1775,
      "Ġgiá»ĳng": 1776,
      "ĠPhÃ¡p": 1777,
      "ĠVÅ©": 1778,
      "ew": 1779,
      "ĠKhi": 1780,
      "¬n": 1781,
      "Ġháº¡ng": 1782,
      "ĠNghá»ĭ": 1783,
      "ĠchÃ¡u": 1784,
      "ĠCá»¥c": 1785,
      "Ġmá»ĳi": 1786,
      "ĠTÃ´i": 1787,
      "ĠthÃ¡i": 1788,
      "ĠdÃ²ng": 1789,
      "ut": 1790,
      "ĠPhÆ°Æ¡ng": 1791,
      "Ġvay": 1792,
      "Ġtá»©c": 1793,
      "Ġtá»ī": 1794,
      "Ġnghe": 1795,
      "Ġcam": 1796,
      "ĠÄĳÃ³n": 1797,
      "Ġná»ĳi": 1798,
      "ĠtÃ¹": 1799,
      "Ġtáº·ng": 1800,
      "ĠMá»Ļt": 1801,
      "Ġ22": 1802,
      "Tá": 1803,
      "Tá»": 1804,
      "ĠnÃ³ng": 1805,
      "Ġtá»Ļc": 1806,
      "ĠtÃ¡i": 1807,
      "ĠNáº¿u": 1808,
      "ĠBá»ĩnh": 1809,
      "Ġviáº¿t": 1810,
      "»ĥ": 1811,
      "á»ĥ": 1812,
      "ue": 1813,
      "ıng": 1814,
      "á»ĳng": 1815,
      "ĠHLV": 1816,
      "ĠsÆ°": 1817,
      "á»¯a": 1818,
      "Ġtrá»ĵng": 1819,
      "ĠkhÃ¡n": 1820,
      "Ġchuyáº¿n": 1821,
      "Ġbá»©c": 1822,
      "ĠtÃ²a": 1823,
      "Ġma": 1824,
      "ĠÄĳau": 1825,
      "Ġcháº¯c": 1826,
      "ĠTuáº¥n": 1827,
      "Ġ21": 1828,
      "iv": 1829,
      "ĠLe": 1830,
      "TV": 1831,
      "ĠhÃ¡t": 1832,
      "ĠCOV": 1833,
      "ĠÄĳá»ı": 1834,
      "ĠthÃ¡c": 1835,
      "Ġchá»Ĺ": 1836,
      "ĠkÃŃch": 1837,
      "ĠTÃłi": 1838,
      "ĠbÃły": 1839,
      "ĠCOVID": 1840,
      "Ġtá»ı": 1841,
      "Ġlá»±a": 1842,
      "uá»ĳt": 1843,
      "ĠNgÆ°á»Ŀi": 1844,
      "Ġphá»ķ": 1845,
      "Ġcá»¥c": 1846,
      "ĠNhá»¯ng": 1847,
      "ĠlÆ°á»£t": 1848,
      "Ġnhiá»ĩt": 1849,
      "Ġxáº¿p": 1850,
      "ĠmÃ¡u": 1851,
      "ÃŃnh": 1852,
      "Ġquay": 1853,
      "Ġluyá»ĩn": 1854,
      "Ġbáº£ng": 1855,
      "ĠMai": 1856,
      "Ġ23": 1857,
      "ĠBáº£o": 1858,
      "ĠChá»ī": 1859,
      "Ġsung": 1860,
      "ph": 1861,
      "ig": 1862,
      "ĠlÆ°Æ¡ng": 1863,
      "Ãºng": 1864,
      "ĠnghÃ¨o": 1865,
      "ĠLinh": 1866,
      "Ġmáº·c": 1867,
      "ĠÃĤu": 1868,
      "Ġloáº¡t": 1869,
      "VN": 1870,
      "Ġnháº¥n": 1871,
      "Ã¹i": 1872,
      "Ġnhá»Ŀ": 1873,
      "Ġthiá»ĩt": 1874,
      "Ġtrá»Ŀi": 1875,
      "Vá»Ľi": 1876,
      "Ġsáºµ": 1877,
      "Ġsáºµn": 1878,
      "ĠgiÃłnh": 1879,
      "¢m": 1880,
      "Hiá»ĩn": 1881,
      "Ġgáº¯n": 1882,
      "ĠYÃªn": 1883,
      "Ġxá": 1884,
      "Ġxá»": 1885,
      "ĠlÃ¡i": 1886,
      "ĠcáºŃn": 1887,
      "ĠTá»«": 1888,
      "Ġkhá»ĳi": 1889,
      "Ġhá»įa": 1890,
      "Ġquanh": 1891,
      "Ġthá»Ń": 1892,
      "Ġ2018": 1893,
      "ĵi": 1894,
      "ĠthuÃª": 1895,
      "ĠDN": 1896,
      "Ġnháº¹": 1897,
      "Ġ2021": 1898,
      "NgÆ°á»Ŀi": 1899,
      "ĠcÃ¢n": 1900,
      "ĠchÃ³ng": 1901,
      "ĠKhÃ´ng": 1902,
      "Ġtáº§m": 1903,
      "ent": 1904,
      "Ãºi": 1905,
      "ĠVÃ¬": 1906,
      "ĠcáºŃp": 1907,
      "Ġnhá»Ľ": 1908,
      "oa": 1909,
      "Ġniá»ĩm": 1910,
      "Ġná»Ĺ": 1911,
      "ĠChi": 1912,
      "ĠsiÃªu": 1913,
      "ex": 1914,
      "50": 1915,
      "ĠquÃª": 1916,
      "ĠÄĳá»Ļt": 1917,
      "ĠtiÃªm": 1918,
      "ĠHÃ³a": 1919,
      "ĠlÃ£i": 1920,
      "ĠlÃłng": 1921,
      "TÃ´i": 1922,
      "ĠhÃ£ng": 1923,
      "Ġváº»": 1924,
      "ĠÃŃch": 1925,
      "ĠÄĲoÃłn": 1926,
      "ĠmÃłn": 1927,
      "Bá»Ļ": 1928,
      "Ġmay": 1929,
      "Ġsá»Ńa": 1930,
      "Ġrá»«ng": 1931,
      "Ġtráº£i": 1932,
      "Ġtháº³ng": 1933,
      "Ġbinh": 1934,
      "NgoÃłi": 1935,
      "Ġchá»Ŀ": 1936,
      "Ġcháº·t": 1937,
      "ĠhÃ´n": 1938,
      "Ġáº¥n": 1939,
      "ĠlÆ°á»£c": 1940,
      "ĠLÃ¢m": 1941,
      "£t": 1942,
      "ĠtÃºy": 1943,
      "iáº¿p": 1944,
      "Ġháº¡t": 1945,
      "ĠThÃ": 1946,
      "Ġdá»«ng": 1947,
      "ĠTháº¿": 1948,
      "Ãµi": 1949,
      "ĠtrÆ°Æ¡ng": 1950,
      "ĠNgoÃłi": 1951,
      "Ġthao": 1952,
      "KhÃ´ng": 1953,
      "ĠsÃłng": 1954,
      "Ġlá»ĩnh": 1955,
      "ĠLá": 1956,
      "ĠLá»": 1957,
      "Ġdáº¡y": 1958,
      "ĠÄĳÃ¢u": 1959,
      "ĠngÄĥn": 1960,
      "ĠKhÃ¡nh": 1961,
      "Ġsong": 1962,
      "Ġ2016": 1963,
      "Ġ2022": 1964,
      "ton": 1965,
      "ĠCÃ³": 1966,
      "ĠkhÃ³a": 1967,
      "Ġdá»ĭp": 1968,
      "Ġsuy": 1969,
      "Qu": 1970,
      "Ġ2019": 1971,
      "Khi": 1972,
      "ĠÆ°á»Ľc": 1973,
      "ĠmÃ³n": 1974,
      "Ġ27": 1975,
      "ĠThÆ°Æ¡ng": 1976,
      "Ġliá»ĩt": 1977,
      "Ġquen": 1978,
      "yr": 1979,
      "ĠÃ¡nh": 1980,
      "ion": 1981,
      "ĠZ": 1982,
      "ĠnÃªu": 1983,
      "ĠNgÃ¢n": 1984,
      "ĠcÃ¡nh": 1985,
      "ĠÄĲÃ¬nh": 1986,
      "ul": 1987,
      "SN": 1988,
      "ĠÄĳáº£ng": 1989,
      "ĠTN": 1990,
      "Ġcáº§m": 1991,
      "ĠrÃºt": 1992,
      "ĠphÃºc": 1993,
      "Ġthá»¥": 1994,
      "Ġcáº¯t": 1995,
      "Ġkháº£o": 1996,
      "ĠÄĳÃŃ": 1997,
      "op": 1998,
      "Ġ26": 1999,
      "Ġdáº¡ng": 2000,
      "Ġcan": 2001,
      "ĠHÃ¹ng": 2002,
      "Ġ28": 2003,
      "av": 2004,
      "%.": 2005,
      "ik": 2006,
      "ĠThÆ°á»Ŀng": 2007,
      "Ġkhá»§ng": 2008,
      "á»³nh": 2009,
      "ĠKinh": 2010,
      "Ġtruy": 2011,
      "ĠDÅ©ng": 2012,
      "ĠViet": 2013,
      "ĠHÄĲ": 2014,
      "ĠRe": 2015,
      "ĠTriá»ģu": 2016,
      "Ġ40": 2017,
      "TC": 2018,
      "Ġláº¡c": 2019,
      "¥p": 2020,
      "Ġsáº¡ch": 2021,
      "ran": 2022,
      "Ġsáº¯p": 2023,
      "ĠTiáº¿n": 2024,
      "Ġmá»Ļ": 2025,
      "ĠHÆ°ng": 2026,
      "Ġtáº¯c": 2027,
      "ie": 2028,
      "Ġtrá»¥": 2029,
      "Ġthá»ıa": 2030,
      "ĠcÅ©": 2031,
      "ab": 2032,
      "ĠtháºŃm": 2033,
      "CÃ´ng": 2034,
      "ĠHiá»ĩn": 2035,
      "Ġcáº¥u": 2036,
      "Ġtá»ĵn": 2037,
      "ĠsÃ³c": 2038,
      "Ġtáº¡p": 2039,
      "ĠTrÆ°á»Łng": 2040,
      "ĠNgh": 2041,
      "Ġngáº¡i": 2042,
      "23": 2043,
      "Ġquáº§n": 2044,
      "Ġ2017": 2045,
      "ĠHiá»ĩp": 2046,
      "Ġngá»ĵi": 2047,
      "Ġsuá»ĳt": 2048,
      "Ġ2015": 2049,
      "uá»ķi": 2050,
      "Ġá»§ng": 2051,
      "ĠNgÃły": 2052,
      "ĠNhÃ¢n": 2053,
      "Ġháº£i": 2054,
      "Ġtráº¯ng": 2055,
      "ĠVá»Ľi": 2056,
      "ĠbÃ¡nh": 2057,
      "Ġxung": 2058,
      "Ġf": 2059,
      "Ġlai": 2060,
      "te": 2061,
      "ĠmÃ£": 2062,
      "Ġlan": 2063,
      "áº¤": 2064,
      "ĠtáºŃn": 2065,
      "Ġthá»«a": 2066,
      "TP": 2067,
      "áº¹n": 2068,
      "Ġchá»£": 2069,
      "kr": 2070,
      "ĠnghÃ¬n": 2071,
      "ump": 2072,
      "Ġngá»§": 2073,
      "ĠVN": 2074,
      "Ġtá»Ŀ": 2075,
      "Ġtháº£i": 2076,
      "ĠQuÃ¢n": 2077,
      "amp": 2078,
      "Ġkhá»ķ": 2079,
      "Ġcháº³ng": 2080,
      "Ġtháº§y": 2081,
      "ĠGD": 2082,
      "ĠHÆ°Æ¡ng": 2083,
      "Ġcoi": 2084,
      "Ġná»ķ": 2085,
      "ĠgiÃ¡c": 2086,
      "ĠDá»±": 2087,
      "Ġcha": 2088,
      "Ġ29": 2089,
      "ĠthiÃªn": 2090,
      "ĠsÃ³ng": 2091,
      "ĠdÆ°": 2092,
      "Ġtiá»ĥu": 2093,
      "ĠMar": 2094,
      "ĠgiÃ³": 2095,
      "EA": 2096,
      "Ġthá»ĭt": 2097,
      "ĠÄĳua": 2098,
      "Ġ199": 2099,
      "ĠAr": 2100,
      "ĠdÃ¢y": 2101,
      "Ġnguyá»ĩn": 2102,
      "ĠCÆ¡": 2103,
      "ĠThÃ´ng": 2104,
      "yria": 2105,
      "ĠPhÃºc": 2106,
      "ĠGia": 2107,
      "ĠthÃº": 2108,
      "ĠlÃ¡": 2109,
      "oan": 2110,
      "ĠlÅ©": 2111,
      "II": 2112,
      "do": 2113,
      "ĠVÄ©nh": 2114,
      "ĠÄĳÃŃch": 2115,
      "Ġchá»©a": 2116,
      "ĠmáºŃt": 2117,
      "Ġháº¥p": 2118,
      "ĠdÃµi": 2119,
      "ĠÄĳÆ°Æ¡ng": 2120,
      "Ġdá»¯": 2121,
      "á»ķng": 2122,
      "Ġchá»©": 2123,
      "ĠSyria": 2124,
      "ÄĲá»ĥ": 2125,
      "ĠnÃºi": 2126,
      "co": 2127,
      "ist": 2128,
      "krain": 2129,
      "ĠbáºŃt": 2130,
      "ĠBiÃªn": 2131,
      "Ġcháº¯n": 2132,
      "Ġngáº¯n": 2133,
      "ĠCáº£nh": 2134,
      "ĠkÃ©m": 2135,
      "Ġgá»ĳc": 2136,
      "²i": 2137,
      "ĠÄĳá»£t": 2138,
      "ĠthoÃ¡t": 2139,
      "ĠBa": 2140,
      "Ġdáº§n": 2141,
      "Ġnáº¯m": 2142,
      "á»Ļn": 2143,
      "ĠrÆ¡i": 2144,
      "ĠTrump": 2145,
      "Ġkhuyáº¿n": 2146,
      "ĠthÆ¡": 2147,
      "Ãºa": 2148,
      "ob": 2149,
      "ĠBÃ¡o": 2150,
      "ĠxÄĥng": 2151,
      "Tá»«": 2152,
      "Ġchá»Ł": 2153,
      "ĠAl": 2154,
      "Ġbáº¡c": 2155,
      "ĠNew": 2156,
      "ChÃ": 2157,
      "ĠdÆ°Æ¡ng": 2158,
      "ĠTáºŃp": 2159,
      "ank": 2160,
      "ĠNghá»ĩ": 2161,
      "ĠMan": 2162,
      "Ġbá»ĳi": 2163,
      "ĠkhÃ´": 2164,
      "Ġtháº§u": 2165,
      "ĠbÃ£o": 2166,
      "ĠNgoáº¡i": 2167,
      "ĠtrÄĥm": 2168,
      "Vá»ģ": 2169,
      "ĠÄĲá»Ļ": 2170,
      "Ġxáº¥u": 2171,
      "ĠPhá»": 2172,
      "Ġláº½": 2173,
      "ĠquÃł": 2174,
      "ĠÄĳá»ĭch": 2175,
      "ague": 2176,
      "ly": 2177,
      "Ġin": 2178,
      "Ġniá»ģm": 2179,
      "se": 2180,
      "ĠUkrain": 2181,
      "ĠBÃł": 2182,
      "Ġcá»±": 2183,
      "Ġmá»«ng": 2184,
      "ĠkhÃºc": 2185,
      "Ġnháº¯c": 2186,
      "ard": 2187,
      "ĳt": 2188,
      "ĠPhong": 2189,
      "Ġtráº¥n": 2190,
      "Ġlá»Ĺi": 2191,
      "įa": 2192,
      "XH": 2193,
      "ĠHá": 2194,
      "ĠHá»": 2195,
      "Ġcáº¥m": 2196,
      "ĠPar": 2197,
      "á»Ļp": 2198,
      "re": 2199,
      "Kh": 2200,
      "ĠvÃ©": 2201,
      "ĠhÃłi": 2202,
      "Ġgiáº£n": 2203,
      "Ġchá»¥p": 2204,
      "ĠphÃ³": 2205,
      "Ġ31": 2206,
      "ĠpháºŃn": 2207,
      "GT": 2208,
      "ĠPhan": 2209,
      "ĠThá»§y": 2210,
      "ĠPhÃ¡t": 2211,
      "CÃ³": 2212,
      "ĠLÃ½": 2213,
      "Å©i": 2214,
      "ook": 2215,
      "ĠnháºŃt": 2216,
      "Ġláº¡nh": 2217,
      "áº¤n": 2218,
      "ĠcÃº": 2219,
      "ĠhÆ°Æ¡ng": 2220,
      "Ġháº¡nh": 2221,
      "Ġxu": 2222,
      "Ġmáº½": 2223,
      "Ġtuyá»ĩt": 2224,
      "CC": 2225,
      "Ġsá»£": 2226,
      "ĠTá»īnh": 2227,
      "Ġcháº·n": 2228,
      "ĠViá»ĩn": 2229,
      "Ġthiá»ĩu": 2230,
      "ub": 2231,
      "ĠKhu": 2232,
      "ĠUkraine": 2233,
      "Ġhy": 2234,
      "ĠThuáºŃn": 2235,
      "BÃªn": 2236,
      "á»ĳn": 2237,
      "Ġtá»ıa": 2238,
      "ĠCS": 2239,
      "ĠCup": 2240,
      "Ġbá»ģn": 2241,
      "ĠTo": 2242,
      "ĠNÄĥm": 2243,
      "est": 2244,
      "ĠÄĳen": 2245,
      "2020": 2246,
      "ĠÄĲá»ĭnh": 2247,
      "Ġtim": 2248,
      "Ġbáº¡i": 2249,
      "Ľt": 2250,
      "¥t": 2251,
      "Ġphi": 2252,
      "ĠÄĳá»įc": 2253,
      "Ġgáº¯ng": 2254,
      "Ã©p": 2255,
      "Ġchá»¥c": 2256,
      "%,": 2257,
      "ĠphÃ¡n": 2258,
      "ĠVinh": 2259,
      "ld": 2260,
      "2021": 2261,
      "ĠkÃªu": 2262,
      "Æ°Æ¡i": 2263,
      "don": 2264,
      "ĠTrá": 2265,
      "ĠTrá»": 2266,
      "įt": 2267,
      "Ġi": 2268,
      "Ġnáº¯ng": 2269,
      "Ġkháº©n": 2270,
      "ĠbÃło": 2271,
      "ĠkhoÃ¡n": 2272,
      "ĠcháºŃm": 2273,
      "ĠkÃ¨": 2274,
      "ÄĲÃ¢y": 2275,
      "ĠTrang": 2276,
      "Ġmiá»ħn": 2277,
      "mar": 2278,
      "Ä©a": 2279,
      "Ġmá»Ŀi": 2280,
      "kg": 2281,
      "ĠÄĳÃłm": 2282,
      "ĠtÃ´n": 2283,
      "ĠNha": 2284,
      "Æ°á»Ŀn": 2285,
      "ĠsÃºng": 2286,
      "ĠcÃł": 2287,
      "ill": 2288,
      "ĠngÅ©": 2289,
      "ĠÄĳá»¡": 2290,
      "Ġsá»¹": 2291,
      "Ġ2014": 2292,
      "ĠÄĳÃ¡m": 2293,
      "ĠVÃ¢n": 2294,
      "ina": 2295,
      "Ġlá»¥c": 2296,
      "Ġ60": 2297,
      "Ġláº¡": 2298,
      "ĠViá»ĩc": 2299,
      "ĠLa": 2300,
      "ĠlÆ°á»Ľi": 2301,
      "ĠhÆ¡i": 2302,
      "Ġkim": 2303,
      "ĠTrÆ°á»Ľc": 2304,
      "ĠNhiá»ģu": 2305,
      "ĠbÃŃ": 2306,
      "ĠrÃ¡c": 2307,
      "ĠÄĲÃło": 2308,
      "LB": 2309,
      "Ġngá»į": 2310,
      "ĠVÃł": 2311,
      "Æ°á»Ľp": 2312,
      "ĠGiÃ¡o": 2313,
      "ines": 2314,
      ");": 2315,
      "Ġkáº»": 2316,
      "ĠThiÃªn": 2317,
      "ĠTPHCM": 2318,
      "Ġáº¤n": 2319,
      "Ġhuáº¥n": 2320,
      "ĠtrÃło": 2321,
      "ce": 2322,
      "Nhiá»ģu": 2323,
      "Náº¿u": 2324,
      "Ġtá»ĩ": 2325,
      "ĠÄĳoÃ¡n": 2326,
      "ĠHuy": 2327,
      "Ġláº¯ng": 2328,
      "»©c": 2329,
      "á»©c": 2330,
      "ha": 2331,
      "Ġtuy": 2332,
      "ĠthÃ¡ch": 2333,
      "ĠTáº¡i": 2334,
      "Ġphá»©c": 2335,
      "Ġquáº£ng": 2336,
      "200": 2337,
      "Ġthua": 2338,
      "ĠgÆ°Æ¡ng": 2339,
      "Ġrau": 2340,
      "Ġtri": 2341,
      "Ġká»ĭch": 2342,
      "ĠÄĲáº¿n": 2343,
      "Ġsáº¯t": 2344,
      "Ġduyá»ĩt": 2345,
      "ĠmÃ¡i": 2346,
      "ĠgiÃłu": 2347,
      "áº¯k": 2348,
      "Ġná»Ļp": 2349,
      "Ġgh": 2350,
      "Ġháº§u": 2351,
      "ĠhÃ¨": 2352,
      "ĠÄĲH": 2353,
      "Ġru": 2354,
      "ĠrÃłng": 2355,
      "Ġbáº¯n": 2356,
      "ib": 2357,
      "Ġngo": 2358,
      "ĠTHPT": 2359,
      "ck": 2360,
      "Ġliá»ģn": 2361,
      "ĠnhuáºŃn": 2362,
      "pp": 2363,
      "Ġbá»ĵi": 2364,
      "Ġgá»¡": 2365,
      "ĠDu": 2366,
      "Ã³t": 2367,
      "lo": 2368,
      "ĠgÃ³i": 2369,
      "Ġrá»Ŀi": 2370,
      "ĠChÃºng": 2371,
      "á»Ļm": 2372,
      "ĠhoÃłng": 2373,
      "NÄĥm": 2374,
      "/.": 2375,
      "Ġhiá»ĩp": 2376,
      "ĠhÃ£y": 2377,
      "ĠBr": 2378,
      "onal": 2379,
      "ģm": 2380,
      "ĠLÃło": 2381,
      "Ġbá»Ŀ": 2382,
      "Ġngá»«ng": 2383,
      "iáº¿ng": 2384,
      "Ġlinh": 2385,
      "HÃł": 2386,
      "ian": 2387,
      "ĠÄĳá»©a": 2388,
      "od": 2389,
      "ĠbÃ¨": 2390,
      "ĠngÆ°á»£c": 2391,
      "Ã£y": 2392,
      "Ġkiá»ĥu": 2393,
      "ĠHai": 2394,
      "ĠCÃ´": 2395,
      "ĠthÃ´i": 2396,
      "ore": 2397,
      "Ġpha": 2398,
      "ĠPhÆ°á»Ľc": 2399,
      "Ġlá»ĳi": 2400,
      "ĠÄĲiá»ĩn": 2401,
      "ĠHCM": 2402,
      "Ġdá»©t": 2403,
      "Ġtáº¥m": 2404,
      "ĠsÃłn": 2405,
      "ĠÄĳÃ²i": 2406,
      "Ġcáº·p": 2407,
      "ĩt": 2408,
      "ĠTÆ°": 2409,
      "Tá»ķng": 2410,
      "Ġsá»©": 2411,
      "Ã³i": 2412,
      "¨n": 2413,
      "ĠBÃªn": 2414,
      "ĠbÄĥng": 2415,
      "Ġkhiá»ĥn": 2416,
      "Ġthai": 2417,
      "Ġ198": 2418,
      "Ġhuyáº¿t": 2419,
      "Viá»ĩc": 2420,
      "Ġná»Ńa": 2421,
      "ĠBH": 2422,
      "ess": 2423,
      "ĠCao": 2424,
      "ĠNÃ´ng": 2425,
      "Ġbang": 2426,
      "ĠÄĲÃ³": 2427,
      "ĠcÆ°á»Ľi": 2428,
      "ĠÄĳem": 2429,
      "ĠdÃłng": 2430,
      "net": 2431,
      "ĠtráºŃt": 2432,
      "ĠTÄ©nh": 2433,
      "ĠbÃ£i": 2434,
      "ĠtÃ¡": 2435,
      "âĢĻ": 2436,
      "CÅ©ng": 2437,
      "ĠHuáº¿": 2438,
      "HH": 2439,
      "Ġcá»±u": 2440,
      "Ġquá»¹": 2441,
      "ou": 2442,
      "ĠCLB": 2443,
      "Ġchiáº¿u": 2444,
      "ĠQuáº£n": 2445,
      "ty": 2446,
      "ity": 2447,
      "ĠKhoa": 2448,
      "ĠChÆ°Æ¡ng": 2449,
      "§i": 2450,
      "ĠkÃŃnh": 2451,
      "lip": 2452,
      "ĠmÃª": 2453,
      "LÄĲ": 2454,
      "Ġmáº¥y": 2455,
      "Ġsá»¯a": 2456,
      "qu": 2457,
      "ĠNhÆ°": 2458,
      "az": 2459,
      "Ġxong": 2460,
      "á»¯u": 2461,
      "ĠTháº¯ng": 2462,
      "ĠtÃ³c": 2463,
      "ĠCáº§n": 2464,
      "Ġhá»§y": 2465,
      "Æ¯": 2466,
      "15": 2467,
      "Æ°á»£u": 2468,
      "ĠLá»Ļc": 2469,
      "Ġtiá»ģm": 2470,
      "ĠtÆ°Æ¡i": 2471,
      "¹a": 2472,
      "ĠHá»¯u": 2473,
      "Ġthá»ķ": 2474,
      "ChÃºng": 2475,
      "Ġ500": 2476,
      "Ġthiá»ĥu": 2477,
      "ÄĲáº¡i": 2478,
      "Ġkháº¯p": 2479,
      "ĠAS": 2480,
      "22": 2481,
      "Ġláº«n": 2482,
      "ĠCÆ°á»Ŀng": 2483,
      "ĠkhÃ¡ng": 2484,
      "ĠDÃ¢n": 2485,
      "ĠÄĲáº·c": 2486,
      "Ġo": 2487,
      "ĠcÆ°á»Ŀi": 2488,
      "PhÃ¡t": 2489,
      "ĠHá»į": 2490,
      "ĠQuyáº¿t": 2491,
      "ĠkÃªnh": 2492,
      "ĠVÃµ": 2493,
      "Ġchá»ĳt": 2494,
      "Ġmá»¹": 2495,
      "ĠSa": 2496,
      "ĠMal": 2497,
      "nam": 2498,
      "ĠcÄĥng": 2499,
      "Ġ2013": 2500,
      "ĠdÃ¡ng": 2501,
      "Ġgáº¥p": 2502,
      "Ġ70": 2503,
      "ĠmÆ°u": 2504,
      "Ġxáº¿": 2505,
      "Ġkhen": 2506,
      "Ġkm": 2507,
      "ÄĲá»ĵng": 2508,
      "Ġdá»ĭ": 2509,
      "ĠDuy": 2510,
      "sia": 2511,
      "Ġngang": 2512,
      "ĠSÃłi": 2513,
      "io": 2514,
      "./.": 2515,
      "ÃŃt": 2516,
      "Ġcuá»ĳn": 2517,
      "ĠBÃ¹i": 2518,
      "Ġw": 2519,
      "ĠTT": 2520,
      "ĠngÃ´n": 2521,
      "ĠrÆ°á»£u": 2522,
      "ĠÄĲá»ĥ": 2523,
      "SÃ¡ng": 2524,
      "ĠPhi": 2525,
      "ĠTNHH": 2526,
      "Ã´m": 2527,
      "Ġdá»±a": 2528,
      "Ġcháº¡m": 2529,
      "ich": 2530,
      "ĠÄĳoáº¡t": 2531,
      "Ġdá»įa": 2532,
      "Ġdao": 2533,
      "ĠcÆ¡n": 2534,
      "Ġcháº¥n": 2535,
      "TS": 2536,
      "ĠkhÃŃch": 2537,
      "CN": 2538,
      "orld": 2539,
      "ĠÄĲáº§u": 2540,
      "ĠtrÆ°ng": 2541,
      "ĠThÆ¡": 2542,
      "ax": 2543,
      "ĠGÃ²n": 2544,
      "ĠBar": 2545,
      "Ġtrá»¯": 2546,
      "Ġláº»": 2547,
      "¥y": 2548,
      "ĠyÃªn": 2549,
      "ÄĲáº¿n": 2550,
      "ey": 2551,
      "Ġcháº½": 2552,
      "vn": 2553,
      "ĠrÃł": 2554,
      "com": 2555,
      "ĠÄĳá»£i": 2556,
      "ĠÄĳá»īnh": 2557,
      "ĠTrá»įng": 2558,
      "Anh": 2559,
      "Ġáº¥m": 2560,
      "ĠchÃło": 2561,
      "ort": 2562,
      "Ġváº¿t": 2563,
      "ĠTrÆ°Æ¡ng": 2564,
      "Do": 2565,
      "ÄĲá»ĳi": 2566,
      "ĠlÃ¢y": 2567,
      "ĠhÃ¢m": 2568,
      "iz": 2569,
      "ĠhÃło": 2570,
      "Ġthuyá»ģn": 2571,
      "ĠchÃºt": 2572,
      "ĠThe": 2573,
      "ĠcáºŃu": 2574,
      "Ġkiá»ĩm": 2575,
      "ĠÄĲá»Ļi": 2576,
      "ord": 2577,
      "ebook": 2578,
      "ĠkÃ¨m": 2579,
      "Ġung": 2580,
      "ĠVÆ°Æ¡ng": 2581,
      "ĠmÅ©i": 2582,
      "ĠngáºŃp": 2583,
      "Ġpháº¥n": 2584,
      "ĠJo": 2585,
      "Ġro": 2586,
      "Ġmáº¯n": 2587,
      "ĠCÃ²n": 2588,
      "ĠtháºŃp": 2589,
      "Ġ2012": 2590,
      "ÄĲÆ°á»£c": 2591,
      "Trung": 2592,
      "CP": 2593,
      "ĠÆ¡n": 2594,
      "ĠcÆ°á»Ľp": 2595,
      "CS": 2596,
      "Ġmáº¡c": 2597,
      "£n": 2598,
      "Ġcháº¥m": 2599,
      "acebook": 2600,
      "Ġgáº¡o": 2601,
      "ĠGiao": 2602,
      "st": 2603,
      "Ġ2023": 2604,
      "2018": 2605,
      "ĠThá»©": 2606,
      "Ġcáº£ng": 2607,
      "Ġháº¹n": 2608,
      "ĠSt": 2609,
      "ĠgÃł": 2610,
      "ĠLÆ°Æ¡ng": 2611,
      "Ġchá»§ng": 2612,
      "ĠÄĳe": 2613,
      "Ġtháº»": 2614,
      "if": 2615,
      "Ġbuá»ĵn": 2616,
      "Ġmáº¡ch": 2617,
      "ĠtÃºi": 2618,
      "ack": 2619,
      "ĠgiáºŃt": 2620,
      "2019": 2621,
      "Ġtráº¡m": 2622,
      "acc": 2623,
      "Ġmá»ģm": 2624,
      "Ġtrá»Ļm": 2625,
      "ĠÄĳÃ¨n": 2626,
      "2022": 2627,
      "Ġtung": 2628,
      "Ġxá»©": 2629,
      "ev": 2630,
      "ĠbuÃ´n": 2631,
      "ĠtháºŃn": 2632,
      "nÄĥm": 2633,
      "á»ĳt": 2634,
      "Ġhuá»ĳng": 2635,
      "ĠngÃłn": 2636,
      "NN": 2637,
      "Ġ35": 2638,
      "ĠXÃ¢y": 2639,
      "ĠPV": 2640,
      "ĠchÃłng": 2641,
      "Ġsáº¡n": 2642,
      "Cá»¥": 2643,
      "ĠWorld": 2644,
      "deo": 2645,
      "áºŃc": 2646,
      "ĠtrÃºng": 2647,
      "»ŀ": 2648,
      "á»ŀ": 2649,
      "ĠlÃ¢m": 2650,
      "Chá»§": 2651,
      "how": 2652,
      "Ġvideo": 2653,
      "ĠLeague": 2654,
      "ok": 2655,
      "Ġsá»ĳt": 2656,
      "Ġthuyáº¿t": 2657,
      "ĠNai": 2658,
      "Ġ80": 2659,
      "era": 2660,
      "ĠIran": 2661,
      "Ġtrá»«": 2662,
      "ĠThÆ°á»£ng": 2663,
      "ĠkhuÃ´n": 2664,
      "ĠlÃºa": 2665,
      "ĠÄĲÃłi": 2666,
      "Ġngá»¯": 2667,
      "ĠÄĳáº³ng": 2668,
      "Ġkháº¥u": 2669,
      "Ġhoáº£ng": 2670,
      "ĠHy": 2671,
      "Ã£ng": 2672,
      "ĠbáºŃc": 2673,
      "500": 2674,
      "son": 2675,
      "ĠHÄĲND": 2676,
      "ĠmÆ¡": 2677,
      "km": 2678,
      "Ġvá»¡": 2679,
      "ez": 2680,
      "ĠnÃ©t": 2681,
      "2016": 2682,
      "BÃł": 2683,
      "ĠtrÃŃch": 2684,
      "ĠMy": 2685,
      "ĠÄĳuá»ķi": 2686,
      "Ġgiáº¿t": 2687,
      "Ġhá»ģ": 2688,
      "ĠthÃ¡o": 2689,
      "Ġgá»Ĺ": 2690,
      "da": 2691,
      "Ġ300": 2692,
      "ĠrÃło": 2693,
      "2017": 2694,
      "Ġláº¯m": 2695,
      "ĠCon": 2696,
      "ĠghÃ": 2697,
      "ĠÄĳáº¡n": 2698,
      "accine": 2699,
      "ĠlÃłn": 2700,
      "ĠvÆ°á»Ŀn": 2701,
      "Ġkhung": 2702,
      "ĠHÃłng": 2703,
      "Phone": 2704,
      "ĠnÃłng": 2705,
      "EAN": 2706,
      "ĠLai": 2707,
      "60": 2708,
      "ĠÄĲá»Ĺ": 2709,
      "Ġgiáº£ng": 2710,
      "ĠngÃ£": 2711,
      "ah": 2712,
      "2015": 2713,
      "ell": 2714,
      "TVT": 2715,
      "ĠÄĳai": 2716,
      "ĠSh": 2717,
      "ĠThá»Ŀi": 2718,
      "alia": 2719,
      "á»ĭa": 2720,
      "ĠgÃ³c": 2721,
      "ĠNgÃ´": 2722,
      "ĠInter": 2723,
      "ĠÃ©p": 2724,
      "Ġáº©n": 2725,
      "ĠtrÃ¹ng": 2726,
      "uch": 2727,
      "NT": 2728,
      "gi": 2729,
      "ry": 2730,
      "Dá»±": 2731,
      "ĠLao": 2732,
      "40": 2733,
      "Ġláº¯p": 2734,
      "esia": 2735,
      "ĠtrÃºc": 2736,
      "Ġtá»¥": 2737,
      "18": 2738,
      "Ġ90": 2739,
      "Ġvaccine": 2740,
      "ĠPr": 2741,
      "ĠtÃ¡n": 2742,
      "ĠNghÄ©a": 2743,
      "donesia": 2744,
      "ĠlÃłnh": 2745,
      "45": 2746,
      "ĠTÃ¢m": 2747,
      "Ngay": 2748,
      "NG": 2749,
      "ĠPhil": 2750,
      "CÃ¹ng": 2751,
      "ĠthÃ¹": 2752,
      "Ġgiam": 2753,
      "ĠÄĳÃ¡o": 2754,
      "ĠGiá»": 2755,
      "AND": 2756,
      "Ġbáº¡o": 2757,
      "ĠCá»Ļng": 2758,
      "Ġmai": 2759,
      "Ġchuá»Ĺi": 2760,
      "Ġtáº£ng": 2761,
      "Ġhá»©ng": 2762,
      "ĠxÃ¢m": 2763,
      "ĠBiá»ĥn": 2764,
      "Chiá»ģu": 2765,
      "ĠÄĲa": 2766,
      "sen": 2767,
      "Ġxo": 2768,
      "ĠÄĲá»ĳi": 2769,
      "ĠCity": 2770,
      "iáº¿c": 2771,
      "ĠgiÃł": 2772,
      "ĠThá»į": 2773,
      "rus": 2774,
      "Ġtrá»ĳn": 2775,
      "Ġná»Ĺi": 2776,
      "Ġmu": 2777,
      "ThÃ´ng": 2778,
      "ĠASEAN": 2779,
      "25": 2780,
      "Ġtang": 2781,
      "ĠtÃºc": 2782,
      "ĠKiá»ĥm": 2783,
      "ĠTiá»ģn": 2784,
      "Ġhiáº¿n": 2785,
      "Ġngá»įt": 2786,
      "ĠHáºŃu": 2787,
      "aysia": 2788,
      "ĠviÃªm": 2789,
      "Ġthá»Ł": 2790,
      "ĠPark": 2791,
      "ĠCá»¥": 2792,
      "Ġrá»ĳi": 2793,
      "Ġrá»§i": 2794,
      "17": 2795,
      "TrÃªn": 2796,
      "Ġgháº¿": 2797,
      "ĠChiáº¿n": 2798,
      "Ġlá»«a": 2799,
      "GiÃ¡": 2800,
      "ipp": 2801,
      "ĠMáº¡nh": 2802,
      "ĠÄĳÃ¢m": 2803,
      "Thá»Ŀi": 2804,
      "ĠhÃ¹ng": 2805,
      "ĠQuy": 2806,
      "ĠIs": 2807,
      "ĠÄĳá»©c": 2808,
      "ĠGTVT": 2809,
      "Ġcháº£y": 2810,
      "Ġngon": 2811,
      "Ġ197": 2812,
      "ĠbÃ³": 2813,
      "Ġlá»£n": 2814,
      "ĠxÃ³m": 2815,
      "ĠngoÃ¡i": 2816,
      "ĠchÃºc": 2817,
      "ĠEU": 2818,
      "ĠHáº¡": 2819,
      "ĠcÆ¡m": 2820,
      "Ġá»ŀ": 2821,
      "ĠbÃ¹": 2822,
      "Ġbom": 2823,
      "NhÃł": 2824,
      "ĠCP": 2825,
      "PhÃ³": 2826,
      "ama": 2827,
      "ĠtáºŃt": 2828,
      "16": 2829,
      "Ġtá»ķn": 2830,
      "KS": 2831,
      "Ġbá»¯a": 2832,
      "ĠkiÃªn": 2833,
      "ec": 2834,
      "Ġloáº¡n": 2835,
      "ĠbÃ²": 2836,
      "han": 2837,
      "ĠIndonesia": 2838,
      "ĠSing": 2839,
      "áº³": 2840,
      "ĠKáº¿t": 2841,
      "ĠtrÃ´ng": 2842,
      "Ġngá»«a": 2843,
      "ĠdáºŃy": 2844,
      "ĠMo": 2845,
      "ĠquÃªn": 2846,
      "ĠDÃ¹": 2847,
      "Ġnon": 2848,
      "Ġhuynh": 2849,
      "Ġcáº£n": 2850,
      "Ġxinh": 2851,
      "ĠÄĳá»ĳt": 2852,
      "ĠÄĳÃłi": 2853,
      "ĠÄĲáº·ng": 2854,
      "ĠQuá»³nh": 2855,
      "lÆ°á»£ng": 2856,
      "AR": 2857,
      "Ġ36": 2858,
      "apore": 2859,
      "ĠchÃ³": 2860,
      "ĠMalaysia": 2861,
      "Ġhiáº¿m": 2862,
      "ĠiPhone": 2863,
      "ĠToÃłn": 2864,
      "Nguá»ĵn": 2865,
      "ĠÄĳáºŃp": 2866,
      "ff": 2867,
      "ĠEm": 2868,
      "Ġlá»Ĺ": 2869,
      "ĠngÆ°": 2870,
      "ĠGiáº£i": 2871,
      "Ġá»ĳng": 2872,
      "Ġclip": 2873,
      "24": 2874,
      "Ġvirus": 2875,
      "Thá»§": 2876,
      "Ġtráº¡i": 2877,
      "ĠLoan": 2878,
      "ĠTÃ¹ng": 2879,
      "Ġgiá»ıi": 2880,
      "Ġhá»ĵng": 2881,
      "ĠSu": 2882,
      "ĠphÃº": 2883,
      "ĠdÃły": 2884,
      "ĠCáº§u": 2885,
      "ĠchÄĥn": 2886,
      "Ġkia": 2887,
      "ĠmÃ£i": 2888,
      "ĠÄĳáºŃu": 2889,
      "ĠthÆ°á»£ng": 2890,
      "Ġngá»¥": 2891,
      "ĠSp": 2892,
      "Ġvinh": 2893,
      "35": 2894,
      "ĠHuá»³nh": 2895,
      "Ã£nh": 2896,
      "ashi": 2897,
      "Ġ2011": 2898,
      "ĠÄĳÃ£i": 2899,
      "ĠThá»ķ": 2900,
      "sk": 2901,
      "ier": 2902,
      "Ġbáº¡ch": 2903,
      "ĠBá»Łi": 2904,
      "ta": 2905,
      "ÄĲiá»ģu": 2906,
      "14": 2907,
      "DÃ¹": 2908,
      "ĠNhÃ": 2909,
      "ames": 2910,
      "ĠbÃ¹ng": 2911,
      "Ġngáº§m": 2912,
      "ĠngÆ°á»¡ng": 2913,
      "ĠvÆ°á»Ľng": 2914,
      "ĠphÃ¡o": 2915,
      "ĠCamp": 2916,
      "ĠAF": 2917,
      "ĠPhilipp": 2918,
      "Ġ45": 2919,
      "ĠVá»¥": 2920,
      "Ġuy": 2921,
      "Ġdá»¥": 2922,
      "Ġhá»ıa": 2923,
      "ĠtÃ¹y": 2924,
      "Ġha": 2925,
      "2014": 2926,
      "ĠlÃ£m": 2927,
      "ĠNhÄ©": 2928,
      "ĠNháº¥t": 2929,
      "Sá»±": 2930,
      "áº³n": 2931,
      "ĠSá»±": 2932,
      "ĠgiÃ¡p": 2933,
      "og": 2934,
      "iá»ĩng": 2935,
      "iver": 2936,
      "ĠTrÃł": 2937,
      "Ġtháº£m": 2938,
      "ĠnhÅ©ng": 2939,
      "Ġpháº«u": 2940,
      "21": 2941,
      "ĠÄĲT": 2942,
      "ĠÄĲinh": 2943,
      "Ľp": 2944,
      "Ġhoang": 2945,
      "ĠKáº¿": 2946,
      "pple": 2947,
      "Ġcá»Ļt": 2948,
      "ĠSingapore": 2949,
      "sea": 2950,
      "ĠTháº£o": 2951,
      "Ġbá»¥ng": 2952,
      "ĠkÃŃn": 2953,
      "ĠtÃ´ng": 2954,
      "Ġrá»Ńa": 2955,
      "AT": 2956,
      "ĠloÃłi": 2957,
      "XVN": 2958,
      "ĠUn": 2959,
      "ĠthÃ©p": 2960,
      "ĠLá»ħ": 2961,
      "áº«y": 2962,
      "ĠFacebook": 2963,
      "Ġsáº¯m": 2964,
      "ĠnÃ©": 2965,
      "Ġhá»ıng": 2966,
      "Ġmiá»ĩng": 2967,
      "ĠchÃ¬": 2968,
      "ĠtrÃłn": 2969,
      "Ġbáº¿n": 2970,
      "ri": 2971,
      "ĠniÃªm": 2972,
      "Ġhá»Ļp": 2973,
      "Ġsá»ķ": 2974,
      "ĠÄĳá»ĵn": 2975,
      "ĠMáº·t": 2976,
      "rid": 2977,
      "ĠbÃª": 2978,
      "ber": 2979,
      "ĠCan": 2980,
      "NhÆ°": 2981,
      "VÃ¬": 2982,
      "ĠÄĳiá»ĥn": 2983,
      "Ġháº³n": 2984,
      "Ġe": 2985,
      "Ġmá»ĩnh": 2986,
      "»·": 2987,
      "á»·": 2988,
      "Co": 2989,
      "ĠkhÃ³c": 2990,
      "Hai": 2991,
      "Ġlá»įc": 2992,
      "Ġtriá»ĩt": 2993,
      "Ġnáº¥u": 2994,
      "ĠsÃºt": 2995,
      "Má»¹": 2996,
      "Ġthang": 2997,
      "ĠCá»ķ": 2998,
      "ĠAir": 2999,
      "Ġtiáº¿c": 3000,
      "CB": 3001,
      "ĠTÃłu": 3002,
      "und": 3003,
      "ud": 3004,
      "ĠnhÆ°á»£ng": 3005,
      "ern": 3006,
      "elsea": 3007,
      "Ġgiá»įng": 3008,
      "Káº¿t": 3009,
      "ters": 3010,
      "ĠKho": 3011,
      "ĠÄĲáº¯k": 3012,
      "ĠTuyÃªn": 3013,
      "ĠlÃ´": 3014,
      "ĠQuÃ½": 3015,
      "ĠPhilippines": 3016,
      "Ġnháº¯n": 3017,
      "ĠTrá»ĭ": 3018,
      "Ġváº¯c": 3019,
      "ustr": 3020,
      "áº¥c": 3021,
      "ĠhÆ°": 3022,
      "ona": 3023,
      "line": 3024,
      "Ġruá»Ļt": 3025,
      "ĠHá»£p": 3026,
      "man": 3027,
      "ĠmÃ¡t": 3028,
      "ĠTáº¥n": 3029,
      "uchia": 3030,
      "ĠCSGT": 3031,
      "ĠHoÃłn": 3032,
      "ĠBáº±ng": 3033,
      "Ġnháº£y": 3034,
      "ĠnÃ£o": 3035,
      "Ġáº©m": 3036,
      "uro": 3037,
      "Ġkhoe": 3038,
      "Ġkhuáº©n": 3039,
      "Ġ32": 3040,
      "ico": 3041,
      "Vá»¥": 3042,
      "ĠHá»ĵi": 3043,
      "hÃŃnh": 3044,
      "Ġga": 3045,
      "ĠCÄĲ": 3046,
      "ĠÄĳá»ģn": 3047,
      "13": 3048,
      "ĠcÃ£i": 3049,
      "ĠMad": 3050,
      "ĠtÃłng": 3051,
      "Ġláº¡m": 3052,
      "Ġchá»ĳi": 3053,
      "Ġdinh": 3054,
      "ĠNH": 3055,
      "ĠthÄĥng": 3056,
      "ĠHoÃłi": 3057,
      "ĠReal": 3058,
      "2013": 3059,
      "ĠVin": 3060,
      "ĠvÃŃ": 3061,
      "ĠCN": 3062,
      "ĠÄĲÆ°á»Ŀng": 3063,
      "ĠHáº±ng": 3064,
      "Ġcá»Ŀ": 3065,
      "ĠSam": 3066,
      "ĠBV": 3067,
      "Ġnhi": 3068,
      "all": 3069,
      "ĠThá»±c": 3070,
      "ĠdÃ¡m": 3071,
      "Ġsu": 3072,
      "Ġhá»©a": 3073,
      "ĠTS": 3074,
      "ĠAs": 3075,
      "ĠgiÃ£n": 3076,
      "ĠBáº¡n": 3077,
      "ĠBl": 3078,
      "ĠNhá»": 3079,
      "ĠBÃ¡c": 3080,
      "ĠApple": 3081,
      "ĠbÃ¢y": 3082,
      "Ġtrá»©ng": 3083,
      "eg": 3084,
      "Ġráº»": 3085,
      "ĠxÆ°a": 3086,
      "ĠPhÆ°á»£ng": 3087,
      "Ġcanh": 3088,
      "ĠNgay": 3089,
      "ĠxuÃ¢n": 3090,
      "ĠQua": 3091,
      "ĠLÆ°u": 3092,
      "ĠchÃ©": 3093,
      "ĠCá": 3094,
      "ĠCá»": 3095,
      "Ġfan": 3096,
      "ĠThÃº": 3097,
      "ĠKiÃªn": 3098,
      "LiÃªn": 3099,
      "Thá»±c": 3100,
      "80": 3101,
      "SC": 3102,
      "istan": 3103,
      "Ġtrá»¥c": 3104,
      "Thá»©": 3105,
      "Máº·c": 3106,
      "ĠÄĳáºŃm": 3107,
      "Ġthá»Ŀ": 3108,
      "tá": 3109,
      "tá»": 3110,
      "Lá": 3111,
      "Lá»": 3112,
      "Ġthuáº«n": 3113,
      "po": 3114,
      "70": 3115,
      "ĠchÃ¹a": 3116,
      "ĠCampuchia": 3117,
      "ĠmÃ¹i": 3118,
      "ĠHá»įc": 3119,
      "ĠnhiÃªu": 3120,
      "Ġweb": 3121,
      "ei": 3122,
      "Ġvá»ı": 3123,
      "In": 3124,
      "ĠCA": 3125,
      "ĠcÃ¡t": 3126,
      "ĠTÃº": 3127,
      "ĠnhÃ¡nh": 3128,
      "Ġliá»ģu": 3129,
      "ĠBarc": 3130,
      "ĠxÆ°Æ¡ng": 3131,
      "CÃ²n": 3132,
      "Ġtráº§m": 3133,
      "Ġlá»Ł": 3134,
      "ĠsÃ´i": 3135,
      "ĠSong": 3136,
      "ĠdÃ¢u": 3137,
      "uters": 3138,
      "ĠtÆ°á»Ŀng": 3139,
      "Ã½t": 3140,
      "uk": 3141,
      "ĠnhÃ£n": 3142,
      "ĠthÃ³": 3143,
      "Ġgá»£i": 3144,
      "ĠdÃ´ng": 3145,
      "ĠSá»ĳ": 3146,
      "ĠtÃ´m": 3147,
      "Ġmá»±c": 3148,
      "Ġcamera": 3149,
      "ĠcÆ°Æ¡ng": 3150,
      "á»įi": 3151,
      "tÃ´": 3152,
      "Ġche": 3153,
      "bank": 3154,
      "ĠÄĳá»«ng": 3155,
      "ĠÄĳiá»ĩu": 3156,
      "ĠIS": 3157,
      "Ġmá»ĳc": 3158,
      "ĠChÃ¡nh": 3159,
      "Æ°Æ¡n": 3160,
      "hoáº£ng": 3161,
      "ĠlÃ£ng": 3162,
      "ep": 3163,
      "ĠNgÃ£i": 3164,
      "ĠThá»¥y": 3165,
      "ĠbÃ¡m": 3166,
      "CT": 3167,
      "Giá»": 3168,
      "Ġcá»©ng": 3169,
      "90": 3170,
      "ustralia": 3171,
      "ĠTiá»ĥu": 3172,
      "ChÃŃnh": 3173,
      "Ġtreo": 3174,
      "NH": 3175,
      "amin": 3176,
      "ĠDi": 3177,
      "Ġbáº¿p": 3178,
      "ĠCar": 3179,
      "Ġcá»ĳt": 3180,
      "ĠBHXH": 3181,
      "ĠdÃ¢m": 3182,
      "rael": 3183,
      "Ġgá»įn": 3184,
      "ĠTruyá»ģn": 3185,
      "ĠvÃ¡y": 3186,
      "ĠChelsea": 3187,
      "2023": 3188,
      "Ġbá»Ļt": 3189,
      "Ġshow": 3190,
      "ĠtuÃ¢n": 3191,
      "Ġxá»©ng": 3192,
      "hn": 3193,
      "ada": 3194,
      "ĠMá»Ĺi": 3195,
      "ers": 3196,
      "Ġyáº¿t": 3197,
      "Ġ33": 3198,
      "ĠÃ´m": 3199,
      "ĠxÃ³a": 3200,
      "ĠTáº¥t": 3201,
      "ĠTam": 3202,
      "Ġven": 3203,
      "ĠTrÃªn": 3204,
      "ĠChung": 3205,
      "ne": 3206,
      "Chá»ī": 3207,
      "ĠNhi": 3208,
      "ass": 3209,
      "iss": 3210,
      "ork": 3211,
      "NhÆ°ng": 3212,
      "ĠláºŃu": 3213,
      "ow": 3214,
      "onald": 3215,
      "ĠtrÆ°a": 3216,
      "CÃ´": 3217,
      "ĠÄĳÃł": 3218,
      "Ġdiá»ĩt": 3219,
      "ĠdÆ°á»£c": 3220,
      "ĠCÃ¹ng": 3221,
      "Má»Ľi": 3222,
      "ĠtÃ¢y": 3223,
      "ÃŃch": 3224,
      "xi": 3225,
      "Ġgiáº¥u": 3226,
      "Qua": 3227,
      "ĠÄĳiá»ĩp": 3228,
      "Ġmá»ĩt": 3229,
      "Ġbá»ĳc": 3230,
      "mp": 3231,
      "iet": 3232,
      "mart": 3233,
      "Ġtiá»ħn": 3234,
      "ĠKhÃ": 3235,
      "Ġ&": 3236,
      "Ġtráº§n": 3237,
      "chá»": 3238,
      "ĠBÄĲ": 3239,
      "VÃło": 3240,
      "ĠTAND": 3241,
      "ĠtÃ¢n": 3242,
      "¥i": 3243,
      "ĠHiáº¿u": 3244,
      "CoV": 3245,
      "ngÃły": 3246,
      "GS": 3247,
      "Le": 3248,
      "ht": 3249,
      "ĠVietnam": 3250,
      "Ġcá»ķng": 3251,
      "Ã¹a": 3252,
      "ĠchÃª": 3253,
      "Ġ2010": 3254,
      "ĠCai": 3255,
      "Ġbá»ĳn": 3256,
      "ĠChu": 3257,
      "ĠAustralia": 3258,
      "ĠTÃ²a": 3259,
      "Ġphá»ıng": 3260,
      "ĠlÆ°ng": 3261,
      "Ġmá»ıi": 3262,
      "ÄĲáº·c": 3263,
      "Ġquang": 3264,
      "Ġ,": 3265,
      "Ġthan": 3266,
      "ĠÄĲá»ģ": 3267,
      "ĠÄĳeo": 3268,
      "senal": 3269,
      "Ġláº§m": 3270,
      "ĠLÃºc": 3271,
      "ĠIsrael": 3272,
      "27": 3273,
      "ĠmÃ¢y": 3274,
      "ĠReuters": 3275,
      "Ġtáº£": 3276,
      "Ġal": 3277,
      "Ġvá»Ŀi": 3278,
      "Ġtáº¯m": 3279,
      "Ġgam": 3280,
      "áº¹t": 3281,
      "Ġ38": 3282,
      "Ġ.": 3283,
      "Ġ37": 3284,
      "ĠVá»ģ": 3285,
      "Ã¹m": 3286,
      "Ġtá»ĳn": 3287,
      "ngÆ°á»Ŀi": 3288,
      "Ġbia": 3289,
      "ĠQuá»¹": 3290,
      "ail": 3291,
      "ĠGiÃ¡": 3292,
      "Ġva": 3293,
      "ĠHar": 3294,
      "ashing": 3295,
      "ester": 3296,
      "ĠBáº¿n": 3297,
      "Ġ34": 3298,
      "lin": 3299,
      "ashington": 3300,
      "ĠAnd": 3301,
      "Ġbáº¯c": 3302,
      "ĠII": 3303,
      "Ġtrá»«ng": 3304,
      "ast": 3305,
      "Ġ400": 3306,
      "ĠdÃłn": 3307,
      "»£": 3308,
      "á»£": 3309,
      "ek": 3310,
      "zil": 3311,
      "Ġváº¯ng": 3312,
      "ĠThá»«a": 3313,
      "ick": 3314,
      "Ġsa": 3315,
      "Ġxáº£": 3316,
      "khÃ´ng": 3317,
      "onaldo": 3318,
      "Ġla": 3319,
      "ĠAm": 3320,
      "Ġmá»ı": 3321,
      "Ġcáº¯p": 3322,
      "ĠTÃ¬nh": 3323,
      "ĠÄĳáº¡p": 3324,
      "ions": 3325,
      "ĠSan": 3326,
      "26": 3327,
      "ĠBra": 3328,
      "ĠThÃºy": 3329,
      "utin": 3330,
      "Ġnhá»±a": 3331,
      "ĠThá»ĳng": 3332,
      "Ġ150": 3333,
      "Ã¨o": 3334,
      "Ġháº§m": 3335,
      "ĠThá»ĥ": 3336,
      "Ġmáº£nh": 3337,
      "Ġcáº¥t": 3338,
      "Ġhá»ĳi": 3339,
      "ĠTrá»ĭnh": 3340,
      "ĠSAR": 3341,
      "BÃ¡o": 3342,
      "hÃ³m": 3343,
      "ĠÄĳáº¯t": 3344,
      "ĠSo": 3345,
      "Ġlá»ĩch": 3346,
      "ĠWashington": 3347,
      "ĠmÃ¬": 3348,
      "ĠdÆ°á»Ŀng": 3349,
      "ĠMos": 3350,
      "99": 3351,
      "Cuá»Ļc": 3352,
      "ĠÄĲB": 3353,
      "ite": 3354,
      "Con": 3355,
      "TM": 3356,
      "PhÃ": 3357,
      "ĠHiá»ģn": 3358,
      "ĠCr": 3359,
      "ĠduyÃªn": 3360,
      "28": 3361,
      "Ġtáº¯t": 3362,
      "Ġtháº£": 3363,
      "ĠThÄĥng": 3364,
      "Ġtan": 3365,
      "Ġtáº¿t": 3366,
      "ini": 3367,
      "Ġháº£o": 3368,
      "ĠÄĳáº¥y": 3369,
      "Ġthoáº£i": 3370,
      "EC": 3371,
      "CÆ¡": 3372,
      "ĠthÃ³i": 3373,
      "Ġhá»ĵn": 3374,
      "ĠLá»£i": 3375,
      "ĠÄĳá»Ĺ": 3376,
      "ĠTrinh": 3377,
      "ĠtrÃł": 3378,
      "Ĺng": 3379,
      "ĠCáº£": 3380,
      "Ġbá»Ľt": 3381,
      "Ġlang": 3382,
      "Há»Ļi": 3383,
      "ĠXÃ£": 3384,
      "ĠMadrid": 3385,
      "ĠtrÃ´i": 3386,
      "Ġgan": 3387,
      "ĠthÃ¹ng": 3388,
      "Ġháº±ng": 3389,
      "ĠPháºŃt": 3390,
      "Ġchuyá»ģn": 3391,
      "ĠMau": 3392,
      "ĠtrÃ²n": 3393,
      "2012": 3394,
      "ĠMáº·c": 3395,
      "ĠGiáº¥y": 3396,
      "ĠLÄĲ": 3397,
      "ĠPutin": 3398,
      "Ġsáº¡t": 3399,
      "Ġdá»įc": 3400,
      "ĠInternet": 3401,
      "ĠbÃ¡": 3402,
      "Ġmuá»ĳi": 3403,
      "ĠThÆ°": 3404,
      "ĠmÃ¢u": 3405,
      "BC": 3406,
      "Ġnhá»ĭp": 3407,
      "ĠCam": 3408,
      "Ġcá»§ng": 3409,
      "á»±u": 3410,
      "Ġmáº§m": 3411,
      "ĠÄĲÄĥng": 3412,
      "ĠCáº©m": 3413,
      "QÄĲ": 3414,
      "con": 3415,
      "CÃ¡ch": 3416,
      "ĠgiÃ¢y": 3417,
      "ĠtÃ¡o": 3418,
      "ĠDonald": 3419,
      "Ġkhuyáº¿t": 3420,
      "dex": 3421,
      "Ġhung": 3422,
      "AG": 3423,
      "ĠsÃ³t": 3424,
      "ham": 3425,
      "ĠBáº¡ch": 3426,
      "ĠGr": 3427,
      "¹y": 3428,
      "ĠGu": 3429,
      "ĠKhá»": 3430,
      "Ġná»ģ": 3431,
      "Ġkhiáº¿u": 3432,
      "tin": 3433,
      "ĠNhiá»ĩt": 3434,
      "Ġthiá»ĩp": 3435,
      "ĠbÃ©o": 3436,
      "ĠvÆ°Æ¡n": 3437,
      "thá»": 3438,
      "ĠAb": 3439,
      "AS": 3440,
      "29": 3441,
      "ood": 3442,
      "ĠSARS": 3443,
      "ĠThá»ĭnh": 3444,
      "ĠHuyá»ģn": 3445,
      "Ġmá»ķ": 3446,
      "ĠkhÃ¢u": 3447,
      "ĠCÃł": 3448,
      "UBND": 3449,
      "ĠIt": 3450,
      "rab": 3451,
      "Nam": 3452,
      "lymp": 3453,
      "Thanh": 3454,
      "Ã¨n": 3455,
      "aw": 3456,
      "ĠVÅ©ng": 3457,
      "ĠCo": 3458,
      "Ġláº·ng": 3459,
      "Ġheo": 3460,
      "ĠhÆ°u": 3461,
      "ĠMÃ´i": 3462,
      "Ġcá»ĳng": 3463,
      "ĠArsenal": 3464,
      "ĠSer": 3465,
      "xÃ£": 3466,
      "Ġkhá»ĳng": 3467,
      "75": 3468,
      "ĠthÆ¡m": 3469,
      "ĠthÆ°á»Ľc": 3470,
      "ĠDung": 3471,
      "ĠTim": 3472,
      "Ġkg": 3473,
      "Ġngá»±c": 3474,
      "pool": 3475,
      "tel": 3476,
      "Ġmáº¡o": 3477,
      "enn": 3478,
      "TTQ": 3479,
      "ĠgiÆ°á»Ŀng": 3480,
      "ĠCÅ©ng": 3481,
      "huyá»ĩn": 3482,
      "YT": 3483,
      "TN": 3484,
      "Ġdáº¯t": 3485,
      "ĠTháº¡ch": 3486,
      "Æ¡m": 3487,
      "Ġlá»ĵ": 3488,
      "ĠCuá»Ļc": 3489,
      "Æ°á»£n": 3490,
      "ĠAi": 3491,
      "TX": 3492,
      "sung": 3493,
      "ĠchÃŃn": 3494,
      "ÃŃn": 3495,
      "ĠChá»ĭ": 3496,
      "ĠhÃłm": 3497,
      "ĠCÃ¡t": 3498,
      "to": 3499,
      "Ġmiáº¿ng": 3500,
      "Ġngáº¡ch": 3501,
      "ĠQL": 3502,
      "ĠGames": 3503,
      "Nghá»": 3504,
      "ĠSinh": 3505,
      "iverpool": 3506,
      "ĠMa": 3507,
      "):": 3508,
      "á»Ńu": 3509,
      "Ġáº¥p": 3510,
      "Ã¹n": 3511,
      "Ġngá»Ļ": 3512,
      "ĠMi": 3513,
      "ĠBrazil": 3514,
      "Bá": 3515,
      "Bá»": 3516,
      "Chá»ĭ": 3517,
      "ĠÃļ": 3518,
      "Ġtrá»į": 3519,
      "Ġlá»įt": 3520,
      "phone": 3521,
      "ĠCty": 3522,
      "ĠCH": 3523,
      "ate": 3524,
      "ĠÄĳam": 3525,
      "Ġ55": 3526,
      "ĠOlymp": 3527,
      "ĠYork": 3528,
      "QT": 3529,
      "'.": 3530,
      "ĠgiÃły": 3531,
      "Ġhá»ķ": 3532,
      "essi": 3533,
      "ĠkhÃ¡t": 3534,
      "ĠThÃ¹y": 3535,
      "OS": 3536,
      "Ġviá»ħn": 3537,
      "ĠlÃŃnh": 3538,
      "Ho": 3539,
      "ĠNews": 3540,
      "ĠPl": 3541,
      "oy": 3542,
      "ĠKiá»ģu": 3543,
      "Ġkhá»ķng": 3544,
      "ĠChamp": 3545,
      "ĠmÃ³c": 3546,
      "Ġáº£o": 3547,
      "ĠCÃ¡ch": 3548,
      "ĠDoanh": 3549,
      "ĠkhuyÃªn": 3550,
      "giá»": 3551,
      "Bank": 3552,
      "ĠphÃ¡i": 3553,
      "end": 3554,
      "Ġchá»«ng": 3555,
      "ĠsÄĥn": 3556,
      "ĠTu": 3557,
      "ĠghÃ©p": 3558,
      "Báº¡n": 3559,
      "Ã©o": 3560,
      "Ġráº¯n": 3561,
      "ĠOb": 3562,
      "Ġtrá»ĳng": 3563,
      "ĠÃ´tÃ´": 3564,
      "ĠEl": 3565,
      "ĠvÄ©": 3566,
      "ĠLá»ĩ": 3567,
      "Ġcá»¥m": 3568,
      "ĠdÃ£": 3569,
      "ĠHáº¡nh": 3570,
      "ĠNá»¯": 3571,
      "ĠRonaldo": 3572,
      "ĠKH": 3573,
      "»«a": 3574,
      "á»«a": 3575,
      "ĠbÆ¡i": 3576,
      "ĠXII": 3577,
      "ge": 3578,
      "ĠQuan": 3579,
      "ĠYo": 3580,
      "ĠÄĲÆ°á»£c": 3581,
      "IC": 3582,
      "ĠnhÃ©": 3583,
      "Ġháº¹p": 3584,
      "Ļi": 3585,
      "ĠrÄĥng": 3586,
      "Ġcá»ı": 3587,
      "Ġgiáº¥c": 3588,
      "ĠDiá»ħn": 3589,
      "Ġdáº¡": 3590,
      "Ġváº½": 3591,
      "ĠLá»±c": 3592,
      "League": 3593,
      "ĠdáºŃp": 3594,
      "ÄĲá": 3595,
      "ÄĲá»": 3596,
      "Ġbá»ģ": 3597,
      "Ġleo": 3598,
      "ĠchÃ¬m": 3599,
      "oog": 3600,
      "ara": 3601,
      "ĠCÃ¡i": 3602,
      "Ġ196": 3603,
      "Ġváº£": 3604,
      "100": 3605,
      "tain": 3606,
      "HÃ´m": 3607,
      "iá»ħu": 3608,
      "Ġhoan": 3609,
      "ĠkhoÃ¡ng": 3610,
      "MT": 3611,
      "yo": 3612,
      "oogle": 3613,
      "ĠVáºŃy": 3614,
      "ĠNguá»ĵn": 3615,
      "Ġtuá»ĩ": 3616,
      "ĠCho": 3617,
      "ĠÄĳáº¿": 3618,
      "ĠTháº¡nh": 3619,
      "ation": 3620,
      "ĠmÃ£n": 3621,
      "ĠTrÃŃ": 3622,
      "thÃ¡ng": 3623,
      "ited": 3624,
      "ĠBÃłi": 3625,
      "ĠDe": 3626,
      "ĠTháºŃm": 3627,
      "IV": 3628,
      "%;": 3629,
      "Ġcá»¡": 3630,
      "ĠtÄ©nh": 3631,
      "Ľn": 3632,
      "ĠJohn": 3633,
      "ĠthoÃ¡i": 3634,
      "raq": 3635,
      "Ġ48": 3636,
      "Ġtrá»įn": 3637,
      "ĠSeo": 3638,
      "Ġnghiá»ĩn": 3639,
      "ĠSEA": 3640,
      "Ġtiá»ĩc": 3641,
      "ero": 3642,
      "Tiáº¿p": 3643,
      "Trao": 3644,
      "ĠHÆ¡n": 3645,
      "ĠgÃ¬n": 3646,
      "36": 3647,
      "ĠsÃ¡nh": 3648,
      "NÄĲ": 3649,
      "ĠvÃµ": 3650,
      "ĠLiÃªm": 3651,
      "ĠChampions": 3652,
      "ĠNÃ³": 3653,
      "land": 3654,
      "Ġráº¡ng": 3655,
      "Ġchua": 3656,
      "ĠlÃ¹i": 3657,
      "ĠThÃ¡p": 3658,
      "ĠÄĲÃ´": 3659,
      "DC": 3660,
      "ĠÃ¡i": 3661,
      "±ng": 3662,
      "Ġná»ĵng": 3663,
      "Ġláº¥n": 3664,
      "ĠHÃłnh": 3665,
      "ĠbuÃ½t": 3666,
      "Ġco": 3667,
      "Ãģ": 3668,
      "ĠMU": 3669,
      "Index": 3670,
      "ĠTHCS": 3671,
      "ĠXuyÃªn": 3672,
      "Viá»ĩt": 3673,
      "ani": 3674,
      "ash": 3675,
      "Ġváº¹n": 3676,
      "ĠGal": 3677,
      "ĠYáº¿n": 3678,
      "ĠHuá»ĩ": 3679,
      "Ġsá»ĳc": 3680,
      "ĠtÃłn": 3681,
      "Ġvua": 3682,
      "Ġpin": 3683,
      "ĠtÃ¡ch": 3684,
      "ĠmÃ©t": 3685,
      "ĠVÃłng": 3686,
      "QH": 3687,
      "īa": 3688,
      "ĠLam": 3689,
      "ĠThi": 3690,
      "Ġkhá»Ľp": 3691,
      ">>": 3692,
      "la": 3693,
      "eng": 3694,
      "ĠSÃ¡ng": 3695,
      "kh": 3696,
      "ĠLiverpool": 3697,
      "ech": 3698,
      "ĠThiá»ĩn": 3699,
      "Ġná»Ł": 3700,
      "ĠkhÆ¡i": 3701,
      "Ġváº¥t": 3702,
      "ĠMTTQ": 3703,
      "300": 3704,
      "age": 3705,
      "ĠdÃŃnh": 3706,
      "ĠIraq": 3707,
      "37": 3708,
      "ĠÃ¡c": 3709,
      "TrÆ°á»Ŀng": 3710,
      "Ġbá»ıng": 3711,
      "ĠLH": 3712,
      "ĠnhÃłng": 3713,
      "',": 3714,
      "Ġcáº©n": 3715,
      "hÃŃa": 3716,
      "ĠAle": 3717,
      "Ġnhan": 3718,
      "ĠgÃ¡nh": 3719,
      "Ġ39": 3720,
      "ĠkhÃ´i": 3721,
      "AM": 3722,
      "Ġlá»ıng": 3723,
      "Ġtop": 3724,
      "ĠnÃºt": 3725,
      "BÃ¬nh": 3726,
      "Ġsay": 3727,
      "Ġgame": 3728,
      "Ġ01": 3729,
      "ĠOlympic": 3730,
      "ĠnÃ©m": 3731,
      "Viet": 3732,
      "Ġ75": 3733,
      "art": 3734,
      "ver": 3735,
      "Sá»Ł": 3736,
      "ix": 3737,
      "Ġváº£i": 3738,
      "Ġphá»ķi": 3739,
      "ĠObama": 3740,
      "Ġvit": 3741,
      "ĠÄĳÃ¡n": 3742,
      "ĠHang": 3743,
      "Ġthuáº§n": 3744,
      "ĠrÃ©t": 3745,
      "ĠNS": 3746,
      "TTXVN": 3747,
      "Ġvitamin": 3748,
      "Quáº£ng": 3749,
      "ĠTiáº¿p": 3750,
      "NháºŃn": 3751,
      "ĠÄĲáº¥t": 3752,
      "ĠPhá»¥": 3753,
      "ĠSamsung": 3754,
      "ya": 3755,
      "34": 3756,
      "ota": 3757,
      "ĠTá»Ń": 3758,
      "ĠÄĳá»±ng": 3759,
      "orn": 3760,
      "ĠLáº¯k": 3761,
      "ĠNN": 3762,
      "ĠngÃµ": 3763,
      "ĠDáº§u": 3764,
      "ĠdÃ¢ng": 3765,
      "ĠTriá»ĩu": 3766,
      "ram": 3767,
      "FF": 3768,
      "ĠCanada": 3769,
      "ĠUy": 3770,
      "ideo": 3771,
      "ÄĲÃ³": 3772,
      "ĠRiÃªng": 3773,
      "HÃ¬nh": 3774,
      "Ġtá»©": 3775,
      "ĠAP": 3776,
      "Ġ65": 3777,
      "Ban": 3778,
      "Ná»¯": 3779,
      "ĠHS": 3780,
      "ĠBo": 3781,
      "ĠMC": 3782,
      "ĠMessi": 3783,
      "ĠlÃ²": 3784,
      "LÃł": 3785,
      "ma": 3786,
      "roup": 3787,
      "TÃ¬nh": 3788,
      "NhÃ¢n": 3789,
      "ĠgiáºŃn": 3790,
      "eal": 3791,
      "inho": 3792,
      "ĠÃģnh": 3793,
      "Ġngá»įn": 3794,
      "GD": 3795,
      "CH": 3796,
      "Ġláº¥p": 3797,
      "Ġu": 3798,
      "Ġmuá»Ļn": 3799,
      "%/": 3800,
      "ĠUnited": 3801,
      "ĠkÃ¬": 3802,
      "ea": 3803,
      "ĠVáºŃn": 3804,
      "ĠvÆ°Æ¡ng": 3805,
      "38": 3806,
      "martphone": 3807,
      "onda": 3808,
      "ĠGoogle": 3809,
      "ĠsÆ¡n": 3810,
      "quáºŃn": 3811,
      "ĠrÃ£i": 3812,
      "400": 3813,
      "Ġdá»įn": 3814,
      "ĠÄĲáº¡t": 3815,
      "ba": 3816,
      "á»ĳm": 3817,
      "ke": 3818,
      "TÃŃnh": 3819,
      "ĠNhÆ¡n": 3820,
      "di": 3821,
      "ĠHÄĲQT": 3822,
      "ĠÃ¹n": 3823,
      "Em": 3824,
      "Ġtaxi": 3825,
      "ĠTÄĥng": 3826,
      "Ġvá»Ļi": 3827,
      "ĠchiÃªu": 3828,
      "ATO": 3829,
      "ĠbÃ³n": 3830,
      "ĠNghi": 3831,
      "ĠÄĳáº»": 3832,
      "ĠSÃ³c": 3833,
      "Ġsoáº¡n": 3834,
      "Ġthá»±": 3835,
      "ĠBu": 3836,
      "Ġtá»§": 3837,
      "´n": 3838,
      "ĠrÃ¨n": 3839,
      "KT": 3840,
      "iden": 3841,
      "ĠlÃ´ng": 3842,
      "95": 3843,
      "tor": 3844,
      "ĠÄĳÃ³i": 3845,
      "ĠquÃ©t": 3846,
      "Ġmá»¡": 3847,
      "ĠÃ¢n": 3848,
      "AGL": 3849,
      "ti": 3850,
      "©o": 3851,
      "Sá»ĳ": 3852,
      "ĠâĢĺ": 3853,
      "Ġtrá»Ļn": 3854,
      "Ġ600": 3855,
      "CCC": 3856,
      "Ġxoay": 3857,
      "áº±n": 3858,
      "Ġrá»¡": 3859,
      "NguyÃªn": 3860,
      "BÆ°á»Ľc": 3861,
      "Gia": 3862,
      "ĠÄĳáº¯p": 3863,
      "ĠHuyá»ĩn": 3864,
      "ĠTÃ´": 3865,
      "ÄĲV": 3866,
      "ĠTÃŃnh": 3867,
      "ĠcÆ°á»¡ng": 3868,
      "HÃłng": 3869,
      "Ġhá»Ĺn": 3870,
      "Ġbá»¥i": 3871,
      "Ġnháº¡y": 3872,
      "Ġsá»¥t": 3873,
      ".\"": 3874,
      "Khu": 3875,
      "Ġ120": 3876,
      "Ġmáº·n": 3877,
      "2011": 3878,
      "ĠÃĿ": 3879,
      "Ġof": 3880,
      "Ġ2008": 3881,
      "va": 3882,
      "ĠCSÄĲT": 3883,
      "ĠMil": 3884,
      "go": 3885,
      "ĠDá»ĭch": 3886,
      "Ã²i": 3887,
      "Ġ2009": 3888,
      "47": 3889,
      "Ġngáº¡c": 3890,
      "Ġngá»£i": 3891,
      "55": 3892,
      "ley": 3893,
      "Ġvang": 3894,
      "FA": 3895,
      "ĠAng": 3896,
      "ĠkiÃªm": 3897,
      "ĠhoÃ£n": 3898,
      "46": 3899,
      "ĠbáºŃn": 3900,
      "ĠbÃ¬": 3901,
      "ÄĲá»Ļi": 3902,
      "ĠÄĲá»Ļng": 3903,
      "mm": 3904,
      "IA": 3905,
      "Ġ43": 3906,
      "ĠSÃ´ng": 3907,
      "Æ°á»Ľt": 3908,
      "ĠxÆ°á»Łng": 3909,
      "ĠPrem": 3910,
      "ee": 3911,
      "ĠLy": 3912,
      "ĠkhÃ³i": 3913,
      "Ġbá»ķng": 3914,
      "--": 3915,
      "anmar": 3916,
      "Ġmá»ĵ": 3917,
      "ĠHá»ĩ": 3918,
      "ĠTráº¯ng": 3919,
      "PTNT": 3920,
      "xin": 3921,
      "ĠHÃ£y": 3922,
      "ĠCol": 3923,
      "Ġdá»¡": 3924,
      "Xem": 3925,
      ".âĢĿ": 3926,
      "Ġdá»Ŀi": 3927,
      "ĠmÆ°á»£n": 3928,
      "Ġkhoáº£nh": 3929,
      "Lá»±c": 3930,
      "ĠPháº§n": 3931,
      "ĠBHYT": 3932,
      "ĠThiáº¿u": 3933,
      "ĠHiá»ĩu": 3934,
      "ĠhÃ´i": 3935,
      "Tháº¿": 3936,
      "Tin": 3937,
      "ĠBKS": 3938,
      "Ġsmartphone": 3939,
      "ĠBÃ¡": 3940,
      "ĠHÃ¬nh": 3941,
      "Ġhá»¥t": 3942,
      "HÆ¡n": 3943,
      "Ġmáº£ng": 3944,
      "ĠRo": 3945,
      "aly": 3946,
      "Ġlá»ĵng": 3947,
      "ĠBá»ĵ": 3948,
      "ĠAFP": 3949,
      "ĠÄĳá»Ľi": 3950,
      "lor": 3951,
      "Ġ46": 3952,
      "ela": 3953,
      "Giáº£i": 3954,
      "Ġruá»Ļng": 3955,
      "ĠPC": 3956,
      "ĠrÅ©": 3957,
      "ĠTrÄĥng": 3958,
      "ĠBáº¡c": 3959,
      "Ġnáº¡i": 3960,
      "CV": 3961,
      "ĠrÃ²ng": 3962,
      "cÃ³": 3963,
      "axy": 3964,
      "DI": 3965,
      "ft": 3966,
      "ĠMer": 3967,
      "ĠPro": 3968,
      "Ġon": 3969,
      "ThÃ": 3970,
      "ĠÃ¡m": 3971,
      "Bá»ĩnh": 3972,
      "Ġ2025": 3973,
      "SG": 3974,
      "entina": 3975,
      "ĠKr": 3976,
      "Ġcu": 3977,
      "ĠMV": 3978,
      "ĠLee": 3979,
      "01": 3980,
      "bo": 3981,
      "Ġtháº¯t": 3982,
      "Ġchim": 3983,
      "á»ĳp": 3984,
      "ĠDav": 3985,
      "Ãºn": 3986,
      "Cáº£nh": 3987,
      "ice": 3988,
      "Ġ42": 3989,
      "ĠgiÃ¡n": 3990,
      "ĠNa": 3991,
      "áº«m": 3992,
      "Ġchai": 3993,
      "ĠbÃ¡t": 3994,
      "Ġá»©c": 3995,
      "ace": 3996,
      "Ġbá»įc": 3997,
      "Ġtá»įa": 3998,
      "lad": 3999,
      "ĠlÃ£o": 4000,
      "ans": 4001,
      "ThÃ¡ng": 4002,
      "ĠHTX": 4003,
      "Khoáº£ng": 4004,
      "ĠMyanmar": 4005,
      "ThÃłnh": 4006,
      "ĠÄĲá»ĵn": 4007,
      "ink": 4008,
      "33": 4009,
      "ote": 4010,
      "88": 4011,
      "Ġráº£i": 4012,
      "ĠParis": 4013,
      "ĠPCCC": 4014,
      "Ġcháº©n": 4015,
      "Ġnhá»Ł": 4016,
      "Ġkhá»©": 4017,
      "Ġdá»Ļi": 4018,
      "ron": 4019,
      "ĠLiÃªu": 4020,
      "Ġgom": 4021,
      "Ġbáº¿": 4022,
      "PL": 4023,
      "VÃł": 4024,
      "Ġ47": 4025,
      "giá»Ŀ": 4026,
      "ĠThÃ¡ng": 4027,
      "ĠkhoÃ¡c": 4028,
      "ĠÃļc": 4029,
      "Ġ:": 4030,
      "ĠLÃ£nh": 4031,
      "ĠPet": 4032,
      "Ġdá»ĵn": 4033,
      "cow": 4034,
      "sinh": 4035,
      "Ġdá»ĳc": 4036,
      "Ġluá»ĵng": 4037,
      "BS": 4038,
      "ĠDanh": 4039,
      "Má»Ĺi": 4040,
      "Ġlá»ģ": 4041,
      "Ġxá»ī": 4042,
      "ĠÄĲiá»ĥn": 4043,
      "Ġeuro": 4044,
      "HLV": 4045,
      "ost": 4046,
      "ĠthÃ¢m": 4047,
      "ĠPal": 4048,
      "Ġ2030": 4049,
      "ĠCáº£ng": 4050,
      "JC": 4051,
      "ĠHAGL": 4052,
      "TB": 4053,
      "ĠBÃŃch": 4054,
      "tainer": 4055,
      "Ġtá»±u": 4056,
      "ĠbÃ´ng": 4057,
      "Ġthá»£": 4058,
      "Ġngáº¯m": 4059,
      "ola": 4060,
      "Ġkáº¹t": 4061,
      "ĠJong": 4062,
      "Chia": 4063,
      "Ġvá»īa": 4064,
      "ĠÄĲá»ĭa": 4065,
      "Ġquyáº¿n": 4066,
      "xy": 4067,
      "Ãºy": 4068,
      "ĠRá»ĭa": 4069,
      "ĠRob": 4070,
      "á»ĭn": 4071,
      "Ġtrinh": 4072,
      "Chiáº¿c": 4073,
      "ondon": 4074,
      "ĠBe": 4075,
      "ĠsáºŃp": 4076,
      "ĠTÃŃn": 4077,
      "Ġtruyá»ĩn": 4078,
      "ĠkhÃ©o": 4079,
      "31": 4080,
      "ĠngÃło": 4081,
      "ug": 4082,
      "Ġnháº«n": 4083,
      "ĠchÃªnh": 4084,
      "Hoa": 4085,
      "ĠLáº¡t": 4086,
      "ĠCháº¥p": 4087,
      "Bá»ĭ": 4088,
      "tp": 4089,
      "EO": 4090,
      "ĠPremier": 4091,
      "Æ°á»Łi": 4092,
      "ĠBiden": 4093,
      "uc": 4094,
      "ĠNhá»Ŀ": 4095,
      "Ġmáº¿n": 4096,
      "ĳc": 4097,
      "ĠAd": 4098,
      "Ġmáº¡n": 4099,
      "ĠJu": 4100,
      "Xe": 4101,
      "ĠThiáº¿t": 4102,
      "ĠMay": 4103,
      "Ġlá»¥t": 4104,
      "ĠEr": 4105,
      "ĠmÃºa": 4106,
      "tre": 4107,
      "ĠmÅ©": 4108,
      "ĠBarca": 4109,
      "65": 4110,
      "LÃºc": 4111,
      "ary": 4112,
      "ED": 4113,
      "Ġtiá»ĩm": 4114,
      "39": 4115,
      "Ġnháº§m": 4116,
      "48": 4117,
      "49": 4118,
      "Ġlá»©a": 4119,
      "Ġnáº£y": 4120,
      "ĠvÃ¢y": 4121,
      "ĠGDP": 4122,
      "thÃ": 4123,
      "ĠNATO": 4124,
      "Ġgáº¯t": 4125,
      "Ġrá»±c": 4126,
      "ĠnÃ¡t": 4127,
      "ĠKiáº¿n": 4128,
      "Ġbá»įn": 4129,
      "á»įn": 4130,
      "ĠMoscow": 4131,
      "ÄĲoÃłn": 4132,
      "ĠcÃºng": 4133,
      "gentina": 4134,
      "ĠNghiÃªn": 4135,
      "ĠdÃ²": 4136,
      "ert": 4137,
      "TCP": 4138,
      "ĠchÃ©m": 4139,
      "ĠLáº¡ng": 4140,
      "tá»«": 4141,
      "Æ°á»¡i": 4142,
      "ĠAT": 4143,
      "ĠLondon": 4144,
      "ĠQuáºŃn": 4145,
      "NÃ³i": 4146,
      "ark": 4147,
      "ĠláºŃt": 4148,
      "Ngh": 4149,
      "ĠÃĲ": 4150,
      "Ġ51": 4151,
      "ight": 4152,
      "ĠMin": 4153,
      "IS": 4154,
      "ĠGalaxy": 4155,
      "ĠgÃ£y": 4156,
      "Ġthe": 4157,
      "ĠTá»±": 4158,
      "Ġcontainer": 4159,
      "//": 4160,
      "ĠMat": 4161,
      "ĠHonda": 4162,
      "ĠPhÃ¹ng": 4163,
      "ĠTÆ°á»Ŀng": 4164,
      "ĠVÃło": 4165,
      "ĠAf": 4166,
      "¯a": 4167,
      "site": 4168,
      "ĠTop": 4169,
      "ĠHong": 4170,
      "XX": 4171,
      ",âĢ¦": 4172,
      "ĠVKS": 4173,
      "ĠlÃŃt": 4174,
      "Ġnáº¿p": 4175,
      "TA": 4176,
      "Ġmá»ıng": 4177,
      "ĠChá»©ng": 4178,
      "ĠKhÃª": 4179,
      "ĠVH": 4180,
      "Ġ49": 4181,
      "ĠLáº¡c": 4182,
      "elona": 4183,
      "ĠIII": 4184,
      "Ġ250": 4185,
      "ica": 4186,
      "ĠGS": 4187,
      "ĠlÃŃ": 4188,
      "ĠÃºy": 4189,
      "ĠSen": 4190,
      "ĠKon": 4191,
      "ĠThuáº¿": 4192,
      "let": 4193,
      "Ġlá»ĳc": 4194,
      "%),": 4195,
      "ros": 4196,
      "Ġ56": 4197,
      "ĠSc": 4198,
      "Tá»ĳi": 4199,
      "otte": 4200,
      "ÄĲÃł": 4201,
      "ane": 4202,
      "CO": 4203,
      "ĠxÃ¡ch": 4204,
      "ĠÄĳá»ĵi": 4205,
      "Ġ41": 4206,
      "://": 4207,
      "Ġvá»£t": 4208,
      "Thá»ĭ": 4209,
      "ĠÆ°a": 4210,
      "ĠÄĳáº§m": 4211,
      "ĠbÆ¡m": 4212,
      "05": 4213,
      "USD": 4214,
      "Ġphun": 4215,
      "Cáº§n": 4216,
      "ĠMá»Ľi": 4217,
      "ĠÄĲiá»ģn": 4218,
      "Ġ44": 4219,
      "%)": 4220,
      "áº¹o": 4221,
      "CÄĲ": 4222,
      "na": 4223,
      "oc": 4224,
      ",...": 4225,
      "Ġlong": 4226,
      "ĠTw": 4227,
      "Ġá»ĳc": 4228,
      "biz": 4229,
      "ĠÄĳá»ĩ": 4230,
      "QG": 4231,
      "ĠBay": 4232,
      "Ġchinh": 4233,
      "ĠÄĳáº¯c": 4234,
      "ĠSÆ°": 4235,
      "32": 4236,
      "ĠCáºŃp": 4237,
      "app": 4238,
      "ĠArgentina": 4239,
      "ĠÄĲáº¡o": 4240,
      "Ġong": 4241,
      "ĠGiÃ³": 4242,
      "ĠchÃ¢m": 4243,
      "ĠlÆ°á»Ŀng": 4244,
      "OT": 4245,
      "Ġtrá»Ļi": 4246,
      "ĠSao": 4247,
      "má»Ļt": 4248,
      "ĠNhung": 4249,
      "ĠMiss": 4250,
      "ĠAg": 4251,
      "ĠsÆ°u": 4252,
      "ĠXÃ´": 4253,
      "Ġkem": 4254,
      "Cho": 4255,
      "Video": 4256,
      "ĠTTXVN": 4257,
      "ChÆ°Æ¡ng": 4258,
      "ĠEx": 4259,
      "Ġsá»£i": 4260,
      "ĠVÄĲV": 4261,
      "NA": 4262,
      "ĠAt": 4263,
      "ĠTÃ´n": 4264,
      "ĠSang": 4265,
      "ĠsÃ¡u": 4266,
      "Ġonline": 4267,
      "Ġnáº¥m": 4268,
      "ĠMÃ£": 4269,
      "ĠÄĲan": 4270,
      "Ġhot": 4271,
      "PC": 4272,
      "ĠVI": 4273,
      "ien": 4274,
      "Ġ800": 4275,
      "ĠvÃ³c": 4276,
      "ino": 4277,
      "ĠngÆ¡i": 4278,
      "Ġchuá»Ļt": 4279,
      "BP": 4280,
      "ĠBal": 4281,
      "LÃ£nh": 4282,
      "ĠHiáº¿n": 4283,
      "ĠBÃ¡i": 4284,
      "ĠVFF": 4285,
      "ĠSte": 4286,
      "ĠsÃ©t": 4287,
      "ĠDuyÃªn": 4288,
      "NhÃ": 4289,
      "ae": 4290,
      "ĠMáº¹": 4291,
      "Ġhiáº¿p": 4292,
      "ĠVTV": 4293,
      "ĠtrÃ¢n": 4294,
      "Ġ95": 4295,
      "exico": 4296,
      "Ġgay": 4297,
      "ĠChá»£": 4298,
      "ĠtÃŃm": 4299,
      "ĠÄĲÃłm": 4300,
      "ĠÄĳá»©t": 4301,
      "Ġdá»ĭu": 4302,
      "ĠthoÃ¡ng": 4303,
      "Ġcáº¯m": 4304,
      "Ġsan": 4305,
      "ĠBen": 4306,
      "ĠNÆ°á»Ľc": 4307,
      "ĠnÆ°á»Ľng": 4308,
      "ĠRom": 4309,
      "ĠKong": 4310,
      "ĠcáºŃy": 4311,
      "ĠÄĳÄ©a": 4312,
      "iá»ģng": 4313,
      "ĠSJC": 4314,
      "ĠtrÃ¹m": 4315,
      "Ġvá»Ł": 4316,
      "600": 4317,
      "ĠkhÃ©p": 4318,
      "ose": 4319,
      "ĠOn": 4320,
      "ĠFran": 4321,
      "ube": 4322,
      "ĠPGS": 4323,
      "ĠláºŃn": 4324,
      "ÃĢ": 4325,
      "lÃŃt": 4326,
      "Ġlá»Ļn": 4327,
      "ĠToy": 4328,
      "ĠAlex": 4329,
      "ĠEd": 4330,
      "ĠTrÃ¡i": 4331,
      "Ġtá»¥ng": 4332,
      "oun": 4333,
      "trong": 4334,
      "Ġkhoan": 4335,
      "Nga": 4336,
      "old": 4337,
      "ĠlÅ©y": 4338,
      "lines": 4339,
      "Ġngá»±": 4340,
      "Ġxao": 4341,
      "Nguyá»ħn": 4342,
      "ĠArab": 4343,
      "ĠGiá»Ŀ": 4344,
      "ĠBN": 4345,
      "Nghá»ĩ": 4346,
      "ĠtrÆ°á»£t": 4347,
      "ĠViÃªn": 4348,
      "Cuá»ĳi": 4349,
      "Ġcháº·ng": 4350,
      "ĠSá»¹": 4351,
      "ies": 4352,
      "»Ŀi": 4353,
      "á»Ŀi": 4354,
      "ĠMon": 4355,
      "ĠMich": 4356,
      "Ġ54": 4357,
      "ĠSáº£n": 4358,
      "Ġ700": 4359,
      "ÄĲáº§u": 4360,
      "ĠSun": 4361,
      "ĠBS": 4362,
      "ĠSon": 4363,
      "ĠcÆ°á»Ľc": 4364,
      "Ġxáº¡": 4365,
      "ĠQuyá»ģn": 4366,
      "ath": 4367,
      "ĠÄĳÃª": 4368,
      "Ġbá»Ĺng": 4369,
      "ĠdÆ°a": 4370,
      "ics": 4371,
      "68": 4372,
      "urinho": 4373,
      "ĠmÃŃ": 4374,
      "ĠUS": 4375,
      "ĠBarcelona": 4376,
      "ĠBang": 4377,
      "him": 4378,
      "berg": 4379,
      "Ġmáº»": 4380,
      "Ġná»¥": 4381,
      "ĠToyota": 4382,
      "Háº£i": 4383,
      "ghan": 4384,
      "Cáº£": 4385,
      "ĠÄĲiá»ĥm": 4386,
      "Phá»": 4387,
      "Gáº§n": 4388,
      "ĠLáºŃp": 4389,
      "ĠTham": 4390,
      "ĠÄĳuÃ´i": 4391,
      "800": 4392,
      "PV": 4393,
      "Ġhuyá»ģn": 4394,
      "Ġgáº¡ch": 4395,
      "LÃłm": 4396,
      "ant": 4397,
      "ĠtrÃ¢u": 4398,
      "77": 4399,
      "ĠOs": 4400,
      "ĠSH": 4401,
      "Ġtha": 4402,
      "ĠTráº¡m": 4403,
      "ĠmÄĥng": 4404,
      "ÄĲiá»ĥm": 4405,
      "ĠlÃ¢n": 4406,
      "ĠlÃ´i": 4407,
      "af": 4408,
      "CK": 4409,
      "Ġmá»Ŀ": 4410,
      "DA": 4411,
      "Ġlá»¡": 4412,
      "ĠtrÃ¡ng": 4413,
      "Ġinch": 4414,
      "itter": 4415,
      "ĠFC": 4416,
      "Ġvs": 4417,
      "ĠCal": 4418,
      "ĠMc": 4419,
      "ike": 4420,
      "ĠCá»Ńa": 4421,
      "´i": 4422,
      "ĠMexico": 4423,
      "yl": 4424,
      "ghanistan": 4425,
      "ĠAirlines": 4426,
      "ĠbÃºt": 4427,
      "Ġhoáº¡i": 4428,
      "ĠKiáº¿m": 4429,
      "ĠToÃ¡n": 4430,
      "chester": 4431,
      "ana": 4432,
      "een": 4433,
      "ĠlÆ°á»¡ng": 4434,
      "Nhá»": 4435,
      "ĠViettel": 4436,
      "ĠCl": 4437,
      "»©": 4438,
      "á»©": 4439,
      "Ġá»ĵn": 4440,
      "ĠÄĲÃ¡ng": 4441,
      "85": 4442,
      "oáº¡n": 4443,
      "Ġtháº¥u": 4444,
      "Ġtriá»ģu": 4445,
      "ĠsÆ°Æ¡ng": 4446,
      "Ġ85": 4447,
      "Ġim": 4448,
      "ThÃ¡i": 4449,
      "Ġhá»Ł": 4450,
      "Ġrá»Ļn": 4451,
      "ĠLá»ĭch": 4452,
      "ĠSal": 4453,
      "Ġtráº¯c": 4454,
      "ĠTok": 4455,
      "ive": 4456,
      "Ġ02": 4457,
      "ÄĲÃ¡ng": 4458,
      "Há": 4459,
      "Há»": 4460,
      "ford": 4461,
      "ĠWin": 4462,
      "ear": 4463,
      "ĠÄĳÃ¡y": 4464,
      "DL": 4465,
      "Ġsáº¡c": 4466,
      "ĠTiáº¿ng": 4467,
      "Ġwebsite": 4468,
      "Ġháº¯n": 4469,
      "ĠGroup": 4470,
      "ĠTre": 4471,
      "ĠCÃ¢u": 4472,
      "gan": 4473,
      "ĠOanh": 4474,
      "ĠchÃ¡n": 4475,
      "Ġnháº¯m": 4476,
      "Ġcai": 4477,
      "Ġvu": 4478,
      "ĠmÃłng": 4479,
      "ĠchÃºa": 4480,
      "ĠNHNN": 4481,
      "ott": 4482,
      "ĠHN": 4483,
      "ĠAfghanistan": 4484,
      "combank": 4485,
      "ĠNhÃ³m": 4486,
      "ĠMac": 4487,
      "ĠTin": 4488,
      "ĠMá»įi": 4489,
      "Ġphanh": 4490,
      "olf": 4491,
      "Ġsuá»ĳi": 4492,
      "ĠnhÃŃ": 4493,
      "ives": 4494,
      "ĠPhá»§": 4495,
      "vent": 4496,
      "Ġthá»į": 4497,
      "Ġ57": 4498,
      ")-": 4499,
      "ĠTuyáº¿t": 4500,
      "67": 4501,
      "Ġdá»ĩt": 4502,
      "ĠCB": 4503,
      "ĠÄĲÆ¡n": 4504,
      ".,": 4505,
      "ĠBá»ī": 4506,
      "Ġbáº©n": 4507,
      "ÄĲá»ģ": 4508,
      "Ġ67": 4509,
      "ca": 4510,
      "ĠLÃł": 4511,
      "Ġbi": 4512,
      "ĠdÄ©": 4513,
      "Ġcay": 4514,
      "ĠSÄ©": 4515,
      "ko": 4516,
      "ĠDavid": 4517,
      "Ġrá»§": 4518,
      "Ġcáº¡n": 4519,
      "Táº¥t": 4520,
      "ternet": 4521,
      "BÃłi": 4522,
      "Ġ63": 4523,
      "ĠXIII": 4524,
      "ĠhÃ¡i": 4525,
      "ĠTM": 4526,
      "NhÃ¬n": 4527,
      "ĠMÆ°á»Ŀng": 4528,
      "44": 4529,
      "bia": 4530,
      "Ġgá»ĳi": 4531,
      "ToÃłn": 4532,
      "EU": 4533,
      "Ġhiáº¿u": 4534,
      "Ġ+": 4535,
      "Ġphiáº¿n": 4536,
      "ĠEn": 4537,
      "aul": 4538,
      "ĠxÃ´": 4539,
      "¹m": 4540,
      "ano": 4541,
      "uba": 4542,
      "ĠNhÆ°á»¡ng": 4543,
      "Tá»ķ": 4544,
      "Ġcá»ĵn": 4545,
      "ĠKá»¹": 4546,
      "Ġ52": 4547,
      "ĠXV": 4548,
      "ĠLÄĲLÄĲ": 4549,
      "02": 4550,
      "eria": 4551,
      "khoáº£ng": 4552,
      "Ġchip": 4553,
      "¥n": 4554,
      "ĠmÃły": 4555,
      "khá»": 4556,
      "ĠÄĳÃ¹a": 4557,
      "Tiá»ģn": 4558,
      "ĠmÃ³ng": 4559,
      "urg": 4560,
      "Tham": 4561,
      "ĠÆ¡i": 4562,
      "ĠcÃłi": 4563,
      "Ġphu": 4564,
      "Ġpháº¿": 4565,
      "ĠSch": 4566,
      "Ġchanh": 4567,
      "Lu": 4568,
      "ĠTrÆ°ng": 4569,
      "phÃ": 4570,
      "ĠTwitter": 4571,
      "Ġmen": 4572,
      "NhÃ³m": 4573,
      "ĠTrÃ¬": 4574,
      "ĠHol": 4575,
      "ounce": 4576,
      "ĠlÄĥng": 4577,
      "ĠFor": 4578,
      "omp": 4579,
      "ĠTum": 4580,
      "ĠÃ´n": 4581,
      "ĠKCN": 4582,
      "ĠSe": 4583,
      "ĠÄĳá»įng": 4584,
      "Ġ58": 4585,
      "ĠthÃ¡p": 4586,
      "NháºŃt": 4587,
      "nham": 4588,
      "%).": 4589,
      "ĠHÄĲXX": 4590,
      "Ġ64": 4591,
      "Ġtáº©y": 4592,
      "Ġngá»Ļt": 4593,
      "98": 4594,
      "ĠnháºŃu": 4595,
      "hÃŃch": 4596,
      "ĠKháº¯c": 4597,
      "Ġmm": 4598,
      "An": 4599,
      "Ġáº¢": 4600,
      "Ġvoi": 4601,
      "ĠxÆ¡": 4602,
      "ĠlÄĥn": 4603,
      "ĊĊ": 4604,
      "Ġ195": 4605,
      "ka": 4606,
      "Ġmá»įc": 4607,
      "ĠMourinho": 4608,
      "Ġhi": 4609,
      "ĠPer": 4610,
      "Ġmáº¯m": 4611,
      "Ġ68": 4612,
      "Ġbáº¯p": 4613,
      "tá»īnh": 4614,
      "ĠCa": 4615,
      "08": 4616,
      "ĠVal": 4617,
      "700": 4618,
      "Ġná»ĵi": 4619,
      "Ġ2000": 4620,
      "ĠMod": 4621,
      "ĠMÃ´n": 4622,
      "TáºŃp": 4623,
      "ile": 4624,
      "Ġdá»«a": 4625,
      "me": 4626,
      "ĠCTCP": 4627,
      "ĠCá»Ńu": 4628,
      "ĠgÅ©i": 4629,
      "66": 4630,
      "ĠcÃºm": 4631,
      "Ġphe": 4632,
      "ĠÄĳuá»ĳi": 4633,
      "oll": 4634,
      "ney": 4635,
      "ĠAFF": 4636,
      "ĠcÃ³c": 4637,
      "ĠSaudi": 4638,
      "Chiáº¿n": 4639,
      "ĠquÃ£ng": 4640,
      "ĠTV": 4641,
      "bum": 4642,
      "Æ¯á": 4643,
      "Æ¯á»": 4644,
      "ĠchÃ¨": 4645,
      "AN": 4646,
      "alo": 4647,
      "Ġthá»ķi": 4648,
      "ĠChÆ°a": 4649,
      "td": 4650,
      "ĠLÃłm": 4651,
      "ull": 4652,
      "ĠVy": 4653,
      "Ġchuá»ĳi": 4654,
      "ĠlÃµi": 4655,
      "NQ": 4656,
      "ĠkhÃ¡nh": 4657,
      "ĠCÆ°Æ¡ng": 4658,
      "Ġbá»ĥ": 4659,
      "ĠcÃ¡p": 4660,
      "roid": 4661,
      "ĠChr": 4662,
      "ĠTokyo": 4663,
      "2010": 4664,
      "Ġdá»Ł": 4665,
      "Ġ98": 4666,
      "ĠItaly": 4667,
      "Ġ2007": 4668,
      "Ġmanh": 4669,
      "ottenham": 4670,
      "Ġnháº¡t": 4671,
      "uáº§n": 4672,
      "ĠRáº¥t": 4673,
      "Ġinternet": 4674,
      "Ġtháº¯n": 4675,
      "ĠsÃ¡p": 4676,
      "ĠQuáº¿": 4677,
      "ĠHam": 4678,
      "ĠdÃ¡n": 4679,
      "HO": 4680,
      "ĠnÃ£": 4681,
      "ĠUA": 4682,
      "ĠKhoáº£ng": 4683,
      "PP": 4684,
      "eh": 4685,
      "Há»įc": 4686,
      "ĠÄĲÃ£": 4687,
      "ĠBáº¥t": 4688,
      "Ġká»ģ": 4689,
      "ĠBÄĲS": 4690,
      "ĠxÃ´ng": 4691,
      "Ġngá»±a": 4692,
      "Ġoxy": 4693,
      "ĠÄĳÃłnh": 4694,
      "ovic": 4695,
      "Khá»": 4696,
      "iga": 4697,
      "BÃŃ": 4698,
      "ÄĲÃ£": 4699,
      "ĠManchester": 4700,
      "Ġtháº§m": 4701,
      "ĠngÃ³n": 4702,
      "ĠVP": 4703,
      "ĠÄĳá»Ľn": 4704,
      "ĠBOT": 4705,
      "ĠCor": 4706,
      "Ba": 4707,
      "Ġná»Ľi": 4708,
      "ĠVen": 4709,
      "ĠCuá»ĳi": 4710,
      "cm": 4711,
      "ĠbÃ¡ch": 4712,
      "Ġbáº£y": 4713,
      "ĠGiÃ¡p": 4714,
      "ĠKhá»ĳi": 4715,
      "ĠTráº¡ch": 4716,
      "Thu": 4717,
      "ĠDai": 4718,
      "ĠHiá»ĥn": 4719,
      "ĠCÄĲV": 4720,
      "ĠdÅ©ng": 4721,
      "ĠÄĲá»ĳng": 4722,
      "ĠDel": 4723,
      "Ġshowbiz": 4724,
      "ĠhÃ£i": 4725,
      "ĠFed": 4726,
      "arao": 4727,
      "ox": 4728,
      "TÄĥng": 4729,
      "Ġkhoai": 4730,
      "§a": 4731,
      "Ġhang": 4732,
      "bao": 4733,
      "Báº£n": 4734,
      "Ġchuá»Ļng": 4735,
      "Ġváº¡n": 4736,
      "ĠUB": 4737,
      "HÃłnh": 4738,
      "Ã©n": 4739,
      "Ġkiá»ģu": 4740,
      "ĠÃĶ": 4741,
      "Ġcá»ĳc": 4742,
      "eon": 4743,
      "Lá»ħ": 4744,
      "ĠHCV": 4745,
      "Há»į": 4746,
      "ĠMor": 4747,
      "07": 4748,
      "Ġ72": 4749,
      "ĠÄĳÃ²n": 4750,
      "Ġtá»±a": 4751,
      "ĠHIV": 4752,
      "Ġkhe": 4753,
      "DN": 4754,
      "ĠATGT": 4755,
      "VÄĥn": 4756,
      "ĠTá»ĳi": 4757,
      "Ġá»Ľt": 4758,
      "ĠNhu": 4759,
      "Ġkhá»Ń": 4760,
      "ĠThay": 4761,
      "Tráº£": 4762,
      "ĠhoÃłnh": 4763,
      "eth": 4764,
      "ĠYou": 4765,
      "Ġtáº§n": 4766,
      "áº»o": 4767,
      "Ġkiá»ĩt": 4768,
      "ĠMark": 4769,
      "ĠCuba": 4770,
      "ĠÄĳÃºc": 4771,
      "Ġ53": 4772,
      "ĠMas": 4773,
      "Ġnáº¡p": 4774,
      "ĠngÃ´": 4775,
      "ĠFDI": 4776,
      "ĠBer": 4777,
      "ĠngÃ¢m": 4778,
      "itco": 4779,
      "Ġ99": 4780,
      "TW": 4781,
      "Nhiá»ĩt": 4782,
      "HS": 4783,
      "Ġráº¡p": 4784,
      "ĠGl": 4785,
      "ĠVan": 4786,
      "ĠPháº£i": 4787,
      "Ġxi": 4788,
      "Ġoan": 4789,
      "Ġrá»ĥ": 4790,
      "IM": 4791,
      "ĠxÆ°ng": 4792,
      "ĠHÃ´m": 4793,
      "ĠxÃ´n": 4794,
      "ĠNiÃªn": 4795,
      "Ġchá»Ń": 4796,
      "Ġ66": 4797,
      "Ġgá»¥c": 4798,
      "BÃ¡c": 4799,
      "TTg": 4800,
      "ĠÃło": 4801,
      "ĠBÃ¡ch": 4802,
      "Ġá»ĳm": 4803,
      "ĠAndroid": 4804,
      "ĠcÃºp": 4805,
      "ĠNhÃ£": 4806,
      "ĠchÄĥng": 4807,
      "Thay": 4808,
      "Báº¯t": 4809,
      "ĠBÄĲBP": 4810,
      "phÆ°á»Ŀng": 4811,
      "ial": 4812,
      "ĠXanh": 4813,
      "ael": 4814,
      "ĠhÆ°á»Ľc": 4815,
      "ĠTriá»ĥn": 4816,
      "ĠXe": 4817,
      "43": 4818,
      "BN": 4819,
      "¨ng": 4820,
      "pr": 4821,
      "Ġdáº£i": 4822,
      "CÃ¢u": 4823,
      "ĠCáº¥p": 4824,
      "ĠTimes": 4825,
      "ON": 4826,
      "ĠEuro": 4827,
      "ari": 4828,
      "ĠNÃ³i": 4829,
      "LÃ½": 4830,
      "Ġpr": 4831,
      "ĠmÃ²": 4832,
      "....": 4833,
      "ĠHe": 4834,
      "GiÃ¡m": 4835,
      "tÆ°Æ¡ng": 4836,
      "Diá»ħn": 4837,
      "06": 4838,
      "araoke": 4839,
      "09": 4840,
      "Ġphiá»ģn": 4841,
      "ĠAN": 4842,
      "Ġlá»Ļi": 4843,
      "Ġsoi": 4844,
      "ĠPak": 4845,
      "ĠgÃ¡c": 4846,
      "AP": 4847,
      "Ġdá»ĵi": 4848,
      "ĠKhang": 4849,
      "ĠDÆ°á»£c": 4850,
      "ens": 4851,
      "outh": 4852,
      "»µ": 4853,
      "á»µ": 4854,
      "ĠHD": 4855,
      "42": 4856,
      "ĠSport": 4857,
      "Ġao": 4858,
      "ĠVÃŃ": 4859,
      "Ġ05": 4860,
      "ĠkÃ©p": 4861,
      "Ġdá»ĳi": 4862,
      "Ġtour": 4863,
      "HoÃłng": 4864,
      "ĠVáº¡n": 4865,
      "Ġbá»Ļc": 4866,
      "ĠSÃ¡u": 4867,
      "ĠVlad": 4868,
      "ChÆ°a": 4869,
      "ªnh": 4870,
      "»«ng": 4871,
      "á»«ng": 4872,
      "mer": 4873,
      "atar": 4874,
      "ĠxÃł": 4875,
      "ĠNLÄĲ": 4876,
      "Ġtháº¥m": 4877,
      "oft": 4878,
      "Ġ59": 4879,
      "ĠMus": 4880,
      "Cá»¥c": 4881,
      "Ġmá»¥n": 4882,
      "ĠNTM": 4883,
      "á»ĭt": 4884,
      "ĠÄĳá»¥ng": 4885,
      "Há»ĵ": 4886,
      "ttp": 4887,
      "Ġná»©t": 4888,
      "VOV": 4889,
      "ĠgiÃłn": 4890,
      "Ġbá»Ļi": 4891,
      "ĠÄĳáº¯n": 4892,
      "ĠLáº¡p": 4893,
      "Ġcar": 4894,
      "ĠgÃ£": 4895,
      "Ġranh": 4896,
      "ĠThÃ¢n": 4897,
      "ÃĶ": 4898,
      "Ġhiá»ĥn": 4899,
      "Ġkiá»ģm": 4900,
      "ova": 4901,
      "ĠhoÃłi": 4902,
      "Tuá»ķi": 4903,
      "ĠnghiÃªng": 4904,
      "Ġhttp": 4905,
      "ĠBÄĥng": 4906,
      "Ġtháº¯c": 4907,
      "Ġtá»ĵi": 4908,
      "ĠluÃ¢n": 4909,
      "Ġháº¡m": 4910,
      "ĠxÃ¡": 4911,
      "car": 4912,
      "ĠnÃ´n": 4913,
      "hop": 4914,
      "ĠCháº³ng": 4915,
      "ĠTottenham": 4916,
      "TÃłu": 4917,
      "Ġloa": 4918,
      "ĠTá»·": 4919,
      "ĠKá»·": 4920,
      "The": 4921,
      "ve": 4922,
      "ĠMilan": 4923,
      "2025": 4924,
      "Ġráº½": 4925,
      "âĢĿ;": 4926,
      "rl": 4927,
      "Ġ62": 4928,
      "ĠchÃ©p": 4929,
      "ĠngÆ°ng": 4930,
      "ĠVá»ĭnh": 4931,
      "DÆ°á»Ľi": 4932,
      "Báº£o": 4933,
      "ĠKÃ´ng": 4934,
      "ind": 4935,
      "Ġcua": 4936,
      "03": 4937,
      "ish": 4938,
      "ĠChiáº¿c": 4939,
      "Ġlá»Ļc": 4940,
      "ĠViáº¿t": 4941,
      "ĠChiá»ģu": 4942,
      "41": 4943,
      "ĠHÆ°á»Ľng": 4944,
      "ĠPSG": 4945,
      "ĠchÃ´n": 4946,
      "Ġtrá»ħ": 4947,
      "ĠNÄĥng": 4948,
      "Ká»ĥ": 4949,
      "Ġmá»Ļng": 4950,
      "ĠÄĲBQH": 4951,
      "ĠIV": 4952,
      "ĠTuá»ķi": 4953,
      "ĠJack": 4954,
      "GB": 4955,
      "ĠWal": 4956,
      "Ġ09": 4957,
      "HN": 4958,
      "ĠBayern": 4959,
      "ĠNÃªn": 4960,
      "ĠSol": 4961,
      "ĠEVN": 4962,
      "ond": 4963,
      "ĠKhai": 4964,
      "ĠÄĳoan": 4965,
      "CA": 4966,
      "ĠsÃºc": 4967,
      "ĠvÃłnh": 4968,
      "ĠDiá»ĩu": 4969,
      "ĠTháº§n": 4970,
      "ĠLáº§n": 4971,
      "Ġ110": 4972,
      "ventus": 4973,
      "TÆ°Æ¡ng": 4974,
      "Ġeo": 4975,
      "ĠFPT": 4976,
      "ĠLib": 4977,
      "ĠMic": 4978,
      "theo": 4979,
      "ĠbÃłng": 4980,
      "Ġbáº¥m": 4981,
      "Ġláº·n": 4982,
      "ĠMá»¥c": 4983,
      "ĠMá»©c": 4984,
      "ĠMTV": 4985,
      "Ġchá»Ńi": 4986,
      "Ca": 4987,
      "Ġtuyáº¿t": 4988,
      "Ġhoáº¡n": 4989,
      "ĠtÃª": 4990,
      "uz": 4991,
      "ĠCEO": 4992,
      "Ġcong": 4993,
      "Ġ03": 4994,
      "»ı": 4995,
      "á»ı": 4996,
      "Ġ2006": 4997,
      "err": 4998,
      "TÃłi": 4999,
      "Ġrá»ī": 5000,
      "Ġghen": 5001,
      "ĠXuáº¥t": 5002,
      "Ĥn": 5003,
      "ĠVKSND": 5004,
      "ĠbuÃ´ng": 5005,
      "GP": 5006,
      "ÄĲÆ°á»Ŀng": 5007,
      "ĠGÃ²": 5008,
      "imir": 5009,
      "ĠKháº£i": 5010,
      "tÄĥng": 5011,
      "ĠVND": 5012,
      "Ġdáº¡o": 5013,
      "HÃ£y": 5014,
      "ena": 5015,
      "ĠCá»©": 5016,
      "ĠFI": 5017,
      "ĠNhÃ¬n": 5018,
      "ĠPa": 5019,
      "Ġláº¯c": 5020,
      "ala": 5021,
      "Ġdáº¹p": 5022,
      "Ġthoáº£ng": 5023,
      "iano": 5024,
      "wood": 5025,
      "Ġngoan": 5026,
      "ĠlÆ¡": 5027,
      "ĠHuÃ¢n": 5028,
      "ĠkhoÄĥn": 5029,
      "ĠxÃŃch": 5030,
      "RiÃªng": 5031,
      "ura": 5032,
      "iel": 5033,
      "ĠDon": 5034,
      "Vá»«a": 5035,
      "ational": 5036,
      "ĠLá»¥c": 5037,
      "enz": 5038,
      "ler": 5039,
      "LC": 5040,
      "iev": 5041,
      "DÃ¢n": 5042,
      "ĠphÆ¡i": 5043,
      "Æ¯T": 5044,
      "Ġrung": 5045,
      "ĠTráº»": 5046,
      "Ġkaraoke": 5047,
      "Ġhiá»ģn": 5048,
      "Ġst": 5049,
      "ĠmÃ¨o": 5050,
      "ĠTR": 5051,
      "ure": 5052,
      "Ġhá»ĳ": 5053,
      "illa": 5054,
      "Ġ1990": 5055,
      "78": 5056,
      "ĠcháºŃt": 5057,
      "gh": 5058,
      "ĠthÃ¡nh": 5059,
      "dow": 5060,
      "Ġ61": 5061,
      "ner": 5062,
      "arl": 5063,
      "MW": 5064,
      "Há»ĩ": 5065,
      "Ġde": 5066,
      "ĠUyÃªn": 5067,
      "Ġalbum": 5068,
      "ĠTráº¥n": 5069,
      "PhÆ°Æ¡ng": 5070,
      "69": 5071,
      "KH": 5072,
      "ĠVic": 5073,
      "ĠthÆ°a": 5074,
      "Báº¥t": 5075,
      "ĠlÃ©o": 5076,
      "ĠId": 5077,
      "ĠChuyÃªn": 5078,
      "Doanh": 5079,
      "63": 5080,
      "ĠtÃºng": 5081,
      "ww": 5082,
      "ĠCT": 5083,
      "Hu": 5084,
      "ĠVladimir": 5085,
      "ĠlÃ¹ng": 5086,
      "ĠcÃ´n": 5087,
      "ĠPakistan": 5088,
      "CÄĥn": 5089,
      "ĠAngel": 5090,
      "QuÃ¡": 5091,
      "ĠGrand": 5092,
      "ide": 5093,
      "ĠVá»ĭ": 5094,
      "ĠLHQ": 5095,
      "rosoft": 5096,
      "Ġnháº·t": 5097,
      "ĠCung": 5098,
      "ĠUtd": 5099,
      "ny": 5100,
      "ĠDiá»ħm": 5101,
      "Ġhá»įng": 5102,
      "Ġvá»ĭt": 5103,
      "Ġlives": 5104,
      "Ġand": 5105,
      "ĠBáº£y": 5106,
      "ĠTiÃªu": 5107,
      "Ġcá»įc": 5108,
      "ced": 5109,
      "ĠBTC": 5110,
      "que": 5111,
      "Ġthá»ĭnh": 5112,
      "ĠGáº§n": 5113,
      "ĠGre": 5114,
      "cho": 5115,
      "sh": 5116,
      "ĠmÃ¡": 5117,
      "Quan": 5118,
      "iu": 5119,
      "Ġcá»Łi": 5120,
      "ĠPhá»ķ": 5121,
      "ĠKiá»ĩt": 5122,
      "ĠbÄĥn": 5123,
      "52": 5124,
      "HC": 5125,
      "ĠBlack": 5126,
      "ĠrÃ¡p": 5127,
      "ja": 5128,
      "Ġthá»§ng": 5129,
      "ĠBá»ĭ": 5130,
      "ĠBá»ĳ": 5131,
      "ĠGiÃ¡ng": 5132,
      "ake": 5133,
      "SCL": 5134,
      "Ġráº¯c": 5135,
      "ith": 5136,
      "Chi": 5137,
      "HÃ£ng": 5138,
      "ĠlÃ¡t": 5139,
      "ĠtrÄĥng": 5140,
      "ĠTX": 5141,
      "ĠHan": 5142,
      "Ġ78": 5143,
      "ata": 5144,
      "Ãªnh": 5145,
      "ĠmÃ²n": 5146,
      "ĠSiÃªu": 5147,
      "ĠTuáº§n": 5148,
      "PhÃŃa": 5149,
      "ĠChÃº": 5150,
      "ĠSN": 5151,
      "Máº·t": 5152,
      "ĠhÃł": 5153,
      "ĠTp": 5154,
      "ĠkhÃ´n": 5155,
      "Ġvá»įt": 5156,
      "ĠTháº¥y": 5157,
      "ĠTal": 5158,
      "Ġláº·p": 5159,
      "IN": 5160,
      "Ġsen": 5161,
      "MC": 5162,
      "»Ĺ": 5163,
      "ĠBID": 5164,
      "á»Ĺ": 5165,
      "ĠQuyÃªn": 5166,
      "ĠthiÃªng": 5167,
      "Ġnho": 5168,
      "ĠBank": 5169,
      "Kho": 5170,
      "Ġvá»Ľt": 5171,
      "etro": 5172,
      "ĠHNX": 5173,
      "ĠháºŃn": 5174,
      "ĠLo": 5175,
      "LuáºŃt": 5176,
      "Ġthá»ģm": 5177,
      "Song": 5178,
      "thÃ¹ng": 5179,
      "akh": 5180,
      "PhÃ²ng": 5181,
      "ĠSá»©c": 5182,
      "Ġsá»¥p": 5183,
      "TráºŃn": 5184,
      "Trang": 5185,
      "edia": 5186,
      "Ġgiá»įt": 5187,
      "Pháº§n": 5188,
      "Ġmá»Ļc": 5189,
      "uss": 5190,
      "ĠTÆ°Æ¡ng": 5191,
      "ĠÄĳÃ´n": 5192,
      "ĠquÃ¡i": 5193,
      "Ġdáº¡i": 5194,
      "bon": 5195,
      "Ġ69": 5196,
      "Ġtá»ıi": 5197,
      "TH": 5198,
      "ĠtÆ°á»Ľi": 5199,
      "tra": 5200,
      "urn": 5201,
      "ĠMá»Ļc": 5202,
      "ĠkhÃ¡i": 5203,
      "ĠKhÆ°Æ¡ng": 5204,
      "¹i": 5205,
      "Ġbar": 5206,
      "Ġsiáº¿t": 5207,
      "57": 5208,
      "ĠVÃ¹ng": 5209,
      "wei": 5210,
      "Ġnhá»įn": 5211,
      "ĠQH": 5212,
      "ÄĲÃ¡nh": 5213,
      "ĠQuÃ¡n": 5214,
      "ade": 5215,
      "ĠhÃ²n": 5216,
      "ĠÄĳáº±ng": 5217,
      "ĠUN": 5218,
      "itcoin": 5219,
      "ĠMun": 5220,
      "NTÄĲ": 5221,
      "ĠlÃ¡ng": 5222,
      "Ġ2005": 5223,
      "ĠQuÃ¡": 5224,
      "Ġcáº¯n": 5225,
      "ĠViá»ħn": 5226,
      "Ġthá»Ńa": 5227,
      "Ġkhuy": 5228,
      "mua": 5229,
      "ĠArabia": 5230,
      "Ġax": 5231,
      "Ġ92": 5232,
      "ĠWill": 5233,
      "ĠGeo": 5234,
      "ĠHÃ£ng": 5235,
      "Má»įi": 5236,
      "ĠDaily": 5237,
      "ĠOnline": 5238,
      "ĠSup": 5239,
      "Ġbá»ĵn": 5240,
      "ĠHÃ¡n": 5241,
      "Ġngáº·t": 5242,
      "Ġmi": 5243,
      "ĠHua": 5244,
      "ĠvÃ£": 5245,
      "Ġchay": 5246,
      "ĠtÆ°á»Ľc": 5247,
      "atch": 5248,
      "MÃ¡y": 5249,
      "ĠMob": 5250,
      "ĠBÃ³ng": 5251,
      "Máº¹": 5252,
      "ĠAI": 5253,
      "ĠSeoul": 5254,
      "Ġngu": 5255,
      "ĠxÃ³t": 5256,
      "thuá»Ļc": 5257,
      "ĠJuventus": 5258,
      "ĠKhanh": 5259,
      "erry": 5260,
      "ĠTrÃºc": 5261,
      "ĠCap": 5262,
      "Láº§n": 5263,
      "áº·m": 5264,
      "ania": 5265,
      "ĠÄĳáº¯ng": 5266,
      "Net": 5267,
      "ĠBuÃ´n": 5268,
      "ĠnhÆ°á»Ŀng": 5269,
      "undai": 5270,
      "men": 5271,
      "ĠRa": 5272,
      "ĠChinh": 5273,
      "âĢĿ-": 5274,
      "ĠÄĲÃłn": 5275,
      "Ġrá»Ļ": 5276,
      "Quy": 5277,
      "__": 5278,
      "ĠJe": 5279,
      "ĠHáº§u": 5280,
      "Cáº§u": 5281,
      "Ġtáº¡ng": 5282,
      "ĠHÃłm": 5283,
      "ĠlÆ°á»¡i": 5284,
      "iam": 5285,
      "Ã©c": 5286,
      "Ġman": 5287,
      "ĠGen": 5288,
      "ĠtÃ¡ng": 5289,
      "04": 5290,
      "Ġson": 5291,
      "ĠFord": 5292,
      "ĠkÄ©": 5293,
      "Ġ88": 5294,
      "ĠNG": 5295,
      "ĠghÃ©": 5296,
      "Giá»Ľi": 5297,
      "AD": 5298,
      "ĠdÃ£y": 5299,
      "su": 5300,
      "ĠCAND": 5301,
      "ĠItalia": 5302,
      "Ġtháº¡ch": 5303,
      "ĠHay": 5304,
      "Ġngá»¡": 5305,
      "ĠInst": 5306,
      "yd": 5307,
      "ĠGuard": 5308,
      "ĠÄĳiÃªn": 5309,
      "ÃĤ": 5310,
      "ĠÄĳáº¡m": 5311,
      "ĠNguyá»ĩt": 5312,
      "ĠBlo": 5313,
      "ĠDáº§n": 5314,
      "79": 5315,
      "Ġtest": 5316,
      "Vá»£": 5317,
      "ĠMÃ´ng": 5318,
      "TCK": 5319,
      "ĠJoe": 5320,
      "Ġgiáº¿": 5321,
      "Ġrá»ĩt": 5322,
      "ER": 5323,
      "ĠPhÃ¹": 5324,
      "Chuyá»ĩn": 5325,
      "ĠKhÃ¡ch": 5326,
      "agram": 5327,
      "ĠGiá»Ľi": 5328,
      "use": 5329,
      "ĠÄĳáº¡c": 5330,
      "seo": 5331,
      "Ġkhá»ĳc": 5332,
      "port": 5333,
      "Ġdáº¡n": 5334,
      "'s": 5335,
      "Ġ130": 5336,
      "over": 5337,
      "SI": 5338,
      "tream": 5339,
      "Ġkhoang": 5340,
      "dar": 5341,
      "ĠxÃ´i": 5342,
      "ĠGP": 5343,
      "72": 5344,
      "Ġcuá»ĵng": 5345,
      "Ráº¥t": 5346,
      "ĠJames": 5347,
      "VC": 5348,
      "ĠWest": 5349,
      "ĠSai": 5350,
      "ĠmÃ¹ng": 5351,
      "ĠmÃ¢m": 5352,
      "khá»§ng": 5353,
      "Ġxen": 5354,
      "áº¾": 5355,
      "ĠThÃªm": 5356,
      "per": 5357,
      "Ġnghiá»ĩt": 5358,
      "Ġkáº¹o": 5359,
      "lu": 5360,
      "ĠHÃ¢n": 5361,
      "MB": 5362,
      "are": 5363,
      "iforn": 5364,
      "Há»ĵi": 5365,
      "ĠPhÃŃa": 5366,
      "ĠTáº¡": 5367,
      "ĠWe": 5368,
      "ĠÄĲáº£o": 5369,
      "ĠthiÃªu": 5370,
      "ĠFIFA": 5371,
      "ifornia": 5372,
      "ĠnÆ°Æ¡ng": 5373,
      "Ġtre": 5374,
      "ĠnhÃ¡t": 5375,
      "ĠKiev": 5376,
      "cedes": 5377,
      "ealand": 5378,
      "erb": 5379,
      "62": 5380,
      "Æ°Æ¡m": 5381,
      "2009": 5382,
      "Ġ180": 5383,
      "Ġkáº½": 5384,
      "ĠOr": 5385,
      "Ġneo": 5386,
      "ĠGT": 5387,
      "ĠchÃ©o": 5388,
      "mi": 5389,
      "Ġcháº£": 5390,
      "Ġsex": 5391,
      "Ġj": 5392,
      "ky": 5393,
      "Ġrao": 5394,
      "ĠMicrosoft": 5395,
      "uela": 5396,
      "58": 5397,
      "ect": 5398,
      "':": 5399,
      "NgÃ¢n": 5400,
      "Ġa": 5401,
      "otein": 5402,
      "ĠxÃŃ": 5403,
      "ward": 5404,
      "ĠEver": 5405,
      "ĠNo": 5406,
      "PA": 5407,
      "ĠXin": 5408,
      "ĠRam": 5409,
      "lÃłm": 5410,
      "ĠCÃºp": 5411,
      "Ġgáº§m": 5412,
      "ĠLÄĥng": 5413,
      "ĠQatar": 5414,
      "ĠCáºŃn": 5415,
      "ĠBÃłn": 5416,
      "ĠmÃŃa": 5417,
      "Ġ04": 5418,
      "900": 5419,
      "NS": 5420,
      "ings": 5421,
      "oney": 5422,
      "ĠGa": 5423,
      "ĠZealand": 5424,
      "ChuyÃªn": 5425,
      "ĠÄĲBSCL": 5426,
      "NÆ°á»Ľc": 5427,
      "Thiáº¿u": 5428,
      "ĠbÆ°á»Łi": 5429,
      "Tiáº¿n": 5430,
      "Ġ350": 5431,
      "cá»ķ": 5432,
      "ĠtÃ¹ng": 5433,
      "ĠSÃ¢n": 5434,
      "VáºŃy": 5435,
      "ĠLÄ©nh": 5436,
      "59": 5437,
      "Ġvá»©t": 5438,
      "ital": 5439,
      "ĠCNTT": 5440,
      "ezuela": 5441,
      "ĠTuyáº¿n": 5442,
      "TÃ¢n": 5443,
      "ĠthÃ¬a": 5444,
      "Ġtá»ĳng": 5445,
      "Ľc": 5446,
      "Tá»·": 5447,
      "ren": 5448,
      "che": 5449,
      "Vietnam": 5450,
      "eta": 5451,
      "ĠCÄĥn": 5452,
      "Ġnhiáº¿p": 5453,
      "ĠcháºŃu": 5454,
      "ĠnÃ©n": 5455,
      "lay": 5456,
      "Ġfacebook": 5457,
      "Ġgas": 5458,
      "Ġ76": 5459,
      "Ġváº¡ch": 5460,
      "Å©a": 5461,
      "Ġvá»ĭnh": 5462,
      "Nhá»Ŀ": 5463,
      "Ġmá»ĵi": 5464,
      "ors": 5465,
      "ĠSw": 5466,
      "ĠÃĤm": 5467,
      "Ġlau": 5468,
      "ĠvÆ°á»£ng": 5469,
      "Ġlog": 5470,
      "ĠBus": 5471,
      "ĠCalifornia": 5472,
      "ĠxÃ¡t": 5473,
      "ĠÄĳÃ¨": 5474,
      "ment": 5475,
      "Ġtáº·c": 5476,
      "ĠMot": 5477,
      "ĠSerg": 5478,
      "ĠbÃ¹n": 5479,
      "Ġtháº¯p": 5480,
      "aco": 5481,
      "âĢĵ": 5482,
      "Ar": 5483,
      "Cá»±u": 5484,
      "Ġ77": 5485,
      "Ġmá»ĭn": 5486,
      "ĠMÃ¹a": 5487,
      "ĠÄĳÃŃnh": 5488,
      "ANTÄĲ": 5489,
      "any": 5490,
      "Ġquá»µ": 5491,
      "ĠDr": 5492,
      "ĠTÃ¡m": 5493,
      "Ġbáº¥y": 5494,
      "ĠRá»ĵi": 5495,
      "ĠquyÃªn": 5496,
      "andal": 5497,
      "Ġrá»ĵng": 5498,
      "UV": 5499,
      "ĠTay": 5500,
      "QuÃ¢n": 5501,
      "ĠSil": 5502,
      "ĠtrÄĥn": 5503,
      "ĠÃģo": 5504,
      "Ġgiá»ģng": 5505,
      "tá»©c": 5506,
      "ÄĲi": 5507,
      "ĠXI": 5508,
      "ĠBel": 5509,
      "ĠKhoáº£n": 5510,
      "ĠBi": 5511,
      "ĠÄĳáº¿m": 5512,
      "ĠSV": 5513,
      "54": 5514,
      "199": 5515,
      "sá»Ńa": 5516,
      "ĠquÃ¡t": 5517,
      "Ġlui": 5518,
      "eland": 5519,
      "Ġngáº¥t": 5520,
      "ĠrÃ¡o": 5521,
      "ĠhÃłn": 5522,
      "ĠDiá»ĩp": 5523,
      "Äĳá": 5524,
      "Äĳá»": 5525,
      "----": 5526,
      "Ġbuá»ĵng": 5527,
      "ibank": 5528,
      "Minh": 5529,
      "ĠKm": 5530,
      "ĠcÃłnh": 5531,
      "Ná»Ļi": 5532,
      "ĠnÃ¢u": 5533,
      "MÃ¹a": 5534,
      "ĠÃª": 5535,
      "Ġviáº¿ng": 5536,
      "áº»m": 5537,
      "ĠÄĳá»ĳng": 5538,
      "he": 5539,
      "ĠSouth": 5540,
      "sky": 5541,
      "ĠTháºŃt": 5542,
      "ĠPan": 5543,
      "ĠÄĳá»ĩm": 5544,
      "aff": 5545,
      "ĠNT": 5546,
      "UY": 5547,
      "Ġaxit": 5548,
      "hÃ³a": 5549,
      "ĠvuÃ´ng": 5550,
      "Ġno": 5551,
      "Ġemail": 5552,
      "eymar": 5553,
      "abe": 5554,
      "ĠTNGT": 5555,
      "Ġcm": 5556,
      "ĠKar": 5557,
      "ĠAc": 5558,
      "¨m": 5559,
      "Ġngá»įc": 5560,
      "Ġdáº·n": 5561,
      "ym": 5562,
      "ander": 5563,
      "Ká»³": 5564,
      "ĠLHP": 5565,
      "obot": 5566,
      "ĠMÃ¬nh": 5567,
      "ĠVietcombank": 5568,
      "ĠRos": 5569,
      "sa": 5570,
      "att": 5571,
      "ÄĲÃªm": 5572,
      "etty": 5573,
      "dows": 5574,
      "ĠTom": 5575,
      "Ġ79": 5576,
      "ĠHuawei": 5577,
      "So": 5578,
      "táº¥n": 5579,
      "ĠSl": 5580,
      "ĠInstagram": 5581,
      "Ġháº¡ch": 5582,
      "aka": 5583,
      "ĠKhÃŃ": 5584,
      "ĠTá»©": 5585,
      "ĠClin": 5586,
      "ĠtÃ²": 5587,
      "way": 5588,
      "ĠTrá»Ŀi": 5589,
      "cÃ´ng": 5590,
      "Ġváº·t": 5591,
      "ĠNháºŃn": 5592,
      "Quang": 5593,
      "ĠYouT": 5594,
      "ĠVenezuela": 5595,
      "áº½n": 5596,
      "Ġ86": 5597,
      "Ġxá»ķ": 5598,
      "Ġkhao": 5599,
      "Ġ1992": 5600,
      "ĠKur": 5601,
      "PhiÃªn": 5602,
      "Ġngáº§n": 5603,
      "ĠGo": 5604,
      "Ġ900": 5605,
      "ĠtrÃ¡n": 5606,
      "Ġdá»Ĺ": 5607,
      "RO": 5608,
      "ĠkÃŃp": 5609,
      "Æł": 5610,
      "gon": 5611,
      "ĠKá»ĥ": 5612,
      "Ġ2003": 5613,
      "Ġ06": 5614,
      "Man": 5615,
      "ĠSL": 5616,
      "ĠMu": 5617,
      "ji": 5618,
      "Ġkhuáº¥t": 5619,
      "Vá»ĭ": 5620,
      "ĠBIDV": 5621,
      "yan": 5622,
      "»¦y": 5623,
      "á»¦y": 5624,
      "ates": 5625,
      "Ġ71": 5626,
      "ĠdÃło": 5627,
      "oz": 5628,
      "ĠMáº¡ch": 5629,
      "Clip": 5630,
      "Ġmá»ī": 5631,
      "igh": 5632,
      "ĠsÆ°á»Ŀn": 5633,
      "ĠCATP": 5634,
      "Ġprotein": 5635,
      "ĠvÃº": 5636,
      "ĠChÃ¢n": 5637,
      "ÃĬ": 5638,
      "ĠKia": 5639,
      "Ġgiáº¿ng": 5640,
      "ĠPhá»ĳ": 5641,
      "Ġ81": 5642,
      "ĠGeor": 5643,
      "ĠQuáº£": 5644,
      "Ġgirl": 5645,
      "Äĥk": 5646,
      "ĠMÃ¡y": 5647,
      "ĠZing": 5648,
      "Ġkhiáº¿p": 5649,
      "my": 5650,
      "VTC": 5651,
      "Ġgieo": 5652,
      "ĠÄĳiá»ģn": 5653,
      "ĠnÃ²ng": 5654,
      "ĠkhiÃªu": 5655,
      "Báº¯c": 5656,
      "ĠIr": 5657,
      "wn": 5658,
      "ĠchiÃªn": 5659,
      "ĠCháº¥t": 5660,
      "ĠSG": 5661,
      "ĠÃĤn": 5662,
      "ĠTech": 5663,
      "?âĢĿ.": 5664,
      "BA": 5665,
      "Ġxoáº¯n": 5666,
      "Ġ73": 5667,
      "XÃ¢y": 5668,
      "ĠHa": 5669,
      "Ġvan": 5670,
      "ThÃªm": 5671,
      "ĠOld": 5672,
      "ĠMÃª": 5673,
      "náº¿u": 5674,
      "ali": 5675,
      "ĠTrÃ¢m": 5676,
      "Ġgiáº·t": 5677,
      "Pad": 5678,
      "ĠÄĲá»ı": 5679,
      "ĠÄĳáº·n": 5680,
      "ĠAv": 5681,
      "Ġgolf": 5682,
      "Quyáº¿t": 5683,
      "pe": 5684,
      "ĠrÃ²": 5685,
      "Ġnáº¡": 5686,
      "top": 5687,
      "ÄĲá»©c": 5688,
      "Ġ2004": 5689,
      "Ġham": 5690,
      "Ġnghá»ĭch": 5691,
      "ĠChan": 5692,
      "ĠhÃ©": 5693,
      "QL": 5694,
      "ĠBol": 5695,
      "Ġcáº¥y": 5696,
      "ĠtÃ³m": 5697,
      "ĠVictor": 5698,
      "ĠcÃ²i": 5699,
      "ĠNgÃłnh": 5700,
      "ĠVáº¥n": 5701,
      "ĠthÃ¡m": 5702,
      "Xuáº¥t": 5703,
      "ĠBÆ°á»Ľc": 5704,
      "ĠKT": 5705,
      "tá»±": 5706,
      "ele": 5707,
      "Ġtháº±ng": 5708,
      "ĠHolly": 5709,
      "ĠSá»Ń": 5710,
      "ThÆ°Æ¡ng": 5711,
      "ĠLiga": 5712,
      "Sinh": 5713,
      "BÄĲ": 5714,
      "ĠThan": 5715,
      "PG": 5716,
      "ĠKhuÃª": 5717,
      "ĠÄĲi": 5718,
      "64": 5719,
      "chi": 5720,
      "ĠsÆ°á»Ľng": 5721,
      "agon": 5722,
      "»įng": 5723,
      "á»įng": 5724,
      "ĠNV": 5725,
      "Nháº±m": 5726,
      "ĠCNN": 5727,
      "ĠPlus": 5728,
      "chÃ": 5729,
      "ĠHyundai": 5730,
      "Ġ74": 5731,
      "Ġhao": 5732,
      "ĠYoung": 5733,
      "Ġ08": 5734,
      "ĠPhiÃªn": 5735,
      "ĠWindows": 5736,
      "letico": 5737,
      "ĠRod": 5738,
      "ĠbÆ°u": 5739,
      "HÃłn": 5740,
      "Ġgen": 5741,
      "Ġnáº¯p": 5742,
      "Quá»ĳc": 5743,
      "ĠxÄĥm": 5744,
      "ĠNÃºi": 5745,
      "enc": 5746,
      "Pháº£i": 5747,
      "estine": 5748,
      "ĠMercedes": 5749,
      "ĠcÆ°ng": 5750,
      "Ġsc": 5751,
      "NgÃ´i": 5752,
      "NLÄĲ": 5753,
      "áºł": 5754,
      "oth": 5755,
      "burg": 5756,
      "ĠStar": 5757,
      "ĠTri": 5758,
      "Ġ82": 5759,
      "GiÃ¡o": 5760,
      "ĠGar": 5761,
      "ĠLÃ²": 5762,
      "Ġbáº«y": 5763,
      "SCO": 5764,
      "Iá": 5765,
      "Iá»": 5766,
      "ĠAss": 5767,
      "ĠShin": 5768,
      "Danh": 5769,
      "ĠUAE": 5770,
      "Kim": 5771,
      "ĠmÆ°á»Ŀi": 5772,
      "ĠBig": 5773,
      "ĠNSND": 5774,
      "ĠlÃ³t": 5775,
      "Ġná»ĳt": 5776,
      "ĠÄĲá»«ng": 5777,
      "ĠShi": 5778,
      "Tá»Ŀ": 5779,
      "ĠGrab": 5780,
      "Ġluá»Ļc": 5781,
      "ĠMÆ°á»Ŀi": 5782,
      "Huáº¿": 5783,
      "ĠRes": 5784,
      "TÃ¢y": 5785,
      "sá»ĳ": 5786,
      "Ġ89": 5787,
      "ĠbÃ³c": 5788,
      "Ġ1995": 5789,
      "ĠVTC": 5790,
      "Triá»ĥn": 5791,
      "ĠvÄĥng": 5792,
      "ĠNSÆ¯T": 5793,
      "Ġká»ī": 5794,
      "ĠÄĳiÃªu": 5795,
      "Ġnuá»ĳi": 5796,
      "ony": 5797,
      "ĠJose": 5798,
      "lus": 5799,
      "Ġxáº»": 5800,
      "ĠxÃło": 5801,
      "ĠDÆ°á»Ľi": 5802,
      "ĠCas": 5803,
      "ĠlÃª": 5804,
      "Ai": 5805,
      "ĠTÃ½": 5806,
      "ock": 5807,
      "we": 5808,
      "ĠÄĳÃ¨o": 5809,
      "Ġáº¡": 5810,
      "ĠtrÃłng": 5811,
      "ĠdÃ©p": 5812,
      "stan": 5813,
      "Ġchuá»ĵng": 5814,
      "Ġradar": 5815,
      "Ġnan": 5816,
      "Ġháº»m": 5817,
      "Lá»ĭch": 5818,
      "de": 5819,
      "ĠLÆ°á»£ng": 5820,
      "ĠVáºŃt": 5821,
      "Ġbá»©t": 5822,
      "li": 5823,
      "ĠCá»ķng": 5824,
      "ĠLuÃ¢n": 5825,
      "ĠXi": 5826,
      "ÄĳÃ£": 5827,
      "ĠPaul": 5828,
      "ĠMichael": 5829,
      "Ġtáº¡": 5830,
      "SA": 5831,
      "ĠNgá»į": 5832,
      "ĠThÃ¡nh": 5833,
      "our": 5834,
      "ĠxÃ¡m": 5835,
      "Ġtá»ħ": 5836,
      "ĠCÆ°": 5837,
      "Ġlá»ĳp": 5838,
      "89": 5839,
      "ĠEs": 5840,
      "ins": 5841,
      "ews": 5842,
      "ĠKy": 5843,
      "anc": 5844,
      "ĠVá»ĩ": 5845,
      "enko": 5846,
      "ĠYouTube": 5847,
      "ĠJon": 5848,
      "ĠOm": 5849,
      "ĠWar": 5850,
      "ĠchiÃªm": 5851,
      "Sao": 5852,
      "ĠchuÃ´ng": 5853,
      "ĠbÆ¡": 5854,
      "53": 5855,
      "ĠClinton": 5856,
      "Ġquáº§y": 5857,
      "ĠAz": 5858,
      "Ġ?": 5859,
      "ĠTa": 5860,
      "ĠThÃŃch": 5861,
      "ĠAgr": 5862,
      "EM": 5863,
      "Ġnhá»©c": 5864,
      "Ġgá»«ng": 5865,
      "afford": 5866,
      "Ġngháº½n": 5867,
      "ĠchÃ¬a": 5868,
      "aya": 5869,
      "ĠPalestine": 5870,
      "Má»¥c": 5871,
      "ĠkhiÃªm": 5872,
      "ĠMunich": 5873,
      "ĠMB": 5874,
      "ella": 5875,
      "ĠMiá»ģn": 5876,
      "ĠÄĳÅ©a": 5877,
      "ĠThá»©c": 5878,
      "orm": 5879,
      "ĠVá»«a": 5880,
      "aza": 5881,
      "ĠNgá»¯": 5882,
      "HÄĲ": 5883,
      "Ġlá»Ļt": 5884,
      "Ġgiang": 5885,
      "erg": 5886,
      "Ġ87": 5887,
      "Ġ83": 5888,
      "áº¿ch": 5889,
      "2008": 5890,
      "ml": 5891,
      "ĠCÃ¡n": 5892,
      "Ġ96": 5893,
      "EP": 5894,
      "ĠOp": 5895,
      "Ġrobot": 5896,
      "ance": 5897,
      "ĠBrun": 5898,
      "ĠnÃłn": 5899,
      "ise": 5900,
      "Ġtá»¥t": 5901,
      "ĠTrafford": 5902,
      "ts": 5903,
      "Ġ91": 5904,
      "TNO": 5905,
      "Ġ97": 5906,
      "Ġá»§": 5907,
      "ĠKhuyáº¿n": 5908,
      "Ġkhan": 5909,
      "ĠJenn": 5910,
      "ĠSá»Ńu": 5911,
      "ĠOne": 5912,
      "ĠnghÃªnh": 5913,
      "ĠTáº¡p": 5914,
      "chÆ°a": 5915,
      "ĠLand": 5916,
      "ĠkhÃŃa": 5917,
      "Ġxoa": 5918,
      "chiáº¿m": 5919,
      "Ġ1993": 5920,
      "ĠTháº§y": 5921,
      "nik": 5922,
      "ĠTik": 5923,
      "HáºŃu": 5924,
      "istics": 5925,
      "ĠCá»ĳ": 5926,
      "ĠtÃ¡m": 5927,
      "TháºŃt": 5928,
      "iy": 5929,
      "KhÃ¡ch": 5930,
      "ĠChrist": 5931,
      "ĠphÃ¬": 5932,
      "Ġnha": 5933,
      "ĠKhá»Łi": 5934,
      "bi": 5935,
      "ĠMax": 5936,
      "ĠND": 5937,
      "ĠNeymar": 5938,
      "Sáº£n": 5939,
      "Ġcor": 5940,
      "Ġ160": 5941,
      "Kinh": 5942,
      "Ġ84": 5943,
      "Ġbáº¡": 5944,
      "ĠáºŃp": 5945,
      "Tháº¥y": 5946,
      "sal": 5947,
      "¥a": 5948,
      "Ġkhuya": 5949,
      "ĠTháº¥t": 5950,
      "ĠMáº«u": 5951,
      "įi": 5952,
      "ĠMÃ£o": 5953,
      "ĠHollywood": 5954,
      "ĠPat": 5955,
      "kok": 5956,
      "Ġlá»¯": 5957,
      "rol": 5958,
      "ĠÄĳun": 5959,
      "ĠWon": 5960,
      "Ġrong": 5961,
      "ĠvÃ¢n": 5962,
      "ĠmÃ¬n": 5963,
      "ĠtrÆ¡n": 5964,
      "its": 5965,
      "ival": 5966,
      "uel": 5967,
      "Ġhoi": 5968,
      "ĠrÄĥn": 5969,
      "national": 5970,
      "TTP": 5971,
      "Ngoáº¡i": 5972,
      "ĠbÃ³p": 5973,
      "ĠvÄ©nh": 5974,
      "Æ¯á»Ľc": 5975,
      "ĠHá»Ĺ": 5976,
      "ĠBÃ©": 5977,
      "ĠEa": 5978,
      "ĠBitcoin": 5979,
      "ĠÃºt": 5980,
      "ĠPH": 5981,
      "Ġá»¨ng": 5982,
      "ĠMart": 5983,
      "ĠÄĳÃ¹i": 5984,
      "ĠVietin": 5985,
      "ĠLáº¡i": 5986,
      "ĠÄĲÃªm": 5987,
      "oto": 5988,
      "Ġkhoanh": 5989,
      "ĠvÃ¡n": 5990,
      "ĠHarry": 5991,
      "ĠSn": 5992,
      "Ġ140": 5993,
      "ĠHoáº¡t": 5994,
      "áº¿m": 5995,
      "âĢ¦,": 5996,
      "zo": 5997,
      "ĠlÃ¡nh": 5998,
      "ĠNov": 5999,
      "cÃ¡c": 6000,
      "ishi": 6001,
      "ĠPep": 6002,
      "ome": 6003,
      "Ġquáº¡t": 6004,
      "Phá»¥": 6005,
      "ĠGetty": 6006,
      "ĠÄĳáº¯m": 6007,
      "ĠÆ°á»Ľt": 6008,
      "ĠghÃ©t": 6009,
      "ĠmÃłi": 6010,
      "Ġnáº¥y": 6011,
      "Ġnhá»Ļn": 6012,
      "Ġgáº·t": 6013,
      "Ngá»įc": 6014,
      "esh": 6015,
      "Ġ1997": 6016,
      "Ġbá»ĵ": 6017,
      "76": 6018,
      "ThÆ°á»£ng": 6019,
      "ĠphÃ´": 6020,
      "Ġváº¥p": 6021,
      "azon": 6022,
      "ĠMÃ¹i": 6023,
      "thÃłnh": 6024,
      "Nghá»ĭ": 6025,
      "ĠThuá»Ļt": 6026,
      "ĠPost": 6027,
      "ĠNgÃ´i": 6028,
      "Giá»Ŀ": 6029,
      "ĠÄĲáº¯c": 6030,
      "els": 6031,
      "ĠAtletico": 6032,
      "Ġmini": 6033,
      "SiÃªu": 6034,
      "eing": 6035,
      "ĠLá»Ļ": 6036,
      "ĠHá»£i": 6037,
      "ĠhÃ©t": 6038,
      "Ġ1999": 6039,
      "ĠCrim": 6040,
      "ĠchÃ¨o": 6041,
      "Ġrá»ĳt": 6042,
      "ĠsÆ°ng": 6043,
      "ĠSUV": 6044,
      "Ġ2002": 6045,
      "ĠQuá»·": 6046,
      "ĠLibya": 6047,
      "ĠLá»¯": 6048,
      "ÄĳÆ°á»Ŀng": 6049,
      "56": 6050,
      "ĠFlor": 6051,
      "ĠKl": 6052,
      "Ġ1994": 6053,
      "ĠxuÃ´i": 6054,
      "ĠxÃ¬": 6055,
      "Ġchiáº¿t": 6056,
      "ĠChiá»ĥu": 6057,
      "Ġ(+": 6058,
      "ÃŃp": 6059,
      "Ġtia": 6060,
      "LÃª": 6061,
      "ĠCá»±u": 6062,
      "ga": 6063,
      "ĠNet": 6064,
      "ĠCro": 6065,
      "FTA": 6066,
      "bin": 6067,
      "ĠlÆ°á»Ľt": 6068,
      "Ġlá»¥y": 6069,
      "»ģn": 6070,
      "á»ģn": 6071,
      "ĠPhim": 6072,
      "Ġchui": 6073,
      "Ġ/": 6074,
      "ĠVá»£": 6075,
      "ĠKS": 6076,
      "KV": 6077,
      "ĠHÃło": 6078,
      "ĠTinh": 6079,
      "ĠÄĲen": 6080,
      "ĠÄĳan": 6081,
      "ĠTá»ĭnh": 6082,
      "za": 6083,
      "gr": 6084,
      "ida": 6085,
      "ĠKu": 6086,
      "ÄĲÆ¡n": 6087,
      "ĠMÃł": 6088,
      "MS": 6089,
      "yn": 6090,
      "OSE": 6091,
      "ĠJord": 6092,
      "uki": 6093,
      "Ġviá»ĩt": 6094,
      "ĠCom": 6095,
      "ĠbÃ´i": 6096,
      "ĠGold": 6097,
      "aba": 6098,
      "ĠBMW": 6099,
      "Ġgai": 6100,
      "ĠgáºŃy": 6101,
      "ĠChuyá»ĩn": 6102,
      "Ġchá»įc": 6103,
      "erson": 6104,
      "ĠXK": 6105,
      "ĠNgÅ©": 6106,
      "ĠBill": 6107,
      "Ġsá»ıi": 6108,
      "ĠSHB": 6109,
      "Ã¹y": 6110,
      "pa": 6111,
      "ĠOai": 6112,
      "ernand": 6113,
      "ĠTÃ¡o": 6114,
      "ĠCO": 6115,
      "Ġblo": 6116,
      "Ġ125": 6117,
      "ĠRang": 6118,
      "Ġpháº³ng": 6119,
      "ĠchÃ¡o": 6120,
      "trÃ¡i": 6121,
      "Ġláº«y": 6122,
      "ks": 6123,
      "Ġlá»Ļng": 6124,
      "ĠCá»§": 6125,
      "ĠSLNA": 6126,
      "ÄĲÃºng": 6127,
      "ĠÄĲÃ´i": 6128,
      "ĠRobert": 6129,
      "ĠHill": 6130,
      ",âĢĿ": 6131,
      "ĠBÆ°u": 6132,
      "ĠâĢ¦": 6133,
      "ĠJi": 6134,
      "Ġcá»Ĺ": 6135,
      "CÃ¡i": 6136,
      "Ġset": 6137,
      "ĠKo": 6138,
      "cus": 6139,
      "ĠTMCP": 6140,
      "ĠVua": 6141,
      "Ġ1991": 6142,
      "Ġkhá»ī": 6143,
      "ĠLou": 6144,
      "Ġbá»ī": 6145,
      "ale": 6146,
      "Ġam": 6147,
      "ĠCáº£m": 6148,
      "Du": 6149,
      "ĠVina": 6150,
      "Ġsáº§u": 6151,
      "ĠCha": 6152,
      "Ġthon": 6153,
      "ĠMel": 6154,
      "ĠxoÃ¡y": 6155,
      "ĠBarack": 6156,
      "ĠCrimea": 6157,
      "ĠInternational": 6158,
      "ĠbÃ¡u": 6159,
      "Ġ93": 6160,
      "ĠDa": 6161,
      "Ġquyá»ĥn": 6162,
      "ĠLang": 6163,
      "Ġtam": 6164,
      "ĠÃºng": 6165,
      "Ġthá»ĳi": 6166,
      "ĠCÃ¡": 6167,
      "Ġ115": 6168,
      "ustin": 6169,
      "tis": 6170,
      "ĠBangkok": 6171,
      "ĠPhÃ¢n": 6172,
      "ĠiPad": 6173,
      "Ġtáº©u": 6174,
      "Ġ1996": 6175,
      "ĠmÃ¡c": 6176,
      "ĠTD": 6177,
      "Ġcá»į": 6178,
      "ĠthÃ¨m": 6179,
      "ĠÃ¢u": 6180,
      "Ġngá»ı": 6181,
      "ĠVÆ°á»Ŀn": 6182,
      "Ġcáº©u": 6183,
      "TrÆ°á»Łng": 6184,
      "ĠgiÃ²": 6185,
      "ĠTy": 6186,
      "Ġchá»ĳn": 6187,
      "ĠPhá»¥ng": 6188,
      "Ġxay": 6189,
      "ĠSÃ¡ch": 6190,
      "ĠÃªm": 6191,
      "ĠCharl": 6192,
      "NgÃłnh": 6193,
      "out": 6194,
      "ĠHung": 6195,
      "ĠlÃ¡ch": 6196,
      "ĠxÆ°á»Ľng": 6197,
      "ThÃŃ": 6198,
      "bÃ¡n": 6199,
      "lá": 6200,
      "lá»": 6201,
      "lan": 6202,
      "PhÃº": 6203,
      "ĠVang": 6204,
      "ĠbÃºn": 6205,
      "ĠÄĳá»ĳn": 6206,
      "ĠNhuáºŃn": 6207,
      "ĠchÆ°ng": 6208,
      "Ġná»Ļ": 6209,
      "ĠTá»Ľi": 6210,
      "PhÃ¡p": 6211,
      "51": 6212,
      "aku": 6213,
      "ĠSim": 6214,
      "ĠMartin": 6215,
      "ĠVáº¥p": 6216,
      "ĠSuper": 6217,
      "int": 6218,
      "KhÃ¡nh": 6219,
      "Ġ07": 6220,
      "nÃ³ng": 6221,
      "92": 6222,
      "Äĳáº¡i": 6223,
      "ĠVol": 6224,
      "ĠtÃ¡t": 6225,
      "ĠRich": 6226,
      "dr": 6227,
      "esel": 6228,
      "ĠCÃ¢y": 6229,
      "Váº¥n": 6230,
      "!âĢĿ.": 6231,
      "BV": 6232,
      "ĠThá»Ľi": 6233,
      "TuyÃªn": 6234,
      "ĠngÃłng": 6235,
      "ĠPu": 6236,
      "Ġgu": 6237,
      "ĠLi": 6238,
      "Ġ2001": 6239,
      "CÃ¢y": 6240,
      "Ġ1982": 6241,
      "Tá»īnh": 6242,
      "ĠBor": 6243,
      "ĠNor": 6244,
      "ĠJun": 6245,
      "ĠBlu": 6246,
      "Ġdai": 6247,
      "ĠquáºŃt": 6248,
      "ĠInd": 6249,
      "ĠsÃłnh": 6250,
      "ĠHÃ¨": 6251,
      "Ġcorona": 6252,
      "Ġmáº¯ng": 6253,
      "ĠAnton": 6254,
      "Ġtáº¥p": 6255,
      "TO": 6256,
      "ĠAgribank": 6257,
      "Ġxáº¯n": 6258,
      "!!": 6259,
      "ĠTQ": 6260,
      "ĠÄĳinh": 6261,
      "Ġrá»ķ": 6262,
      "ĠLat": 6263,
      "Tráº§n": 6264,
      "FC": 6265,
      "73": 6266,
      "ĠÄĳá»¥c": 6267,
      "ĠKháº£": 6268,
      "iban": 6269,
      "ĠmÆ°Æ¡i": 6270,
      "ĠLÃłng": 6271,
      "ĠAPEC": 6272,
      "obal": 6273,
      ")âĢ¦": 6274,
      "gg": 6275,
      "ĠÄĲam": 6276,
      "ĠBloom": 6277,
      "ĠEur": 6278,
      "ĠchÃ©n": 6279,
      "ĠTháº©m": 6280,
      "Ġlung": 6281,
      "ĠCÃ´n": 6282,
      "BTC": 6283,
      "ĠAmazon": 6284,
      "Ńng": 6285,
      "Ġrá»¥i": 6286,
      "PGS": 6287,
      "QS": 6288,
      "gia": 6289,
      "Ġngoáº¡n": 6290,
      "ega": 6291,
      "ĠTÃ´ng": 6292,
      "ĠgiÃ´ng": 6293,
      "ĠVNPT": 6294,
      "Bá»©c": 6295,
      "Ġti": 6296,
      "ĠChá»¯": 6297,
      "ĠvÃ¡c": 6298,
      "Tháº§y": 6299,
      "Tuáº§n": 6300,
      "Ġ1980": 6301,
      "ĠNghe": 6302,
      "ĠLáº§u": 6303,
      "Ġdiá»ĩu": 6304,
      "Wh": 6305,
      "oshi": 6306,
      "Ġ1998": 6307,
      "Ġmáº¡": 6308,
      "Ġráº«y": 6309,
      "ĠBÃ¢y": 6310,
      "ĠÄĲÃºng": 6311,
      "ĠWilliam": 6312,
      "ife": 6313,
      "Ġlam": 6314,
      "ĠDam": 6315,
      "Ġlá»¥a": 6316,
      "ÄĲB": 6317,
      "vi": 6318,
      "ĠgiÃ²n": 6319,
      "TÃªn": 6320,
      "MP": 6321,
      "COP": 6322,
      "ille": 6323,
      "eroin": 6324,
      "azda": 6325,
      "ĠchÃ¹m": 6326,
      "Hiá»ĩp": 6327,
      "so": 6328,
      "ĠmáºŃp": 6329,
      "Tá»Ń": 6330,
      "61": 6331,
      "Ġtáº¥u": 6332,
      "ĠMe": 6333,
      "Ġchen": 6334,
      "ĠNÆ¡i": 6335,
      "oli": 6336,
      "Ġ2024": 6337,
      "opa": 6338,
      "mund": 6339,
      "ĠGiai": 6340,
      "ye": 6341,
      "ĠColom": 6342,
      "ĠcÃ¡m": 6343,
      "Ġscandal": 6344,
      "low": 6345,
      "ĠBL": 6346,
      "ust": 6347,
      "kho": 6348,
      "SNN": 6349,
      "press": 6350,
      "Má»©c": 6351,
      "ĠÄĲáº±ng": 6352,
      "acom": 6353,
      "ĠLED": 6354,
      "ÄĲá»Ļng": 6355,
      "Ġngáº«u": 6356,
      "Ġbáº¡t": 6357,
      "Ġtem": 6358,
      "ĠUr": 6359,
      "ski": 6360,
      "ĠsÃ¢m": 6361,
      "»Ĺng": 6362,
      "á»Ĺng": 6363,
      "TÃ¡c": 6364,
      "ĠchoÃ¡ng": 6365,
      "ĠPow": 6366,
      "ĠRá»ĵng": 6367,
      "nhÃł": 6368,
      "Ġgá»ĳm": 6369,
      "Ġthá»īnh": 6370,
      "isa": 6371,
      "ĠVII": 6372,
      "ĠÃł": 6373,
      "GÄĲ": 6374,
      "ĠCR": 6375,
      "ĠNat": 6376,
      "ĠCen": 6377,
      "Ġgáº¡t": 6378,
      "Ġdáº»o": 6379,
      "van": 6380,
      "Kiá»ĥm": 6381,
      "Ġ(-": 6382,
      "ĠbÃ©n": 6383,
      "CÃ¡": 6384,
      "ĠKhÃ´i": 6385,
      "ĠIP": 6386,
      "Ġhá»ĳt": 6387,
      "ĠdÆ°ng": 6388,
      "ĠcÃ´i": 6389,
      "ĠAsian": 6390,
      "ÄĲá»«ng": 6391,
      "Ġá»§i": 6392,
      "agen": 6393,
      "ivi": 6394,
      "Bá»Łi": 6395,
      "AI": 6396,
      "ĠÃģi": 6397,
      "Ġgáº¥u": 6398,
      "ĠOscar": 6399,
      "ĠCáºŃu": 6400,
      "Ġmuá»Ĺi": 6401,
      "Lá»£i": 6402,
      "ĠNghiÃªm": 6403,
      "Thiáº¿t": 6404,
      "ĠYÃªu": 6405,
      "ogba": 6406,
      "ĠRáºŃp": 6407,
      "ĠJordan": 6408,
      "arm": 6409,
      "ĠStr": 6410,
      "ĠBáº£ng": 6411,
      "ĠrÆ°á»Ľc": 6412,
      "ĠMáºŃu": 6413,
      "ĠthÃª": 6414,
      "BÃ©": 6415,
      "ita": 6416,
      "ĠBoeing": 6417,
      "âĢĿâĢ¦": 6418,
      "ĠAbe": 6419,
      "ĠlÃ©n": 6420,
      "Ġheroin": 6421,
      "amil": 6422,
      "erm": 6423,
      "ĠWall": 6424,
      "ĠTráºŃn": 6425,
      "Ġbá»ĩ": 6426,
      "ĠHáº£o": 6427,
      "ĠÆ°á»Ľp": 6428,
      "ĠlÃºn": 6429,
      "udi": 6430,
      "ĠLÃ¢n": 6431,
      "Ġrá»¥ng": 6432,
      "Ġká»ĩ": 6433,
      "ĠVÃ²ng": 6434,
      "ĠNote": 6435,
      "74": 6436,
      "ĠATM": 6437,
      "Má»Ł": 6438,
      "ci": 6439,
      "Báº±ng": 6440,
      "Khá»Łi": 6441,
      "ĠNgÆ°": 6442,
      "Ġnguá»Ļi": 6443,
      "Ġquáº¥y": 6444,
      "aser": 6445,
      "ĠGB": 6446,
      "gar": 6447,
      "Phi": 6448,
      "ris": 6449,
      "rov": 6450,
      "ĠnháºŃm": 6451,
      "PhÃºt": 6452,
      "emen": 6453,
      "Hoáº¡t": 6454,
      "ĠrÃ¡ch": 6455,
      "Ghi": 6456,
      "ĠKáº¡n": 6457,
      "ĠÄĲÃ¡": 6458,
      "Ã²m": 6459,
      "cá": 6460,
      "cá»": 6461,
      "Ġ1975": 6462,
      "ĠIm": 6463,
      "ĠLos": 6464,
      "ĠÄĲÄĥk": 6465,
      "ĠWHO": 6466,
      "MÃ¬nh": 6467,
      "ĠCháº¿": 6468,
      "ĠhÃ£m": 6469,
      "Xin": 6470,
      "ESCO": 6471,
      "ĠVHTT": 6472,
      "VT": 6473,
      "ngá»¥": 6474,
      "ĠJin": 6475,
      "ĠRed": 6476,
      "estival": 6477,
      "ĠÄĲá»ĵ": 6478,
      "siÃªu": 6479,
      "ĠvÃ¡ch": 6480,
      "ĠUniver": 6481,
      "ĠTá»ĳ": 6482,
      "ĠFLC": 6483,
      "ortmund": 6484,
      "ĠTho": 6485,
      "ppo": 6486,
      "ĠMoham": 6487,
      "Ġhttps": 6488,
      "ĠiOS": 6489,
      "giáº£m": 6490,
      "ĠbÆ°á»Ľ": 6491,
      "ĠhÄĥng": 6492,
      "ĠnhÆ°á»£c": 6493,
      "ĠANTT": 6494,
      "osh": 6495,
      "ield": 6496,
      "ĠlÃ¬": 6497,
      "SE": 6498,
      "ĠTrÃłng": 6499,
      "Ġ1989": 6500,
      "Ġbong": 6501,
      "ĠsuÃ½t": 6502,
      "Ġkeo": 6503,
      "ĠhÃ¡o": 6504,
      "ĠÄĳáº¥m": 6505,
      "ĠCu": 6506,
      "ĠmÃ´ng": 6507,
      "ĠXIV": 6508,
      "ĠxoÃłi": 6509,
      "TháºŃm": 6510,
      "ĠTÃ¡c": 6511,
      "oid": 6512,
      "Ġ1988": 6513,
      "Ġlogistics": 6514,
      "ĠSaigon": 6515,
      "Ġ450": 6516,
      "ĠNhÃ¬": 6517,
      "Ġcuá»Ļn": 6518,
      "Ġsáº¥u": 6519,
      "res": 6520,
      "ĠNhÃ¢m": 6521,
      "AC": 6522,
      "ĠDani": 6523,
      "71": 6524,
      "ĠKi": 6525,
      "ĠXem": 6526,
      "okia": 6527,
      "kov": 6528,
      "Ġná»©c": 6529,
      "Truyá»ģn": 6530,
      "Ġnhá»¥c": 6531,
      "Má»Ŀi": 6532,
      "Ġtáº£n": 6533,
      "VÅ©ng": 6534,
      "ĠBR": 6535,
      "Tok": 6536,
      "Ġgáº§y": 6537,
      "hip": 6538,
      "Chu": 6539,
      "ĠTaliban": 6540,
      "ĠTrá»±c": 6541,
      "ĠPhÃ³ng": 6542,
      "ĠÃļt": 6543,
      "86": 6544,
      "Ġpháº«n": 6545,
      "ĠBloomberg": 6546,
      "ĠHiá»ĥu": 6547,
      "ĠmÃŃt": 6548,
      "ĠHÃ²n": 6549,
      "Ġráº¡ch": 6550,
      "ĠGÃ³c": 6551,
      "Ġuá»ĳn": 6552,
      "cel": 6553,
      "ÄĲiá»ĩn": 6554,
      "ĠDoÃ£n": 6555,
      "Ġrá»ħ": 6556,
      "TÃ¬m": 6557,
      "ium": 6558,
      "Ġcá»ĳi": 6559,
      "Ġnhiá»ħu": 6560,
      "itt": 6561,
      "ĠxÃłi": 6562,
      "pper": 6563,
      "Ġser": 6564,
      "dan": 6565,
      "ĠJohnson": 6566,
      "ĠQU": 6567,
      "Lá»Ŀi": 6568,
      "trÃº": 6569,
      "IT": 6570,
      "chá»§": 6571,
      "ĠNáº¡n": 6572,
      "ĠCos": 6573,
      "oC": 6574,
      "âĢ¦âĢĿ.": 6575,
      "ĠBÃłng": 6576,
      "ĠVÆ°á»£ng": 6577,
      "ĠMag": 6578,
      "ĠColombia": 6579,
      "Ã³p": 6580,
      "ĠbÃ£": 6581,
      "ĠVCK": 6582,
      "ĠHyun": 6583,
      "Ġsá»į": 6584,
      "ĠkiÃªng": 6585,
      "ĊĊĊ": 6586,
      "aki": 6587,
      "ĠSm": 6588,
      "ĠmÆ°Æ¡ng": 6589,
      "ĠTuáº¥t": 6590,
      "ĠDis": 6591,
      "150": 6592,
      "ĠLiá»ĩt": 6593,
      "Giao": 6594,
      "ĠThÃ¬n": 6595,
      "Ġxáº¥p": 6596,
      "ĠCanh": 6597,
      "ĠhÃŃ": 6598,
      "nhá»¯ng": 6599,
      "ĠMail": 6600,
      "ĠhoÃ¡n": 6601,
      "ĠtÆ¡": 6602,
      "Ġbá»«ng": 6603,
      "âĢ¦.": 6604,
      "bor": 6605,
      "utnik": 6606,
      "ach": 6607,
      "Ġ108": 6608,
      "ĠBÃ¡t": 6609,
      "ĠSky": 6610,
      "cÆ¡": 6611,
      "Ġnuá»ĳt": 6612,
      "ĠPle": 6613,
      "Ġná»ĥ": 6614,
      "ĠMed": 6615,
      "ĠMÃ³ng": 6616,
      "Ġcháº£o": 6617,
      "istiano": 6618,
      "MO": 6619,
      "Ġtáº¡t": 6620,
      "imes": 6621,
      "icester": 6622,
      "ss": 6623,
      "NghiÃªn": 6624,
      "Ġtá»ĳp": 6625,
      "ĠXÃ¡": 6626,
      "iola": 6627,
      "Ġ94": 6628,
      "Ġ220": 6629,
      "ĠFA": 6630,
      "Ġ170": 6631,
      "ĠDáºŃu": 6632,
      "ĠNgÆ°á»£c": 6633,
      "Pháº¡m": 6634,
      "ĠmuÃ´n": 6635,
      "dinh": 6636,
      "Ġbáº©m": 6637,
      "Ġhá»©c": 6638,
      "pháº£i": 6639,
      "Ġbik": 6640,
      "xe": 6641,
      "thá»ĭ": 6642,
      "nhÆ°": 6643,
      "ĠKurd": 6644,
      "Long": 6645,
      "ĠBern": 6646,
      "Thá»ĳng": 6647,
      "ĠvÃ¹i": 6648,
      "ki": 6649,
      "ni": 6650,
      "Ġxá»ĭt": 6651,
      "anda": 6652,
      "ĠKrÃ´ng": 6653,
      "Ġcá»Ľ": 6654,
      "ame": 6655,
      "ĠSE": 6656,
      "Ġtrá»ĩ": 6657,
      "Cá»©": 6658,
      "HÆ°á»Ľng": 6659,
      "ÄĲoáº¡n": 6660,
      "ĠPT": 6661,
      "ĠphÃŃm": 6662,
      "Ġdiá»ħu": 6663,
      "ĠTá»Ŀ": 6664,
      "ody": 6665,
      "Ġlá»į": 6666,
      "Ġchá»įi": 6667,
      "Háº§u": 6668,
      "ĠvÃ©t": 6669,
      "ĠCat": 6670,
      "ling": 6671,
      "Ġcanxi": 6672,
      "ĠBin": 6673,
      "ĠMW": 6674,
      "Ġhá»ķng": 6675,
      "TPO": 6676,
      "DP": 6677,
      "ĠSA": 6678,
      "Äĳi": 6679,
      "VÅ©": 6680,
      "ÄĲH": 6681,
      "ĠTor": 6682,
      "icron": 6683,
      ")...": 6684,
      "by": 6685,
      "ĠJer": 6686,
      "gá»ĵm": 6687,
      "eting": 6688,
      "ĠliÃªng": 6689,
      "ĠLoáº¡i": 6690,
      "ÃĿ": 6691,
      "ĠCháº¥n": 6692,
      "ĠKing": 6693,
      "exit": 6694,
      "page": 6695,
      "Ġbá»Ľi": 6696,
      "Ġphao": 6697,
      "nes": 6698,
      "ĠMaria": 6699,
      "»ħ": 6700,
      "á»ħ": 6701,
      "ÄĲá»ĭa": 6702,
      "ĠGreen": 6703,
      "Ġrá»Ľt": 6704,
      "TrÃ¡i": 6705,
      "Lo": 6706,
      "ĠRáº«y": 6707,
      "ĠLav": 6708,
      "ĠTel": 6709,
      "Nghe": 6710,
      "ĠPogba": 6711,
      "Ġ...": 6712,
      "ĠÄĲiá»ĩp": 6713,
      "ĠHáº¡t": 6714,
      "Ġmuá»Ĺng": 6715,
      "ES": 6716,
      "ĠMH": 6717,
      "Ġtháº¡c": 6718,
      "ÄĳÆ°á»£c": 6719,
      "ĠAsia": 6720,
      "ĠNig": 6721,
      "Ġdiesel": 6722,
      "ĠLiá»ĩu": 6723,
      "ĠHal": 6724,
      "Ġnáº£n": 6725,
      "OC": 6726,
      "ĠJung": 6727,
      "Ġá»©": 6728,
      "ĠVÄ©": 6729,
      "ĠxÃ©": 6730,
      "uck": 6731,
      "ila": 6732,
      "BiÃªn": 6733,
      "Buá»ķi": 6734,
      "ÄĤn": 6735,
      "Sá»©c": 6736,
      "ĠPo": 6737,
      "ĠSi": 6738,
      "ĠPol": 6739,
      "Ġtao": 6740,
      "ĠSir": 6741,
      "ĠrÃ¢u": 6742,
      "iku": 6743,
      "ĠChÃ¹a": 6744,
      "arus": 6745,
      "ĠCM": 6746,
      "Chá»©ng": 6747,
      "ĠQuÃ¡ch": 6748,
      "ĠLim": 6749,
      "ĠBáº§u": 6750,
      "HÃ²a": 6751,
      "ider": 6752,
      "der": 6753,
      "ĠnhÃ´m": 6754,
      "Ġ1986": 6755,
      "NamNet": 6756,
      "ĠPhÃºt": 6757,
      "ĠDan": 6758,
      "cast": 6759,
      "ĠnÃ´": 6760,
      "Dá»ĭch": 6761,
      "Ġáº¡t": 6762,
      "oss": 6763,
      "ĠAll": 6764,
      "ĠDinh": 6765,
      "Sáº½": 6766,
      "ĠHoan": 6767,
      "NÃ¢ng": 6768,
      "ĠLá»Ľn": 6769,
      "ĠvÃ²i": 6770,
      "Ġnáº¡o": 6771,
      "ĠHye": 6772,
      "Nghi": 6773,
      "Ġsexy": 6774,
      "ĠXÆ°Æ¡ng": 6775,
      "ĠGlobal": 6776,
      "ĠdÃ¬": 6777,
      "ĠNguy": 6778,
      "ĠDortmund": 6779,
      "ll": 6780,
      "atia": 6781,
      "ĠÃ³c": 6782,
      "Triá»ģu": 6783,
      "tu": 6784,
      "ĠOCOP": 6785,
      ",\"": 6786,
      "ĠRi": 6787,
      "Ġqui": 6788,
      "phÃºt": 6789,
      "82": 6790,
      "Ġláº©n": 6791,
      "Ġnhá»įc": 6792,
      "ĠVu": 6793,
      "84": 6794,
      "Äĳá»ĳi": 6795,
      "vel": 6796,
      "ĠBÃ¡n": 6797,
      "ĠCÃºc": 6798,
      "imex": 6799,
      "Cáº·p": 6800,
      "Fast": 6801,
      "lÃł": 6802,
      "Ġ105": 6803,
      "ĠnÃ¡o": 6804,
      "...,": 6805,
      "phá»": 6806,
      "arez": 6807,
      "air": 6808,
      "ĠTáº¡o": 6809,
      "tuáº§n": 6810,
      "Ġphá»Ł": 6811,
      "ĠUNESCO": 6812,
      "Ġkhiáº¿m": 6813,
      "Ġyáº¿n": 6814,
      "Ġkhang": 6815,
      "chá»ī": 6816,
      "ric": 6817,
      "ĠHÆ°á»Ŀng": 6818,
      "Ġtriáº¿t": 6819,
      "ĠgÃ³t": 6820,
      "BI": 6821,
      "utsal": 6822,
      "ĠRAM": 6823,
      "ĠMazda": 6824,
      "ĠRT": 6825,
      "BÃłn": 6826,
      "XD": 6827,
      "ĠSuz": 6828,
      "ºp": 6829,
      "Ġáº¤": 6830,
      "Ġliveshow": 6831,
      "PhÃ³ng": 6832,
      "kin": 6833,
      "âĢ¢": 6834,
      "Ġmiá»ĩt": 6835,
      "ĠthÃ²i": 6836,
      "uez": 6837,
      "ĠLouis": 6838,
      "ĠgiÃ£": 6839,
      "ĠQLTT": 6840,
      "Bá»ĳ": 6841,
      "ĠMoon": 6842,
      "ĠMáº¡c": 6843,
      "ĠBÃ£i": 6844,
      "ĠHOSE": 6845,
      "elle": 6846,
      "Máº«u": 6847,
      "tion": 6848,
      "ĠMáº«n": 6849,
      "ĠÄĳáº«m": 6850,
      "brid": 6851,
      "ĠTeh": 6852,
      "ĠMur": 6853,
      "Báº£ng": 6854,
      "bra": 6855,
      "ĠGuardiola": 6856,
      "ĠchÃ³t": 6857,
      "Ġ1987": 6858,
      "ĠtrÃªu": 6859,
      "ĠLG": 6860,
      "ĠFl": 6861,
      "dogan": 6862,
      "ĠACB": 6863,
      "ĠMir": 6864,
      "Phong": 6865,
      "ĠZh": 6866,
      "Æ¯u": 6867,
      "ĠAmer": 6868,
      "ĠOmicron": 6869,
      "ĠÄĳu": 6870,
      "ĠNSNN": 6871,
      "Ġnhá»§": 6872,
      "sey": 6873,
      "ĠBT": 6874,
      "ĠTur": 6875,
      "ĠYout": 6876,
      "Ġ00": 6877,
      "ence": 6878,
      "CÃ¡n": 6879,
      "ĠnhÃ£": 6880,
      "ĠVn": 6881,
      "Ġthen": 6882,
      "ĠBiáº¿t": 6883,
      "Táº¿t": 6884,
      "Ġtivi": 6885,
      "ĠNav": 6886,
      "IDS": 6887,
      "ĠTÃªn": 6888,
      "Äĳiá»ĥm": 6889,
      "ĠRON": 6890,
      "Ġdang": 6891,
      "ett": 6892,
      "CL": 6893,
      "ĠÄĲá»ģn": 6894,
      "nguyÃªn": 6895,
      "ĠrÃ£": 6896,
      "Ġcarbon": 6897,
      "ĠEV": 6898,
      "ove": 6899,
      "TÃ²a": 6900,
      "omas": 6901,
      "ĠBáº¯t": 6902,
      "LÆ°u": 6903,
      "Ġráº¡n": 6904,
      "Ġtáº¡c": 6905,
      "ĠTHA": 6906,
      "mail": 6907,
      "Ġthá»¥c": 6908,
      "ĠbÃº": 6909,
      "ĠLHPN": 6910,
      "MA": 6911,
      "Cáº£m": 6912,
      "ĠÄĳÃ²": 6913,
      "ĠKe": 6914,
      "ĠkÃ¬m": 6915,
      "ĠSuá»ĳi": 6916,
      "ĠcÃµ": 6917,
      "ChÃº": 6918,
      "rig": 6919,
      "83": 6920,
      "ĠDÆ°": 6921,
      "ĠThiÃªm": 6922,
      "ĠTÃ¬m": 6923,
      "ĠSar": 6924,
      "ĠphÃł": 6925,
      "»«": 6926,
      "á»«": 6927,
      "Ġni": 6928,
      "be": 6929,
      "YÃªu": 6930,
      "Ġmod": 6931,
      "ĠAh": 6932,
      "cean": 6933,
      "ĠBao": 6934,
      "ĠSev": 6935,
      "Ġsáº¥y": 6936,
      "ĠLau": 6937,
      "ĠbÃªnh": 6938,
      "Ġá»ĵ": 6939,
      "Ġlen": 6940,
      "Ġbikini": 6941,
      "Ġngá»Ńa": 6942,
      "Ġhit": 6943,
      "ker": 6944,
      "ĠOl": 6945,
      "pop": 6946,
      "Ġnang": 6947,
      "iF": 6948,
      "ĠMuá»ĳn": 6949,
      "Ġbo": 6950,
      "kva": 6951,
      "Ġsá»«ng": 6952,
      "ĠMiura": 6953,
      "ĠPhÆ°á»Ŀng": 6954,
      "ĠngÃ¢y": 6955,
      "red": 6956,
      "Ġvá»Ĺ": 6957,
      "Ġngháº¹n": 6958,
      "ĠNex": 6959,
      "SV": 6960,
      "iana": 6961,
      "ĠChÃºc": 6962,
      "ĠngáºŃm": 6963,
      "+)": 6964,
      "Ġmá»ĳt": 6965,
      "ĠThÃŃ": 6966,
      "Hay": 6967,
      "Ġdáº¥y": 6968,
      "ven": 6969,
      "fe": 6970,
      "ĠNm": 6971,
      "ĠPe": 6972,
      "kaku": 6973,
      "giáº£i": 6974,
      "uay": 6975,
      "XB": 6976,
      "ĠAFC": 6977,
      "kel": 6978,
      "aptop": 6979,
      "ĠMÃ´": 6980,
      "ĠHá»ıa": 6981,
      "2007": 6982,
      "ĠBCH": 6983,
      "ĠSputnik": 6984,
      "Ġsá»Łi": 6985,
      "Ġ1985": 6986,
      "EF": 6987,
      "ĠnhÃ¡i": 6988,
      "ĠtÄĥm": 6989,
      "Náº¡n": 6990,
      "Ġnhuá»Ļm": 6991,
      "ĠUber": 6992,
      "Vi": 6993,
      "wa": 6994,
      "ĠUSS": 6995,
      "ĠTehran": 6996,
      "eda": 6997,
      "ĠAbd": 6998,
      "Ġngáº¡t": 6999,
      "ĠFernand": 7000,
      "cÃ´": 7001,
      "ĠChÃºa": 7002,
      "ĠDong": 7003,
      "assage": 7004,
      "ĠLeicester": 7005,
      "ĠSha": 7006,
      "ĠÄĲá»Ļc": 7007,
      "osa": 7008,
      "ĠTuyá»ģn": 7009,
      "ĠBeck": 7010,
      "VÃ²ng": 7011,
      "ĠTCT": 7012,
      "ĠWil": 7013,
      "ĠBrexit": 7014,
      "ĠSC": 7015,
      "ĠFin": 7016,
      "ĠChÄĥm": 7017,
      "ĠODA": 7018,
      "LÃło": 7019,
      "ĠKyo": 7020,
      "Ġbá»±c": 7021,
      "ĠInf": 7022,
      "ĠbÃ¬a": 7023,
      "ĠTPP": 7024,
      "ĠDiÃªn": 7025,
      "ĠDÃ¹ng": 7026,
      "ime": 7027,
      "ĠSGK": 7028,
      "XÃ©t": 7029,
      "ĠÃ¡": 7030,
      "ĠJae": 7031,
      "ĠÄĲÃ´n": 7032,
      "elen": 7033,
      "ixel": 7034,
      "aro": 7035,
      "les": 7036,
      "cÃ¹ng": 7037,
      "ĠYemen": 7038,
      "ĠNik": 7039,
      "Ġnhuyá»ħn": 7040,
      "KCN": 7041,
      "ĠNhÃłn": 7042,
      "Kiáº¿n": 7043,
      "ĠVictoria": 7044,
      "ster": 7045,
      "Ġgiáº·c": 7046,
      "ĠHun": 7047,
      "ĠÃ¡ch": 7048,
      "oga": 7049,
      "ĠBBC": 7050,
      "Giá»¯a": 7051,
      "phu": 7052,
      "ĠTikTok": 7053,
      "ĠIdol": 7054,
      "vo": 7055,
      "ĠNic": 7056,
      "ÄĲÃ´ng": 7057,
      "á»ĩt": 7058,
      "ĠMoskva": 7059,
      "Ġnhá»ĭn": 7060,
      "ĠAndre": 7061,
      "Ġráº§m": 7062,
      "ĠBelarus": 7063,
      "Ġ128": 7064,
      "PEC": 7065,
      "Ġtháº£n": 7066,
      "ĠKrem": 7067,
      "ĠhÆ°ng": 7068,
      "ĠVo": 7069,
      "ĠÄĲá»Ŀi": 7070,
      "Cháº³ng": 7071,
      "Ġrun": 7072,
      "esla": 7073,
      "ĠphÃ¡c": 7074,
      "ush": 7075,
      "ĠIa": 7076,
      "ĠNghiá»ĩp": 7077,
      "LÃ¢m": 7078,
      "ĠDj": 7079,
      "Ġngá»©a": 7080,
      "Ŀn": 7081,
      "Ġváº¯t": 7082,
      "ĠCháº¯c": 7083,
      "Ġná»į": 7084,
      "Ġháº£": 7085,
      "Hy": 7086,
      "ĠKÃ½": 7087,
      "ĠLÃ´": 7088,
      "ĠTan": 7089,
      "ĠÄĳÃºp": 7090,
      "Phim": 7091,
      "ĠDÄ©": 7092,
      "ĠgÃµ": 7093,
      "ĠNokia": 7094,
      "Ġngoáº·t": 7095,
      "ĠRanh": 7096,
      "trÃªn": 7097,
      "ĠnhÄĥn": 7098,
      "Ġ|": 7099,
      "ĠBur": 7100,
      "ĠTuÃ¢n": 7101,
      "ĠYoutube": 7102,
      "87": 7103,
      "hÆ¡n": 7104,
      "tÃªn": 7105,
      "ĠNiÃª": 7106,
      "ĠChina": 7107,
      "ĠArt": 7108,
      "Ġchá»¯ng": 7109,
      "Ġnhá»ĵi": 7110,
      "ĠMb": 7111,
      "kara": 7112,
      "ĠRooney": 7113,
      "ĠCristiano": 7114,
      "ĠUÃ´ng": 7115,
      "Váº«n": 7116,
      "jet": 7117,
      "ĠVÃłnh": 7118,
      "opp": 7119,
      "?âĢĿ": 7120,
      "Ġlá»Ŀ": 7121,
      "Káº¿": 7122,
      "ĠPlay": 7123,
      "ĠNháº¡c": 7124,
      "ude": 7125,
      "ĠHÃ³c": 7126,
      "ĠdÃ¨": 7127,
      "Trá»Ł": 7128,
      "issan": 7129,
      "ASA": 7130,
      "Ã©m": 7131,
      "ĠcÃºc": 7132,
      "ĠrÃ¹a": 7133,
      "KhÃ³": 7134,
      "Ġmiá»ĩn": 7135,
      "ĠKSND": 7136,
      "ika": 7137,
      "ema": 7138,
      "Ġtháº¡o": 7139,
      "Ġbá»įt": 7140,
      "TU": 7141,
      "ĠcÆ°á»£c": 7142,
      "CCI": 7143,
      "ná»¯": 7144,
      "»§": 7145,
      "á»§": 7146,
      "alk": 7147,
      "ĠthÃŃnh": 7148,
      "edan": 7149,
      "ThiÃªn": 7150,
      "Ġbá»ĭt": 7151,
      "vÃ¹ng": 7152,
      "ĠFestival": 7153,
      "Tráº»": 7154,
      "ĠnÃ³c": 7155,
      "XÃ¡c": 7156,
      "ĠEURO": 7157,
      "ĠAngela": 7158,
      "Tá»±": 7159,
      "BH": 7160,
      "ĠFrank": 7161,
      "ĠAC": 7162,
      "ene": 7163,
      "ĠdÃª": 7164,
      "Tá»«ng": 7165,
      "Ġ1984": 7166,
      "ĠPleiku": 7167,
      "esterol": 7168,
      "Ġtá»¥y": 7169,
      "ĠhÃ´ng": 7170,
      "ĠKremlin": 7171,
      "Ġsáº¯n": 7172,
      "ĠComp": 7173,
      "ĠFir": 7174,
      "ĠSony": 7175,
      "ĠhÃŃt": 7176,
      "ĠNay": 7177,
      "hiá»ĩn": 7178,
      "Ġlogo": 7179,
      "mo": 7180,
      "nay": 7181,
      "ĠCQ": 7182,
      "ĠAngeles": 7183,
      "HQ": 7184,
      "Ġgiá»¥c": 7185,
      "cao": 7186,
      "ĠSX": 7187,
      "treet": 7188,
      "ĠkhoÃ¡i": 7189,
      "ĠmÃ£nh": 7190,
      "ĠTÆ¯": 7191,
      "ĠNTK": 7192,
      "Ġtrá»įt": 7193,
      "ĠBÃ¨": 7194,
      "ĠÄĳáº£": 7195,
      "EN": 7196,
      "ĠTrÃ¢n": 7197,
      "Al": 7198,
      "ĠtÃł": 7199,
      "ĠXá»Ń": 7200,
      "ifer": 7201,
      "Chuyáº¿n": 7202,
      "Ġcáº©m": 7203,
      "ĠModel": 7204,
      "ÃĬN": 7205,
      "?\".": 7206,
      "ĠLion": 7207,
      "ĠTráº¡i": 7208,
      "DÃ²ng": 7209,
      "ĠlÃºng": 7210,
      "ĠOcean": 7211,
      "ÄĲang": 7212,
      "ĠlÅ©ng": 7213,
      "ĠSÃ©c": 7214,
      "cep": 7215,
      "ĠÄĤn": 7216,
      "ĠMÅ©i": 7217,
      "NHNN": 7218,
      "ĠLá»Ŀi": 7219,
      "US": 7220,
      "ĠvÃłn": 7221,
      "ĠÆ¯á»Ľc": 7222,
      "ĠVir": 7223,
      "ĠThomas": 7224,
      "ĠChÆ°": 7225,
      "ĠMong": 7226,
      "ĠCroatia": 7227,
      "ami": 7228,
      "qua": 7229,
      "ĠxÃ¡o": 7230,
      "ĠbÃºp": 7231,
      "Ġthá»ĳn": 7232,
      "ĠXÃª": 7233,
      "si": 7234,
      "ĠWhi": 7235,
      "ÄĳÃ¡nh": 7236,
      "Ġkháº¯t": 7237,
      "ilon": 7238,
      "ÃŃu": 7239,
      "appe": 7240,
      "ĠHuáº¥n": 7241,
      "ĠEverton": 7242,
      "Ġgá»Ļp": 7243,
      "ĠYang": 7244,
      "ChÃ¢n": 7245,
      "Thi": 7246,
      "ĠHen": 7247,
      "ĠIreland": 7248,
      "Ġdáº¡t": 7249,
      "UB": 7250,
      "ĠTex": 7251,
      "Ãµm": 7252,
      "ĠNad": 7253,
      "Khai": 7254,
      "ĠSá": 7255,
      "ĠSá»": 7256,
      "ĠAnkara": 7257,
      "ĠBerlin": 7258,
      "vÃł": 7259,
      "Ġac": 7260,
      "mit": 7261,
      "ĠMusk": 7262,
      "Ġlivestream": 7263,
      "ĠST": 7264,
      "Ġ1970": 7265,
      "Ġ360": 7266,
      "Ġje": 7267,
      "ĠChuyá»ĥn": 7268,
      "KD": 7269,
      "acombank": 7270,
      "ĠTrÃ¬nh": 7271,
      "ĠWat": 7272,
      "ĠHungary": 7273,
      "HÆ°Æ¡ng": 7274,
      "ĠDO": 7275,
      "ign": 7276,
      "jaer": 7277,
      "Ġcalo": 7278,
      "ĠGiÃªng": 7279,
      "ĠnÃªm": 7280,
      "TÄĲ": 7281,
      "thi": 7282,
      "Tá»Ľi": 7283,
      "Ġsáº¿p": 7284,
      "ĠJan": 7285,
      "ĠChile": 7286,
      "Ġthoa": 7287,
      "ĠÄĲTQG": 7288,
      "Ġli": 7289,
      "ĠgÃłng": 7290,
      "ĠVá»¹": 7291,
      "ato": 7292,
      "enger": 7293,
      "tic": 7294,
      "XuÃ¢n": 7295,
      "ĠRáº¡ch": 7296,
      "ĠNe": 7297,
      "Chung": 7298,
      "hÃłng": 7299,
      "Sh": 7300,
      "Viá»ĩn": 7301,
      "Ġviá»ģn": 7302,
      "ĠGV": 7303,
      "Ġ1000": 7304,
      "ĠDie": 7305,
      "Cá»ķ": 7306,
      "ĠgÃ²": 7307,
      "IP": 7308,
      "amaha": 7309,
      "Ġháº¥u": 7310,
      "WHO": 7311,
      "ĠnÃ³n": 7312,
      "ĠGiá»įng": 7313,
      "Ġxáº£o": 7314,
      "ĠTesla": 7315,
      "won": 7316,
      "ĠMah": 7317,
      "Ronaldo": 7318,
      "GDVN": 7319,
      "ĠGPMB": 7320,
      "Ġnguyá»ĩt": 7321,
      "ĠhÃ¡n": 7322,
      "ĠBTS": 7323,
      "SÆ¡n": 7324,
      "Ġchá»£t": 7325,
      "Ġchol": 7326,
      "ĠNoel": 7327,
      "den": 7328,
      "ĠTC": 7329,
      "ĠsuÃ´n": 7330,
      "ĠÄĲáºŃu": 7331,
      "uri": 7332,
      "ĠDub": 7333,
      "etsk": 7334,
      "aland": 7335,
      "ĠDao": 7336,
      "ĠFranc": 7337,
      "kÃŃp": 7338,
      "ĠvÃ´i": 7339,
      "Ġchá»Ľp": 7340,
      "ĠPháº£": 7341,
      "96": 7342,
      "ĠKhÃ¡m": 7343,
      "ĠgÃ¢n": 7344,
      "ĠGeorge": 7345,
      "ĠHoáº·c": 7346,
      "Ġmassage": 7347,
      "ĠTrÃ£i": 7348,
      "ım": 7349,
      "ĠFox": 7350,
      "chiáº¿n": 7351,
      "amb": 7352,
      "ĠHari": 7353,
      "Ġtá»īa": 7354,
      "gin": 7355,
      "ĠTá»ĳng": 7356,
      "Ġlaptop": 7357,
      "ÄĲÃ´i": 7358,
      "DCND": 7359,
      "ave": 7360,
      "NK": 7361,
      "skjaer": 7362,
      "ĠRodrig": 7363,
      "Ġtui": 7364,
      "jan": 7365,
      "Ġnáº¿n": 7366,
      "okovic": 7367,
      "ĠtrÃ¹": 7368,
      "ĠATTP": 7369,
      "oster": 7370,
      "81": 7371,
      "Sá»Ń": 7372,
      "ĠHag": 7373,
      "NLÄĲO": 7374,
      "adi": 7375,
      "ĠChia": 7376,
      "Tuyá»ĥn": 7377,
      "ĠGaal": 7378,
      "Ġáº©u": 7379,
      "Ġdáº·m": 7380,
      "ĠsÃło": 7381,
      "Ġcholesterol": 7382,
      "Ġgiáº±ng": 7383,
      "Ġliá»ħu": 7384,
      "ĠErdogan": 7385,
      "MU": 7386,
      "»¡": 7387,
      "á»¡": 7388,
      "ĠTá»µ": 7389,
      "ati": 7390,
      "CÃł": 7391,
      "ĠcÃºi": 7392,
      "ĠNáºŃm": 7393,
      "mann": 7394,
      "lec": 7395,
      "ĠMike": 7396,
      "imbank": 7397,
      "Há»ĵng": 7398,
      "ado": 7399,
      "ĠCosta": 7400,
      "LA": 7401,
      "ibaba": 7402,
      "St": 7403,
      "láº§n": 7404,
      "ĠCá»¥m": 7405,
      "ĠSec": 7406,
      "TPHCM": 7407,
      "ĠSel": 7408,
      "Dá»ĭp": 7409,
      "ĠKa": 7410,
      "hai": 7411,
      "ps": 7412,
      "ĠXiao": 7413,
      "ĠcÃło": 7414,
      "ĠHer": 7415,
      "Ãºm": 7416,
      "Ġnhá»ĭ": 7417,
      "Ġ1983": 7418,
      "ĠFab": 7419,
      "sá»±": 7420,
      "Ġ2050": 7421,
      "ĠBos": 7422,
      "Ġruá»ĵi": 7423,
      "Ġmá»³": 7424,
      "ĠbÃºa": 7425,
      "Tráº£i": 7426,
      "http": 7427,
      "Ġghe": 7428,
      "Cao": 7429,
      "ĠAward": 7430,
      "field": 7431,
      "ĠÄĲÃ¡nh": 7432,
      "ĠThá»ıa": 7433,
      "ery": 7434,
      "Quáº£": 7435,
      "ĠBro": 7436,
      "**": 7437,
      "ĠBÃ´ng": 7438,
      "ĠÄĳao": 7439,
      "MÃłn": 7440,
      "Ġlá»±u": 7441,
      "ĠSerie": 7442,
      "Ġngáº£": 7443,
      "ĠChÄĥn": 7444,
      "TrÆ°a": 7445,
      "ĠRap": 7446,
      "ole": 7447,
      "phi": 7448,
      "NV": 7449,
      "ĠPVN": 7450,
      "Ġkhá»ĳn": 7451,
      "ÃĲ": 7452,
      "Ġ103": 7453,
      "ĠVinFast": 7454,
      "ĠHaw": 7455,
      "ĠMáº¡ng": 7456,
      "ĠKaz": 7457,
      "ĠTuyá»ĥn": 7458,
      "VP": 7459,
      "Ra": 7460,
      "Xá»Ń": 7461,
      "ĠtrÃ¨o": 7462,
      "ĠcÃ²": 7463,
      "Ġtro": 7464,
      "iness": 7465,
      "Ġgá»Ļi": 7466,
      "ĠGea": 7467,
      "ĠKhmer": 7468,
      "Ġbáº»": 7469,
      "amilk": 7470,
      "Ġtrá»ķ": 7471,
      "ĠASIA": 7472,
      "há»įc": 7473,
      "250": 7474,
      "tress": 7475,
      "hot": 7476,
      "ury": 7477,
      "Ġtoa": 7478,
      "Ġvun": 7479,
      "ĠLin": 7480,
      "ĠngÃ¡n": 7481,
      "ĠrÆ¡m": 7482,
      "Ġquáº¿": 7483,
      "Ġlay": 7484,
      "ĠMáº§m": 7485,
      "Ġquáº¥n": 7486,
      "ages": 7487,
      "ĠngÃłi": 7488,
      "ĠJones": 7489,
      "Top": 7490,
      "Æ°á»Ŀm": 7491,
      "ĠVideo": 7492,
      "ÃĶNG": 7493,
      "Hen": 7494,
      "ĠNi": 7495,
      "ĠVÃ´": 7496,
      "Ġráº£nh": 7497,
      "Ġkhá»ıa": 7498,
      "Äĳoáº¡n": 7499,
      "Ġtrau": 7500,
      "agh": 7501,
      "ĠMá»Ł": 7502,
      "ĠcÃły": 7503,
      "Ġ=": 7504,
      "ĠMÃ¢y": 7505,
      "ĠSand": 7506,
      "ĠCHQS": 7507,
      "Ġrang": 7508,
      "sau": 7509,
      "ĠCarl": 7510,
      "Muá»ĳn": 7511,
      "Ġquáº¥t": 7512,
      "zy": 7513,
      "akar": 7514,
      "Ġtháº¯m": 7515,
      "ĠhÃ³c": 7516,
      "Ġ113": 7517,
      "ĠFerr": 7518,
      "ĠChá»ĵng": 7519,
      "ĠMerkel": 7520,
      "ĠNap": 7521,
      "»¨ng": 7522,
      "á»¨ng": 7523,
      "Mar": 7524,
      "bÃ¬nh": 7525,
      "Ġtoan": 7526,
      "ĠNhá»±": 7527,
      "ĠTTHC": 7528,
      "ĠTÆ°á»Łng": 7529,
      "dor": 7530,
      "ĠVietinBank": 7531,
      "Bar": 7532,
      "Ġquá»·": 7533,
      "castle": 7534,
      "ĠSáº½": 7535,
      "Ã¨m": 7536,
      "dam": 7537,
      "Benz": 7538,
      "ĠcÆ°a": 7539,
      "ĠpháºŃt": 7540,
      "ĠCá»±c": 7541,
      "ĠPhu": 7542,
      "ĠPhá»¥c": 7543,
      "ift": 7544,
      "ĠAM": 7545,
      "ĠBale": 7546,
      "tro": 7547,
      "artup": 7548,
      "du": 7549,
      "Ġ1979": 7550,
      "Ġ101": 7551,
      "ĠDNNN": 7552,
      "ĠkÃ¨o": 7553,
      "VÃŃ": 7554,
      "KTÄĲT": 7555,
      "Ġsáº¹": 7556,
      "ĠCDC": 7557,
      "cá»§a": 7558,
      "ĠphÃłn": 7559,
      "ĠTai": 7560,
      "ĠIM": 7561,
      "ase": 7562,
      "ĠKen": 7563,
      "ĠgiÃ¡ng": 7564,
      "ĠlÃ¹m": 7565,
      "ĠAlexander": 7566,
      "ĠMotor": 7567,
      "ĠVPF": 7568,
      "ÄĲK": 7569,
      "ĠLÃ£o": 7570,
      "ĠVilla": 7571,
      "Ġlá»«ng": 7572,
      "Ġsáº¹o": 7573,
      "ago": 7574,
      "Huyá»ĩn": 7575,
      "ET": 7576,
      "Náº±m": 7577,
      "ĠÄĲÆ°a": 7578,
      "Ã²e": 7579,
      "ĠNK": 7580,
      "Iáº¾": 7581,
      "ĠCNVC": 7582,
      "ĠEuropa": 7583,
      "ĠSuarez": 7584,
      "ĠTranh": 7585,
      "Ġthá»ĳt": 7586,
      "ĠSuzuki": 7587,
      "ĠDÃ²ng": 7588,
      "ĠFlorida": 7589,
      "ĠAlibaba": 7590,
      "ĠJul": 7591,
      "ĠThiá»ĩu": 7592,
      "____": 7593,
      "fi": 7594,
      "VÄ©nh": 7595,
      "Äĳáº§u": 7596,
      "ĠToáº£n": 7597,
      "ĠDonetsk": 7598,
      "ĠNXB": 7599,
      "mÃ£": 7600,
      "ĠCHDCND": 7601,
      "%);": 7602,
      "aby": 7603,
      "ĠDamas": 7604,
      "ĠÄĲá»ķi": 7605,
      "ĠvÃ¡": 7606,
      "ĠSM": 7607,
      "itan": 7608,
      "ĠráºŃp": 7609,
      "Vin": 7610,
      "ĠPhÃ¡o": 7611,
      "tyle": 7612,
      "ĠThÆ°á»Łng": 7613,
      "MÃ´": 7614,
      "ĠgáºŃp": 7615,
      "ÄĲáº¡o": 7616,
      "CáºŃu": 7617,
      "Giai": 7618,
      "ream": 7619,
      "Ġcháº£nh": 7620,
      "Mua": 7621,
      "ĠMbappe": 7622,
      "ius": 7623,
      "thu": 7624,
      "ĠÄĳÃ¡i": 7625,
      "Ġrock": 7626,
      "wan": 7627,
      "ĠlÆ°á»£n": 7628,
      "ĠDA": 7629,
      "Ġquá»³": 7630,
      "Ġ240": 7631,
      "ĠLiá»ħu": 7632,
      "ĠLÃ¡ng": 7633,
      "UYá": 7634,
      "UYá»": 7635,
      "97": 7636,
      "ĠTTCK": 7637,
      "Ġá»ĳp": 7638,
      "ĠNigeria": 7639,
      "ĠIns": 7640,
      "ThÆ°á»Ŀng": 7641,
      "91": 7642,
      "ÄĲáº£ng": 7643,
      "ĠChuáº©n": 7644,
      "ĠIl": 7645,
      "Ġbá»ĵng": 7646,
      "PhÃ¢n": 7647,
      "EL": 7648,
      "star": 7649,
      "Ġ)": 7650,
      "ĠRoy": 7651,
      "ubishi": 7652,
      "ĠNÃ¢ng": 7653,
      "Ġmá»§": 7654,
      "ĠWenger": 7655,
      "ĠkiÃªu": 7656,
      "ĠxÃ¹m": 7657,
      "ĠPower": 7658,
      "rey": 7659,
      "ĠMang": 7660,
      "ĠEc": 7661,
      "ĠShow": 7662,
      "ĠAudi": 7663,
      "eam": 7664,
      "aint": 7665,
      "ĠBrent": 7666,
      "ĠQR": 7667,
      "Cha": 7668,
      "ĠTexas": 7669,
      "DÃ¹ng": 7670,
      "á»įa": 7671,
      "ĠPháº¥n": 7672,
      "TÃ¢m": 7673,
      "ĠUAV": 7674,
      "ĠloÃ©t": 7675,
      "ĠUng": 7676,
      "Cá»ĳ": 7677,
      "ĠIbra": 7678,
      "ĠSolskjaer": 7679,
      "ĠTháº¯m": 7680,
      "ĠrÆ°á»¡i": 7681,
      "ĠBá»Ŀ": 7682,
      "khu": 7683,
      "ves": 7684,
      "ĠAssad": 7685,
      "ĠXX": 7686,
      "Ex": 7687,
      "Chinh": 7688,
      "elli": 7689,
      "ÄĲTB": 7690,
      "ĠCáº§m": 7691,
      "itsubishi": 7692,
      "Ġsim": 7693,
      "ĠDamascus": 7694,
      "Real": 7695,
      "Ġ[": 7696,
      "Ġ135": 7697,
      "báº¯t": 7698,
      "MÆ°a": 7699,
      "Ãļ": 7700,
      "Sam": 7701,
      "ĠSin": 7702,
      "ĠKhiÃªm": 7703,
      "Ġbá»«a": 7704,
      "ĠSoo": 7705,
      "TVN": 7706,
      "93": 7707,
      "ĠQuá»³": 7708,
      "ĠTrÃłm": 7709,
      "Ġhu": 7710,
      "ĠmÆ°á»£t": 7711,
      "áºµn": 7712,
      "CáºŃn": 7713,
      "ĠAut": 7714,
      "ĠSacombank": 7715,
      "bus": 7716,
      "ĠtrÃºt": 7717,
      "ardo": 7718,
      "Ġthuá»Ł": 7719,
      "ĠAR": 7720,
      "ĠCapital": 7721,
      "ĠmiÃªu": 7722,
      "Ġnilon": 7723,
      "fl": 7724,
      "ĠRoma": 7725,
      "ĠAleppo": 7726,
      "vá»Ľi": 7727,
      "Láº¥y": 7728,
      "ĠTae": 7729,
      "iff": 7730,
      "KhÃ¡c": 7731,
      "rop": 7732,
      "abeco": 7733,
      "hoáº·c": 7734,
      "ĠTDTT": 7735,
      "lott": 7736,
      "Ġhack": 7737,
      "Ninh": 7738,
      "iFone": 7739,
      "ĠGÄĲ": 7740,
      "Ġ102": 7741,
      "ĠNghÃ": 7742,
      "Ġvá»Ŀ": 7743,
      "ĠGiá»¯a": 7744,
      "ĠLS": 7745,
      "tháº§n": 7746,
      "ĠMP": 7747,
      "Chuyá»ĥn": 7748,
      "ĠThao": 7749,
      "Mai": 7750,
      "EFA": 7751,
      "ition": 7752,
      "ĠsÃ²ng": 7753,
      "esl": 7754,
      "ĠvÃ¡ng": 7755,
      "ĠDaniel": 7756,
      "ĠHold": 7757,
      "med": 7758,
      "ĠLÃ£ng": 7759,
      "ĠDes": 7760,
      "Chelsea": 7761,
      "ĠKhÃ³": 7762,
      "AF": 7763,
      "94": 7764,
      "EX": 7765,
      "Ġnhá»ĳt": 7766,
      "ĠlÆ°á»Ŀi": 7767,
      "á»ķn": 7768,
      "Ġfor": 7769,
      "Ġáº§m": 7770,
      "hr": 7771,
      "gáº§n": 7772,
      "ampton": 7773,
      "Ġrá»Ĺi": 7774,
      "ning": 7775,
      "ĠÄĲá»ĳc": 7776,
      "ĠTrá»¥": 7777,
      "ĠEximbank": 7778,
      "ĠVOV": 7779,
      "ĠmiÃªn": 7780,
      "Ġlanh": 7781,
      "Ġcabin": 7782,
      "Ġvá»¥n": 7783,
      "ÄĲÃłi": 7784,
      "Ġáº¥u": 7785,
      "ĠLad": 7786,
      "INH": 7787,
      "Ġmau": 7788,
      "ĠÆ°ng": 7789,
      "Ġká»µ": 7790,
      "ĠTaylor": 7791,
      "TTS": 7792,
      "ĠBul": 7793,
      "ĠWales": 7794,
      "ĠVietNamNet": 7795,
      "tá»ķng": 7796,
      "ĠSung": 7797,
      "Ġ2026": 7798,
      "ten": 7799,
      "Äĳá»ĵng": 7800,
      "ĠASIAD": 7801,
      "NÃªn": 7802,
      "ĠGiÃłng": 7803,
      "bek": 7804,
      "izer": 7805,
      "ĠBuá»ķi": 7806,
      "ere": 7807,
      "khÃ³a": 7808,
      "ĠÃįt": 7809,
      "ĠNob": 7810,
      "ĠFeder": 7811,
      "ĠvÃµng": 7812,
      "ĠCá»Ŀ": 7813,
      "ĠGun": 7814,
      "Ġmic": 7815,
      "ĠXÃ©t": 7816,
      "HoÃłn": 7817,
      "bes": 7818,
      "ĠNhá»ĭ": 7819,
      "Cháº¥t": 7820,
      "ĠbÄĥm": 7821,
      "SB": 7822,
      "ĠMacron": 7823,
      "ason": 7824,
      "ĠrÃ¡n": 7825,
      "ĠloÃ£ng": 7826,
      "khi": 7827,
      "ĠTÆ°á»Ľng": 7828,
      "ĠCáº·p": 7829,
      "itch": 7830,
      "ChÃ¢u": 7831,
      "mad": 7832,
      "ĠghÃª": 7833,
      "eto": 7834,
      "Chá»ĵng": 7835,
      "Ġngáº¯t": 7836,
      "ĠÄĲáº¥u": 7837,
      "rm": 7838,
      "ĠKat": 7839,
      "ĠOpen": 7840,
      "ĠForm": 7841,
      "Ġdá»©a": 7842,
      "Ġcá»Ļi": 7843,
      "Ġcháº£i": 7844,
      "awa": 7845,
      "âĢ¦)": 7846,
      "Ġse": 7847,
      "tw": 7848,
      "ĠVit": 7849,
      "Ġláº§u": 7850,
      "ĠrÃ³t": 7851,
      "ĠHi": 7852,
      "ĠÆ°Æ¡m": 7853,
      "kip": 7854,
      "ĠPha": 7855,
      "LS": 7856,
      "Ġstress": 7857,
      "ĠgáºŃt": 7858,
      "ĠLionel": 7859,
      "ĠDjokovic": 7860,
      "ĠUl": 7861,
      "Ġhá»ĩt": 7862,
      "Cl": 7863,
      "ĠErik": 7864,
      "ĠCáº£i": 7865,
      "ĠÄĲá»ĩ": 7866,
      "2026": 7867,
      "ald": 7868,
      "ĠâĢĿ": 7869,
      "ĠSergei": 7870,
      "ĠNgÃ£": 7871,
      "ĠUSB": 7872,
      "ĠCá»ĳng": 7873,
      "ĠHá»Ľi": 7874,
      "ĠEnter": 7875,
      "ĠMid": 7876,
      "Ġnhá»ī": 7877,
      "May": 7878,
      "Ġkáº¹p": 7879,
      "á»įt": 7880,
      "idane": 7881,
      "chez": 7882,
      "ĠIntel": 7883,
      "hay": 7884,
      "ĠNext": 7885,
      "Ġ1972": 7886,
      "ĩn": 7887,
      "ific": 7888,
      "ĠAli": 7889,
      "ets": 7890,
      "yÃªu": 7891,
      "ĠthÃ¢u": 7892,
      "ĠSub": 7893,
      "ĠThai": 7894,
      "Ġcá»¥t": 7895,
      "Ġsá»Ŀ": 7896,
      "ĠnÃłnh": 7897,
      "ĠsÆ°á»Łi": 7898,
      "king": 7899,
      "350": 7900,
      "ĠYamaha": 7901,
      "news": 7902,
      "ĠlÃ³c": 7903,
      "ĠHoáº±ng": 7904,
      "ĠVill": 7905,
      "LO": 7906,
      "oly": 7907,
      "ways": 7908,
      "CDC": 7909,
      "Br": 7910,
      "ĠHá»©a": 7911,
      "\"...": 7912,
      "ĠVietjet": 7913,
      "ĠSilva": 7914,
      "aga": 7915,
      "ĠChÃ¡u": 7916,
      "ĠKal": 7917,
      "QuÃ½": 7918,
      "ĠVáº«n": 7919,
      "CÃº": 7920,
      "Ġthá»ģ": 7921,
      "ĠPeter": 7922,
      "ban": 7923,
      "ĠDubai": 7924,
      "!âĢĿ": 7925,
      "ette": 7926,
      "ĠtrÅ©ng": 7927,
      "cha": 7928,
      "Ġ1981": 7929,
      "ĠCQÄĲT": 7930,
      "ĠVer": 7931,
      "RE": 7932,
      "ĠRaf": 7933,
      "Giáº£m": 7934,
      "ĠtoÃ¡t": 7935,
      "UN": 7936,
      "Ġcom": 7937,
      "ĠLuis": 7938,
      "Ġláº§y": 7939,
      "ĠngÆ¡": 7940,
      "ĠSnap": 7941,
      "ĠDiego": 7942,
      "ĠKha": 7943,
      "ĠGra": 7944,
      "Ġdáº§m": 7945,
      "col": 7946,
      "Loáº¡i": 7947,
      "ĠTuá»ĩ": 7948,
      "ĠKlopp": 7949,
      "\";": 7950,
      "Ġnáº§n": 7951,
      "cher": 7952,
      "Mo": 7953,
      "ĠLavrov": 7954,
      "SÃ¢n": 7955,
      "Ġlá»Ńng": 7956,
      "ĠNewcastle": 7957,
      "Å©y": 7958,
      "ĠTiá»ĩp": 7959,
      "ĠchÃ¨n": 7960,
      "ĠMáº¥y": 7961,
      "ĠDiá»ĩn": 7962,
      "Ġgáº¯m": 7963,
      "eva": 7964,
      "ĠBXH": 7965,
      "ĠLÃ¡i": 7966,
      "ĠNou": 7967,
      "ĠSSI": 7968,
      "cÃ²n": 7969,
      "ef": 7970,
      "ĠMr": 7971,
      "itz": 7972,
      "»Ŀ": 7973,
      "ĠTW": 7974,
      "á»Ŀ": 7975,
      "ĠvÃ£n": 7976,
      "VáºŃn": 7977,
      "MÃ³n": 7978,
      "ĠMeg": 7979,
      "ĠKáº»": 7980,
      "Ġsedan": 7981,
      "ĠSum": 7982,
      "ĠPas": 7983,
      "ĠquÃ¢y": 7984,
      "ĠSáº§m": 7985,
      "CD": 7986,
      "ĠTÃ³c": 7987,
      "Ġmáº©n": 7988,
      "ĠVoice": 7989,
      "Ġdiá»ģu": 7990,
      "ĠtÃ©": 7991,
      "ĠkWh": 7992,
      "ĠngÃ³ng": 7993,
      "ĠQuáº¥t": 7994,
      "ĠÄĲáº§m": 7995,
      "ĠThy": 7996,
      "stal": 7997,
      "ĠOPEC": 7998,
      "táº¡i": 7999,
      "Ãįt": 8000,
      "ĠUniverse": 8001,
      "ĠCá»ĳc": 8002,
      "âĢ¦âĢĿ": 8003,
      "ĠVinamilk": 8004,
      "KhÃ¡m": 8005,
      "ĠGDÄĲT": 8006,
      "ĠFrancis": 8007,
      "Ġhorm": 8008,
      "Ġá»ıi": 8009,
      "ĠTÃł": 8010,
      "Ġngá»¥y": 8011,
      "EVN": 8012,
      "Biáº¿t": 8013,
      "ĠTá»ĳt": 8014,
      "ory": 8015,
      "tral": 8016,
      "ĠAsh": 8017,
      "ĠNDT": 8018,
      "ĠLeon": 8019,
      "Thá»«a": 8020,
      "Phan": 8021,
      "giÃ¡": 8022,
      "ĠPort": 8023,
      "áº¬": 8024,
      "Ġcá»«": 8025,
      "ĠThá»¥": 8026,
      "Ġ''": 8027,
      "ĠUkraina": 8028,
      "cuá»Ļc": 8029,
      "viet": 8030,
      "terte": 8031,
      "ÄĲáº©y": 8032,
      "lib": 8033,
      "ĠLux": 8034,
      "ĠChang": 8035,
      "Ġcá»ĵng": 8036,
      "ĠBá»©c": 8037,
      "ĠFace": 8038,
      "ĠMik": 8039,
      "ĠrÃ£nh": 8040,
      "''": 8041,
      "Ġ230": 8042,
      "Ġtráº·c": 8043,
      "2006": 8044,
      "Giadinh": 8045,
      "br": 8046,
      "Ġquáº·ng": 8047,
      "ĠTá»«ng": 8048,
      "--------": 8049,
      "ĠMobiFone": 8050,
      "ĠUP": 8051,
      "Ġphen": 8052,
      "âĢĿ...": 8053,
      "tan": 8054,
      "ĠJol": 8055,
      "Ġ1976": 8056,
      "ĠVá»ĳn": 8057,
      "ĠTáº§n": 8058,
      "ĠBas": 8059,
      "ĠquÃ½t": 8060,
      "ĠGer": 8061,
      "ĠBrid": 8062,
      "ĠngÃ²i": 8063,
      "Ġxuá»ĵng": 8064,
      "Ġtua": 8065,
      "cháº¡y": 8066,
      "Ġres": 8067,
      "ĠSP": 8068,
      "ĠMiáº¿u": 8069,
      "Ã¬a": 8070,
      "Ãģo": 8071,
      "Ġngháº¹t": 8072,
      "Ġxá»īu": 8073,
      "eman": 8074,
      "ĠFTA": 8075,
      "ĠUz": 8076,
      "Ġngá»¥c": 8077,
      "Apple": 8078,
      "Äĳá»ĥ": 8079,
      "ĠJustin": 8080,
      "ĠnáºŃp": 8081,
      "Há»£p": 8082,
      "ashion": 8083,
      "Ġkhuáº¥y": 8084,
      "uguay": 8085,
      "ĠPor": 8086,
      "ĠGaza": 8087,
      "ĠSom": 8088,
      "ĠRichard": 8089,
      "ÄĲS": 8090,
      "Ġ1960": 8091,
      "ÄĤ": 8092,
      "ito": 8093,
      "ĠTour": 8094,
      "ĠDuterte": 8095,
      "Ġki": 8096,
      "ĠVNÄĲ": 8097,
      "ĠCPI": 8098,
      "Ġ112": 8099,
      "ĠRai": 8100,
      "ĠMek": 8101,
      "fizer": 8102,
      "Chinhphu": 8103,
      "ĠRÃµ": 8104,
      "ĠOk": 8105,
      "cÃ¡i": 8106,
      "Ŀm": 8107,
      "AIDS": 8108,
      "Ġ%": 8109,
      "ĠLuáºŃn": 8110,
      "ĠGe": 8111,
      "ĠchÃ¡nh": 8112,
      "Ġ116": 8113,
      "Ġmáº¹o": 8114,
      "ĠGh": 8115,
      "Ġnáº¡t": 8116,
      "SM": 8117,
      "ĠBÃŃnh": 8118,
      "dá»±": 8119,
      "Ġkhinh": 8120,
      "ĠcháºŃp": 8121,
      "bÃł": 8122,
      "tiá»ģn": 8123,
      "ĠSá»ĳng": 8124,
      "ĠBrad": 8125,
      "»Ĳ": 8126,
      "á»Ĳ": 8127,
      "ĠCBCS": 8128,
      "ĠBiá»ĥu": 8129,
      "há»Ļ": 8130,
      "Äĳáº·c": 8131,
      "RÃµ": 8132,
      "ĠLew": 8133,
      "ĠMedia": 8134,
      "sá»ĳng": 8135,
      "ĠMetro": 8136,
      "Ġme": 8137,
      "XÃ£": 8138,
      "ÄĲá»©ng": 8139,
      "NgÆ°á»£c": 8140,
      "Ġhá»§": 8141,
      "ĠJav": 8142,
      "ĠtrÃ³i": 8143,
      "kV": 8144,
      "ĠSáº¯c": 8145,
      "ĠPac": 8146,
      "ĠDelta": 8147,
      "ĠImages": 8148,
      "ĠEng": 8149,
      "ĠShar": 8150,
      "ĠForbes": 8151,
      "Ġfanpage": 8152,
      "ĠTÃ¹y": 8153,
      "Háº¡": 8154,
      "fa": 8155,
      "ĠGab": 8156,
      "ĠGuardian": 8157,
      "ĠxÃŃt": 8158,
      "ĠÆ¡": 8159,
      "ĠTCTD": 8160,
      "ĠSav": 8161,
      "ĠBom": 8162,
      "Ġseries": 8163,
      "Ġ104": 8164,
      "Ġmix": 8165,
      "Há»Ĺ": 8166,
      "act": 8167,
      "ĠFo": 8168,
      "pot": 8169,
      "ĠnhÃło": 8170,
      "udio": 8171,
      "Ġuáº¥t": 8172,
      "ĠKÃŃnh": 8173,
      "ĠthÃªu": 8174,
      "Ġ750": 8175,
      "ĠFort": 8176,
      "CLB": 8177,
      "Ġxua": 8178,
      ">>>": 8179,
      "ĠCatal": 8180,
      "rick": 8181,
      "ĠHee": 8182,
      "ĠGAS": 8183,
      "ĠvÃ²m": 8184,
      "ĠÄĲáº©y": 8185,
      "Ġlá»ģu": 8186,
      "ÄĲÆ°a": 8187,
      "ĠPau": 8188,
      "ĠSÆ°Æ¡ng": 8189,
      "play": 8190,
      "ovo": 8191,
      "Ġshop": 8192,
      "ĠLÃ¢u": 8193,
      "ĠThá»¥c": 8194,
      "ĠphiÃªu": 8195,
      "ĠIdlib": 8196,
      "Ġ175": 8197,
      "ĠkÃ©t": 8198,
      "Ġmáº£i": 8199,
      "ĠKang": 8200,
      "Ġcháº±ng": 8201,
      "ĠAwards": 8202,
      "iger": 8203,
      "ķi": 8204,
      "ĠKane": 8205,
      "?âĢĿ,": 8206,
      "ĠHome": 8207,
      "ĠRock": 8208,
      "uan": 8209,
      "vÃ´": 8210,
      "ĠCang": 8211,
      "ĠTÃŃch": 8212,
      "áº¦": 8213,
      "Ġkhiáº¿t": 8214,
      "Ġnáº¿m": 8215,
      "ĠtÆ°ng": 8216,
      "ĠngÃ¹i": 8217,
      "Ġbung": 8218,
      "ĠMÃ£i": 8219,
      "Ġchuá»Ļc": 8220,
      "Ġz": 8221,
      "Ġvisa": 8222,
      "ĠCÃº": 8223,
      "ĠVHTTDL": 8224,
      "san": 8225,
      "Arsenal": 8226,
      "Cam": 8227,
      "ĠVCB": 8228,
      "ĠLex": 8229,
      "ĠnhÃ³c": 8230,
      "PTPP": 8231,
      "ĠMiG": 8232,
      "orsche": 8233,
      "ison": 8234,
      "encia": 8235,
      "ĠchÃŃch": 8236,
      "cc": 8237,
      "dio": 8238,
      "Ġphá»ĵng": 8239,
      "evin": 8240,
      "gá»įi": 8241,
      "ĠCÃłng": 8242,
      "Biá»ĥu": 8243,
      "Vn": 8244,
      "NÆ¡i": 8245,
      "ĠYe": 8246,
      "Äĳáº¡t": 8247,
      "ĠMua": 8248,
      "Ġ650": 8249,
      "icon": 8250,
      "ĠBrunei": 8251,
      "ĠBenz": 8252,
      "ĠgÄĥng": 8253,
      "ĠVGP": 8254,
      "ÄĲa": 8255,
      "https": 8256,
      "elf": 8257,
      "Ġngao": 8258,
      "otland": 8259,
      "ĠÄĲV": 8260,
      "min": 8261,
      "ĠkhoÃ¡t": 8262,
      "dy": 8263,
      "bekistan": 8264,
      "omes": 8265,
      "Ġ107": 8266,
      "ĠStreet": 8267,
      "Tuyáº¿n": 8268,
      "BÃ¡nh": 8269,
      "ERS": 8270,
      "ĠZidane": 8271,
      "Ġve": 8272,
      "ĠÃºp": 8273,
      "rolimex": 8274,
      "Ġngáº¥m": 8275,
      "ĠSmart": 8276,
      "ĠDÄ©nh": 8277,
      "ĠSanchez": 8278,
      "...âĢĿ.": 8279,
      "ĠKid": 8280,
      "ĠBinh": 8281,
      "!\".": 8282,
      "Ġbá»į": 8283,
      "ĠSports": 8284,
      "ĠHaz": 8285,
      "ĠYong": 8286,
      "ĠSaint": 8287,
      "Ġnung": 8288,
      "Ah": 8289,
      "ĠID": 8290,
      "mg": 8291,
      "AV": 8292,
      "ĠÄĳáºŃy": 8293,
      "win": 8294,
      "ĠDem": 8295,
      "ĠXa": 8296,
      "ĠJam": 8297,
      "ĠPeru": 8298,
      "ĠDmit": 8299,
      "ealth": 8300,
      "ÃĮ": 8301,
      "ĠsÆ°a": 8302,
      "www": 8303,
      "ĠJim": 8304,
      "ĠEv": 8305,
      "RC": 8306,
      "Máº¥y": 8307,
      "NÃ´ng": 8308,
      "SP": 8309,
      "hÃłnh": 8310,
      "ĠTrao": 8311,
      "ĠgiÆ¡": 8312,
      "Ġtáº£o": 8313,
      "BÃ¢y": 8314,
      "ois": 8315,
      "Ġbl": 8316,
      "ĠJennifer": 8317,
      "ĠcÃµi": 8318,
      "Ukrain": 8319,
      "ode": 8320,
      "Ġáº¿": 8321,
      "ĠCÃ¹": 8322,
      "Hz": 8323,
      "Ġmá»īm": 8324,
      "Ġgiá»ı": 8325,
      "ĠApp": 8326,
      "ĠBQL": 8327,
      "TiÃªu": 8328,
      "ĠWi": 8329,
      "Ġtrá»ĵ": 8330,
      "vest": 8331,
      "Uá»ĳng": 8332,
      "Ġchá»ĳc": 8333,
      "ydney": 8334,
      "Giá»ĳng": 8335,
      "ĠHillary": 8336,
      "Ġbody": 8337,
      "rystal": 8338,
      "Bá»ĳn": 8339,
      "Ġ1978": 8340,
      "ĠPfizer": 8341,
      "Ġgang": 8342,
      "Ġ114": 8343,
      "há»ģ": 8344,
      "ĠMitsubishi": 8345,
      "ĠDuáº©n": 8346,
      "ori": 8347,
      "»ĩnh": 8348,
      "á»ĩnh": 8349,
      "ĠNep": 8350,
      "ĠNadal": 8351,
      "ÃĤN": 8352,
      "Ká»·": 8353,
      "nhap": 8354,
      "ashford": 8355,
      "ĠBeckham": 8356,
      "Nháº¡c": 8357,
      "ĠmÃ©o": 8358,
      "ĠMÃłu": 8359,
      "ĠPN": 8360,
      "ĠNhiá»ĩm": 8361,
      "ĠUruguay": 8362,
      "Táº¡o": 8363,
      "ÄĲáº¯k": 8364,
      "Re": 8365,
      "org": 8366,
      "ĠJolie": 8367,
      "TI": 8368,
      "ĠGiá»ĳng": 8369,
      "ora": 8370,
      "Ġ106": 8371,
      "ĠxÆ°á»Ľc": 8372,
      "ĠAndr": 8373,
      "aeda": 8374,
      "DÆ°Æ¡ng": 8375,
      "chá»ĭ": 8376,
      "ĠtrÄ©": 8377,
      "ĠAD": 8378,
      "ĠPalace": 8379,
      "erto": 8380,
      "Ġsá»¡": 8381,
      "ADS": 8382,
      "ĠNissan": 8383,
      "Vá»ĳn": 8384,
      "ĠLáº¥y": 8385,
      "KTS": 8386,
      "Ġmark": 8387,
      "Ġváº«y": 8388,
      "ĠSerbia": 8389,
      "báº¥t": 8390,
      "Ġmáº«n": 8391,
      "ĠNÃł": 8392,
      "Ġ1968": 8393,
      "ĠAntonio": 8394,
      "ĠCÃ¡nh": 8395,
      "ĠVietlott": 8396,
      "Hot": 8397,
      "ĠValent": 8398,
      "ĠAmerica": 8399,
      "Ġxá»ĳp": 8400,
      "thá»Ŀi": 8401,
      "Ġtáº©m": 8402,
      "TÆ°": 8403,
      "ĠMobile": 8404,
      "ĠXVII": 8405,
      "ĠXp": 8406,
      "ĠPhá»ĳi": 8407,
      "TD": 8408,
      "´m": 8409,
      "Ġ123": 8410,
      "Äĳá»ĭa": 8411,
      "tÃŃnh": 8412,
      "ĠManila": 8413,
      "Ġbin": 8414,
      "ĠWeb": 8415,
      "ĠNho": 8416,
      "ĠLen": 8417,
      "ĠAston": 8418,
      "ĠBund": 8419,
      "Ġnhang": 8420,
      "ĠVá»įng": 8421,
      "ĠUzbekistan": 8422,
      "Ġmá»©t": 8423,
      "ĠNÄĲT": 8424,
      "ĠChá»ĳng": 8425,
      "ghini": 8426,
      "ĠchÆ°á»Ľng": 8427,
      "Ġ190": 8428,
      "Ġbáº©y": 8429,
      "unt": 8430,
      "Ġnháº±n": 8431,
      "ĠBTV": 8432,
      "ĠXu": 8433,
      "ican": 8434,
      "Tiáº¿t": 8435,
      "ĠbÆ°á»Ľu": 8436,
      "ĠGiáº£m": 8437,
      "Ġfl": 8438,
      "Ġ1974": 8439,
      "Giáº¿t": 8440,
      "370": 8441,
      "borghini": 8442,
      "KiÃªn": 8443,
      "orning": 8444,
      "ĠBÃ¡nh": 8445,
      "ĠVar": 8446,
      "ĠmÃ©p": 8447,
      "ĠRoll": 8448,
      "ĠCCC": 8449,
      "ĠVIII": 8450,
      "ĠDJ": 8451,
      "ĠUEFA": 8452,
      "ÄĲÃłn": 8453,
      "tein": 8454,
      "Ġ550": 8455,
      "ior": 8456,
      "ÄĲÃ¡p": 8457,
      "ĠLuc": 8458,
      "CG": 8459,
      "Media": 8460,
      "ChÃłng": 8461,
      "ĠCav": 8462,
      "¹n": 8463,
      "Messi": 8464,
      "ĠTang": 8465,
      "ĠMÃ³n": 8466,
      "irl": 8467,
      "ÄĲáº¥t": 8468,
      "ĠFormosa": 8469,
      "Ġray": 8470,
      "Ġsum": 8471,
      "Tiáº¿ng": 8472,
      "NÃ³": 8473,
      "tron": 8474,
      "ĠphÃ´ng": 8475,
      "ĠCorp": 8476,
      "uma": 8477,
      "ĠLÆ°": 8478,
      "ĠDelhi": 8479,
      "ĠBá»ĳn": 8480,
      "ĠSydney": 8481,
      "ĠPomp": 8482,
      "ĠXÃºc": 8483,
      "HNM": 8484,
      "ĠNASA": 8485,
      "Ġniá»ĩu": 8486,
      "ĠFan": 8487,
      "Quá»·": 8488,
      "ĠÄĲang": 8489,
      "Ġsáº£o": 8490,
      "ĠTháº¡c": 8491,
      "ĠAirways": 8492,
      "ķng": 8493,
      "VÃ¹ng": 8494,
      "ĠDay": 8495,
      "ĠRen": 8496,
      "Ġáº¿ch": 8497,
      "Ġphá»¥ng": 8498,
      "Ġ117": 8499,
      "ĠAj": 8500,
      "ĠLexus": 8501,
      "ĠKel": 8502,
      "ÄĳÃ³ng": 8503,
      "Ġ155": 8504,
      "Ġvuá»ĳt": 8505,
      "trá»«": 8506,
      "hy": 8507,
      "Ġ320": 8508,
      "ĠTB": 8509,
      "Ukraine": 8510,
      "ĠTrÃ¡ch": 8511,
      "ĠHO": 8512,
      "Ġcháº¡p": 8513,
      "ĠQÄĲ": 8514,
      "ĠLá»ĩnh": 8515,
      "ĠCAQ": 8516,
      "ather": 8517,
      "anon": 8518,
      "ushi": 8519,
      "ĠHarv": 8520,
      "Ġstartup": 8521,
      "Ġ109": 8522,
      "Ġ1973": 8523,
      "Ġbiáº¿u": 8524,
      "má»Ĺi": 8525,
      "ĠvÆ¡": 8526,
      "ĠGTGT": 8527,
      "Ġ111": 8528,
      "ĠQuáº§n": 8529,
      "máº¹": 8530,
      "ĠCá»©u": 8531,
      "Ġteen": 8532,
      "ĠChris": 8533,
      "din": 8534,
      "Ġkiáº¿p": 8535,
      "otti": 8536,
      "olog": 8537,
      "ĠSteph": 8538,
      "Ġlaser": 8539,
      "ĠnhÃłn": 8540,
      "ĠÄĳÃłng": 8541,
      "ĠFerrari": 8542,
      "ĠMekong": 8543,
      "Ġbáº§m": 8544,
      "Ġcheck": 8545,
      "ĠphÃ´i": 8546,
      "Ġthiá»ģn": 8547,
      "...)": 8548,
      "Pháº£n": 8549,
      "akarta": 8550,
      "ĠThÃºc": 8551,
      "ĠBlues": 8552,
      "ĠThoáº¡i": 8553,
      "»©ng": 8554,
      "á»©ng": 8555,
      "Báº¿n": 8556,
      "Hiá»ĩu": 8557,
      "ĠThoa": 8558,
      "ĠBá»Ńu": 8559,
      "ĠÄĳiá»ģm": 8560,
      "ĠEb": 8561,
      "Sá»ĳng": 8562,
      "Ġhoay": 8563,
      "HT": 8564,
      "chu": 8565,
      "ĠShop": 8566,
      "akhstan": 8567,
      "urt": 8568,
      "ĠMet": 8569,
      "ĠScotland": 8570,
      "ĠWang": 8571,
      "ray": 8572,
      "ĠSteve": 8573,
      "Ġxiáº¿c": 8574,
      "2030": 8575,
      "gen": 8576,
      "Ġtá»¥i": 8577,
      "olas": 8578,
      "owski": 8579,
      "ĠTak": 8580,
      "ĠJean": 8581,
      "Mal": 8582,
      "ĠTs": 8583,
      "row": 8584,
      "onia": 8585,
      "ĠIbrahim": 8586,
      "Bao": 8587,
      "Ġ1977": 8588,
      "tech": 8589,
      "TÆ¯": 8590,
      "Ġjeans": 8591,
      "ĠHCB": 8592,
      "ĠWoo": 8593,
      "ĠSina": 8594,
      "lex": 8595,
      "Ġmodel": 8596,
      "ĠLÄĲBÄĲ": 8597,
      "Ġkáº½m": 8598,
      "Ġvá»ın": 8599,
      "ĠNgÃł": 8600,
      "ĠPPP": 8601,
      "Ġáº£m": 8602,
      "akia": 8603,
      "ĠHáº¡m": 8604,
      "ĠCCCD": 8605,
      "ĠDá": 8606,
      "ĠGiÃ¢y": 8607,
      "ĠDá»": 8608,
      "ĠnhÃłm": 8609,
      "ĠSudan": 8610,
      "Tranh": 8611,
      "Cháº¯c": 8612,
      "TrÆ°Æ¡ng": 8613,
      "ĠTráº£ng": 8614,
      "ATGT": 8615,
      "Ġchá»ĩ": 8616,
      "Fed": 8617,
      "âĢĿ:": 8618,
      "ement": 8619,
      "ladesh": 8620,
      "ĠÄĲoan": 8621,
      "gÃ¢y": 8622,
      "ĠCharles": 8623,
      "ĠFar": 8624,
      "ĠnÃŃu": 8625,
      "ĠHK": 8626,
      "ily": 8627,
      "Tiá»ĥu": 8628,
      "ru": 8629,
      "ĠHP": 8630,
      "tÃ¬nh": 8631,
      "ĠType": 8632,
      "ĠKan": 8633,
      "ÄĲá»įc": 8634,
      "Ġngá»Ŀi": 8635,
      "olo": 8636,
      "Ġcá»§i": 8637,
      "esse": 8638,
      "dragon": 8639,
      "ĠgÃ¡y": 8640,
      "ĠnCoV": 8641,
      "2005": 8642,
      "Táº¡m": 8643,
      "TVQH": 8644,
      "ĠRio": 8645,
      "Rá»ĵi": 8646,
      "Ġgram": 8647,
      "eca": 8648,
      "Ġnghiá»ģn": 8649,
      "Ġcatw": 8650,
      "ĠIX": 8651,
      "ĠMcC": 8652,
      "ĠKerry": 8653,
      "Ġwww": 8654,
      "ĠChÃŃn": 8655,
      "Linh": 8656,
      "ĠSD": 8657,
      "oni": 8658,
      "GAP": 8659,
      "VÃłi": 8660,
      "ĠSur": 8661,
      "imb": 8662,
      "ĠRy": 8663,
      "Ġcatwalk": 8664,
      "ĠchÃ³i": 8665,
      "ĠchÃł": 8666,
      "ĠMÆ¡": 8667,
      "LED": 8668,
      "ĠTrans": 8669,
      "?\"": 8670,
      "Ġbe": 8671,
      "ChÃ¡u": 8672,
      "ĠFre": 8673,
      "ĠGates": 8674,
      "ĠChoi": 8675,
      "TE": 8676,
      "ĠÄĳiáº¿u": 8677,
      "ĠThiá»ģu": 8678,
      "ĠWatch": 8679,
      "ĠLife": 8680,
      "ĠCel": 8681,
      "ĠThÆ¡m": 8682,
      "ĠBuff": 8683,
      "ĠSuá»ĳt": 8684,
      "Ġfutsal": 8685,
      "ĠBruno": 8686,
      "gor": 8687,
      "ĠAp": 8688,
      "Tai": 8689,
      "off": 8690,
      "ĠSant": 8691,
      "una": 8692,
      "ĠDom": 8693,
      "SH": 8694,
      "bÃªn": 8695,
      "day": 8696,
      "vin": 8697,
      "ĠTechcombank": 8698,
      "ĠShinzo": 8699,
      "ĠLÄĲTB": 8700,
      "ĠSÃ¢m": 8701,
      "Gáº·p": 8702,
      "Ġbus": 8703,
      "Ġyoga": 8704,
      "Ġnhai": 8705,
      "Nguy": 8706,
      "kinh": 8707,
      "ChÃºc": 8708,
      "ĠÆ¯u": 8709,
      "ĠConte": 8710,
      "RA": 8711,
      "Dr": 8712,
      "ĠSlov": 8713,
      "GC": 8714,
      "ĠNepal": 8715,
      "Ã½p": 8716,
      "ĠZelen": 8717,
      "GTVT": 8718,
      "ĠHCÄĲ": 8719,
      "igan": 8720,
      "MÃłu": 8721,
      "MTTQ": 8722,
      "Ġnhá»ķ": 8723,
      "ĠIndex": 8724,
      "Ġcafe": 8725,
      "1945": 8726,
      "ĠTráº£i": 8727,
      "ĠTiáº¿t": 8728,
      "ĠxÃŃu": 8729,
      "Ġlike": 8730,
      "ĠDáº¡": 8731,
      "abeth": 8732,
      "lÃªn": 8733,
      "cÃ¡ch": 8734,
      "Iá»Ĩ": 8735,
      "âĢĻ.": 8736,
      "ĠmÃ´tÃ´": 8737,
      "ĠQuyáº¿n": 8738,
      "PM": 8739,
      "ĠKháº£o": 8740,
      "Chuáº©n": 8741,
      "ĠÄĲá»īnh": 8742,
      "Ġthung": 8743,
      "ĠÃ²a": 8744,
      "Cá»Ń": 8745,
      "Ġtá»§i": 8746,
      "ger": 8747,
      "ĠÄĳáº½": 8748,
      "Ġngá»«": 8749,
      "Ġur": 8750,
      "Ġ141": 8751,
      "ĠSalah": 8752,
      "thá»©": 8753,
      "Ġgiáº¥m": 8754,
      "Is": 8755,
      "etooth": 8756,
      "ĠÄĳá»į": 8757,
      "ĠGang": 8758,
      "Ġtáº»": 8759,
      "Thá»§y": 8760,
      "ĠTNCS": 8761,
      "To": 8762,
      "ĠRashford": 8763,
      "ĠBusiness": 8764,
      "ingroup": 8765,
      "ĠLaz": 8766,
      "BGD": 8767,
      "inet": 8768,
      "ĠVNM": 8769,
      "Ġváº¡": 8770,
      "ĠPompeo": 8771,
      "ĠHazard": 8772,
      "ĠPlaza": 8773,
      "Ġgiá»Ĺ": 8774,
      "Zen": 8775,
      "raph": 8776,
      "ĠMáº¯t": 8777,
      "phÃ¡t": 8778,
      "ĠEVFTA": 8779,
      "ĠSnapdragon": 8780,
      "hen": 8781,
      "cept": 8782,
      "Ġ210": 8783,
      "ĠAk": 8784,
      "amine": 8785,
      "Ġhormone": 8786,
      "ĠCTCK": 8787,
      "ĠZalo": 8788,
      "ĠkhÃ©t": 8789,
      "BNV": 8790,
      "Ġ126": 8791,
      "ĠBruss": 8792,
      "Ġrá»Ĺng": 8793,
      "QuáºŃn": 8794,
      "ĠStore": 8795,
      "ĠDy": 8796,
      "ĠFederer": 8797,
      "ĠDTTS": 8798,
      "Ġle": 8799,
      "wer": 8800,
      "oko": 8801,
      "urnal": 8802,
      "ĠUp": 8803,
      "ĠJeff": 8804,
      "ope": 8805,
      "ĠMT": 8806,
      "ĠCCB": 8807,
      "ĠGard": 8808,
      "ĠBil": 8809,
      "ibo": 8810,
      "ĠPorsche": 8811,
      "ĠSri": 8812,
      "ĠNas": 8813,
      "thony": 8814,
      "ĠDmitry": 8815,
      "ĠPers": 8816,
      "trÆ°á»Ľc": 8817,
      "ĠClub": 8818,
      "ĠVÄĲ": 8819,
      "Ġrapper": 8820,
      "ĠMarc": 8821,
      "Ġgym": 8822,
      "ĠÃģp": 8823,
      "HD": 8824,
      "ĠKÃªnh": 8825,
      "lam": 8826,
      "ĠSwift": 8827,
      "avi": 8828,
      "Ġ270": 8829,
      "Niá»ģm": 8830,
      "ĠKpop": 8831,
      "esliga": 8832,
      "ĠPi": 8833,
      "Iran": 8834,
      "vá»£": 8835,
      "ĠTO": 8836,
      "ĠngÃ¡ch": 8837,
      "ĠShe": 8838,
      "Ass": 8839,
      "Ġchá»īn": 8840,
      "ĠXS": 8841,
      "ĠRub": 8842,
      "MV": 8843,
      "%...": 8844,
      "Ġcáº¡o": 8845,
      "BÃ³ng": 8846,
      "ĠCNVCLÄĲ": 8847,
      "Pet": 8848,
      "Nháº¯c": 8849,
      "nhÃ¢n": 8850,
      "zone": 8851,
      "CoM": 8852,
      "ĠLeb": 8853,
      "oshenko": 8854,
      "ĠBenzema": 8855,
      "ĠWTO": 8856,
      "ÄĲá»ķi": 8857,
      "athon": 8858,
      "ĠNobel": 8859,
      "Ġsal": 8860,
      "avel": 8861,
      "Ġ260": 8862,
      "ĠHA": 8863,
      "Ġquáº©n": 8864,
      "ĠResort": 8865,
      "Sang": 8866,
      "ĠXÃŃ": 8867,
      "Ġxá»Ļn": 8868,
      "Ná»Ĺi": 8869,
      "Cá»Ļng": 8870,
      "ĠLig": 8871,
      "ĠJakarta": 8872,
      "120": 8873,
      "ann": 8874,
      "Ã¬n": 8875,
      "Má»ĳi": 8876,
      "JI": 8877,
      "báº£o": 8878,
      "ĠBangladesh": 8879,
      "ĠSmith": 8880,
      "2024": 8881,
      "ĠCá»±": 8882,
      "ait": 8883,
      "ĠGiáº£ng": 8884,
      "ĠXÃ¡c": 8885,
      "ĠchÃ²i": 8886,
      "ĦN": 8887,
      "ĠFBI": 8888,
      "ÄĳÆ¡n": 8889,
      "ĠRamos": 8890,
      "ĠKevin": 8891,
      "ĠRog": 8892,
      "ĠVIC": 8893,
      "ĠAgu": 8894,
      "Ġview": 8895,
      "ĠYonhap": 8896,
      "ĠSergio": 8897,
      "ons": 8898,
      "ĠBridge": 8899,
      "erby": 8900,
      "ĠMorning": 8901,
      "igu": 8902,
      "ĠQueen": 8903,
      "ĠIc": 8904,
      "rom": 8905,
      "chiáº¿c": 8906,
      "ĠKazakhstan": 8907,
      "ĠDáº«u": 8908,
      "ĠAdam": 8909,
      "Ġvung": 8910,
      "ĠGÆ°Æ¡m": 8911,
      "azz": 8912,
      "hat": 8913,
      "NDÄĲT": 8914,
      "Ġmicro": 8915,
      "ĠBlue": 8916,
      "Ġpen": 8917,
      "Chá»£": 8918,
      "ĠSIM": 8919,
      "ĠDia": 8920,
      "2000": 8921,
      "cent": 8922,
      "ĠNgáº¡n": 8923,
      "TrÃł": 8924,
      "âĢĿ?": 8925,
      "Ġthiá»ģu": 8926,
      "Ġvo": 8927,
      "ĠKhe": 8928,
      "Khá»ĳi": 8929,
      "ĠRu": 8930,
      "Ġláº©u": 8931,
      "ĠÄĲáº¿": 8932,
      "eron": 8933,
      "phÃª": 8934,
      "izen": 8935,
      "IL": 8936,
      "ĠXNK": 8937,
      "ĠFED": 8938,
      "ĠchiÃªng": 8939,
      "Ġren": 8940,
      "gov": 8941,
      "ĠXiaomi": 8942,
      "ĠBrussels": 8943,
      "earch": 8944,
      "ĠGÆ°Æ¡ng": 8945,
      "ÄĲTCK": 8946,
      "ĠLukaku": 8947,
      "ĠVAM": 8948,
      "aghd": 8949,
      "Fi": 8950,
      "bu": 8951,
      "ĠCannes": 8952,
      "ĠNag": 8953,
      "QuÃ¡n": 8954,
      "ĠCorona": 8955,
      "ĠtrÆ¡": 8956,
      "Thá»ķ": 8957,
      "Samsung": 8958,
      "\"-": 8959,
      "ĠCháº¡p": 8960,
      "ĠÂ": 8961,
      "VÃłng": 8962,
      "dro": 8963,
      "ont": 8964,
      "máº¥t": 8965,
      "vá»ģ": 8966,
      "ĠElec": 8967,
      "thuc": 8968,
      "obile": 8969,
      "ĠBia": 8970,
      "wang": 8971,
      "ĠCarol": 8972,
      "chia": 8973,
      "ĠchÃłi": 8974,
      "ĠHel": 8975,
      "Suá»ĳt": 8976,
      "ĠnhÃ©t": 8977,
      "Ġna": 8978,
      "ĠTáº¿": 8979,
      "ĠTÆ°á»£ng": 8980,
      "ĠRyan": 8981,
      "VÆ°á»£t": 8982,
      "ĠVai": 8983,
      "Ġbai": 8984,
      "Ġcáº¥n": 8985,
      "Ġrá»ĳn": 8986,
      "ĠPin": 8987,
      "Philip": 8988,
      "ĠCV": 8989,
      "ĠSy": 8990,
      "Honda": 8991,
      "jo": 8992,
      "ĠCá»Ń": 8993,
      "reak": 8994,
      "had": 8995,
      "thÃ´n": 8996,
      "ĠGÃ³i": 8997,
      "ĠRad": 8998,
      "ret": 8999,
      "ĠNick": 9000,
      "ĠtÃ²i": 9001,
      "ĠÄĳá»±c": 9002,
      "ĠBash": 9003,
      "ĠMA": 9004,
      "ĠNgÆ°u": 9005,
      "ĠrÃ¡t": 9006,
      "ĠTá»©c": 9007,
      "eller": 9008,
      "ĠLamborghini": 9009,
      "ĠvÃŃa": 9010,
      "Indonesia": 9011,
      "lanh": 9012,
      "Ġup": 9013,
      "ĠMÃłn": 9014,
      "ĠthÃł": 9015,
      "Ġben": 9016,
      "Trá»įng": 9017,
      "ision": 9018,
      "Ġchá»ĩch": 9019,
      "ĠCMND": 9020,
      "ĠLuyá»ĩn": 9021,
      "SGGP": 9022,
      "Váº»": 9023,
      "Káº»": 9024,
      "ĠHTC": 9025,
      "ĠLove": 9026,
      "ĠDar": 9027,
      "ire": 9028,
      "ĠPVC": 9029,
      "ĠOle": 9030,
      "Ġ280": 9031,
      "ever": 9032,
      "ĠScott": 9033,
      "Ġmarketing": 9034,
      "izabeth": 9035,
      "Ġloay": 9036,
      "ĠBA": 9037,
      "ĠDisney": 9038,
      "comm": 9039,
      "Ãģp": 9040,
      "ĠhiÃªn": 9041,
      "ĠLÃªn": 9042,
      "bert": 9043,
      "Ġkhoáº¯n": 9044,
      "2004": 9045,
      "ĠBundesliga": 9046,
      "ĠLÃ£": 9047,
      "ĠGáº¡o": 9048,
      "Cap": 9049,
      "ĠBat": 9050,
      "sul": 9051,
      "ĠCIA": 9052,
      "ĠValencia": 9053,
      "elfie": 9054,
      "ĠngÃł": 9055,
      "ange": 9056,
      "ĠkhÄĥng": 9057,
      "ĠVingroup": 9058,
      "ms": 9059,
      "tainment": 9060,
      "hu": 9061,
      "ĠAirbus": 9062,
      "Trá»±c": 9063,
      "ĠSouthampton": 9064,
      "ĠAbu": 9065,
      "ĠWB": 9066,
      "OM": 9067,
      "ĠÄĲáº£m": 9068,
      "ĠrÆ°ng": 9069,
      "ĠVÃłi": 9070,
      "ĠÄĲÆ°Æ¡ng": 9071,
      "TF": 9072,
      "ved": 9073,
      "Tam": 9074,
      "Sing": 9075,
      "Ġ2045": 9076,
      "WS": 9077,
      "ĠNapoli": 9078,
      "ĠEbola": 9079,
      "ĠMá»ĭch": 9080,
      "ĠPen": 9081,
      "thá»±c": 9082,
      "ĠVÃĢ": 9083,
      "XP": 9084,
      "ráº¥t": 9085,
      "ĠAy": 9086,
      "ĠAstra": 9087,
      "ĠKate": 9088,
      "ĠnÄĥn": 9089,
      "Ġsáº£nh": 9090,
      "ĠmÃºi": 9091,
      "Ġsh": 9092,
      "iro": 9093,
      "Ġ118": 9094,
      "ĠHá»ķ": 9095,
      "chain": 9096,
      "ĠVinac": 9097,
      "ĠXH": 9098,
      "Ġthun": 9099,
      "ĠPetrolimex": 9100,
      "ĠCD": 9101,
      "ador": 9102,
      "RI": 9103,
      "ĠkhÃ³m": 9104,
      "ĠDV": 9105,
      "ÆłNG": 9106,
      "ĠRÄĥng": 9107,
      "Ġnhung": 9108,
      "ĠKá»ĭch": 9109,
      "Liverpool": 9110,
      "ical": 9111,
      "Bay": 9112,
      "Ġ1971": 9113,
      "Can": 9114,
      "iá»ĥng": 9115,
      "gy": 9116,
      "pha": 9117,
      "Quá»¹": 9118,
      "ĠngÃ³": 9119,
      "khÃ³": 9120,
      "ĠBent": 9121,
      "ĠTÃło": 9122,
      "giai": 9123,
      "ĠKiatis": 9124,
      "Tuáº¥n": 9125,
      "LÆ°Æ¡ng": 9126,
      "ĠTHá": 9127,
      "ĠTHá»": 9128,
      "Quáº£n": 9129,
      "ĠtrÃ³t": 9130,
      "quy": 9131,
      "Ġxiáº¿t": 9132,
      "Book": 9133,
      "cháº¥t": 9134,
      "ĠJournal": 9135,
      "Ġnet": 9136,
      "Ġcuá»ĳng": 9137,
      "PS": 9138,
      "iter": 9139,
      "áº³m": 9140,
      "ĠtuÃ´ng": 9141,
      "Di": 9142,
      "OO": 9143,
      "ÄĲÃ¡m": 9144,
      "Ãĵ": 9145,
      "Ġtáº¯n": 9146,
      "ĠEntertainment": 9147,
      "Ġom": 9148,
      "ĠFerg": 9149,
      "CTN": 9150,
      "FI": 9151,
      "ĠÄĲo": 9152,
      "ĠUBKT": 9153,
      "OA": 9154,
      "ĠBon": 9155,
      "ĠADN": 9156,
      "Assad": 9157,
      "báº£n": 9158,
      "Ġháº¥t": 9159,
      "eop": 9160,
      "ĠlÃ¡n": 9161,
      "160": 9162,
      "Ġquyá»ĩn": 9163,
      "uson": 9164,
      "bach": 9165,
      "ĠNgÃłi": 9166,
      "ĠCrystal": 9167,
      "BNN": 9168,
      "Ġhá»ĳc": 9169,
      "ĠSho": 9170,
      "ĠCX": 9171,
      "Äĳá»Ļc": 9172,
      "ĠCC": 9173,
      "Ġkali": 9174,
      "Ġ??": 9175,
      "Ġthá»«ng": 9176,
      "Æ¯ÆłNG": 9177,
      "Ġmá»ĵm": 9178,
      "UYá»ĦN": 9179,
      "hire": 9180,
      "ĠLanka": 9181,
      "ĠNar": 9182,
      "ĠBashar": 9183,
      "Thá»ĭt": 9184,
      "Quá»³nh": 9185,
      "ĠTHADS": 9186,
      "ĠKir": 9187,
      "ĠWay": 9188,
      "ĠbÃ¨o": 9189,
      "Roy": 9190,
      "1975": 9191,
      "Bl": 9192,
      "ĠSÆ¡": 9193,
      "abi": 9194,
      "ĠLisa": 9195,
      "onex": 9196,
      "Ġcá»ĳp": 9197,
      "Ġnáº·c": 9198,
      "ĠIMF": 9199,
      "ĠCPTPP": 9200,
      "YÃªn": 9201,
      "VnMedia": 9202,
      "cá»±u": 9203,
      "cÆ¡n": 9204,
      "athan": 9205,
      "Ġ119": 9206,
      "ĠTen": 9207,
      "Ġresort": 9208,
      "Ġit": 9209,
      "irates": 9210,
      "LÆ°á»£ng": 9211,
      "sáº½": 9212,
      "ĠAnthony": 9213,
      "Ġdáº±n": 9214,
      "ĠBir": 9215,
      "ĠPacific": 9216,
      "KTSG": 9217,
      "erbai": 9218,
      "bá»ĭ": 9219,
      "ĠJoong": 9220,
      "Tay": 9221,
      "bá»Ļ": 9222,
      "ĠSabeco": 9223,
      "ĠChuyáº¿n": 9224,
      "á»ĭm": 9225,
      "ĠVietinbank": 9226,
      "iPhone": 9227,
      "ju": 9228,
      "Ġpro": 9229,
      "ĠPetro": 9230,
      "ĠVAT": 9231,
      "cÃ¢y": 9232,
      "ĠStam": 9233,
      "ĠTÃ²ng": 9234,
      "ĠOx": 9235,
      "NATO": 9236,
      "Mang": 9237,
      "ĠChÃłng": 9238,
      "Ġráº±m": 9239,
      "Qaeda": 9240,
      "ÄĲá»£t": 9241,
      "ology": 9242,
      "lÆ°á»£t": 9243,
      "%-": 9244,
      "Ġcent": 9245,
      "ĠHoldings": 9246,
      "amboo": 9247,
      "ĠNgÃ´n": 9248,
      "chá»ĳng": 9249,
      "ness": 9250,
      "ĠLas": 9251,
      "ĠVCCI": 9252,
      "tá»ķ": 9253,
      "ĠAK": 9254,
      "ĠHinh": 9255,
      "Jo": 9256,
      "Äĳáº¥t": 9257,
      "ingham": 9258,
      "Ãµng": 9259,
      "ĠMill": 9260,
      "ĠGran": 9261,
      "Ġekip": 9262,
      "ĠtuÃ½p": 9263,
      "ĠCru": 9264,
      "Ġ121": 9265,
      "ĠElon": 9266,
      "BÃ£o": 9267,
      "ĠElizabeth": 9268,
      "Ġyáº¿m": 9269,
      "âĢĻ,": 9270,
      "erbaijan": 9271,
      "Triá»ĩu": 9272,
      "ĠSevilla": 9273,
      "Ġhen": 9274,
      "ĠValentine": 9275,
      "ĠDOJI": 9276,
      "Zeneca": 9277,
      "ĠsÃºp": 9278,
      "ĠGhi": 9279,
      "ĠHoÃłnh": 9280,
      "ĠÄĲHQG": 9281,
      "under": 9282,
      "KL": 9283,
      "ĠRay": 9284,
      "ĠMÆ°a": 9285,
      "Ġ122": 9286,
      "Ġreo": 9287,
      "Cháº¿": 9288,
      "ĠQual": 9289,
      "ĠInn": 9290,
      "ĠcÃ¹": 9291,
      "Chá»įn": 9292,
      "ĠZelensky": 9293,
      "Ġnude": 9294,
      "ĠÄĲoáº¡n": 9295,
      "Ġngáº«m": 9296,
      "ĠÄĲá»©ng": 9297,
      "Ġ145": 9298,
      "Nhiá»ĩm": 9299,
      "PLX": 9300,
      "ĠThá»ĭt": 9301,
      "Ġtá»³": 9302,
      "Ġphai": 9303,
      "Ġlon": 9304,
      "ogen": 9305,
      "Ġ132": 9306,
      "Ġvon": 9307,
      "ĠBluetooth": 9308,
      "quan": 9309,
      "Äĳang": 9310,
      "ĠXÄĥng": 9311,
      "ĠBÃłu": 9312,
      "ĠJuan": 9313,
      "ĠMatt": 9314,
      "tho": 9315,
      "ká»ĥ": 9316,
      "DÃłn": 9317,
      "ĠPes": 9318,
      "Ġselfie": 9319,
      "las": 9320,
      "ĠEco": 9321,
      "Ġá»Ĳ": 9322,
      "Ġpho": 9323,
      "EV": 9324,
      "ÄĲá»Ļc": 9325,
      "ĠDream": 9326,
      "ĠLop": 9327,
      "ÃĮNH": 9328,
      "ĠxÃ³i": 9329,
      "ĠLÃ¡": 9330,
      "ĠJang": 9331,
      "ĠNghá»ģ": 9332,
      "ĠLebanon": 9333,
      "ĠGor": 9334,
      "ĠTeleg": 9335,
      "Ġáº¢NH": 9336,
      "Ġ@": 9337,
      "Ráº¡ng": 9338,
      "LVT": 9339,
      "ĠBLHS": 9340,
      "ngh": 9341,
      "ĠTL": 9342,
      "ĠBá»ĵng": 9343,
      "light": 9344,
      "Ġdáº«u": 9345,
      "ĠvÆ¡i": 9346,
      "Ġcá»Ļm": 9347,
      "130": 9348,
      "Ġnháº£": 9349,
      "ĠTÄĲ": 9350,
      "geria": 9351,
      "oph": 9352,
      "Æ°Æ¡u": 9353,
      "ĠÃ¡t": 9354,
      "ĠtrÆ°á»Ľng": 9355,
      "ĠMinzy": 9356,
      "Nhu": 9357,
      "bá»ı": 9358,
      "Dá»±a": 9359,
      "ĠGiáº¿t": 9360,
      "sin": 9361,
      "ĠTá»ĳc": 9362,
      "Ġgá»įt": 9363,
      "Ġbá»¥c": 9364,
      "MI": 9365,
      "ĠVÄĲQG": 9366,
      "Reuters": 9367,
      "ĠLÅ©ng": 9368,
      "ASS": 9369,
      "fan": 9370,
      "Thá»ĥ": 9371,
      "Ġcau": 9372,
      "iago": 9373,
      "ĠThÃ¬": 9374,
      "ĠhÃ©c": 9375,
      "menia": 9376,
      "Liá»ĩu": 9377,
      "har": 9378,
      "Ġmiáº¿u": 9379,
      "ĠNHTM": 9380,
      "Ġwon": 9381,
      "ĠCz": 9382,
      "ienthuc": 9383,
      "ĠFal": 9384,
      "ĠYoo": 9385,
      "Ġbáº¹p": 9386,
      "ĠngÃ³i": 9387,
      "Kháº£": 9388,
      "ĠtÆ¡i": 9389,
      "ĠCNLÄĲ": 9390,
      "Ġdá»Ļt": 9391,
      "ĠHá»Ļ": 9392,
      "Ġxy": 9393,
      "Ġcháº¯t": 9394,
      "NgÃ´": 9395,
      "ĠFerguson": 9396,
      "ahoo": 9397,
      "Ġmá»ĭt": 9398,
      "garia": 9399,
      "áº®": 9400,
      "ĠNÃłng": 9401,
      "ĠVui": 9402,
      "Ġapp": 9403,
      "Bu": 9404,
      "Ġlive": 9405,
      "ĠSVÄĲ": 9406,
      "ds": 9407,
      "alty": 9408,
      "ĠGeneva": 9409,
      "Ġacid": 9410,
      "ĠVF": 9411,
      "Lá»Ļ": 9412,
      "ĠbÆ°á»Ľm": 9413,
      "vÃłng": 9414,
      "Bá»ı": 9415,
      "ĠWilliams": 9416,
      "ĠGáº·p": 9417,
      "wagen": 9418,
      "ĠVPBank": 9419,
      "ira": 9420,
      "Äĳá»ģ": 9421,
      "OR": 9422,
      "KVÄĲ": 9423,
      "Ġphá»Ľt": 9424,
      "ĠÃĲáº£ng": 9425,
      "ĠChen": 9426,
      "ĠThuá»ĳc": 9427,
      "ĠVá": 9428,
      "ĠVá»": 9429,
      "ips": 9430,
      "ĠHPG": 9431,
      "ĠkÃ¬nh": 9432,
      "ĠCenter": 9433,
      "ĠYan": 9434,
      "Hano": 9435,
      "ĠStan": 9436,
      "Ġtá»§y": 9437,
      "Ġnhá»Ŀn": 9438,
      "ĠCháº£i": 9439,
      "ĠKn": 9440,
      "Philipp": 9441,
      "Ġsáº£": 9442,
      "ĠDep": 9443,
      "ĠMusic": 9444,
      "ĠKai": 9445,
      "Ġ1969": 9446,
      "ĠWan": 9447,
      "ĠÄĲá»įc": 9448,
      "Sáº¯p": 9449,
      "LÃłng": 9450,
      "Ġ127": 9451,
      "ĠdÄĥm": 9452,
      "ĠSá»¯a": 9453,
      "Ġháº¯t": 9454,
      "ĠnhoÃ¡ng": 9455,
      "ĠSeung": 9456,
      "Ġblock": 9457,
      "xx": 9458,
      "ĠmáºŃn": 9459,
      "Toy": 9460,
      "ĠHouse": 9461,
      "xcÆ¡": 9462,
      "ĠBy": 9463,
      "Dáº¥u": 9464,
      "ĠBÃ¹": 9465,
      "áº¥ng": 9466,
      "ĠtrÃ¡": 9467,
      "ux": 9468,
      "atra": 9469,
      "ĠnhÃŃch": 9470,
      "Khoáº£nh": 9471,
      "cháº¿t": 9472,
      "ĠYoon": 9473,
      "ĠthÃ¡n": 9474,
      "ĠMonaco": 9475,
      "Ġspa": 9476,
      "Ġgiun": 9477,
      "Ġsáº·c": 9478,
      "ĠPoroshenko": 9479,
      "ĠAstraZeneca": 9480,
      "GiadinhNet": 9481,
      "ĠLáºŃy": 9482,
      "ĠStamford": 9483,
      "ĠThÃ´n": 9484,
      "ĠOlympia": 9485,
      "ĠhÃ²ng": 9486,
      "real": 9487,
      "ĠChev": 9488,
      "kswagen": 9489,
      "Ġnu": 9490,
      "Ġtrá»Ĺi": 9491,
      "ĠEmirates": 9492,
      "BT": 9493,
      "yes": 9494,
      "ĠTun": 9495,
      "uador": 9496,
      "Sai": 9497,
      "ĠRáº¡ng": 9498,
      "Ġsáº£ng": 9499,
      "Mong": 9500,
      "Ġ1967": 9501,
      "Lan": 9502,
      "ĠCook": 9503,
      "ĠKhÃ³a": 9504,
      "ĠNhá»Ľ": 9505,
      "thay": 9506,
      "ĠCÄĲCS": 9507,
      "ĠNhiÃªn": 9508,
      "Ġdr": 9509,
      "ista": 9510,
      "ĠMartial": 9511,
      "Ġque": 9512,
      "ĠKos": 9513,
      "ĠKhÃ¡n": 9514,
      "ĠCáº¥m": 9515,
      "BCK": 9516,
      "Ġ124": 9517,
      "New": 9518,
      "ĠrÆ°á»£t": 9519,
      "ĠmÃªnh": 9520,
      "urs": 9521,
      "ĠGR": 9522,
      "ĠTriáº¿t": 9523,
      "Ġ1945": 9524,
      "Ġthá»ı": 9525,
      "ĠThÃ©p": 9526,
      "ĠKam": 9527,
      "abeu": 9528,
      "ĠKab": 9529,
      "ĠÄĳá»ĳm": 9530,
      "750": 9531,
      "Ġshi": 9532,
      "ahu": 9533,
      "ĠTrÃ¹ng": 9534,
      "ĠJet": 9535,
      "Äĳiá»ģu": 9536,
      "Hanoinet": 9537,
      "ĠsÃ´": 9538,
      "eber": 9539,
      "TVS": 9540,
      "alem": 9541,
      "VÃµ": 9542,
      "Ġmet": 9543,
      "ĠVirgin": 9544,
      "ĠWhite": 9545,
      "ĠQLDA": 9546,
      "Ġtháº³m": 9547,
      "ĠKHCN": 9548,
      "ĠKhuáº¥t": 9549,
      "Ġ330": 9550,
      "ĠMarvel": 9551,
      "ĠMary": 9552,
      "ĠTráº£": 9553,
      "ĠRomania": 9554,
      "há»ĩ": 9555,
      "ĠGiÃłu": 9556,
      "ĠJackson": 9557,
      "ĠTáº¥m": 9558,
      "Huyá»ģn": 9559,
      "ĠBernabeu": 9560,
      "ĠAguero": 9561,
      "ĠCá»ı": 9562,
      "ĠCzech": 9563,
      "Nhá»Ľ": 9564,
      "UD": 9565,
      "irus": 9566,
      "ĠmÃ¨": 9567,
      "Vinh": 9568,
      "ĠIvan": 9569,
      "Äĳá»Ļi": 9570,
      "âĢ¦âĢĿ,": 9571,
      "Cá»Ńa": 9572,
      "Báº§u": 9573,
      "chuyá»ĩn": 9574,
      "ĠFu": 9575,
      "Ġ#": 9576,
      "ĠliÃªm": 9577,
      "ĠHQ": 9578,
      "ÄĲá»ĵ": 9579,
      "Biáº¿n": 9580,
      "táº¡m": 9581,
      "ures": 9582,
      "Thá»¥y": 9583,
      "Ġxá»īn": 9584,
      "ĠHil": 9585,
      "afe": 9586,
      "£m": 9587,
      "ĠRolls": 9588,
      "Äĳáº¿n": 9589,
      "ĠSanta": 9590,
      "duc": 9591,
      "Singapore": 9592,
      "Ġváº·n": 9593,
      "ĠXoÃłi": 9594,
      "ĠArmenia": 9595,
      "rin": 9596,
      "ĠRet": 9597,
      "Toyota": 9598,
      "ennis": 9599,
      "ĠgÃło": 9600,
      "ĠTMÄĲT": 9601,
      "Ġáº£": 9602,
      "...\".": 9603,
      "ĠRodriguez": 9604,
      "Ġcuá»ĳc": 9605,
      "Ġriáº¿t": 9606,
      "oke": 9607,
      "ĠPhÃ¡i": 9608,
      "ká»³": 9609,
      "ĠmÃºc": 9610,
      "gas": 9611,
      "ĠDá»ĩt": 9612,
      "ĠLar": 9613,
      "ĠTÆ¡": 9614,
      "ĠCá»«": 9615,
      "Ġnguyá»ģn": 9616,
      "CÆ¡n": 9617,
      "ĠHÄĲT": 9618,
      "ĠAbb": 9619,
      "room": 9620,
      "Ġnem": 9621,
      "ĠSeries": 9622,
      "ĠShang": 9623,
      "ĠÄĲKVÄĲ": 9624,
      "ĠUá»ĳng": 9625,
      "Ġ138": 9626,
      "ĠMen": 9627,
      "Ġnháº¹n": 9628,
      "Ġvest": 9629,
      "Ġá»ķi": 9630,
      "ĠHaaland": 9631,
      "ĠRem": 9632,
      "ĠAzerbaijan": 9633,
[...]
