{"<|endoftext|>":0,"!":1,"\"":2,"#":3,"$":4,"%":5,"&":6,"'":7,"(":8,")":9,"*":10,"+":11,",":12,"-":13,".":14,"/":15,"0":16,"1":17,"2":18,"3":19,"4":20,"5":21,"6":22,"7":23,"8":24,"9":25,":":26,";":27,"<":28,"=":29,">":30,"?":31,"@":32,"A":33,"B":34,"C":35,"D":36,"E":37,"F":38,"G":39,"H":40,"I":41,"J":42,"K":43,"L":44,"M":45,"N":46,"O":47,"P":48,"Q":49,"R":50,"S":51,"T":52,"U":53,"V":54,"W":55,"X":56,"Y":57,"Z":58,"[":59,"\\":60,"]":61,"^":62,"_":63,"`":64,"a":65,"b":66,"c":67,"d":68,"e":69,"f":70,"g":71,"h":72,"i":73,"j":74,"k":75,"l":76,"m":77,"n":78,"o":79,"p":80,"q":81,"r":82,"s":83,"t":84,"u":85,"v":86,"w":87,"x":88,"y":89,"z":90,"{":91,"|":92,"}":93,"~":94,"¡":95,"¢":96,"£":97,"¤":98,"¥":99,"¦":100,"§":101,"¨":102,"©":103,"ª":104,"«":105,"¬":106,"®":107,"¯":108,"°":109,"±":110,"²":111,"³":112,"´":113,"µ":114,"¶":115,"·":116,"¸":117,"¹":118,"º":119,"»":120,"¼":121,"½":122,"¾":123,"¿":124,"À":125,"Á":126,"Â":127,"Ã":128,"Ä":129,"Å":130,"Æ":131,"Ç":132,"È":133,"É":134,"Ê":135,"Ë":136,"Ì":137,"Í":138,"Î":139,"Ï":140,"Ð":141,"Ñ":142,"Ò":143,"Ó":144,"Ô":145,"Õ":146,"Ö":147,"×":148,"Ø":149,"Ù":150,"Ú":151,"Û":152,"Ü":153,"Ý":154,"Þ":155,"ß":156,"à":157,"á":158,"â":159,"ã":160,"ä":161,"å":162,"æ":163,"ç":164,"è":165,"é":166,"ê":167,"ë":168,"ì":169,"í":170,"î":171,"ï":172,"ð":173,"ñ":174,"ò":175,"ó":176,"ô":177,"õ":178,"ö":179,"÷":180,"ø":181,"ù":182,"ú":183,"û":184,"ü":185,"ý":186,"þ":187,"ÿ":188,"Ā":189,"ā":190,"Ă":191,"ă":192,"Ą":193,"ą":194,"Ć":195,"ć":196,"Ĉ":197,"ĉ":198,"Ċ":199,"ċ":200,"Č":201,"č":202,"Ď":203,"ď":204,"Đ":205,"đ":206,"Ē":207,"ē":208,"Ĕ":209,"ĕ":210,"Ė":211,"ė":212,"Ę":213,"ę":214,"Ě":215,"ě":216,"Ĝ":217,"ĝ":218,"Ğ":219,"ğ":220,"Ġ":221,"ġ":222,"Ģ":223,"ģ":224,"Ĥ":225,"ĥ":226,"Ħ":227,"ħ":228,"Ĩ":229,"ĩ":230,"Ī":231,"ī":232,"Ĭ":233,"ĭ":234,"Į":235,"į":236,"İ":237,"ı":238,"Ĳ":239,"ĳ":240,"Ĵ":241,"ĵ":242,"Ķ":243,"ķ":244,"ĸ":245,"Ĺ":246,"ĺ":247,"Ļ":248,"ļ":249,"Ľ":250,"ľ":251,"Ŀ":252,"ŀ":253,"Ł":254,"ł":255,"Ń":256,"áº":257,"ng":258,"Ġt":259,"Ġc":260,"ĠÄ":261,"ĠÄĳ":262,"nh":263,"Ãł":264,"Æ°":265,"Ġv":266,"Ã¡":267,"há":268,"há»":269,"iá":270,"iá»":271,"Ġl":272,"Ġtr":273,"Ġk":274,"Ġb":275,"hÃ":276,"Æ°á":277,"Æ°á»":278,"Ġs":279,"áº¿":280,"Ġm":281,"Ġnh":282,"áº¡":283,"Ġn":284,"ĠÄĳá":285,"ĠÄĳá»":286,"áº£":287,"Ġth":288,"Ġh":289,"Ġg":290,"Ãª":291,"Ġd":292,"Ġng":293,"iá»ĩ":294,"Ġp":295,"Ġch":296,"ĠT":297,"áº¥":298,"ĠcÃ":299,"´ng":300,"Ġvá":301,"Ġvá»":302,"Ã¡c":303,"Ãªn":304,"Ġtá":305,"Ġtá»":306,"Ġcá":307,"Ġcá»":308,"Ã¢":309,"ĠvÃł":310,"»Ļ":311,"á»Ļ":312,"Æ¡":313,"uy":314,"Ġkh":315,"Ġq":316,"áºŃ":317,"Ġthá»":318,"Ġgi":319,"áº§":320,"Ġph":321,"ĠÄĳÃ":322,"Æ°á»Ŀ":323,"Ġx":324,"ĠN":325,"iáº¿":326,"»ĳ":327,"á»ĳ":328,"Ľi":329,"Ġhá»":330,"Äĥ":331,"Ġqu":332,"Ġcá»§":333,"Ġcá»§a":334,"áº¡i":335,"Æ°á»£":336,"Ġr":337,"ĠC":338,"ĠlÃł":339,"Ġchá»":340,"an":341,"ong":342,"ĠcÃ¡c":343,"Ã¬":344,"áº¥t":345,"ĠH":346,"ĠcÃ³":347,"iá»ģ":348,"hÃ´ng":349,"»±":350,"á»±":351,"Ã¢n":352,"iá»ĩn":353,"ĠB":354,"Ãły":355,"áº¯":356,"Æ°á»£c":357,"»ĭ":358,"á»ĭ":359,"ch":360,"iÃªn":361,"»Ł":362,"á»Ł":363,"Æ°á»Ľ":364,"Ġtrong":365,"âĢ":366,"ĠV":367,"ĠÄĳÆ°á»£c":368,"Ġcho":369,"inh":370,"Ã´":371,"iá»ĥ":372,"ĠÄĲ":373,"Ġvá»Ľi":374,"Ãłnh":375,"uyá":376,"uyá»":377,"Æ°á»Ŀi":378,"ĠÄĳÃ£":379,"Ġ2":380,"iá»ģu":381,"Ġ1":382,"Æ°Æ¡":383,"hÃŃ":384,"Æ°á»Ŀng":385,"Ã¬nh":386,"Æ°Æ¡ng":387,"anh":388,"áº§n":389,"»¯":390,"á»¯":391,"á»Ļt":392,"ĠngÆ°á»Ŀi":393,"Ã³":394,"ĠÄĳá»Ļ":395,"ao":396,"ay":397,"áº£i":398,"ai":399,"©c":400,"ĠkhÃ´ng":401,"am":402,"áº§u":403,"Ã´ng":404,"ang":405,"Æ°á»Ľc":406,"©ng":407,"Ãłn":408,"ĠM":409,"áº·":410,"áºŃn":411,"Ġmá»Ļt":412,"ĠL":413,"Ġmá":414,"Ġmá»":415,"ĵng":416,"áº¿n":417,"áº£n":418,"ung":419,"ĠnÄĥ":420,"ÃŃ":421,"Ġlá":422,"Ġlá»":423,"ĠTr":424,"ĠhÃ":425,"áº¿t":426,"ĠcÃ´ng":427,"ĠP":428,"Ã¡t":429,"ĠS":430,"uá»ĳ":431,"Ã¢y":432,"Ã¡n":433,"Ãłng":434,"Ġ(":435,"iáº¿n":436,"ĠÄĳá»ĥ":437,"ĠÄĳá»ĭ":438,"ĠTh":439,"ĠnhÆ°":440,"á»¯ng":441,"ĠNg":442,"Ġnhá»¯ng":443,"Ã£":444,"Ãłi":445,"ĠthÃ":446,"iá»ĩt":447,"Ġngh":448,"Ġho":449,"Ŀi":450,"Ġtá»«":451,"ĠÄĳÃ³":452,"Æ¡n":453,"Ġsá»ĳ":454,"Ġtáº¡i":455,"Ã½":456,"»ķ":457,"á»ķ":458,"on":459,"Ã¡o":460,"±c":461,"Ġvá»ģ":462,"ĠnÃły":463,"¹ng":464,"Ãº":465,"Ġphá»":466,"¥c":467,"in":468,"ĠÄĳáº¿n":469,"eo":470,"Ġkhi":471,"au":472,"Ġá»Ł":473,"ĠphÃ":474,"Ġsáº":475,"Ġgiá»":476,"ĠnÄĥm":477,"iáº¿t":478,"ĠQ":479,"áºŃt":480,"Ġra":481,"Å©ng":482,"ĠK":483,"Ġhá»į":484,"iá»ĩc":485,"áº¡n":486,"áºŃp":487,"Ġhiá»ĩn":488,"áº©":489,"ĠÄĳá»ĵng":490,"Ġthu":491,"ĠtrÃªn":492,"00":493,"ĠvÃło":494,"Ġthá»ĥ":495,"ĠA":496,"ĠÄĳá»Ļng":497,"Ġdá":498,"Ġdá»":499,"Ã´i":500,"Ã¡ng":501,"áº±":502,"Ġviá»ĩc":503,"ĠchÃŃ":504,"Äĥng":505,"Ġnhiá»ģu":506,"ĠÄĳáº§u":507,"Ġbá»ĭ":508,"ĳi":509,"Ġcáº£":510,"ĠâĢ":511,"iá»ĩu":512,"Äĥn":513,"ĠcÅ©ng":514,"ĠD":515,"iÃª":516,"Ġsáº½":517,"Ġbá":518,"Ġbá»":519,"Ã¡i":520,"áº¡t":521,"ĠngÃły":522,"Æ°á»£ng":523,"ĠG":524,"iá»ĥm":525,"áº«":526,"Ġtrá":527,"Ġtrá»":528,"Ġquan":529,"Ã²":530,"Ġdo":531,"ĠÄĳá»ĭnh":532,"Ġsá":533,"Ġsá»":534,"ĠlÃłm":535,"ĠnÆ°á»Ľc":536,"ÄĲ":537,"Ġsá»±":538,"âĢĿ":539,"ĠnhÃł":540,"Ġhá»Ļ":541,"ĠchÃ":542,"áº¥p":543,"Ã¡ch":544,"ĠthÃłnh":545,"áº¡o":546,"áº£ng":547,"»ĵ":548,"á»ĵ":549,"ĠNam":550,"ĠnhÃ¢n":551,"Ġdá»±":552,"áº£o":553,"Ġ20":554,"ħn":555,"Æ°a":556,"Ġchá»ī":557,"Ġ3":558,"oÃłn":559,"Ä©":560,"Ġgia":561,"¬nh":562,"uyÃªn":563,"iá»ĥn":564,"áº¥n":565,"ģn":566,"á»Ļc":567,"Ġláº¡i":568,"Ġ-":569,"ĠgiÃ¡":570,"á»Ļi":571,"ĠcÆ¡":572,"ĠâĢľ":573,"ĠhÃłng":574,"ĠViá»ĩt":575,"áº¯c":576,"ĠtrÆ°á»Ŀng":577,"áº¥y":578,"Ġquy":579,"ĠchÃŃnh":580,"Ġtiáº¿":581,"á»±c":582,"ĠdÃ¢n":583,"Æ°á»Ł":584,"áº±ng":585,"Ġpháº£i":586,"á»ĭch":587,"Æ°á»Łng":588,"Ġnghiá»ĩ":589,"Ã©":590,"Ã¡p":591,"ĳng":592,"áº«n":593,"Ġthá»±c":594,"uyá»ĩ":595,"Ġthá»Ŀi":596,"Ã¢m":597,"Ġhá»įc":598,"£p":599,"Ãło":600,"ĠtÃŃ":601,"ĠphÃ¡t":602,"Ġvá»¥":603,"ĠÃ´ng":604,"ĠthÃ´ng":605,"uáº¥t":606,"ĠhÆ¡n":607,"ĥn":608,"Ġhá»£p":609,"Ã¡nh":610,"Ġkho":611,"ĠÄĳá»ģ":612,"uá»ĳc":613,"ĠhÃłnh":614,"Ġnghá»":615,"Ġxe":616,"ĠÄĳiá»ģu":617,"Ġnháº¥t":618,"er":619,"Ġhá»Ļi":620,"Ġy":621,"īnh":622,"Ġká":623,"Ġká»":624,"Ġtáº¿":625,"ĠviÃªn":626,"Ġchá»©c":627,"ĠÄĳang":628,"¢n":629,"Ġtá»ķ":630,"áº¡nh":631,"Ã¹ng":632,"uyá»ģn":633,"uyá»ĩn":634,"ĠNh":635,"ia":636,"áº·t":637,"²n":638,"Ġsáº£n":639,"iá»ģn":640,"Ġsinh":641,"Ġbiáº¿t":642,"Ġmá»Ľi":643,"áº·c":644,"Ġtheo":645,"Ġcao":646,"ĠcÃ²n":647,"á»ķi":648,"¥ng":649,"ĠThá»":650,"áº¯t":651,"Ġá":652,"Ġá»":653,"en":654,"ĠnháºŃn":655,"Ġsau":656,"ĠÄĳá»ĳi":657,"Ġqua":658,"ĩnh":659,"ĠmÃł":660,"hÃ³":661,"Ã¹":662,"20":663,"ĠU":664,"ĠPh":665,"ĠlÃ½":666,"áº£m":667,"Ġnghiá»ĩp":668,"ĠÄĳi":669,"áº¥u":670,"ĠnÃ³":671,"Ġcon":672,"Ġtiáº¿p":673,"ĠtÄĥng":674,"ĠtrÃ¬nh":675,"ĠhÃ¬nh":676,"ĠtÃ¡c":677,"Ġkhá»":678,"Ġxuáº¥t":679,"Ġbá»Ļ":680,"áº¹":681,"Ġdá»¥ng":682,"Ġtá»īnh":683,"ĠcÃ¹ng":684,"ĠnhÆ°ng":685,"á»ĳc":686,"ĠQuá»ĳc":687,"áº¡m":688,"uá»Ļc":689,"ĠlÆ°á»£ng":690,"ar":691,"įng":692,"Ġlu":693,"áº¡ng":694,"iÃªu":695,"Ġcáº¥p":696,"áº»":697,"ĠthÃ¬":698,"Ġtin":699,"ĠÄĳiá»ĥm":700,"ĠtÃ´i":701,"Ġ4":702,"oáº¡i":703,"Ġtá»ĳ":704,"Ġtriá»ĥn":705,"²ng":706,"Ġ5":707,"ĠtÆ°":708,"Ġtu":709,"ºng":710,"Ġkáº¿t":711,"ĠtrÆ°á»Ľc":712,"Ġan":713,"Ġtháº¿":714,"Æ¡i":715,"..":716,"iá»ĥu":717,"ĠxÃ£":718,"ĠÃ¡n":719,"Tr":720,"Ġlá»Ľ":721,"»Ń":722,"á»Ń":723,"Ġráº¥t":724,"Ġlá»±c":725,"ĠTrung":726,"»¹":727,"á»¹":728,"ĠCÃ´ng":729,"Ġkinh":730,"Ã´n":731,"Th":732,"Ġthá»ĭ":733,"ĠQu":734,"ĠlÃªn":735,"Ġchá»§":736,"ĠnÄĥng":737,"ĠÄĳÆ°á»Ŀng":738,"Ġcáº§u":739,"ĠbÃ¡o":740,"hi":741,"áº£nh":742,"ĠnÃªn":743,"ĠtÃ¬nh":744,"Æ°á»Ľng":745,"al":746,"iá»ħn":747,"Ġ\"":748,"Ġgiáº£i":749,"ĠtoÃłn":750,"ĠcÃ¡ch":751,"Ġdoanh":752,"Ġdá»ĭch":753,"áº©m":754,"»į":755,"á»į":756,"Ġnay":757,"ĠÄĳá»ĭa":758,"ĠmÃ¬nh":759,"Ġkhu":760,"ĠHÃł":761,"Ġ201":762,"Ã¡y":763,"Ġbáº£o":764,"áº¿u":765,"uyá»ĥn":766,"Ãªu":767,"áº¡ch":768,"«a":769,"Ġgiá»¯":770,"em":771,"Ġbá»ĩnh":772,"ĠthÃ¡ng":773,"iá»ĩm":774,"Ġtá»Ľi":775,"Ġthá»§":776,"oÃłi":777,"Ġváº«n":778,"im":779,"ĠphÆ°Æ¡ng":780,"ĠphÃ²ng":781,"Ġquá»ĳc":782,"Ġcuá»Ļc":783,"ĠtÃ¢m":784,"³ng":785,"Ġsá»Ń":786,"Å©":787,"ĠÄĳÃ¢y":788,"ĠÄĲá":789,"ĠÄĲá»":790,"ĠBá»Ļ":791,"Ġquáº£":792,"ĠGi":793,"Ġgiao":794,"ĠvÃ¬":795,"uyá»ħn":796,"ua":797,"áº¯ng":798,"Ġanh":799,"Ġtiá»ģn":800,"ĠkhÃ¡c":801,"Ġthá»ĳng":802,"Ng":803,"Ġvá»ĭ":804,"Ġlá»Ľn":805,"Ġtáº¡o":806,"Ãºc":807,"Ġquyáº¿t":808,"ĠnÃ³i":809,"Ġgian":810,"Ġgiá»Ľi":811,"ĠNguyá»ħn":812,"ĠÄĳáº¡o":813,"ĠphÃ¡p":814,"Ġ6":815,"ĠTP":816,"ĠkhÃ³":817,"ĠMá»¹":818,"Ġtá»±":819,"Ġthi":820,"Ġcá»©":821,"á»ĳi":822,"ĠCh":823,"Ġbáº¡n":824,"Ġhai":825,"ĠtÃłi":826,"ĠR":827,"es":828,"Ġtá»¥c":829,"Ġtra":830,"ĠtáºŃp":831,"ĠtiÃªu":832,"Ġhoáº¡t":833,"ĠX":834,"Ġcáº§n":835,"£i":836,"Ġná»¯":837,"ĠÄĳáº¡i":838,"Ã²ng":839,"Ġpháº§n":840,"ĠhÃ³":841,"Ġbáº£n":842,"ĠÄĳá»ķ":843,"Äĥm":844,"Ġtriá»ĩu":845,"ĠliÃªn":846,"Ġáº£nh":847,"Ġmáº·t":848,"Ġná":849,"Ġná»":850,"Ġráº±ng":851,"Ġdiá»ħn":852,"Ġvá»±c":853,"ĠI":854,"ĠnhiÃªn":855,"ĠhÃ³a":856,"Ġtrá»ĭ":857,"Ġso":858,"Ġkhai":859,"Ġtá»·":860,"ĠÃ½":861,"Ġtrá»įng":862,"Ġdá»±ng":863,"Ġhiá»ĩu":864,"ĠthÆ°Æ¡ng":865,"Ġláº§n":866,"iáº¿u":867,"or":868,"áº¯n":869,"ĠphÃŃ":870,"ĠNá»Ļi":871,"ĠchÆ°a":872,"Ġhá»ĩ":873,"Ġmáº¡nh":874,"Ġvi":875,"Ġtham":876,"Ġtháº¥y":877,"Ġgiáº£m":878,"ĠChá»":879,"ĠkhÃ¡ch":880,"ĠÄĳá»Ļi":881,"Ġsá»Ł":882,"ĠÃ":883,"Ġty":884,"Ã¢u":885,"Ġthá»©c":886,"¢u":887,"áº©n":888,"Ãµ":889,"Ĺi":890,"ĠtÃŃnh":891,"Ġbáº±ng":892,"ĠtrÆ°á»Łng":893,"Ġcháº¥t":894,"áº¡c":895,"Ġtuá»ķi":896,"ĠthÆ°á»Ŀng":897,"Ã¡m":898,"Ġpháº©m":899,"Æ°u":900,"ĠyÃªu":901,"ĠxÃ¢y":902,"Ġnhiá»ĩm":903,"Ġtrá»Ł":904,"ĠÄĳáº¥t":905,"ĠbÃ¡n":906,"ĠÄĳiá»ĩn":907,"Ġ7":908,"ºc":909,"ĠÄĳÆ°a":910,"«ng":911,"Ġtrung":912,"Ġnhá":913,"Ġnhá»":914,"ĠmÃ¡y":915,"Ġphá»ĳ":916,"Ġchiáº¿n":917,"Ġhuyá»ĩn":918,"Theo":919,"ND":920,"el":921,"),":922,"áºŃy":923,"á»ĵn":924,"ĠChÃŃ":925,"ıi":926,"000":927,"ĠcÃ´":928,"ĠtÃŃch":929,"ĠVÄĥn":930,"áº§m":931,"ĠÄĳÆ¡n":932,"ĠlÃ£":933,"ĠÄĳá»ķi":934,"ĠsÃ¡t":935,"áºŃu":936,"Ġsá»ĳng":937,"Ġgáº§n":938,"uyáº¿n":939,"Ġchá»ĭ":940,"Ġngá":941,"Ġngá»":942,"Ã©t":943,"ĠchÃºng":944,"Ġem":945,"ĠHo":946,"ĠquÃ¡":947,"Ġcháº¿":948,"á»ĵi":949,"iÃªm":950,"Ġchuyá»ĥn":951,"ĠnÃło":952,"ĠsÄ©":953,"Ġquyá»ģn":954,"Ġ10":955,"Ġhay":956,"Ãºp":957,"ĠY":958,"Ġkiá»ĥm":959,"Ġvá»«a":960,"ĠbÃłn":961,"Ġhá»ĵ":962,"ĠKh":963,"Ġkhoáº£ng":964,"Ġtá»ĳt":965,"Ġbá»ĳ":966,"ĠÄĳáº¥u":967,"Ġkiáº¿n":968,"et":969,"ĠF":970,"Ã³ng":971,"Ġ8":972,"Ġmá»©c":973,"Ġcá»Ń":974,"ĠÄĳo":975,"Ġbiá»ĩt":976,"uá»ĵn":977,"ĠTá»ķ":978,"19":979,"ĠÄĳÃ¬nh":980,"Ġká»³":981,"áº±m":982,"Ġkhiáº¿n":983,"Ġbáº¥t":984,"Ġnghá»ĭ":985,"Ġthá»©":986,"ĠPhÃ":987,"Æ°ng":988,"ĠsÃ¡ch":989,"áº³ng":990,"ĠAnh":991,"Ġcáº£nh":992,"ĠÄĥn":993,"Ġtrá»£":994,"Ġchiáº¿":995,"Ġbáº¯t":996,"ĠhoÃłn":997,"ĠtÆ°á»£ng":998,"ĠcÃ¡o":999,"Ġtráº»":1000,"uá»ĳng":1001,").":1002,"Ġá»©ng":1003,"ĠvÄĥn":1004,"ĠgiÃºp":1005,"ĠÄĳÃ¡nh":1006,"Ġthiáº¿t":1007,"Ġ9":1008,"Ġcá»©u":1009,"ĠÄĳoÃłn":1010,"Ġpháº¡m":1011,"ĠgÃ¢y":1012,"Ġtrang":1013,"ĠbÃł":1014,"Ġváº¥n":1015,"âĢ¦":1016,"áº£y":1017,"ªm":1018,"Ġdiá»ĩn":1019,"ĠquÃ¢n":1020,"ĠsÃ¡ng":1021,"ĠBÃ¬nh":1022,"Ġloáº¡i":1023,"Ġban":1024,"Ġgiá»Ŀ":1025,"uá»ĳn":1026,"Ġtá»ĭ":1027,"ĠngoÃłi":1028,"Ġchu":1029,"ĠÄĳá»ģu":1030,"Ġcáº£m":1031,"Ġmua":1032,"Ġdáº«n":1033,"ĠÄĳáº¡t":1034,"Ġphá»¥c":1035,"âĢĿ.":1036,"ĠláºŃp":1037,"Ġca":1038,"Ä©nh":1039,"...":1040,"uá»ĳi":1041,"Ġsá»©c":1042,"Ġnghá»ĩ":1043,"ĠthÃªm":1044,"Ġtá»ĭch":1045,"Ġ19":1046,"Ġxá»Ń":1047,"Ġtruyá»ģn":1048,"Ãłu":1049,"áº·ng":1050,"áº·p":1051,"¯ng":1052,"ºt":1053,"ĠgÃ³":1054,"ĠngÃłnh":1055,"ĠtrÃŃ":1056,"ĠhÆ°á»Ľng":1057,"Ġbiá»ĥu":1058,"Ġvá»ĩ":1059,"ĠváºŃy":1060,"ĠE":1061,"Æ°á»Ľi":1062,"áº¢":1063,"id":1064,"Ġkáº¿":1065,"ĠÄĳáº·c":1066,"Ã¬m":1067,"Ġlá»ĭch":1068,"ĠÄĳÃ´":1069,"ĠnháºŃp":1070,"Ġmang":1071,"Ġlo":1072,"Ġlá»£i":1073,"ĠhÃ´":1074,"Ġta":1075,"ĠThanh":1076,"§y":1077,"Ġbiáº¿n":1078,"á»Ļng":1079,"Ġquáº£n":1080,"Ġgiá»¯a":1081,"ĠgiÃ¡o":1082,"ĠthÃŃ":1083,"ĠbÃ¬nh":1084,"Ġphá»§":1085,"Ġtiáº¿n":1086,"Ġcá»ķ":1087,"Ġtá»«ng":1088,"ĠcÃ¡":1089,"ĠdÃ¹ng":1090,"Ġhoáº¡ch":1091,"Ã²a":1092,"ĠAn":1093,"áº¢nh":1094,"Ġviá»ĩn":1095,"ĠtÃ¬m":1096,"ĠbÃªn":1097,"Ġhoáº·c":1098,"Ġtay":1099,"201":1100,"ĠluáºŃt":1101,"ĠtiÃªn":1102,"Ġrá":1103,"Ġrá»":1104,"Ġchá»ĳng":1105,"ĠChÃŃnh":1106,"ĠtráºŃn":1107,"Ġthuá»Ļc":1108,"įn":1109,"it":1110,"áº¹p":1111,"Ġnhau":1112,"ĠkhÃŃ":1113,"ĠÄĳáº£m":1114,"ĠnÆ¡i":1115,"ĠchuyÃªn":1116,"ĠthÃ¢n":1117,"Ġkiá»ĩn":1118,"Ġtá»Ń":1119,"ĠnghÄ©":1120,"ĠJ":1121,"Ġchá»©ng":1122,"Ġtá»ķng":1123,"Trong":1124,"ĠChá»§":1125,"áº¥m":1126,"áº§y":1127,"ĠMinh":1128,"ĠgÃ¬":1129,"Ġhá»Ĺ":1130,"ĠTá»ķng":1131,"ĠÃŃ":1132,"©p":1133,"Ġphá»¥":1134,"Ġmáº¡ng":1135,"BND":1136,"as":1137,"Ġmuá»ĳn":1138,"ĳn":1139,"Æ°á»£t":1140,"áº©u":1141,"at":1142,"Ķng":1143,"ĠxÃ¡c":1144,"ic":1145,"Ġbá»ı":1146,"ĠnguyÃªn":1147,"Ġnguá»ĵn":1148,"Ġchung":1149,"Ġháº¡n":1150,"Ġbay":1151,"ĠtÃªn":1152,"Ġchi":1153,"Ġchia":1154,"Ã³m":1155,"Ġlá»Ŀi":1156,"Ġtrá»±c":1157,"is":1158,"Ġtá»Ļ":1159,"ĠvÃ¹ng":1160,"ĠW":1161,"ĠTrong":1162,"ĠâĢĵ":1163,"CM":1164,"Ġháº¿t":1165,"ĠváºŃn":1166,"SD":1167,"Ġmáº¹":1168,"om":1169,"Ġliá»ĩu":1170,"áº¯p":1171,"Ġthanh":1172,"Ġná»Ļi":1173,"áº¡y":1174,"Ġto":1175,"áº¯m":1176,"Ġtiáº¿ng":1177,"ĠThá»ĭ":1178,"ĠváºŃt":1179,"il":1180,"Ġchiáº¿c":1181,"áº½":1182,"Ġbao":1183,"Ġtranh":1184,"ĠdÃłi":1185,"Ġvá»ĳn":1186,"ol":1187,"ĠUBND":1188,"ĠrÃµ":1189,"ĠHáº£i":1190,"Ġhuy":1191,"ĠhÆ°á»Łng":1192,"Ġmá»į":1193,"âĢĿ,":1194,"Ġthay":1195,"ĠbÃ³ng":1196,"ĠNga":1197,"Ġnghiá»ĩm":1198,"Ġcá»ĳ":1199,"Ġdu":1200,"Ġnáº¡n":1201,"us":1202,"Ġ202":1203,"Ġminh":1204,"Ã¡u":1205,"Ġgáº·p":1206,"ĠxÃ©t":1207,"ĠÄĳá»ĳ":1208,"ĠÄĳáº¹p":1209,"Ġmá»¥c":1210,"Ġkháº©u":1211,"Ġnáº¿u":1212,"Ġbiá»ĥn":1213,"ĠBan":1214,"ĠthuáºŃt":1215,"ĠlÃ£nh":1216,"ĠTuy":1217,"Ã¢ng":1218,"ĠkÃ½":1219,"ov":1220,"ĠÄĲáº¡i":1221,"ĠBáº¯c":1222,"ĠphÃ¢n":1223,"á»Łi":1224,"ĠchÆ°Æ¡ng":1225,"ĠtÆ°á»Ľng":1226,"»ĵng":1227,"á»ĵng":1228,"Ġmá»įi":1229,"ĠkhÄĥn":1230,"ĠUSD":1231,"á»įc":1232,"»Ľi":1233,"á»Ľi":1234,"ĠÄĳá»§":1235,"ĠlÃºc":1236,"iÃªng":1237,"Ã³c":1238,"ac":1239,"Nh":1240,"ĠÄĳoáº¡n":1241,"Ġrá»ĵi":1242,"áº«u":1243,"ĠHá»Ļi":1244,"Ġbu":1245,"Ġchuáº©n":1246,"Ġxáº£y":1247,"Ġtiáº¿t":1248,"Ġ12":1249,"Ġmá»Ł":1250,"Ġlao":1251,"Ġmá»Ĺi":1252,"Ġcuá»ĳi":1253,"ĠThÃłnh":1254,"Ġcá»Ļ":1255,"Ġgiáº£":1256,"ĠSÆ¡n":1257,"Ġchá»įn":1258,"Ch":1259,"ĠO":1260,"ĠÄĲá»©c":1261,"Ġdanh":1262,"uÃ¢n":1263,"ĠsÃ¢n":1264,"ĠÄĲÃ´ng":1265,"á»ĭp":1266,"Ġkháº£":1267,"Ġcáº¡nh":1268,"Ġsáº»":1269,"ĠNhÃł":1270,"áºŃm":1271,"ĠgÃ³p":1272,"Ġ15":1273,"Ġsao":1274,"ĠthÆ°":1275,"Ġtráº¡ng":1276,"iá»ĩp":1277,"Ġchuyá»ĩn":1278,"Ġngay":1279,"Ġxem":1280,"ĠluÃ´n":1281,"ĠPhÃ³":1282,"ĠnhÃ³m":1283,"Ġnhá»ı":1284,"ĠmÃ¹":1285,"á»ĵm":1286,"ur":1287,"Ġmáº¥t":1288,"Ġnhanh":1289,"ĠtÃłu":1290,"ĠphÃŃa":1291,"áº©y":1292,"Ġcung":1293,"ĠkÃ©":1294,"ĠnÃ´ng":1295,"Ġnháº±m":1296,"ĠÄĳáº·t":1297,"ĠThá»§":1298,"Æ°á»¡":1299,"ad":1300,"ĠÃ¡p":1301,"há»¯ng":1302,"Ġ'":1303,"ĠngÃ¢n":1304,"Ġtráº£":1305,"Ġcá»±c":1306,"ĠthÃ´":1307,"Ġgá»į":1308,"Ġcá»Ńa":1309,"Ġphá»ĳi":1310,"»³":1311,"á»³":1312,"un":1313,"Ġyáº¿u":1314,"ĠnÃ¢ng":1315,"ĠluáºŃn":1316,"Ġghi":1317,"ĠtÆ°Æ¡ng":1318,"Ġchá»ĵng":1319,"Ġgá»ĵm":1320,"Ġáº¢nh":1321,"ĠvÃłng":1322,"Ġká»ĥ":1323,"Ġdá»¥c":1324,"ĠÄĳá»ĳc":1325,"Ġ11":1326,"ĠdÃ¹":1327,"Ġxuá»ĳng":1328,"Ġsáº¯c":1329,"ĠÄĳá»ĵ":1330,"Ġvá»£":1331,"ĠTá":1332,"ĠTá»":1333,"Ġ30":1334,"ĠÄĲáº£ng":1335,"HCM":1336,"ĠÄĳá»Ŀi":1337,"ĠtrÃ²":1338,"ĠkÃŃ":1339,"ĠChÃ":1340,"ĠcÃ¡n":1341,"Ġtuyá»ĥn":1342,"ĠÄĳÃºng":1343,"Ġtuyáº¿n":1344,"ĠHoÃłng":1345,"ĠkhÃ":1346,"ĠÄĳÃ³ng":1347,"Ã¨":1348,"Ġmáº¯t":1349,"Æ°á»¡ng":1350,"ĠgÃ¡i":1351,"ĠtrÃ¡ch":1352,"Ġsang":1353,"©a":1354,"Ġbá»Łi":1355,"ĠháºŃu":1356,"ĠvÃ´":1357,"ıa":1358,"\".":1359,"ĠphÃ©p":1360,"Ġ0":1361,"ĠÃŃt":1362,"ĠbÃ©":1363,"¢y":1364,"ĠThÃ¡i":1365,"10":1366,"ĠÄĳÃ¡":1367,"ĠcÃ¢y":1368,"Ġtáº£i":1369,"ĠÃ´":1370,"Ġlá»ĩ":1371,"ĠthÃŃch":1372,"Ġrá»Ļng":1373,"ĠDÆ°Æ¡ng":1374,"Ġtáº¥n":1375,"Ġhá»ĵi":1376,"Ġtinh":1377,"ĠLÃª":1378,"ĠlÆ°u":1379,"Ġná»ķi":1380,"Ġtá»ĳi":1381,"Ġláº¥y":1382,"ĠTráº§n":1383,"ĠÄĳÄĥng":1384,"Ġtuáº§n":1385,"Ġphong":1386,"le":1387,"Ġphim":1388,"Ġchiá»ģu":1389,"os":1390,"ĠcÃ¡i":1391,"tr":1392,"Ġá»§y":1393,"ĠtrÃ¡i":1394,"Ġcá»Ļng":1395,"ter":1396,"Ġná»¯a":1397,"ĠÄĲá»ĵng":1398,"ĠvÃ²ng":1399,"ĠÄĳáº©y":1400,"ĠÄĳÃ¡ng":1401,"ĠHá»ĵ":1402,"Ġtháº¯ng":1403,"Ġdung":1404,"ĠchÆ¡i":1405,"iáº¿m":1406,"ĠbÃłi":1407,"ĠnghÃ":1408,"»¥":1409,"á»¥":1410,"ĠcÃłng":1411,"Ãºt":1412,"ĠquáºŃn":1413,"¯u":1414,"Ġnhu":1415,"ĠhÃ´m":1416,"ĠmÃ´":1417,"ĠsoÃ¡t":1418,"Thá»":1419,"ĠQuáº£ng":1420,"Ġkhoa":1421,"Ġgá»įi":1422,"Ġcá»¥":1423,"âĢľ":1424,"ĠNghá»":1425,"ag":1426,"ĠphiÃªn":1427,"Ãªm":1428,"ĠdÆ°á»Ľi":1429,"ĠsÆ¡":1430,"Ġká»¹":1431,"ĠtuyÃªn":1432,"Ġtáº¥t":1433,"ĠTÃ¢y":1434,"ĠgiÃ¡m":1435,"ing":1436,"Ġhá»¯u":1437,"Äĳ":1438,"Ġhá»ıi":1439,"ĠLong":1440,"§ng":1441,"ĠSá»Ł":1442,"iá»ħ":1443,"Ġdi":1444,"ot":1445,"Ph":1446,"Ġmáº«u":1447,"Ġnguy":1448,"CÃ¡c":1449,"Ġtháº§n":1450,"uáº¥n":1451,"ÃĶng":1452,"ĠhÃ²":1453,"Łi":1454,"Ã£i":1455,"Ġtá»Ļi":1456,"Ġlá»Ļ":1457,"ĠmÃ¹a":1458,"ĠkhÃ¡":1459,"TT":1460,"ĠchÃ¢n":1461,"ra":1462,"Ġvá»įng":1463,"um":1464,"Ġai":1465,"įc":1466,"ĠmÃ´i":1467,"ĠriÃªng":1468,"ĠlÄ©nh":1469,"ĠnghÄ©a":1470,"ĠÄĳáº§y":1471,"ĠcÃ¢u":1472,"ĠÃģ":1473,"»¥c":1474,"á»¥c":1475,"ĠÄĳáº£o":1476,"ĠthuáºŃn":1477,"áº¡p":1478,"ĠNháºŃt":1479,"Ġthuá»ĳc":1480,"ıe":1481,"Ġlá»ħ":1482,"Ġáº¥y":1483,"ĠCÃ¡c":1484,"ĠcÆ°á»Ŀng":1485,"ĠNgá»įc":1486,"Ġsuáº¥t":1487,"Ġkhá»ıe":1488,"Ġmáº¡i":1489,"Ġthiáº¿u":1490,"ĠLan":1491,"ĠchÃº":1492,"ĠlÃ²ng":1493,"ĠtrÃº":1494,"ĠHÃ²a":1495,"Sau":1496,"Ġhoa":1497,"th":1498,"Ġpháº£n":1499,"Ġbá»ķ":1500,"ĠTrÆ°á»Ŀng":1501,"Ġngoáº¡i":1502,"Ġchá»¯":1503,"ĠÄĳa":1504,"ĠSau":1505,"ĠnhÃ¬":1506,"202":1507,"uÃ´i":1508,"ĠXuÃ¢n":1509,"Ġthiá»ĩn":1510,"ĠnghiÃªm":1511,"Ã²n":1512,"ĠÄĳá»Ļc":1513,"ĠGiang":1514,"ĠmÃłu":1515,"ĠThu":1516,"Ġ200":1517,"ui":1518,"ĠchÃ¢u":1519,"ĠTheo":1520,"ĠcÆ°":1521,"ĠhÃ£":1522,"ĠÄĳÃ´ng":1523,"ĠcÄĥn":1524,"Ġphiáº¿u":1525,"12":1526,"áº¿p":1527,"Ġná»ģn":1528,"Ãłm":1529,"Ġká»·":1530,"ĠnghiÃªn":1531,"Ġvai":1532,"Ġkhá»ıi":1533,"Ġháº¡i":1534,"Ġkhoáº£n":1535,"Ġtháº¥p":1536,"ĠtÃº":1537,"Ġtho":1538,"á»Ńi":1539,"ĠbÆ°á»Ľc":1540,"ĠÄĳÃłn":1541,"ĠmÆ°a":1542,"Ġba":1543,"Ġdá»ħ":1544,"iá»ħm":1545,"Ġdáº§u":1546,"\",":1547,"ĠniÃªn":1548,"NgÃły":1549,"ĠhÃ²a":1550,"Ġhiá»ĥu":1551,"ĠphÃ¡":1552,"á»±a":1553,"11":1554,"ĠxÃºc":1555,"Ġhiá»ĥm":1556,"ed":1557,"Ġlá»Ľp":1558,"Ġcháº¡y":1559,"Ġá»ķ":1560,"Ġgá":1561,"Ġgá»":1562,"oo":1563,"Ġ14":1564,"ĠnhÃ¬n":1565,"Ġbuá»ķi":1566,"ĠvÆ°á»£t":1567,"Ġgá»Ńi":1568,"Ġ18":1569,"ĠÄĳá»©ng":1570,"uyá»ĩt":1571,"Ġcháº¥p":1572,"Ġpháº¡t":1573,"Ġ16":1574,"uyáº¿t":1575,"ĠtÆ°á»Łng":1576,"Ġtrao":1577,"Ġ13":1578,"Ġtai":1579,"iá»ģm":1580,"Ġmáº¯c":1581,"Ġkhá»Łi":1582,"Ńa":1583,"Ġthuáº¿":1584,"ĠmÃ´n":1585,"Ġtiá»ĩn":1586,"ĠLu":1587,"Ġcháº¿t":1588,"TrÆ°á»Ľc":1589,"ĠthÃºc":1590,"ĠtháºŃt":1591,"¦y":1592,"ĠÄĳÃªm":1593,"Ġkháº³ng":1594,"ĠLiÃªn":1595,"Ľm":1596,"ĠÆ°Æ¡ng":1597,"ĠphÆ°á»Ŀng":1598,"ĠPhÃº":1599,"Ġnáº·ng":1600,"ĠtoÃ¡n":1601,"Má»Ļt":1602,"ĠbiÃªn":1603,"Ġtrai":1604,"Ġngá»Ŀ":1605,"Ġhá»įp":1606,"Ġcáº£i":1607,"Ġchá»ĭu":1608,"Ġthoáº¡i":1609,"Ġnáº±m":1610,"ĠphÃ¹":1611,"Ġnháº¡c":1612,"ĠdÃłnh":1613,"ĠtÃ´":1614,"ovid":1615,"Ġnhiá»ħm":1616,"ĠthÃ´n":1617,"ho":1618,"ĠNinh":1619,"ĠIn":1620,"Ġsá»Ľm":1621,"Ġnghá»ģ":1622,"ĠBáº£n":1623,"ĠtrÃ¬":1624,"Ġá»¦y":1625,"Ġtháº£o":1626,"ĠBá":1627,"ĠBá»":1628,"ĠCovid":1629,"Ġnam":1630,"Ġgiai":1631,"Ġduy":1632,"ĠkÃ©o":1633,"Ġháº¡":1634,"Ġlá»Ńa":1635,"ĠÄĳÃ´i":1636,"ĠxuyÃªn":1637,"ĠnuÃ´i":1638,"ĠphÃºt":1639,"á»Ńa":1640,"ip":1641,"Ġxin":1642,"ĠhÃºt":1643,"áº§ng":1644,"ro":1645,"Ġxa":1646,"ĠvÅ©":1647,"ĠsÃ¢u":1648,"ĠGiÃ¡m":1649,"Ã³n":1650,"ĠtÃŃn":1651,"ĠPhÃ²ng":1652,"Táº¡i":1653,"Ġ100":1654,"Ġ25":1655,"ĠHu":1656,"ap":1657,"ĠquÃ½":1658,"ĠHÃłn":1659,"©t":1660,"ĠÄĲÃł":1661,"ĠÄĳÃło":1662,"»ĩ":1663,"á»ĩ":1664,"ĠQuang":1665,"Ġvui":1666,"ĠÄĲÃ¢y":1667,"and":1668,"Ġninh":1669,"Ġá»ķn":1670,"Ġtáº§ng":1671,"ĠbÃ¡c":1672,"ine":1673,"Ġ17":1674,"ID":1675,"LV":1676,"áºµ":1677,"ĠTÃ¢n":1678,"Ã³a":1679,"ain":1680,"Chá»":1681,"Ġtá»ĳc":1682,"ĵn":1683,"ĠvÃłi":1684,"Ġchá»īnh":1685,"Ã£o":1686,"hÃ¢n":1687,"oi":1688,"ĠÄĲiá»ģu":1689,"Ġnghá»ī":1690,"ĠÃ¡o":1691,"up":1692,"Ġbiá»ĩn":1693,"ĠDo":1694,"Ġmiá»ģn":1695,"ĠkÃª":1696,"ĠÃ¢m":1697,"»ģ":1698,"á»ģ":1699,"ĠPháº¡m":1700,"Ã£n":1701,"áº·n":1702,"Ġmong":1703,"ĠphÃ³ng":1704,"ĠHoa":1705,"ir":1706,"áºµng":1707,"Ġchiáº¿m":1708,"ÄĲT":1709,"ĠlÃ¢u":1710,"Ġtáº¡m":1711,"Nhá»¯ng":1712,"OV":1713,"Ġly":1714,"ak":1715,"ĠNáºµng":1716,"Ġtháº©m":1717,"ĠNguyÃªn":1718,"Ġná»£":1719,"ĠthÄĥm":1720,"ĠngÃ´i":1721,"Tuy":1722,"ĠBÃŃ":1723,"á»ĭnh":1724,"ĠÄĳÃ¡p":1725,"ĠNhÆ°ng":1726,"one":1727,"ĠchÃ¡y":1728,"Ġxanh":1729,"Ġbáº§u":1730,"Ġ24":1731,"¨o":1732,"ĠchÄĥm":1733,"Ġthá»§y":1734,"Ġgiáº¥y":1735,"Ġkiáº¿m":1736,"ĠdÆ°á»¡ng":1737,"Ġvong":1738,"ĠÃĤ":1739,"Ġ2020":1740,"30":1741,"ĠTáº¿t":1742,"ĠKá»³":1743,"Ġká»ĭp":1744,"ĠHá»ĵng":1745,"ĠChÃ¢u":1746,"ĠtrÃ¡nh":1747,"Ġchá»¯a":1748,"ĠKim":1749,"ĠVi":1750,"ĠphÃª":1751,"Ġ50":1752,"ĠsÃ´ng":1753,"ĠTiÃªn":1754,"Ġda":1755,"ĠÃĶng":1756,"»Ĺi":1757,"á»Ĺi":1758,"Ġvá»¯ng":1759,"ĠÆ°u":1760,"eb":1761,"Ġsai":1762,"Ġbuá»Ļc":1763,"PT":1764,"ĠquÃ¡n":1765,"Ġdáº¥u":1766,"ĠthÆ°á»Łng":1767,"ĠTH":1768,"Ġkháº¯c":1769,"Ġtháº¥t":1770,"ĠLuáºŃt":1771,"Gi":1772,"Ġuá»ĳng":1773,"Ġnghi":1774,"ĠkhÃ¡m":1775,"Ġgiá»ĳng":1776,"ĠPhÃ¡p":1777,"ĠVÅ©":1778,"ew":1779,"ĠKhi":1780,"¬n":1781,"Ġháº¡ng":1782,"ĠNghá»ĭ":1783,"ĠchÃ¡u":1784,"ĠCá»¥c":1785,"Ġmá»ĳi":1786,"ĠTÃ´i":1787,"ĠthÃ¡i":1788,"ĠdÃ²ng":1789,"ut":1790,"ĠPhÆ°Æ¡ng":1791,"Ġvay":1792,"Ġtá»©c":1793,"Ġtá»ī":1794,"Ġnghe":1795,"Ġcam":1796,"ĠÄĳÃ³n":1797,"Ġná»ĳi":1798,"ĠtÃ¹":1799,"Ġtáº·ng":1800,"ĠMá»Ļt":1801,"Ġ22":1802,"Tá":1803,"Tá»":1804,"ĠnÃ³ng":1805,"Ġtá»Ļc":1806,"ĠtÃ¡i":1807,"ĠNáº¿u":1808,"ĠBá»ĩnh":1809,"Ġviáº¿t":1810,"»ĥ":1811,"á»ĥ":1812,"ue":1813,"ıng":1814,"á»ĳng":1815,"ĠHLV":1816,"ĠsÆ°":1817,"á»¯a":1818,"Ġtrá»ĵng":1819,"ĠkhÃ¡n":1820,"Ġchuyáº¿n":1821,"Ġbá»©c":1822,"ĠtÃ²a":1823,"Ġma":1824,"ĠÄĳau":1825,"Ġcháº¯c":1826,"ĠTuáº¥n":1827,"Ġ21":1828,"iv":1829,"ĠLe":1830,"TV":1831,"ĠhÃ¡t":1832,"ĠCOV":1833,"ĠÄĳá»ı":1834,"ĠthÃ¡c":1835,"Ġchá»Ĺ":1836,"ĠkÃŃch":1837,"ĠTÃłi":1838,"ĠbÃły":1839,"ĠCOVID":1840,"Ġtá»ı":1841,"Ġlá»±a":1842,"uá»ĳt":1843,"ĠNgÆ°á»Ŀi":1844,"Ġphá»ķ":1845,"Ġcá»¥c":1846,"ĠNhá»¯ng":1847,"ĠlÆ°á»£t":1848,"Ġnhiá»ĩt":1849,"Ġxáº¿p":1850,"ĠmÃ¡u":1851,"ÃŃnh":1852,"Ġquay":1853,"Ġluyá»ĩn":1854,"Ġbáº£ng":1855,"ĠMai":1856,"Ġ23":1857,"ĠBáº£o":1858,"ĠChá»ī":1859,"Ġsung":1860,"ph":1861,"ig":1862,"ĠlÆ°Æ¡ng":1863,"Ãºng":1864,"ĠnghÃ¨o":1865,"ĠLinh":1866,"Ġmáº·c":1867,"ĠÃĤu":1868,"Ġloáº¡t":1869,"VN":1870,"Ġnháº¥n":1871,"Ã¹i":1872,"Ġnhá»Ŀ":1873,"Ġthiá»ĩt":1874,"Ġtrá»Ŀi":1875,"Vá»Ľi":1876,"Ġsáºµ":1877,"Ġsáºµn":1878,"ĠgiÃłnh":1879,"¢m":1880,"Hiá»ĩn":1881,"Ġgáº¯n":1882,"ĠYÃªn":1883,"Ġxá":1884,"Ġxá»":1885,"ĠlÃ¡i":1886,"ĠcáºŃn":1887,"ĠTá»«":1888,"Ġkhá»ĳi":1889,"Ġhá»įa":1890,"Ġquanh":1891,"Ġthá»Ń":1892,"Ġ2018":1893,"ĵi":1894,"ĠthuÃª":1895,"ĠDN":1896,"Ġnháº¹":1897,"Ġ2021":1898,"NgÆ°á»Ŀi":1899,"ĠcÃ¢n":1900,"ĠchÃ³ng":1901,"ĠKhÃ´ng":1902,"Ġtáº§m":1903,"ent":1904,"Ãºi":1905,"ĠVÃ¬":1906,"ĠcáºŃp":1907,"Ġnhá»Ľ":1908,"oa":1909,"Ġniá»ĩm":1910,"Ġná»Ĺ":1911,"ĠChi":1912,"ĠsiÃªu":1913,"ex":1914,"50":1915,"ĠquÃª":1916,"ĠÄĳá»Ļt":1917,"ĠtiÃªm":1918,"ĠHÃ³a":1919,"ĠlÃ£i":1920,"ĠlÃłng":1921,"TÃ´i":1922,"ĠhÃ£ng":1923,"Ġváº»":1924,"ĠÃŃch":1925,"ĠÄĲoÃłn":1926,"ĠmÃłn":1927,"Bá»Ļ":1928,"Ġmay":1929,"Ġsá»Ńa":1930,"Ġrá»«ng":1931,"Ġtráº£i":1932,"Ġtháº³ng":1933,"Ġbinh":1934,"NgoÃłi":1935,"Ġchá»Ŀ":1936,"Ġcháº·t":1937,"ĠhÃ´n":1938,"Ġáº¥n":1939,"ĠlÆ°á»£c":1940,"ĠLÃ¢m":1941,"£t":1942,"ĠtÃºy":1943,"iáº¿p":1944,"Ġháº¡t":1945,"ĠThÃ":1946,"Ġdá»«ng":1947,"ĠTháº¿":1948,"Ãµi":1949,"ĠtrÆ°Æ¡ng":1950,"ĠNgoÃłi":1951,"Ġthao":1952,"KhÃ´ng":1953,"ĠsÃłng":1954,"Ġlá»ĩnh":1955,"ĠLá":1956,"ĠLá»":1957,"Ġdáº¡y":1958,"ĠÄĳÃ¢u":1959,"ĠngÄĥn":1960,"ĠKhÃ¡nh":1961,"Ġsong":1962,"Ġ2016":1963,"Ġ2022":1964,"ton":1965,"ĠCÃ³":1966,"ĠkhÃ³a":1967,"Ġdá»ĭp":1968,"Ġsuy":1969,"Qu":1970,"Ġ2019":1971,"Khi":1972,"ĠÆ°á»Ľc":1973,"ĠmÃ³n":1974,"Ġ27":1975,"ĠThÆ°Æ¡ng":1976,"Ġliá»ĩt":1977,"Ġquen":1978,"yr":1979,"ĠÃ¡nh":1980,"ion":1981,"ĠZ":1982,"ĠnÃªu":1983,"ĠNgÃ¢n":1984,"ĠcÃ¡nh":1985,"ĠÄĲÃ¬nh":1986,"ul":1987,"SN":1988,"ĠÄĳáº£ng":1989,"ĠTN":1990,"Ġcáº§m":1991,"ĠrÃºt":1992,"ĠphÃºc":1993,"Ġthá»¥":1994,"Ġcáº¯t":1995,"Ġkháº£o":1996,"ĠÄĳÃŃ":1997,"op":1998,"Ġ26":1999,"Ġdáº¡ng":2000,"Ġcan":2001,"ĠHÃ¹ng":2002,"Ġ28":2003,"av":2004,"%.":2005,"ik":2006,"ĠThÆ°á»Ŀng":2007,"Ġkhá»§ng":2008,"á»³nh":2009,"ĠKinh":2010,"Ġtruy":2011,"ĠDÅ©ng":2012,"ĠViet":2013,"ĠHÄĲ":2014,"ĠRe":2015,"ĠTriá»ģu":2016,"Ġ40":2017,"TC":2018,"Ġláº¡c":2019,"¥p":2020,"Ġsáº¡ch":2021,"ran":2022,"Ġsáº¯p":2023,"ĠTiáº¿n":2024,"Ġmá»Ļ":2025,"ĠHÆ°ng":2026,"Ġtáº¯c":2027,"ie":2028,"Ġtrá»¥":2029,"Ġthá»ıa":2030,"ĠcÅ©":2031,"ab":2032,"ĠtháºŃm":2033,"CÃ´ng":2034,"ĠHiá»ĩn":2035,"Ġcáº¥u":2036,"Ġtá»ĵn":2037,"ĠsÃ³c":2038,"Ġtáº¡p":2039,"ĠTrÆ°á»Łng":2040,"ĠNgh":2041,"Ġngáº¡i":2042,"23":2043,"Ġquáº§n":2044,"Ġ2017":2045,"ĠHiá»ĩp":2046,"Ġngá»ĵi":2047,"Ġsuá»ĳt":2048,"Ġ2015":2049,"uá»ķi":2050,"Ġá»§ng":2051,"ĠNgÃły":2052,"ĠNhÃ¢n":2053,"Ġháº£i":2054,"Ġtráº¯ng":2055,"ĠVá»Ľi":2056,"ĠbÃ¡nh":2057,"Ġxung":2058,"Ġf":2059,"Ġlai":2060,"te":2061,"ĠmÃ£":2062,"Ġlan":2063,"áº¤":2064,"ĠtáºŃn":2065,"Ġthá»«a":2066,"TP":2067,"áº¹n":2068,"Ġchá»£":2069,"kr":2070,"ĠnghÃ¬n":2071,"ump":2072,"Ġngá»§":2073,"ĠVN":2074,"Ġtá»Ŀ":2075,"Ġtháº£i":2076,"ĠQuÃ¢n":2077,"amp":2078,"Ġkhá»ķ":2079,"Ġcháº³ng":2080,"Ġtháº§y":2081,"ĠGD":2082,"ĠHÆ°Æ¡ng":2083,"Ġcoi":2084,"Ġná»ķ":2085,"ĠgiÃ¡c":2086,"ĠDá»±":2087,"Ġcha":2088,"Ġ29":2089,"ĠthiÃªn":2090,"ĠsÃ³ng":2091,"ĠdÆ°":2092,"Ġtiá»ĥu":2093,"ĠMar":2094,"ĠgiÃ³":2095,"EA":2096,"Ġthá»ĭt":2097,"ĠÄĳua":2098,"Ġ199":2099,"ĠAr":2100,"ĠdÃ¢y":2101,"Ġnguyá»ĩn":2102,"ĠCÆ¡":2103,"ĠThÃ´ng":2104,"yria":2105,"ĠPhÃºc":2106,"ĠGia":2107,"ĠthÃº":2108,"ĠlÃ¡":2109,"oan":2110,"ĠlÅ©":2111,"II":2112,"do":2113,"ĠVÄ©nh":2114,"ĠÄĳÃŃch":2115,"Ġchá»©a":2116,"ĠmáºŃt":2117,"Ġháº¥p":2118,"ĠdÃµi":2119,"ĠÄĳÆ°Æ¡ng":2120,"Ġdá»¯":2121,"á»ķng":2122,"Ġchá»©":2123,"ĠSyria":2124,"ÄĲá»ĥ":2125,"ĠnÃºi":2126,"co":2127,"ist":2128,"krain":2129,"ĠbáºŃt":2130,"ĠBiÃªn":2131,"Ġcháº¯n":2132,"Ġngáº¯n":2133,"ĠCáº£nh":2134,"ĠkÃ©m":2135,"Ġgá»ĳc":2136,"²i":2137,"ĠÄĳá»£t":2138,"ĠthoÃ¡t":2139,"ĠBa":2140,"Ġdáº§n":2141,"Ġnáº¯m":2142,"á»Ļn":2143,"ĠrÆ¡i":2144,"ĠTrump":2145,"Ġkhuyáº¿n":2146,"ĠthÆ¡":2147,"Ãºa":2148,"ob":2149,"ĠBÃ¡o":2150,"ĠxÄĥng":2151,"Tá»«":2152,"Ġchá»Ł":2153,"ĠAl":2154,"Ġbáº¡c":2155,"ĠNew":2156,"ChÃ":2157,"ĠdÆ°Æ¡ng":2158,"ĠTáºŃp":2159,"ank":2160,"ĠNghá»ĩ":2161,"ĠMan":2162,"Ġbá»ĳi":2163,"ĠkhÃ´":2164,"Ġtháº§u":2165,"ĠbÃ£o":2166,"ĠNgoáº¡i":2167,"ĠtrÄĥm":2168,"Vá»ģ":2169,"ĠÄĲá»Ļ":2170,"Ġxáº¥u":2171,"ĠPhá»":2172,"Ġláº½":2173,"ĠquÃł":2174,"ĠÄĳá»ĭch":2175,"ague":2176,"ly":2177,"Ġin":2178,"Ġniá»ģm":2179,"se":2180,"ĠUkrain":2181,"ĠBÃł":2182,"Ġcá»±":2183,"Ġmá»«ng":2184,"ĠkhÃºc":2185,"Ġnháº¯c":2186,"ard":2187,"ĳt":2188,"ĠPhong":2189,"Ġtráº¥n":2190,"Ġlá»Ĺi":2191,"įa":2192,"XH":2193,"ĠHá":2194,"ĠHá»":2195,"Ġcáº¥m":2196,"ĠPar":2197,"á»Ļp":2198,"re":2199,"Kh":2200,"ĠvÃ©":2201,"ĠhÃłi":2202,"Ġgiáº£n":2203,"Ġchá»¥p":2204,"ĠphÃ³":2205,"Ġ31":2206,"ĠpháºŃn":2207,"GT":2208,"ĠPhan":2209,"ĠThá»§y":2210,"ĠPhÃ¡t":2211,"CÃ³":2212,"ĠLÃ½":2213,"Å©i":2214,"ook":2215,"ĠnháºŃt":2216,"Ġláº¡nh":2217,"áº¤n":2218,"ĠcÃº":2219,"ĠhÆ°Æ¡ng":2220,"Ġháº¡nh":2221,"Ġxu":2222,"Ġmáº½":2223,"Ġtuyá»ĩt":2224,"CC":2225,"Ġsá»£":2226,"ĠTá»īnh":2227,"Ġcháº·n":2228,"ĠViá»ĩn":2229,"Ġthiá»ĩu":2230,"ub":2231,"ĠKhu":2232,"ĠUkraine":2233,"Ġhy":2234,"ĠThuáºŃn":2235,"BÃªn":2236,"á»ĳn":2237,"Ġtá»ıa":2238,"ĠCS":2239,"ĠCup":2240,"Ġbá»ģn":2241,"ĠTo":2242,"ĠNÄĥm":2243,"est":2244,"ĠÄĳen":2245,"2020":2246,"ĠÄĲá»ĭnh":2247,"Ġtim":2248,"Ġbáº¡i":2249,"Ľt":2250,"¥t":2251,"Ġphi":2252,"ĠÄĳá»įc":2253,"Ġgáº¯ng":2254,"Ã©p":2255,"Ġchá»¥c":2256,"%,":2257,"ĠphÃ¡n":2258,"ĠVinh":2259,"ld":2260,"2021":2261,"ĠkÃªu":2262,"Æ°Æ¡i":2263,"don":2264,"ĠTrá":2265,"ĠTrá»":2266,"įt":2267,"Ġi":2268,"Ġnáº¯ng":2269,"Ġkháº©n":2270,"ĠbÃło":2271,"ĠkhoÃ¡n":2272,"ĠcháºŃm":2273,"ĠkÃ¨":2274,"ÄĲÃ¢y":2275,"ĠTrang":2276,"Ġmiá»ħn":2277,"mar":2278,"Ä©a":2279,"Ġmá»Ŀi":2280,"kg":2281,"ĠÄĳÃłm":2282,"ĠtÃ´n":2283,"ĠNha":2284,"Æ°á»Ŀn":2285,"ĠsÃºng":2286,"ĠcÃł":2287,"ill":2288,"ĠngÅ©":2289,"ĠÄĳá»¡":2290,"Ġsá»¹":2291,"Ġ2014":2292,"ĠÄĳÃ¡m":2293,"ĠVÃ¢n":2294,"ina":2295,"Ġlá»¥c":2296,"Ġ60":2297,"Ġláº¡":2298,"ĠViá»ĩc":2299,"ĠLa":2300,"ĠlÆ°á»Ľi":2301,"ĠhÆ¡i":2302,"Ġkim":2303,"ĠTrÆ°á»Ľc":2304,"ĠNhiá»ģu":2305,"ĠbÃŃ":2306,"ĠrÃ¡c":2307,"ĠÄĲÃło":2308,"LB":2309,"Ġngá»į":2310,"ĠVÃł":2311,"Æ°á»Ľp":2312,"ĠGiÃ¡o":2313,"ines":2314,");":2315,"Ġkáº»":2316,"ĠThiÃªn":2317,"ĠTPHCM":2318,"Ġáº¤n":2319,"Ġhuáº¥n":2320,"ĠtrÃło":2321,"ce":2322,"Nhiá»ģu":2323,"Náº¿u":2324,"Ġtá»ĩ":2325,"ĠÄĳoÃ¡n":2326,"ĠHuy":2327,"Ġláº¯ng":2328,"»©c":2329,"á»©c":2330,"ha":2331,"Ġtuy":2332,"ĠthÃ¡ch":2333,"ĠTáº¡i":2334,"Ġphá»©c":2335,"Ġquáº£ng":2336,"200":2337,"Ġthua":2338,"ĠgÆ°Æ¡ng":2339,"Ġrau":2340,"Ġtri":2341,"Ġká»ĭch":2342,"ĠÄĲáº¿n":2343,"Ġsáº¯t":2344,"Ġduyá»ĩt":2345,"ĠmÃ¡i":2346,"ĠgiÃłu":2347,"áº¯k":2348,"Ġná»Ļp":2349,"Ġgh":2350,"Ġháº§u":2351,"ĠhÃ¨":2352,"ĠÄĲH":2353,"Ġru":2354,"ĠrÃłng":2355,"Ġbáº¯n":2356,"ib":2357,"Ġngo":2358,"ĠTHPT":2359,"ck":2360,"Ġliá»ģn":2361,"ĠnhuáºŃn":2362,"pp":2363,"Ġbá»ĵi":2364,"Ġgá»¡":2365,"ĠDu":2366,"Ã³t":2367,"lo":2368,"ĠgÃ³i":2369,"Ġrá»Ŀi":2370,"ĠChÃºng":2371,"á»Ļm":2372,"ĠhoÃłng":2373,"NÄĥm":2374,"/.":2375,"Ġhiá»ĩp":2376,"ĠhÃ£y":2377,"ĠBr":2378,"onal":2379,"ģm":2380,"ĠLÃło":2381,"Ġbá»Ŀ":2382,"Ġngá»«ng":2383,"iáº¿ng":2384,"Ġlinh":2385,"HÃł":2386,"ian":2387,"ĠÄĳá»©a":2388,"od":2389,"ĠbÃ¨":2390,"ĠngÆ°á»£c":2391,"Ã£y":2392,"Ġkiá»ĥu":2393,"ĠHai":2394,"ĠCÃ´":2395,"ĠthÃ´i":2396,"ore":2397,"Ġpha":2398,"ĠPhÆ°á»Ľc":2399,"Ġlá»ĳi":2400,"ĠÄĲiá»ĩn":2401,"ĠHCM":2402,"Ġdá»©t":2403,"Ġtáº¥m":2404,"ĠsÃłn":2405,"ĠÄĳÃ²i":2406,"Ġcáº·p":2407,"ĩt":2408,"ĠTÆ°":2409,"Tá»ķng":2410,"Ġsá»©":2411,"Ã³i":2412,"¨n":2413,"ĠBÃªn":2414,"ĠbÄĥng":2415,"Ġkhiá»ĥn":2416,"Ġthai":2417,"Ġ198":2418,"Ġhuyáº¿t":2419,"Viá»ĩc":2420,"Ġná»Ńa":2421,"ĠBH":2422,"ess":2423,"ĠCao":2424,"ĠNÃ´ng":2425,"Ġbang":2426,"ĠÄĲÃ³":2427,"ĠcÆ°á»Ľi":2428,"ĠÄĳem":2429,"ĠdÃłng":2430,"net":2431,"ĠtráºŃt":2432,"ĠTÄ©nh":2433,"ĠbÃ£i":2434,"ĠtÃ¡":2435,"âĢĻ":2436,"CÅ©ng":2437,"ĠHuáº¿":2438,"HH":2439,"Ġcá»±u":2440,"Ġquá»¹":2441,"ou":2442,"ĠCLB":2443,"Ġchiáº¿u":2444,"ĠQuáº£n":2445,"ty":2446,"ity":2447,"ĠKhoa":2448,"ĠChÆ°Æ¡ng":2449,"§i":2450,"ĠkÃŃnh":2451,"lip":2452,"ĠmÃª":2453,"LÄĲ":2454,"Ġmáº¥y":2455,"Ġsá»¯a":2456,"qu":2457,"ĠNhÆ°":2458,"az":2459,"Ġxong":2460,"á»¯u":2461,"ĠTháº¯ng":2462,"ĠtÃ³c":2463,"ĠCáº§n":2464,"Ġhá»§y":2465,"Æ¯":2466,"15":2467,"Æ°á»£u":2468,"ĠLá»Ļc":2469,"Ġtiá»ģm":2470,"ĠtÆ°Æ¡i":2471,"¹a":2472,"ĠHá»¯u":2473,"Ġthá»ķ":2474,"ChÃºng":2475,"Ġ500":2476,"Ġthiá»ĥu":2477,"ÄĲáº¡i":2478,"Ġkháº¯p":2479,"ĠAS":2480,"22":2481,"Ġláº«n":2482,"ĠCÆ°á»Ŀng":2483,"ĠkhÃ¡ng":2484,"ĠDÃ¢n":2485,"ĠÄĲáº·c":2486,"Ġo":2487,"ĠcÆ°á»Ŀi":2488,"PhÃ¡t":2489,"ĠHá»į":2490,"ĠQuyáº¿t":2491,"ĠkÃªnh":2492,"ĠVÃµ":2493,"Ġchá»ĳt":2494,"Ġmá»¹":2495,"ĠSa":2496,"ĠMal":2497,"nam":2498,"ĠcÄĥng":2499,"Ġ2013":2500,"ĠdÃ¡ng":2501,"Ġgáº¥p":2502,"Ġ70":2503,"ĠmÆ°u":2504,"Ġxáº¿":2505,"Ġkhen":2506,"Ġkm":2507,"ÄĲá»ĵng":2508,"Ġdá»ĭ":2509,"ĠDuy":2510,"sia":2511,"Ġngang":2512,"ĠSÃłi":2513,"io":2514,"./.":2515,"ÃŃt":2516,"Ġcuá»ĳn":2517,"ĠBÃ¹i":2518,"Ġw":2519,"ĠTT":2520,"ĠngÃ´n":2521,"ĠrÆ°á»£u":2522,"ĠÄĲá»ĥ":2523,"SÃ¡ng":2524,"ĠPhi":2525,"ĠTNHH":2526,"Ã´m":2527,"Ġdá»±a":2528,"Ġcháº¡m":2529,"ich":2530,"ĠÄĳoáº¡t":2531,"Ġdá»įa":2532,"Ġdao":2533,"ĠcÆ¡n":2534,"Ġcháº¥n":2535,"TS":2536,"ĠkhÃŃch":2537,"CN":2538,"orld":2539,"ĠÄĲáº§u":2540,"ĠtrÆ°ng":2541,"ĠThÆ¡":2542,"ax":2543,"ĠGÃ²n":2544,"ĠBar":2545,"Ġtrá»¯":2546,"Ġláº»":2547,"¥y":2548,"ĠyÃªn":2549,"ÄĲáº¿n":2550,"ey":2551,"Ġcháº½":2552,"vn":2553,"ĠrÃł":2554,"com":2555,"ĠÄĳá»£i":2556,"ĠÄĳá»īnh":2557,"ĠTrá»įng":2558,"Anh":2559,"Ġáº¥m":2560,"ĠchÃło":2561,"ort":2562,"Ġváº¿t":2563,"ĠTrÆ°Æ¡ng":2564,"Do":2565,"ÄĲá»ĳi":2566,"ĠlÃ¢y":2567,"ĠhÃ¢m":2568,"iz":2569,"ĠhÃło":2570,"Ġthuyá»ģn":2571,"ĠchÃºt":2572,"ĠThe":2573,"ĠcáºŃu":2574,"Ġkiá»ĩm":2575,"ĠÄĲá»Ļi":2576,"ord":2577,"ebook":2578,"ĠkÃ¨m":2579,"Ġung":2580,"ĠVÆ°Æ¡ng":2581,"ĠmÅ©i":2582,"ĠngáºŃp":2583,"Ġpháº¥n":2584,"ĠJo":2585,"Ġro":2586,"Ġmáº¯n":2587,"ĠCÃ²n":2588,"ĠtháºŃp":2589,"Ġ2012":2590,"ÄĲÆ°á»£c":2591,"Trung":2592,"CP":2593,"ĠÆ¡n":2594,"ĠcÆ°á»Ľp":2595,"CS":2596,"Ġmáº¡c":2597,"£n":2598,"Ġcháº¥m":2599,"acebook":2600,"Ġgáº¡o":2601,"ĠGiao":2602,"st":2603,"Ġ2023":2604,"2018":2605,"ĠThá»©":2606,"Ġcáº£ng":2607,"Ġháº¹n":2608,"ĠSt":2609,"ĠgÃł":2610,"ĠLÆ°Æ¡ng":2611,"Ġchá»§ng":2612,"ĠÄĳe":2613,"Ġtháº»":2614,"if":2615,"Ġbuá»ĵn":2616,"Ġmáº¡ch":2617,"ĠtÃºi":2618,"ack":2619,"ĠgiáºŃt":2620,"2019":2621,"Ġtráº¡m":2622,"acc":2623,"Ġmá»ģm":2624,"Ġtrá»Ļm":2625,"ĠÄĳÃ¨n":2626,"2022":2627,"Ġtung":2628,"Ġxá»©":2629,"ev":2630,"ĠbuÃ´n":2631,"ĠtháºŃn":2632,"nÄĥm":2633,"á»ĳt":2634,"Ġhuá»ĳng":2635,"ĠngÃłn":2636,"NN":2637,"Ġ35":2638,"ĠXÃ¢y":2639,"ĠPV":2640,"ĠchÃłng":2641,"Ġsáº¡n":2642,"Cá»¥":2643,"ĠWorld":2644,"deo":2645,"áºŃc":2646,"ĠtrÃºng":2647,"»ŀ":2648,"á»ŀ":2649,"ĠlÃ¢m":2650,"Chá»§":2651,"how":2652,"Ġvideo":2653,"ĠLeague":2654,"ok":2655,"Ġsá»ĳt":2656,"Ġthuyáº¿t":2657,"ĠNai":2658,"Ġ80":2659,"era":2660,"ĠIran":2661,"Ġtrá»«":2662,"ĠThÆ°á»£ng":2663,"ĠkhuÃ´n":2664,"ĠlÃºa":2665,"ĠÄĲÃłi":2666,"Ġngá»¯":2667,"ĠÄĳáº³ng":2668,"Ġkháº¥u":2669,"Ġhoáº£ng":2670,"ĠHy":2671,"Ã£ng":2672,"ĠbáºŃc":2673,"500":2674,"son":2675,"ĠHÄĲND":2676,"ĠmÆ¡":2677,"km":2678,"Ġvá»¡":2679,"ez":2680,"ĠnÃ©t":2681,"2016":2682,"BÃł":2683,"ĠtrÃŃch":2684,"ĠMy":2685,"ĠÄĳuá»ķi":2686,"Ġgiáº¿t":2687,"Ġhá»ģ":2688,"ĠthÃ¡o":2689,"Ġgá»Ĺ":2690,"da":2691,"Ġ300":2692,"ĠrÃło":2693,"2017":2694,"Ġláº¯m":2695,"ĠCon":2696,"ĠghÃ":2697,"ĠÄĳáº¡n":2698,"accine":2699,"ĠlÃłn":2700,"ĠvÆ°á»Ŀn":2701,"Ġkhung":2702,"ĠHÃłng":2703,"Phone":2704,"ĠnÃłng":2705,"EAN":2706,"ĠLai":2707,"60":2708,"ĠÄĲá»Ĺ":2709,"Ġgiáº£ng":2710,"ĠngÃ£":2711,"ah":2712,"2015":2713,"ell":2714,"TVT":2715,"ĠÄĳai":2716,"ĠSh":2717,"ĠThá»Ŀi":2718,"alia":2719,"á»ĭa":2720,"ĠgÃ³c":2721,"ĠNgÃ´":2722,"ĠInter":2723,"ĠÃ©p":2724,"Ġáº©n":2725,"ĠtrÃ¹ng":2726,"uch":2727,"NT":2728,"gi":2729,"ry":2730,"Dá»±":2731,"ĠLao":2732,"40":2733,"Ġláº¯p":2734,"esia":2735,"ĠtrÃºc":2736,"Ġtá»¥":2737,"18":2738,"Ġ90":2739,"Ġvaccine":2740,"ĠPr":2741,"ĠtÃ¡n":2742,"ĠNghÄ©a":2743,"donesia":2744,"ĠlÃłnh":2745,"45":2746,"ĠTÃ¢m":2747,"Ngay":2748,"NG":2749,"ĠPhil":2750,"CÃ¹ng":2751,"ĠthÃ¹":2752,"Ġgiam":2753,"ĠÄĳÃ¡o":2754,"ĠGiá»":2755,"AND":2756,"Ġbáº¡o":2757,"ĠCá»Ļng":2758,"Ġmai":2759,"Ġchuá»Ĺi":2760,"Ġtáº£ng":2761,"Ġhá»©ng":2762,"ĠxÃ¢m":2763,"ĠBiá»ĥn":2764,"Chiá»ģu":2765,"ĠÄĲa":2766,"sen":2767,"Ġxo":2768,"ĠÄĲá»ĳi":2769,"ĠCity":2770,"iáº¿c":2771,"ĠgiÃł":2772,"ĠThá»į":2773,"rus":2774,"Ġtrá»ĳn":2775,"Ġná»Ĺi":2776,"Ġmu":2777,"ThÃ´ng":2778,"ĠASEAN":2779,"25":2780,"Ġtang":2781,"ĠtÃºc":2782,"ĠKiá»ĥm":2783,"ĠTiá»ģn":2784,"Ġhiáº¿n":2785,"Ġngá»įt":2786,"ĠHáºŃu":2787,"aysia":2788,"ĠviÃªm":2789,"Ġthá»Ł":2790,"ĠPark":2791,"ĠCá»¥":2792,"Ġrá»ĳi":2793,"Ġrá»§i":2794,"17":2795,"TrÃªn":2796,"Ġgháº¿":2797,"ĠChiáº¿n":2798,"Ġlá»«a":2799,"GiÃ¡":2800,"ipp":2801,"ĠMáº¡nh":2802,"ĠÄĳÃ¢m":2803,"Thá»Ŀi":2804,"ĠhÃ¹ng":2805,"ĠQuy":2806,"ĠIs":2807,"ĠÄĳá»©c":2808,"ĠGTVT":2809,"Ġcháº£y":2810,"Ġngon":2811,"Ġ197":2812,"ĠbÃ³":2813,"Ġlá»£n":2814,"ĠxÃ³m":2815,"ĠngoÃ¡i":2816,"ĠchÃºc":2817,"ĠEU":2818,"ĠHáº¡":2819,"ĠcÆ¡m":2820,"Ġá»ŀ":2821,"ĠbÃ¹":2822,"Ġbom":2823,"NhÃł":2824,"ĠCP":2825,"PhÃ³":2826,"ama":2827,"ĠtáºŃt":2828,"16":2829,"Ġtá»ķn":2830,"KS":2831,"Ġbá»¯a":2832,"ĠkiÃªn":2833,"ec":2834,"Ġloáº¡n":2835,"ĠbÃ²":2836,"han":2837,"ĠIndonesia":2838,"ĠSing":2839,"áº³":2840,"ĠKáº¿t":2841,"ĠtrÃ´ng":2842,"Ġngá»«a":2843,"ĠdáºŃy":2844,"ĠMo":2845,"ĠquÃªn":2846,"ĠDÃ¹":2847,"Ġnon":2848,"Ġhuynh":2849,"Ġcáº£n":2850,"Ġxinh":2851,"ĠÄĳá»ĳt":2852,"ĠÄĳÃłi":2853,"ĠÄĲáº·ng":2854,"ĠQuá»³nh":2855,"lÆ°á»£ng":2856,"AR":2857,"Ġ36":2858,"apore":2859,"ĠchÃ³":2860,"ĠMalaysia":2861,"Ġhiáº¿m":2862,"ĠiPhone":2863,"ĠToÃłn":2864,"Nguá»ĵn":2865,"ĠÄĳáºŃp":2866,"ff":2867,"ĠEm":2868,"Ġlá»Ĺ":2869,"ĠngÆ°":2870,"ĠGiáº£i":2871,"Ġá»ĳng":2872,"Ġclip":2873,"24":2874,"Ġvirus":2875,"Thá»§":2876,"Ġtráº¡i":2877,"ĠLoan":2878,"ĠTÃ¹ng":2879,"Ġgiá»ıi":2880,"Ġhá»ĵng":2881,"ĠSu":2882,"ĠphÃº":2883,"ĠdÃły":2884,"ĠCáº§u":2885,"ĠchÄĥn":2886,"Ġkia":2887,"ĠmÃ£i":2888,"ĠÄĳáºŃu":2889,"ĠthÆ°á»£ng":2890,"Ġngá»¥":2891,"ĠSp":2892,"Ġvinh":2893,"35":2894,"ĠHuá»³nh":2895,"Ã£nh":2896,"ashi":2897,"Ġ2011":2898,"ĠÄĳÃ£i":2899,"ĠThá»ķ":2900,"sk":2901,"ier":2902,"Ġbáº¡ch":2903,"ĠBá»Łi":2904,"ta":2905,"ÄĲiá»ģu":2906,"14":2907,"DÃ¹":2908,"ĠNhÃ":2909,"ames":2910,"ĠbÃ¹ng":2911,"Ġngáº§m":2912,"ĠngÆ°á»¡ng":2913,"ĠvÆ°á»Ľng":2914,"ĠphÃ¡o":2915,"ĠCamp":2916,"ĠAF":2917,"ĠPhilipp":2918,"Ġ45":2919,"ĠVá»¥":2920,"Ġuy":2921,"Ġdá»¥":2922,"Ġhá»ıa":2923,"ĠtÃ¹y":2924,"Ġha":2925,"2014":2926,"ĠlÃ£m":2927,"ĠNhÄ©":2928,"ĠNháº¥t":2929,"Sá»±":2930,"áº³n":2931,"ĠSá»±":2932,"ĠgiÃ¡p":2933,"og":2934,"iá»ĩng":2935,"iver":2936,"ĠTrÃł":2937,"Ġtháº£m":2938,"ĠnhÅ©ng":2939,"Ġpháº«u":2940,"21":2941,"ĠÄĲT":2942,"ĠÄĲinh":2943,"Ľp":2944,"Ġhoang":2945,"ĠKáº¿":2946,"pple":2947,"Ġcá»Ļt":2948,"ĠSingapore":2949,"sea":2950,"ĠTháº£o":2951,"Ġbá»¥ng":2952,"ĠkÃŃn":2953,"ĠtÃ´ng":2954,"Ġrá»Ńa":2955,"AT":2956,"ĠloÃłi":2957,"XVN":2958,"ĠUn":2959,"ĠthÃ©p":2960,"ĠLá»ħ":2961,"áº«y":2962,"ĠFacebook":2963,"Ġsáº¯m":2964,"ĠnÃ©":2965,"Ġhá»ıng":2966,"Ġmiá»ĩng":2967,"ĠchÃ¬":2968,"ĠtrÃłn":2969,"Ġbáº¿n":2970,"ri":2971,"ĠniÃªm":2972,"Ġhá»Ļp":2973,"Ġsá»ķ":2974,"ĠÄĳá»ĵn":2975,"ĠMáº·t":2976,"rid":2977,"ĠbÃª":2978,"ber":2979,"ĠCan":2980,"NhÆ°":2981,"VÃ¬":2982,"ĠÄĳiá»ĥn":2983,"Ġháº³n":2984,"Ġe":2985,"Ġmá»ĩnh":2986,"»·":2987,"á»·":2988,"Co":2989,"ĠkhÃ³c":2990,"Hai":2991,"Ġlá»įc":2992,"Ġtriá»ĩt":2993,"Ġnáº¥u":2994,"ĠsÃºt":2995,"Má»¹":2996,"Ġthang":2997,"ĠCá»ķ":2998,"ĠAir":2999,"Ġtiáº¿c":3000,"CB":3001,"ĠTÃłu":3002,"und":3003,"ud":3004,"ĠnhÆ°á»£ng":3005,"ern":3006,"elsea":3007,"Ġgiá»įng":3008,"Káº¿t":3009,"ters":3010,"ĠKho":3011,"ĠÄĲáº¯k":3012,"ĠTuyÃªn":3013,"ĠlÃ´":3014,"ĠQuÃ½":3015,"ĠPhilippines":3016,"Ġnháº¯n":3017,"ĠTrá»ĭ":3018,"Ġváº¯c":3019,"ustr":3020,"áº¥c":3021,"ĠhÆ°":3022,"ona":3023,"line":3024,"Ġruá»Ļt":3025,"ĠHá»£p":3026,"man":3027,"ĠmÃ¡t":3028,"ĠTáº¥n":3029,"uchia":3030,"ĠCSGT":3031,"ĠHoÃłn":3032,"ĠBáº±ng":3033,"Ġnháº£y":3034,"ĠnÃ£o":3035,"Ġáº©m":3036,"uro":3037,"Ġkhoe":3038,"Ġkhuáº©n":3039,"Ġ32":3040,"ico":3041,"Vá»¥":3042,"ĠHá»ĵi":3043,"hÃŃnh":3044,"Ġga":3045,"ĠCÄĲ":3046,"ĠÄĳá»ģn":3047,"13":3048,"ĠcÃ£i":3049,"ĠMad":3050,"ĠtÃłng":3051,"Ġláº¡m":3052,"Ġchá»ĳi":3053,"Ġdinh":3054,"ĠNH":3055,"ĠthÄĥng":3056,"ĠHoÃłi":3057,"ĠReal":3058,"2013":3059,"ĠVin":3060,"ĠvÃŃ":3061,"ĠCN":3062,"ĠÄĲÆ°á»Ŀng":3063,"ĠHáº±ng":3064,"Ġcá»Ŀ":3065,"ĠSam":3066,"ĠBV":3067,"Ġnhi":3068,"all":3069,"ĠThá»±c":3070,"ĠdÃ¡m":3071,"Ġsu":3072,"Ġhá»©a":3073,"ĠTS":3074,"ĠAs":3075,"ĠgiÃ£n":3076,"ĠBáº¡n":3077,"ĠBl":3078,"ĠNhá»":3079,"ĠBÃ¡c":3080,"ĠApple":3081,"ĠbÃ¢y":3082,"Ġtrá»©ng":3083,"eg":3084,"Ġráº»":3085,"ĠxÆ°a":3086,"ĠPhÆ°á»£ng":3087,"Ġcanh":3088,"ĠNgay":3089,"ĠxuÃ¢n":3090,"ĠQua":3091,"ĠLÆ°u":3092,"ĠchÃ©":3093,"ĠCá":3094,"ĠCá»":3095,"Ġfan":3096,"ĠThÃº":3097,"ĠKiÃªn":3098,"LiÃªn":3099,"Thá»±c":3100,"80":3101,"SC":3102,"istan":3103,"Ġtrá»¥c":3104,"Thá»©":3105,"Máº·c":3106,"ĠÄĳáºŃm":3107,"Ġthá»Ŀ":3108,"tá":3109,"tá»":3110,"Lá":3111,"Lá»":3112,"Ġthuáº«n":3113,"po":3114,"70":3115,"ĠchÃ¹a":3116,"ĠCampuchia":3117,"ĠmÃ¹i":3118,"ĠHá»įc":3119,"ĠnhiÃªu":3120,"Ġweb":3121,"ei":3122,"Ġvá»ı":3123,"In":3124,"ĠCA":3125,"ĠcÃ¡t":3126,"ĠTÃº":3127,"ĠnhÃ¡nh":3128,"Ġliá»ģu":3129,"ĠBarc":3130,"ĠxÆ°Æ¡ng":3131,"CÃ²n":3132,"Ġtráº§m":3133,"Ġlá»Ł":3134,"ĠsÃ´i":3135,"ĠSong":3136,"ĠdÃ¢u":3137,"uters":3138,"ĠtÆ°á»Ŀng":3139,"Ã½t":3140,"uk":3141,"ĠnhÃ£n":3142,"ĠthÃ³":3143,"Ġgá»£i":3144,"ĠdÃ´ng":3145,"ĠSá»ĳ":3146,"ĠtÃ´m":3147,"Ġmá»±c":3148,"Ġcamera":3149,"ĠcÆ°Æ¡ng":3150,"á»įi":3151,"tÃ´":3152,"Ġche":3153,"bank":3154,"ĠÄĳá»«ng":3155,"ĠÄĳiá»ĩu":3156,"ĠIS":3157,"Ġmá»ĳc":3158,"ĠChÃ¡nh":3159,"Æ°Æ¡n":3160,"hoáº£ng":3161,"ĠlÃ£ng":3162,"ep":3163,"ĠNgÃ£i":3164,"ĠThá»¥y":3165,"ĠbÃ¡m":3166,"CT":3167,"Giá»":3168,"Ġcá»©ng":3169,"90":3170,"ustralia":3171,"ĠTiá»ĥu":3172,"ChÃŃnh":3173,"Ġtreo":3174,"NH":3175,"amin":3176,"ĠDi":3177,"Ġbáº¿p":3178,"ĠCar":3179,"Ġcá»ĳt":3180,"ĠBHXH":3181,"ĠdÃ¢m":3182,"rael":3183,"Ġgá»įn":3184,"ĠTruyá»ģn":3185,"ĠvÃ¡y":3186,"ĠChelsea":3187,"2023":3188,"Ġbá»Ļt":3189,"Ġshow":3190,"ĠtuÃ¢n":3191,"Ġxá»©ng":3192,"hn":3193,"ada":3194,"ĠMá»Ĺi":3195,"ers":3196,"Ġyáº¿t":3197,"Ġ33":3198,"ĠÃ´m":3199,"ĠxÃ³a":3200,"ĠTáº¥t":3201,"ĠTam":3202,"Ġven":3203,"ĠTrÃªn":3204,"ĠChung":3205,"ne":3206,"Chá»ī":3207,"ĠNhi":3208,"ass":3209,"iss":3210,"ork":3211,"NhÆ°ng":3212,"ĠláºŃu":3213,"ow":3214,"onald":3215,"ĠtrÆ°a":3216,"CÃ´":3217,"ĠÄĳÃł":3218,"Ġdiá»ĩt":3219,"ĠdÆ°á»£c":3220,"ĠCÃ¹ng":3221,"Má»Ľi":3222,"ĠtÃ¢y":3223,"ÃŃch":3224,"xi":3225,"Ġgiáº¥u":3226,"Qua":3227,"ĠÄĳiá»ĩp":3228,"Ġmá»ĩt":3229,"Ġbá»ĳc":3230,"mp":3231,"iet":3232,"mart":3233,"Ġtiá»ħn":3234,"ĠKhÃ":3235,"Ġ&":3236,"Ġtráº§n":3237,"chá»":3238,"ĠBÄĲ":3239,"VÃło":3240,"ĠTAND":3241,"ĠtÃ¢n":3242,"¥i":3243,"ĠHiáº¿u":3244,"CoV":3245,"ngÃły":3246,"GS":3247,"Le":3248,"ht":3249,"ĠVietnam":3250,"Ġcá»ķng":3251,"Ã¹a":3252,"ĠchÃª":3253,"Ġ2010":3254,"ĠCai":3255,"Ġbá»ĳn":3256,"ĠChu":3257,"ĠAustralia":3258,"ĠTÃ²a":3259,"Ġphá»ıng":3260,"ĠlÆ°ng":3261,"Ġmá»ıi":3262,"ÄĲáº·c":3263,"Ġquang":3264,"Ġ,":3265,"Ġthan":3266,"ĠÄĲá»ģ":3267,"ĠÄĳeo":3268,"senal":3269,"Ġláº§m":3270,"ĠLÃºc":3271,"ĠIsrael":3272,"27":3273,"ĠmÃ¢y":3274,"ĠReuters":3275,"Ġtáº£":3276,"Ġal":3277,"Ġvá»Ŀi":3278,"Ġtáº¯m":3279,"Ġgam":3280,"áº¹t":3281,"Ġ38":3282,"Ġ.":3283,"Ġ37":3284,"ĠVá»ģ":3285,"Ã¹m":3286,"Ġtá»ĳn":3287,"ngÆ°á»Ŀi":3288,"Ġbia":3289,"ĠQuá»¹":3290,"ail":3291,"ĠGiÃ¡":3292,"Ġva":3293,"ĠHar":3294,"ashing":3295,"ester":3296,"ĠBáº¿n":3297,"Ġ34":3298,"lin":3299,"ashington":3300,"ĠAnd":3301,"Ġbáº¯c":3302,"ĠII":3303,"Ġtrá»«ng":3304,"ast":3305,"Ġ400":3306,"ĠdÃłn":3307,"»£":3308,"á»£":3309,"ek":3310,"zil":3311,"Ġváº¯ng":3312,"ĠThá»«a":3313,"ick":3314,"Ġsa":3315,"Ġxáº£":3316,"khÃ´ng":3317,"onaldo":3318,"Ġla":3319,"ĠAm":3320,"Ġmá»ı":3321,"Ġcáº¯p":3322,"ĠTÃ¬nh":3323,"ĠÄĳáº¡p":3324,"ions":3325,"ĠSan":3326,"26":3327,"ĠBra":3328,"ĠThÃºy":3329,"utin":3330,"Ġnhá»±a":3331,"ĠThá»ĳng":3332,"Ġ150":3333,"Ã¨o":3334,"Ġháº§m":3335,"ĠThá»ĥ":3336,"Ġmáº£nh":3337,"Ġcáº¥t":3338,"Ġhá»ĳi":3339,"ĠTrá»ĭnh":3340,"ĠSAR":3341,"BÃ¡o":3342,"hÃ³m":3343,"ĠÄĳáº¯t":3344,"ĠSo":3345,"Ġlá»ĩch":3346,"ĠWashington":3347,"ĠmÃ¬":3348,"ĠdÆ°á»Ŀng":3349,"ĠMos":3350,"99":3351,"Cuá»Ļc":3352,"ĠÄĲB":3353,"ite":3354,"Con":3355,"TM":3356,"PhÃ":3357,"ĠHiá»ģn":3358,"ĠCr":3359,"ĠduyÃªn":3360,"28":3361,"Ġtáº¯t":3362,"Ġtháº£":3363,"ĠThÄĥng":3364,"Ġtan":3365,"Ġtáº¿t":3366,"ini":3367,"Ġháº£o":3368,"ĠÄĳáº¥y":3369,"Ġthoáº£i":3370,"EC":3371,"CÆ¡":3372,"ĠthÃ³i":3373,"Ġhá»ĵn":3374,"ĠLá»£i":3375,"ĠÄĳá»Ĺ":3376,"ĠTrinh":3377,"ĠtrÃł":3378,"Ĺng":3379,"ĠCáº£":3380,"Ġbá»Ľt":3381,"Ġlang":3382,"Há»Ļi":3383,"ĠXÃ£":3384,"ĠMadrid":3385,"ĠtrÃ´i":3386,"Ġgan":3387,"ĠthÃ¹ng":3388,"Ġháº±ng":3389,"ĠPháºŃt":3390,"Ġchuyá»ģn":3391,"ĠMau":3392,"ĠtrÃ²n":3393,"2012":3394,"ĠMáº·c":3395,"ĠGiáº¥y":3396,"ĠLÄĲ":3397,"ĠPutin":3398,"Ġsáº¡t":3399,"Ġdá»įc":3400,"ĠInternet":3401,"ĠbÃ¡":3402,"Ġmuá»ĳi":3403,"ĠThÆ°":3404,"ĠmÃ¢u":3405,"BC":3406,"Ġnhá»ĭp":3407,"ĠCam":3408,"Ġcá»§ng":3409,"á»±u":3410,"Ġmáº§m":3411,"ĠÄĲÄĥng":3412,"ĠCáº©m":3413,"QÄĲ":3414,"con":3415,"CÃ¡ch":3416,"ĠgiÃ¢y":3417,"ĠtÃ¡o":3418,"ĠDonald":3419,"Ġkhuyáº¿t":3420,"dex":3421,"Ġhung":3422,"AG":3423,"ĠsÃ³t":3424,"ham":3425,"ĠBáº¡ch":3426,"ĠGr":3427,"¹y":3428,"ĠGu":3429,"ĠKhá»":3430,"Ġná»ģ":3431,"Ġkhiáº¿u":3432,"tin":3433,"ĠNhiá»ĩt":3434,"Ġthiá»ĩp":3435,"ĠbÃ©o":3436,"ĠvÆ°Æ¡n":3437,"thá»":3438,"ĠAb":3439,"AS":3440,"29":3441,"ood":3442,"ĠSARS":3443,"ĠThá»ĭnh":3444,"ĠHuyá»ģn":3445,"Ġmá»ķ":3446,"ĠkhÃ¢u":3447,"ĠCÃł":3448,"UBND":3449,"ĠIt":3450,"rab":3451,"Nam":3452,"lymp":3453,"Thanh":3454,"Ã¨n":3455,"aw":3456,"ĠVÅ©ng":3457,"ĠCo":3458,"Ġláº·ng":3459,"Ġheo":3460,"ĠhÆ°u":3461,"ĠMÃ´i":3462,"Ġcá»ĳng":3463,"ĠArsenal":3464,"ĠSer":3465,"xÃ£":3466,"Ġkhá»ĳng":3467,"75":3468,"ĠthÆ¡m":3469,"ĠthÆ°á»Ľc":3470,"ĠDung":3471,"ĠTim":3472,"Ġkg":3473,"Ġngá»±c":3474,"pool":3475,"tel":3476,"Ġmáº¡o":3477,"enn":3478,"TTQ":3479,"ĠgiÆ°á»Ŀng":3480,"ĠCÅ©ng":3481,"huyá»ĩn":3482,"YT":3483,"TN":3484,"Ġdáº¯t":3485,"ĠTháº¡ch":3486,"Æ¡m":3487,"Ġlá»ĵ":3488,"ĠCuá»Ļc":3489,"Æ°á»£n":3490,"ĠAi":3491,"TX":3492,"sung":3493,"ĠchÃŃn":3494,"ÃŃn":3495,"ĠChá»ĭ":3496,"ĠhÃłm":3497,"ĠCÃ¡t":3498,"to":3499,"Ġmiáº¿ng":3500,"Ġngáº¡ch":3501,"ĠQL":3502,"ĠGames":3503,"Nghá»":3504,"ĠSinh":3505,"iverpool":3506,"ĠMa":3507,"):":3508,"á»Ńu":3509,"Ġáº¥p":3510,"Ã¹n":3511,"Ġngá»Ļ":3512,"ĠMi":3513,"ĠBrazil":3514,"Bá":3515,"Bá»":3516,"Chá»ĭ":3517,"ĠÃļ":3518,"Ġtrá»į":3519,"Ġlá»įt":3520,"phone":3521,"ĠCty":3522,"ĠCH":3523,"ate":3524,"ĠÄĳam":3525,"Ġ55":3526,"ĠOlymp":3527,"ĠYork":3528,"QT":3529,"'.":3530,"ĠgiÃły":3531,"Ġhá»ķ":3532,"essi":3533,"ĠkhÃ¡t":3534,"ĠThÃ¹y":3535,"OS":3536,"Ġviá»ħn":3537,"ĠlÃŃnh":3538,"Ho":3539,"ĠNews":3540,"ĠPl":3541,"oy":3542,"ĠKiá»ģu":3543,"Ġkhá»ķng":3544,"ĠChamp":3545,"ĠmÃ³c":3546,"Ġáº£o":3547,"ĠCÃ¡ch":3548,"ĠDoanh":3549,"ĠkhuyÃªn":3550,"giá»":3551,"Bank":3552,"ĠphÃ¡i":3553,"end":3554,"Ġchá»«ng":3555,"ĠsÄĥn":3556,"ĠTu":3557,"ĠghÃ©p":3558,"Báº¡n":3559,"Ã©o":3560,"Ġráº¯n":3561,"ĠOb":3562,"Ġtrá»ĳng":3563,"ĠÃ´tÃ´":3564,"ĠEl":3565,"ĠvÄ©":3566,"ĠLá»ĩ":3567,"Ġcá»¥m":3568,"ĠdÃ£":3569,"ĠHáº¡nh":3570,"ĠNá»¯":3571,"ĠRonaldo":3572,"ĠKH":3573,"»«a":3574,"á»«a":3575,"ĠbÆ¡i":3576,"ĠXII":3577,"ge":3578,"ĠQuan":3579,"ĠYo":3580,"ĠÄĲÆ°á»£c":3581,"IC":3582,"ĠnhÃ©":3583,"Ġháº¹p":3584,"Ļi":3585,"ĠrÄĥng":3586,"Ġcá»ı":3587,"Ġgiáº¥c":3588,"ĠDiá»ħn":3589,"Ġdáº¡":3590,"Ġváº½":3591,"ĠLá»±c":3592,"League":3593,"ĠdáºŃp":3594,"ÄĲá":3595,"ÄĲá»":3596,"Ġbá»ģ":3597,"Ġleo":3598,"ĠchÃ¬m":3599,"oog":3600,"ara":3601,"ĠCÃ¡i":3602,"Ġ196":3603,"Ġváº£":3604,"100":3605,"tain":3606,"HÃ´m":3607,"iá»ħu":3608,"Ġhoan":3609,"ĠkhoÃ¡ng":3610,"MT":3611,"yo":3612,"oogle":3613,"ĠVáºŃy":3614,"ĠNguá»ĵn":3615,"Ġtuá»ĩ":3616,"ĠCho":3617,"ĠÄĳáº¿":3618,"ĠTháº¡nh":3619,"ation":3620,"ĠmÃ£n":3621,"ĠTrÃŃ":3622,"thÃ¡ng":3623,"ited":3624,"ĠBÃłi":3625,"ĠDe":3626,"ĠTháºŃm":3627,"IV":3628,"%;":3629,"Ġcá»¡":3630,"ĠtÄ©nh":3631,"Ľn":3632,"ĠJohn":3633,"ĠthoÃ¡i":3634,"raq":3635,"Ġ48":3636,"Ġtrá»įn":3637,"ĠSeo":3638,"Ġnghiá»ĩn":3639,"ĠSEA":3640,"Ġtiá»ĩc":3641,"ero":3642,"Tiáº¿p":3643,"Trao":3644,"ĠHÆ¡n":3645,"ĠgÃ¬n":3646,"36":3647,"ĠsÃ¡nh":3648,"NÄĲ":3649,"ĠvÃµ":3650,"ĠLiÃªm":3651,"ĠChampions":3652,"ĠNÃ³":3653,"land":3654,"Ġráº¡ng":3655,"Ġchua":3656,"ĠlÃ¹i":3657,"ĠThÃ¡p":3658,"ĠÄĲÃ´":3659,"DC":3660,"ĠÃ¡i":3661,"±ng":3662,"Ġná»ĵng":3663,"Ġláº¥n":3664,"ĠHÃłnh":3665,"ĠbuÃ½t":3666,"Ġco":3667,"Ãģ":3668,"ĠMU":3669,"Index":3670,"ĠTHCS":3671,"ĠXuyÃªn":3672,"Viá»ĩt":3673,"ani":3674,"ash":3675,"Ġváº¹n":3676,"ĠGal":3677,"ĠYáº¿n":3678,"ĠHuá»ĩ":3679,"Ġsá»ĳc":3680,"ĠtÃłn":3681,"Ġvua":3682,"Ġpin":3683,"ĠtÃ¡ch":3684,"ĠmÃ©t":3685,"ĠVÃłng":3686,"QH":3687,"īa":3688,"ĠLam":3689,"ĠThi":3690,"Ġkhá»Ľp":3691,">>":3692,"la":3693,"eng":3694,"ĠSÃ¡ng":3695,"kh":3696,"ĠLiverpool":3697,"ech":3698,"ĠThiá»ĩn":3699,"Ġná»Ł":3700,"ĠkhÆ¡i":3701,"Ġváº¥t":3702,"ĠMTTQ":3703,"300":3704,"age":3705,"ĠdÃŃnh":3706,"ĠIraq":3707,"37":3708,"ĠÃ¡c":3709,"TrÆ°á»Ŀng":3710,"Ġbá»ıng":3711,"ĠLH":3712,"ĠnhÃłng":3713,"',":3714,"Ġcáº©n":3715,"hÃŃa":3716,"ĠAle":3717,"Ġnhan":3718,"ĠgÃ¡nh":3719,"Ġ39":3720,"ĠkhÃ´i":3721,"AM":3722,"Ġlá»ıng":3723,"Ġtop":3724,"ĠnÃºt":3725,"BÃ¬nh":3726,"Ġsay":3727,"Ġgame":3728,"Ġ01":3729,"ĠOlympic":3730,"ĠnÃ©m":3731,"Viet":3732,"Ġ75":3733,"art":3734,"ver":3735,"Sá»Ł":3736,"ix":3737,"Ġváº£i":3738,"Ġphá»ķi":3739,"ĠObama":3740,"Ġvit":3741,"ĠÄĳÃ¡n":3742,"ĠHang":3743,"Ġthuáº§n":3744,"ĠrÃ©t":3745,"ĠNS":3746,"TTXVN":3747,"Ġvitamin":3748,"Quáº£ng":3749,"ĠTiáº¿p":3750,"NháºŃn":3751,"ĠÄĲáº¥t":3752,"ĠPhá»¥":3753,"ĠSamsung":3754,"ya":3755,"34":3756,"ota":3757,"ĠTá»Ń":3758,"ĠÄĳá»±ng":3759,"orn":3760,"ĠLáº¯k":3761,"ĠNN":3762,"ĠngÃµ":3763,"ĠDáº§u":3764,"ĠdÃ¢ng":3765,"ĠTriá»ĩu":3766,"ram":3767,"FF":3768,"ĠCanada":3769,"ĠUy":3770,"ideo":3771,"ÄĲÃ³":3772,"ĠRiÃªng":3773,"HÃ¬nh":3774,"Ġtá»©":3775,"ĠAP":3776,"Ġ65":3777,"Ban":3778,"Ná»¯":3779,"ĠHS":3780,"ĠBo":3781,"ĠMC":3782,"ĠMessi":3783,"ĠlÃ²":3784,"LÃł":3785,"ma":3786,"roup":3787,"TÃ¬nh":3788,"NhÃ¢n":3789,"ĠgiáºŃn":3790,"eal":3791,"inho":3792,"ĠÃģnh":3793,"Ġngá»įn":3794,"GD":3795,"CH":3796,"Ġláº¥p":3797,"Ġu":3798,"Ġmuá»Ļn":3799,"%/":3800,"ĠUnited":3801,"ĠkÃ¬":3802,"ea":3803,"ĠVáºŃn":3804,"ĠvÆ°Æ¡ng":3805,"38":3806,"martphone":3807,"onda":3808,"ĠGoogle":3809,"ĠsÆ¡n":3810,"quáºŃn":3811,"ĠrÃ£i":3812,"400":3813,"Ġdá»įn":3814,"ĠÄĲáº¡t":3815,"ba":3816,"á»ĳm":3817,"ke":3818,"TÃŃnh":3819,"ĠNhÆ¡n":3820,"di":3821,"ĠHÄĲQT":3822,"ĠÃ¹n":3823,"Em":3824,"Ġtaxi":3825,"ĠTÄĥng":3826,"Ġvá»Ļi":3827,"ĠchiÃªu":3828,"ATO":3829,"ĠbÃ³n":3830,"ĠNghi":3831,"ĠÄĳáº»":3832,"ĠSÃ³c":3833,"Ġsoáº¡n":3834,"Ġthá»±":3835,"ĠBu":3836,"Ġtá»§":3837,"´n":3838,"ĠrÃ¨n":3839,"KT":3840,"iden":3841,"ĠlÃ´ng":3842,"95":3843,"tor":3844,"ĠÄĳÃ³i":3845,"ĠquÃ©t":3846,"Ġmá»¡":3847,"ĠÃ¢n":3848,"AGL":3849,"ti":3850,"©o":3851,"Sá»ĳ":3852,"ĠâĢĺ":3853,"Ġtrá»Ļn":3854,"Ġ600":3855,"CCC":3856,"Ġxoay":3857,"áº±n":3858,"Ġrá»¡":3859,"NguyÃªn":3860,"BÆ°á»Ľc":3861,"Gia":3862,"ĠÄĳáº¯p":3863,"ĠHuyá»ĩn":3864,"ĠTÃ´":3865,"ÄĲV":3866,"ĠTÃŃnh":3867,"ĠcÆ°á»¡ng":3868,"HÃłng":3869,"Ġhá»Ĺn":3870,"Ġbá»¥i":3871,"Ġnháº¡y":3872,"Ġsá»¥t":3873,".\"":3874,"Khu":3875,"Ġ120":3876,"Ġmáº·n":3877,"2011":3878,"ĠÃĿ":3879,"Ġof":3880,"Ġ2008":3881,"va":3882,"ĠCSÄĲT":3883,"ĠMil":3884,"go":3885,"ĠDá»ĭch":3886,"Ã²i":3887,"Ġ2009":3888,"47":3889,"Ġngáº¡c":3890,"Ġngá»£i":3891,"55":3892,"ley":3893,"Ġvang":3894,"FA":3895,"ĠAng":3896,"ĠkiÃªm":3897,"ĠhoÃ£n":3898,"46":3899,"ĠbáºŃn":3900,"ĠbÃ¬":3901,"ÄĲá»Ļi":3902,"ĠÄĲá»Ļng":3903,"mm":3904,"IA":3905,"Ġ43":3906,"ĠSÃ´ng":3907,"Æ°á»Ľt":3908,"ĠxÆ°á»Łng":3909,"ĠPrem":3910,"ee":3911,"ĠLy":3912,"ĠkhÃ³i":3913,"Ġbá»ķng":3914,"--":3915,"anmar":3916,"Ġmá»ĵ":3917,"ĠHá»ĩ":3918,"ĠTráº¯ng":3919,"PTNT":3920,"xin":3921,"ĠHÃ£y":3922,"ĠCol":3923,"Ġdá»¡":3924,"Xem":3925,".âĢĿ":3926,"Ġdá»Ŀi":3927,"ĠmÆ°á»£n":3928,"Ġkhoáº£nh":3929,"Lá»±c":3930,"ĠPháº§n":3931,"ĠBHYT":3932,"ĠThiáº¿u":3933,"ĠHiá»ĩu":3934,"ĠhÃ´i":3935,"Tháº¿":3936,"Tin":3937,"ĠBKS":3938,"Ġsmartphone":3939,"ĠBÃ¡":3940,"ĠHÃ¬nh":3941,"Ġhá»¥t":3942,"HÆ¡n":3943,"Ġmáº£ng":3944,"ĠRo":3945,"aly":3946,"Ġlá»ĵng":3947,"ĠBá»ĵ":3948,"ĠAFP":3949,"ĠÄĳá»Ľi":3950,"lor":3951,"Ġ46":3952,"ela":3953,"Giáº£i":3954,"Ġruá»Ļng":3955,"ĠPC":3956,"ĠrÅ©":3957,"ĠTrÄĥng":3958,"ĠBáº¡c":3959,"Ġnáº¡i":3960,"CV":3961,"ĠrÃ²ng":3962,"cÃ³":3963,"axy":3964,"DI":3965,"ft":3966,"ĠMer":3967,"ĠPro":3968,"Ġon":3969,"ThÃ":3970,"ĠÃ¡m":3971,"Bá»ĩnh":3972,"Ġ2025":3973,"SG":3974,"entina":3975,"ĠKr":3976,"Ġcu":3977,"ĠMV":3978,"ĠLee":3979,"01":3980,"bo":3981,"Ġtháº¯t":3982,"Ġchim":3983,"á»ĳp":3984,"ĠDav":3985,"Ãºn":3986,"Cáº£nh":3987,"ice":3988,"Ġ42":3989,"ĠgiÃ¡n":3990,"ĠNa":3991,"áº«m":3992,"Ġchai":3993,"ĠbÃ¡t":3994,"Ġá»©c":3995,"ace":3996,"Ġbá»įc":3997,"Ġtá»įa":3998,"lad":3999,"ĠlÃ£o":4000,"ans":4001,"ThÃ¡ng":4002,"ĠHTX":4003,"Khoáº£ng":4004,"ĠMyanmar":4005,"ThÃłnh":4006,"ĠÄĲá»ĵn":4007,"ink":4008,"33":4009,"ote":4010,"88":4011,"Ġráº£i":4012,"ĠParis":4013,"ĠPCCC":4014,"Ġcháº©n":4015,"Ġnhá»Ł":4016,"Ġkhá»©":4017,"Ġdá»Ļi":4018,"ron":4019,"ĠLiÃªu":4020,"Ġgom":4021,"Ġbáº¿":4022,"PL":4023,"VÃł":4024,"Ġ47":4025,"giá»Ŀ":4026,"ĠThÃ¡ng":4027,"ĠkhoÃ¡c":4028,"ĠÃļc":4029,"Ġ:":4030,"ĠLÃ£nh":4031,"ĠPet":4032,"Ġdá»ĵn":4033,"cow":4034,"sinh":4035,"Ġdá»ĳc":4036,"Ġluá»ĵng":4037,"BS":4038,"ĠDanh":4039,"Má»Ĺi":4040,"Ġlá»ģ":4041,"Ġxá»ī":4042,"ĠÄĲiá»ĥn":4043,"Ġeuro":4044,"HLV":4045,"ost":4046,"ĠthÃ¢m":4047,"ĠPal":4048,"Ġ2030":4049,"ĠCáº£ng":4050,"JC":4051,"ĠHAGL":4052,"TB":4053,"ĠBÃŃch":4054,"tainer":4055,"Ġtá»±u":4056,"ĠbÃ´ng":4057,"Ġthá»£":4058,"Ġngáº¯m":4059,"ola":4060,"Ġkáº¹t":4061,"ĠJong":4062,"Chia":4063,"Ġvá»īa":4064,"ĠÄĲá»ĭa":4065,"Ġquyáº¿n":4066,"xy":4067,"Ãºy":4068,"ĠRá»ĭa":4069,"ĠRob":4070,"á»ĭn":4071,"Ġtrinh":4072,"Chiáº¿c":4073,"ondon":4074,"ĠBe":4075,"ĠsáºŃp":4076,"ĠTÃŃn":4077,"Ġtruyá»ĩn":4078,"ĠkhÃ©o":4079,"31":4080,"ĠngÃło":4081,"ug":4082,"Ġnháº«n":4083,"ĠchÃªnh":4084,"Hoa":4085,"ĠLáº¡t":4086,"ĠCháº¥p":4087,"Bá»ĭ":4088,"tp":4089,"EO":4090,"ĠPremier":4091,"Æ°á»Łi":4092,"ĠBiden":4093,"uc":4094,"ĠNhá»Ŀ":4095,"Ġmáº¿n":4096,"ĳc":4097,"ĠAd":4098,"Ġmáº¡n":4099,"ĠJu":4100,"Xe":4101,"ĠThiáº¿t":4102,"ĠMay":4103,"Ġlá»¥t":4104,"ĠEr":4105,"ĠmÃºa":4106,"tre":4107,"ĠmÅ©":4108,"ĠBarca":4109,"65":4110,"LÃºc":4111,"ary":4112,"ED":4113,"Ġtiá»ĩm":4114,"39":4115,"Ġnháº§m":4116,"48":4117,"49":4118,"Ġlá»©a":4119,"Ġnáº£y":4120,"ĠvÃ¢y":4121,"ĠGDP":4122,"thÃ":4123,"ĠNATO":4124,"Ġgáº¯t":4125,"Ġrá»±c":4126,"ĠnÃ¡t":4127,"ĠKiáº¿n":4128,"Ġbá»įn":4129,"á»įn":4130,"ĠMoscow":4131,"ÄĲoÃłn":4132,"ĠcÃºng":4133,"gentina":4134,"ĠNghiÃªn":4135,"ĠdÃ²":4136,"ert":4137,"TCP":4138,"ĠchÃ©m":4139,"ĠLáº¡ng":4140,"tá»«":4141,"Æ°á»¡i":4142,"ĠAT":4143,"ĠLondon":4144,"ĠQuáºŃn":4145,"NÃ³i":4146,"ark":4147,"ĠláºŃt":4148,"Ngh":4149,"ĠÃĲ":4150,"Ġ51":4151,"ight":4152,"ĠMin":4153,"IS":4154,"ĠGalaxy":4155,"ĠgÃ£y":4156,"Ġthe":4157,"ĠTá»±":4158,"Ġcontainer":4159,"//":4160,"ĠMat":4161,"ĠHonda":4162,"ĠPhÃ¹ng":4163,"ĠTÆ°á»Ŀng":4164,"ĠVÃło":4165,"ĠAf":4166,"¯a":4167,"site":4168,"ĠTop":4169,"ĠHong":4170,"XX":4171,",âĢ¦":4172,"ĠVKS":4173,"ĠlÃŃt":4174,"Ġnáº¿p":4175,"TA":4176,"Ġmá»ıng":4177,"ĠChá»©ng":4178,"ĠKhÃª":4179,"ĠVH":4180,"Ġ49":4181,"ĠLáº¡c":4182,"elona":4183,"ĠIII":4184,"Ġ250":4185,"ica":4186,"ĠGS":4187,"ĠlÃŃ":4188,"ĠÃºy":4189,"ĠSen":4190,"ĠKon":4191,"ĠThuáº¿":4192,"let":4193,"Ġlá»ĳc":4194,"%),":4195,"ros":4196,"Ġ56":4197,"ĠSc":4198,"Tá»ĳi":4199,"otte":4200,"ÄĲÃł":4201,"ane":4202,"CO":4203,"ĠxÃ¡ch":4204,"ĠÄĳá»ĵi":4205,"Ġ41":4206,"://":4207,"Ġvá»£t":4208,"Thá»ĭ":4209,"ĠÆ°a":4210,"ĠÄĳáº§m":4211,"ĠbÆ¡m":4212,"05":4213,"USD":4214,"Ġphun":4215,"Cáº§n":4216,"ĠMá»Ľi":4217,"ĠÄĲiá»ģn":4218,"Ġ44":4219,"%)":4220,"áº¹o":4221,"CÄĲ":4222,"na":4223,"oc":4224,",...":4225,"Ġlong":4226,"ĠTw":4227,"Ġá»ĳc":4228,"biz":4229,"ĠÄĳá»ĩ":4230,"QG":4231,"ĠBay":4232,"Ġchinh":4233,"ĠÄĳáº¯c":4234,"ĠSÆ°":4235,"32":4236,"ĠCáºŃp":4237,"app":4238,"ĠArgentina":4239,"ĠÄĲáº¡o":4240,"Ġong":4241,"ĠGiÃ³":4242,"ĠchÃ¢m":4243,"ĠlÆ°á»Ŀng":4244,"OT":4245,"Ġtrá»Ļi":4246,"ĠSao":4247,"má»Ļt":4248,"ĠNhung":4249,"ĠMiss":4250,"ĠAg":4251,"ĠsÆ°u":4252,"ĠXÃ´":4253,"Ġkem":4254,"Cho":4255,"Video":4256,"ĠTTXVN":4257,"ChÆ°Æ¡ng":4258,"ĠEx":4259,"Ġsá»£i":4260,"ĠVÄĲV":4261,"NA":4262,"ĠAt":4263,"ĠTÃ´n":4264,"ĠSang":4265,"ĠsÃ¡u":4266,"Ġonline":4267,"Ġnáº¥m":4268,"ĠMÃ£":4269,"ĠÄĲan":4270,"Ġhot":4271,"PC":4272,"ĠVI":4273,"ien":4274,"Ġ800":4275,"ĠvÃ³c":4276,"ino":4277,"ĠngÆ¡i":4278,"Ġchuá»Ļt":4279,"BP":4280,"ĠBal":4281,"LÃ£nh":4282,"ĠHiáº¿n":4283,"ĠBÃ¡i":4284,"ĠVFF":4285,"ĠSte":4286,"ĠsÃ©t":4287,"ĠDuyÃªn":4288,"NhÃ":4289,"ae":4290,"ĠMáº¹":4291,"Ġhiáº¿p":4292,"ĠVTV":4293,"ĠtrÃ¢n":4294,"Ġ95":4295,"exico":4296,"Ġgay":4297,"ĠChá»£":4298,"ĠtÃŃm":4299,"ĠÄĲÃłm":4300,"ĠÄĳá»©t":4301,"Ġdá»ĭu":4302,"ĠthoÃ¡ng":4303,"Ġcáº¯m":4304,"Ġsan":4305,"ĠBen":4306,"ĠNÆ°á»Ľc":4307,"ĠnÆ°á»Ľng":4308,"ĠRom":4309,"ĠKong":4310,"ĠcáºŃy":4311,"ĠÄĳÄ©a":4312,"iá»ģng":4313,"ĠSJC":4314,"ĠtrÃ¹m":4315,"Ġvá»Ł":4316,"600":4317,"ĠkhÃ©p":4318,"ose":4319,"ĠOn":4320,"ĠFran":4321,"ube":4322,"ĠPGS":4323,"ĠláºŃn":4324,"ÃĢ":4325,"lÃŃt":4326,"Ġlá»Ļn":4327,"ĠToy":4328,"ĠAlex":4329,"ĠEd":4330,"ĠTrÃ¡i":4331,"Ġtá»¥ng":4332,"oun":4333,"trong":4334,"Ġkhoan":4335,"Nga":4336,"old":4337,"ĠlÅ©y":4338,"lines":4339,"Ġngá»±":4340,"Ġxao":4341,"Nguyá»ħn":4342,"ĠArab":4343,"ĠGiá»Ŀ":4344,"ĠBN":4345,"Nghá»ĩ":4346,"ĠtrÆ°á»£t":4347,"ĠViÃªn":4348,"Cuá»ĳi":4349,"Ġcháº·ng":4350,"ĠSá»¹":4351,"ies":4352,"»Ŀi":4353,"á»Ŀi":4354,"ĠMon":4355,"ĠMich":4356,"Ġ54":4357,"ĠSáº£n":4358,"Ġ700":4359,"ÄĲáº§u":4360,"ĠSun":4361,"ĠBS":4362,"ĠSon":4363,"ĠcÆ°á»Ľc":4364,"Ġxáº¡":4365,"ĠQuyá»ģn":4366,"ath":4367,"ĠÄĳÃª":4368,"Ġbá»Ĺng":4369,"ĠdÆ°a":4370,"ics":4371,"68":4372,"urinho":4373,"ĠmÃŃ":4374,"ĠUS":4375,"ĠBarcelona":4376,"ĠBang":4377,"him":4378,"berg":4379,"Ġmáº»":4380,"Ġná»¥":4381,"ĠToyota":4382,"Háº£i":4383,"ghan":4384,"Cáº£":4385,"ĠÄĲiá»ĥm":4386,"Phá»":4387,"Gáº§n":4388,"ĠLáºŃp":4389,"ĠTham":4390,"ĠÄĳuÃ´i":4391,"800":4392,"PV":4393,"Ġhuyá»ģn":4394,"Ġgáº¡ch":4395,"LÃłm":4396,"ant":4397,"ĠtrÃ¢u":4398,"77":4399,"ĠOs":4400,"ĠSH":4401,"Ġtha":4402,"ĠTráº¡m":4403,"ĠmÄĥng":4404,"ÄĲiá»ĥm":4405,"ĠlÃ¢n":4406,"ĠlÃ´i":4407,"af":4408,"CK":4409,"Ġmá»Ŀ":4410,"DA":4411,"Ġlá»¡":4412,"ĠtrÃ¡ng":4413,"Ġinch":4414,"itter":4415,"ĠFC":4416,"Ġvs":4417,"ĠCal":4418,"ĠMc":4419,"ike":4420,"ĠCá»Ńa":4421,"´i":4422,"ĠMexico":4423,"yl":4424,"ghanistan":4425,"ĠAirlines":4426,"ĠbÃºt":4427,"Ġhoáº¡i":4428,"ĠKiáº¿m":4429,"ĠToÃ¡n":4430,"chester":4431,"ana":4432,"een":4433,"ĠlÆ°á»¡ng":4434,"Nhá»":4435,"ĠViettel":4436,"ĠCl":4437,"»©":4438,"á»©":4439,"Ġá»ĵn":4440,"ĠÄĲÃ¡ng":4441,"85":4442,"oáº¡n":4443,"Ġtháº¥u":4444,"Ġtriá»ģu":4445,"ĠsÆ°Æ¡ng":4446,"Ġ85":4447,"Ġim":4448,"ThÃ¡i":4449,"Ġhá»Ł":4450,"Ġrá»Ļn":4451,"ĠLá»ĭch":4452,"ĠSal":4453,"Ġtráº¯c":4454,"ĠTok":4455,"ive":4456,"Ġ02":4457,"ÄĲÃ¡ng":4458,"Há":4459,"Há»":4460,"ford":4461,"ĠWin":4462,"ear":4463,"ĠÄĳÃ¡y":4464,"DL":4465,"Ġsáº¡c":4466,"ĠTiáº¿ng":4467,"Ġwebsite":4468,"Ġháº¯n":4469,"ĠGroup":4470,"ĠTre":4471,"ĠCÃ¢u":4472,"gan":4473,"ĠOanh":4474,"ĠchÃ¡n":4475,"Ġnháº¯m":4476,"Ġcai":4477,"Ġvu":4478,"ĠmÃłng":4479,"ĠchÃºa":4480,"ĠNHNN":4481,"ott":4482,"ĠHN":4483,"ĠAfghanistan":4484,"combank":4485,"ĠNhÃ³m":4486,"ĠMac":4487,"ĠTin":4488,"ĠMá»įi":4489,"Ġphanh":4490,"olf":4491,"Ġsuá»ĳi":4492,"ĠnhÃŃ":4493,"ives":4494,"ĠPhá»§":4495,"vent":4496,"Ġthá»į":4497,"Ġ57":4498,")-":4499,"ĠTuyáº¿t":4500,"67":4501,"Ġdá»ĩt":4502,"ĠCB":4503,"ĠÄĲÆ¡n":4504,".,":4505,"ĠBá»ī":4506,"Ġbáº©n":4507,"ÄĲá»ģ":4508,"Ġ67":4509,"ca":4510,"ĠLÃł":4511,"Ġbi":4512,"ĠdÄ©":4513,"Ġcay":4514,"ĠSÄ©":4515,"ko":4516,"ĠDavid":4517,"Ġrá»§":4518,"Ġcáº¡n":4519,"Táº¥t":4520,"ternet":4521,"BÃłi":4522,"Ġ63":4523,"ĠXIII":4524,"ĠhÃ¡i":4525,"ĠTM":4526,"NhÃ¬n":4527,"ĠMÆ°á»Ŀng":4528,"44":4529,"bia":4530,"Ġgá»ĳi":4531,"ToÃłn":4532,"EU":4533,"Ġhiáº¿u":4534,"Ġ+":4535,"Ġphiáº¿n":4536,"ĠEn":4537,"aul":4538,"ĠxÃ´":4539,"¹m":4540,"ano":4541,"uba":4542,"ĠNhÆ°á»¡ng":4543,"Tá»ķ":4544,"Ġcá»ĵn":4545,"ĠKá»¹":4546,"Ġ52":4547,"ĠXV":4548,"ĠLÄĲLÄĲ":4549,"02":4550,"eria":4551,"khoáº£ng":4552,"Ġchip":4553,"¥n":4554,"ĠmÃły":4555,"khá»":4556,"ĠÄĳÃ¹a":4557,"Tiá»ģn":4558,"ĠmÃ³ng":4559,"urg":4560,"Tham":4561,"ĠÆ¡i":4562,"ĠcÃłi":4563,"Ġphu":4564,"Ġpháº¿":4565,"ĠSch":4566,"Ġchanh":4567,"Lu":4568,"ĠTrÆ°ng":4569,"phÃ":4570,"ĠTwitter":4571,"Ġmen":4572,"NhÃ³m":4573,"ĠTrÃ¬":4574,"ĠHol":4575,"ounce":4576,"ĠlÄĥng":4577,"ĠFor":4578,"omp":4579,"ĠTum":4580,"ĠÃ´n":4581,"ĠKCN":4582,"ĠSe":4583,"ĠÄĳá»įng":4584,"Ġ58":4585,"ĠthÃ¡p":4586,"NháºŃt":4587,"nham":4588,"%).":4589,"ĠHÄĲXX":4590,"Ġ64":4591,"Ġtáº©y":4592,"Ġngá»Ļt":4593,"98":4594,"ĠnháºŃu":4595,"hÃŃch":4596,"ĠKháº¯c":4597,"Ġmm":4598,"An":4599,"Ġáº¢":4600,"Ġvoi":4601,"ĠxÆ¡":4602,"ĠlÄĥn":4603,"ĊĊ":4604,"Ġ195":4605,"ka":4606,"Ġmá»įc":4607,"ĠMourinho":4608,"Ġhi":4609,"ĠPer":4610,"Ġmáº¯m":4611,"Ġ68":4612,"Ġbáº¯p":4613,"tá»īnh":4614,"ĠCa":4615,"08":4616,"ĠVal":4617,"700":4618,"Ġná»ĵi":4619,"Ġ2000":4620,"ĠMod":4621,"ĠMÃ´n":4622,"TáºŃp":4623,"ile":4624,"Ġdá»«a":4625,"me":4626,"ĠCTCP":4627,"ĠCá»Ńu":4628,"ĠgÅ©i":4629,"66":4630,"ĠcÃºm":4631,"Ġphe":4632,"ĠÄĳuá»ĳi":4633,"oll":4634,"ney":4635,"ĠAFF":4636,"ĠcÃ³c":4637,"ĠSaudi":4638,"Chiáº¿n":4639,"ĠquÃ£ng":4640,"ĠTV":4641,"bum":4642,"Æ¯á":4643,"Æ¯á»":4644,"ĠchÃ¨":4645,"AN":4646,"alo":4647,"Ġthá»ķi":4648,"ĠChÆ°a":4649,"td":4650,"ĠLÃłm":4651,"ull":4652,"ĠVy":4653,"Ġchuá»ĳi":4654,"ĠlÃµi":4655,"NQ":4656,"ĠkhÃ¡nh":4657,"ĠCÆ°Æ¡ng":4658,"Ġbá»ĥ":4659,"ĠcÃ¡p":4660,"roid":4661,"ĠChr":4662,"ĠTokyo":4663,"2010":4664,"Ġdá»Ł":4665,"Ġ98":4666,"ĠItaly":4667,"Ġ2007":4668,"Ġmanh":4669,"ottenham":4670,"Ġnháº¡t":4671,"uáº§n":4672,"ĠRáº¥t":4673,"Ġinternet":4674,"Ġtháº¯n":4675,"ĠsÃ¡p":4676,"ĠQuáº¿":4677,"ĠHam":4678,"ĠdÃ¡n":4679,"HO":4680,"ĠnÃ£":4681,"ĠUA":4682,"ĠKhoáº£ng":4683,"PP":4684,"eh":4685,"Há»įc":4686,"ĠÄĲÃ£":4687,"ĠBáº¥t":4688,"Ġká»ģ":4689,"ĠBÄĲS":4690,"ĠxÃ´ng":4691,"Ġngá»±a":4692,"Ġoxy":4693,"ĠÄĳÃłnh":4694,"ovic":4695,"Khá»":4696,"iga":4697,"BÃŃ":4698,"ÄĲÃ£":4699,"ĠManchester":4700,"Ġtháº§m":4701,"ĠngÃ³n":4702,"ĠVP":4703,"ĠÄĳá»Ľn":4704,"ĠBOT":4705,"ĠCor":4706,"Ba":4707,"Ġná»Ľi":4708,"ĠVen":4709,"ĠCuá»ĳi":4710,"cm":4711,"ĠbÃ¡ch":4712,"Ġbáº£y":4713,"ĠGiÃ¡p":4714,"ĠKhá»ĳi":4715,"ĠTráº¡ch":4716,"Thu":4717,"ĠDai":4718,"ĠHiá»ĥn":4719,"ĠCÄĲV":4720,"ĠdÅ©ng":4721,"ĠÄĲá»ĳng":4722,"ĠDel":4723,"Ġshowbiz":4724,"ĠhÃ£i":4725,"ĠFed":4726,"arao":4727,"ox":4728,"TÄĥng":4729,"Ġkhoai":4730,"§a":4731,"Ġhang":4732,"bao":4733,"Báº£n":4734,"Ġchuá»Ļng":4735,"Ġváº¡n":4736,"ĠUB":4737,"HÃłnh":4738,"Ã©n":4739,"Ġkiá»ģu":4740,"ĠÃĶ":4741,"Ġcá»ĳc":4742,"eon":4743,"Lá»ħ":4744,"ĠHCV":4745,"Há»į":4746,"ĠMor":4747,"07":4748,"Ġ72":4749,"ĠÄĳÃ²n":4750,"Ġtá»±a":4751,"ĠHIV":4752,"Ġkhe":4753,"DN":4754,"ĠATGT":4755,"VÄĥn":4756,"ĠTá»ĳi":4757,"Ġá»Ľt":4758,"ĠNhu":4759,"Ġkhá»Ń":4760,"ĠThay":4761,"Tráº£":4762,"ĠhoÃłnh":4763,"eth":4764,"ĠYou":4765,"Ġtáº§n":4766,"áº»o":4767,"Ġkiá»ĩt":4768,"ĠMark":4769,"ĠCuba":4770,"ĠÄĳÃºc":4771,"Ġ53":4772,"ĠMas":4773,"Ġnáº¡p":4774,"ĠngÃ´":4775,"ĠFDI":4776,"ĠBer":4777,"ĠngÃ¢m":4778,"itco":4779,"Ġ99":4780,"TW":4781,"Nhiá»ĩt":4782,"HS":4783,"Ġráº¡p":4784,"ĠGl":4785,"ĠVan":4786,"ĠPháº£i":4787,"Ġxi":4788,"Ġoan":4789,"Ġrá»ĥ":4790,"IM":4791,"ĠxÆ°ng":4792,"ĠHÃ´m":4793,"ĠxÃ´n":4794,"ĠNiÃªn":4795,"Ġchá»Ń":4796,"Ġ66":4797,"Ġgá»¥c":4798,"BÃ¡c":4799,"TTg":4800,"ĠÃło":4801,"ĠBÃ¡ch":4802,"Ġá»ĳm":4803,"ĠAndroid":4804,"ĠcÃºp":4805,"ĠNhÃ£":4806,"ĠchÄĥng":4807,"Thay":4808,"Báº¯t":4809,"ĠBÄĲBP":4810,"phÆ°á»Ŀng":4811,"ial":4812,"ĠXanh":4813,"ael":4814,"ĠhÆ°á»Ľc":4815,"ĠTriá»ĥn":4816,"ĠXe":4817,"43":4818,"BN":4819,"¨ng":4820,"pr":4821,"Ġdáº£i":4822,"CÃ¢u":4823,"ĠCáº¥p":4824,"ĠTimes":4825,"ON":4826,"ĠEuro":4827,"ari":4828,"ĠNÃ³i":4829,"LÃ½":4830,"Ġpr":4831,"ĠmÃ²":4832,"....":4833,"ĠHe":4834,"GiÃ¡m":4835,"tÆ°Æ¡ng":4836,"Diá»ħn":4837,"06":4838,"araoke":4839,"09":4840,"Ġphiá»ģn":4841,"ĠAN":4842,"Ġlá»Ļi":4843,"Ġsoi":4844,"ĠPak":4845,"ĠgÃ¡c":4846,"AP":4847,"Ġdá»ĵi":4848,"ĠKhang":4849,"ĠDÆ°á»£c":4850,"ens":4851,"outh":4852,"»µ":4853,"á»µ":4854,"ĠHD":4855,"42":4856,"ĠSport":4857,"Ġao":4858,"ĠVÃŃ":4859,"Ġ05":4860,"ĠkÃ©p":4861,"Ġdá»ĳi":4862,"Ġtour":4863,"HoÃłng":4864,"ĠVáº¡n":4865,"Ġbá»Ļc":4866,"ĠSÃ¡u":4867,"ĠVlad":4868,"ChÆ°a":4869,"ªnh":4870,"»«ng":4871,"á»«ng":4872,"mer":4873,"atar":4874,"ĠxÃł":4875,"ĠNLÄĲ":4876,"Ġtháº¥m":4877,"oft":4878,"Ġ59":4879,"ĠMus":4880,"Cá»¥c":4881,"Ġmá»¥n":4882,"ĠNTM":4883,"á»ĭt":4884,"ĠÄĳá»¥ng":4885,"Há»ĵ":4886,"ttp":4887,"Ġná»©t":4888,"VOV":4889,"ĠgiÃłn":4890,"Ġbá»Ļi":4891,"ĠÄĳáº¯n":4892,"ĠLáº¡p":4893,"Ġcar":4894,"ĠgÃ£":4895,"Ġranh":4896,"ĠThÃ¢n":4897,"ÃĶ":4898,"Ġhiá»ĥn":4899,"Ġkiá»ģm":4900,"ova":4901,"ĠhoÃłi":4902,"Tuá»ķi":4903,"ĠnghiÃªng":4904,"Ġhttp":4905,"ĠBÄĥng":4906,"Ġtháº¯c":4907,"Ġtá»ĵi":4908,"ĠluÃ¢n":4909,"Ġháº¡m":4910,"ĠxÃ¡":4911,"car":4912,"ĠnÃ´n":4913,"hop":4914,"ĠCháº³ng":4915,"ĠTottenham":4916,"TÃłu":4917,"Ġloa":4918,"ĠTá»·":4919,"ĠKá»·":4920,"The":4921,"ve":4922,"ĠMilan":4923,"2025":4924,"Ġráº½":4925,"âĢĿ;":4926,"rl":4927,"Ġ62":4928,"ĠchÃ©p":4929,"ĠngÆ°ng":4930,"ĠVá»ĭnh":4931,"DÆ°á»Ľi":4932,"Báº£o":4933,"ĠKÃ´ng":4934,"ind":4935,"Ġcua":4936,"03":4937,"ish":4938,"ĠChiáº¿c":4939,"Ġlá»Ļc":4940,"ĠViáº¿t":4941,"ĠChiá»ģu":4942,"41":4943,"ĠHÆ°á»Ľng":4944,"ĠPSG":4945,"ĠchÃ´n":4946,"Ġtrá»ħ":4947,"ĠNÄĥng":4948,"Ká»ĥ":4949,"Ġmá»Ļng":4950,"ĠÄĲBQH":4951,"ĠIV":4952,"ĠTuá»ķi":4953,"ĠJack":4954,"GB":4955,"ĠWal":4956,"Ġ09":4957,"HN":4958,"ĠBayern":4959,"ĠNÃªn":4960,"ĠSol":4961,"ĠEVN":4962,"ond":4963,"ĠKhai":4964,"ĠÄĳoan":4965,"CA":4966,"ĠsÃºc":4967,"ĠvÃłnh":4968,"ĠDiá»ĩu":4969,"ĠTháº§n":4970,"ĠLáº§n":4971,"Ġ110":4972,"ventus":4973,"TÆ°Æ¡ng":4974,"Ġeo":4975,"ĠFPT":4976,"ĠLib":4977,"ĠMic":4978,"theo":4979,"ĠbÃłng":4980,"Ġbáº¥m":4981,"Ġláº·n":4982,"ĠMá»¥c":4983,"ĠMá»©c":4984,"ĠMTV":4985,"Ġchá»Ńi":4986,"Ca":4987,"Ġtuyáº¿t":4988,"Ġhoáº¡n":4989,"ĠtÃª":4990,"uz":4991,"ĠCEO":4992,"Ġcong":4993,"Ġ03":4994,"»ı":4995,"á»ı":4996,"Ġ2006":4997,"err":4998,"TÃłi":4999,"Ġrá»ī":5000,"Ġghen":5001,"ĠXuáº¥t":5002,"Ĥn":5003,"ĠVKSND":5004,"ĠbuÃ´ng":5005,"GP":5006,"ÄĲÆ°á»Ŀng":5007,"ĠGÃ²":5008,"imir":5009,"ĠKháº£i":5010,"tÄĥng":5011,"ĠVND":5012,"Ġdáº¡o":5013,"HÃ£y":5014,"ena":5015,"ĠCá»©":5016,"ĠFI":5017,"ĠNhÃ¬n":5018,"ĠPa":5019,"Ġláº¯c":5020,"ala":5021,"Ġdáº¹p":5022,"Ġthoáº£ng":5023,"iano":5024,"wood":5025,"Ġngoan":5026,"ĠlÆ¡":5027,"ĠHuÃ¢n":5028,"ĠkhoÄĥn":5029,"ĠxÃŃch":5030,"RiÃªng":5031,"ura":5032,"iel":5033,"ĠDon":5034,"Vá»«a":5035,"ational":5036,"ĠLá»¥c":5037,"enz":5038,"ler":5039,"LC":5040,"iev":5041,"DÃ¢n":5042,"ĠphÆ¡i":5043,"Æ¯T":5044,"Ġrung":5045,"ĠTráº»":5046,"Ġkaraoke":5047,"Ġhiá»ģn":5048,"Ġst":5049,"ĠmÃ¨o":5050,"ĠTR":5051,"ure":5052,"Ġhá»ĳ":5053,"illa":5054,"Ġ1990":5055,"78":5056,"ĠcháºŃt":5057,"gh":5058,"ĠthÃ¡nh":5059,"dow":5060,"Ġ61":5061,"ner":5062,"arl":5063,"MW":5064,"Há»ĩ":5065,"Ġde":5066,"ĠUyÃªn":5067,"Ġalbum":5068,"ĠTráº¥n":5069,"PhÆ°Æ¡ng":5070,"69":5071,"KH":5072,"ĠVic":5073,"ĠthÆ°a":5074,"Báº¥t":5075,"ĠlÃ©o":5076,"ĠId":5077,"ĠChuyÃªn":5078,"Doanh":5079,"63":5080,"ĠtÃºng":5081,"ww":5082,"ĠCT":5083,"Hu":5084,"ĠVladimir":5085,"ĠlÃ¹ng":5086,"ĠcÃ´n":5087,"ĠPakistan":5088,"CÄĥn":5089,"ĠAngel":5090,"QuÃ¡":5091,"ĠGrand":5092,"ide":5093,"ĠVá»ĭ":5094,"ĠLHQ":5095,"rosoft":5096,"Ġnháº·t":5097,"ĠCung":5098,"ĠUtd":5099,"ny":5100,"ĠDiá»ħm":5101,"Ġhá»įng":5102,"Ġvá»ĭt":5103,"Ġlives":5104,"Ġand":5105,"ĠBáº£y":5106,"ĠTiÃªu":5107,"Ġcá»įc":5108,"ced":5109,"ĠBTC":5110,"que":5111,"Ġthá»ĭnh":5112,"ĠGáº§n":5113,"ĠGre":5114,"cho":5115,"sh":5116,"ĠmÃ¡":5117,"Quan":5118,"iu":5119,"Ġcá»Łi":5120,"ĠPhá»ķ":5121,"ĠKiá»ĩt":5122,"ĠbÄĥn":5123,"52":5124,"HC":5125,"ĠBlack":5126,"ĠrÃ¡p":5127,"ja":5128,"Ġthá»§ng":5129,"ĠBá»ĭ":5130,"ĠBá»ĳ":5131,"ĠGiÃ¡ng":5132,"ake":5133,"SCL":5134,"Ġráº¯c":5135,"ith":5136,"Chi":5137,"HÃ£ng":5138,"ĠlÃ¡t":5139,"ĠtrÄĥng":5140,"ĠTX":5141,"ĠHan":5142,"Ġ78":5143,"ata":5144,"Ãªnh":5145,"ĠmÃ²n":5146,"ĠSiÃªu":5147,"ĠTuáº§n":5148,"PhÃŃa":5149,"ĠChÃº":5150,"ĠSN":5151,"Máº·t":5152,"ĠhÃł":5153,"ĠTp":5154,"ĠkhÃ´n":5155,"Ġvá»įt":5156,"ĠTháº¥y":5157,"ĠTal":5158,"Ġláº·p":5159,"IN":5160,"Ġsen":5161,"MC":5162,"»Ĺ":5163,"ĠBID":5164,"á»Ĺ":5165,"ĠQuyÃªn":5166,"ĠthiÃªng":5167,"Ġnho":5168,"ĠBank":5169,"Kho":5170,"Ġvá»Ľt":5171,"etro":5172,"ĠHNX":5173,"ĠháºŃn":5174,"ĠLo":5175,"LuáºŃt":5176,"Ġthá»ģm":5177,"Song":5178,"thÃ¹ng":5179,"akh":5180,"PhÃ²ng":5181,"ĠSá»©c":5182,"Ġsá»¥p":5183,"TráºŃn":5184,"Trang":5185,"edia":5186,"Ġgiá»įt":5187,"Pháº§n":5188,"Ġmá»Ļc":5189,"uss":5190,"ĠTÆ°Æ¡ng":5191,"ĠÄĳÃ´n":5192,"ĠquÃ¡i":5193,"Ġdáº¡i":5194,"bon":5195,"Ġ69":5196,"Ġtá»ıi":5197,"TH":5198,"ĠtÆ°á»Ľi":5199,"tra":5200,"urn":5201,"ĠMá»Ļc":5202,"ĠkhÃ¡i":5203,"ĠKhÆ°Æ¡ng":5204,"¹i":5205,"Ġbar":5206,"Ġsiáº¿t":5207,"57":5208,"ĠVÃ¹ng":5209,"wei":5210,"Ġnhá»įn":5211,"ĠQH":5212,"ÄĲÃ¡nh":5213,"ĠQuÃ¡n":5214,"ade":5215,"ĠhÃ²n":5216,"ĠÄĳáº±ng":5217,"ĠUN":5218,"itcoin":5219,"ĠMun":5220,"NTÄĲ":5221,"ĠlÃ¡ng":5222,"Ġ2005":5223,"ĠQuÃ¡":5224,"Ġcáº¯n":5225,"ĠViá»ħn":5226,"Ġthá»Ńa":5227,"Ġkhuy":5228,"mua":5229,"ĠArabia":5230,"Ġax":5231,"Ġ92":5232,"ĠWill":5233,"ĠGeo":5234,"ĠHÃ£ng":5235,"Má»įi":5236,"ĠDaily":5237,"ĠOnline":5238,"ĠSup":5239,"Ġbá»ĵn":5240,"ĠHÃ¡n":5241,"Ġngáº·t":5242,"Ġmi":5243,"ĠHua":5244,"ĠvÃ£":5245,"Ġchay":5246,"ĠtÆ°á»Ľc":5247,"atch":5248,"MÃ¡y":5249,"ĠMob":5250,"ĠBÃ³ng":5251,"Máº¹":5252,"ĠAI":5253,"ĠSeoul":5254,"Ġngu":5255,"ĠxÃ³t":5256,"thuá»Ļc":5257,"ĠJuventus":5258,"ĠKhanh":5259,"erry":5260,"ĠTrÃºc":5261,"ĠCap":5262,"Láº§n":5263,"áº·m":5264,"ania":5265,"ĠÄĳáº¯ng":5266,"Net":5267,"ĠBuÃ´n":5268,"ĠnhÆ°á»Ŀng":5269,"undai":5270,"men":5271,"ĠRa":5272,"ĠChinh":5273,"âĢĿ-":5274,"ĠÄĲÃłn":5275,"Ġrá»Ļ":5276,"Quy":5277,"__":5278,"ĠJe":5279,"ĠHáº§u":5280,"Cáº§u":5281,"Ġtáº¡ng":5282,"ĠHÃłm":5283,"ĠlÆ°á»¡i":5284,"iam":5285,"Ã©c":5286,"Ġman":5287,"ĠGen":5288,"ĠtÃ¡ng":5289,"04":5290,"Ġson":5291,"ĠFord":5292,"ĠkÄ©":5293,"Ġ88":5294,"ĠNG":5295,"ĠghÃ©":5296,"Giá»Ľi":5297,"AD":5298,"ĠdÃ£y":5299,"su":5300,"ĠCAND":5301,"ĠItalia":5302,"Ġtháº¡ch":5303,"ĠHay":5304,"Ġngá»¡":5305,"ĠInst":5306,"yd":5307,"ĠGuard":5308,"ĠÄĳiÃªn":5309,"ÃĤ":5310,"ĠÄĳáº¡m":5311,"ĠNguyá»ĩt":5312,"ĠBlo":5313,"ĠDáº§n":5314,"79":5315,"Ġtest":5316,"Vá»£":5317,"ĠMÃ´ng":5318,"TCK":5319,"ĠJoe":5320,"Ġgiáº¿":5321,"Ġrá»ĩt":5322,"ER":5323,"ĠPhÃ¹":5324,"Chuyá»ĩn":5325,"ĠKhÃ¡ch":5326,"agram":5327,"ĠGiá»Ľi":5328,"use":5329,"ĠÄĳáº¡c":5330,"seo":5331,"Ġkhá»ĳc":5332,"port":5333,"Ġdáº¡n":5334,"'s":5335,"Ġ130":5336,"over":5337,"SI":5338,"tream":5339,"Ġkhoang":5340,"dar":5341,"ĠxÃ´i":5342,"ĠGP":5343,"72":5344,"Ġcuá»ĵng":5345,"Ráº¥t":5346,"ĠJames":5347,"VC":5348,"ĠWest":5349,"ĠSai":5350,"ĠmÃ¹ng":5351,"ĠmÃ¢m":5352,"khá»§ng":5353,"Ġxen":5354,"áº¾":5355,"ĠThÃªm":5356,"per":5357,"Ġnghiá»ĩt":5358,"Ġkáº¹o":5359,"lu":5360,"ĠHÃ¢n":5361,"MB":5362,"are":5363,"iforn":5364,"Há»ĵi":5365,"ĠPhÃŃa":5366,"ĠTáº¡":5367,"ĠWe":5368,"ĠÄĲáº£o":5369,"ĠthiÃªu":5370,"ĠFIFA":5371,"ifornia":5372,"ĠnÆ°Æ¡ng":5373,"Ġtre":5374,"ĠnhÃ¡t":5375,"ĠKiev":5376,"cedes":5377,"ealand":5378,"erb":5379,"62":5380,"Æ°Æ¡m":5381,"2009":5382,"Ġ180":5383,"Ġkáº½":5384,"ĠOr":5385,"Ġneo":5386,"ĠGT":5387,"ĠchÃ©o":5388,"mi":5389,"Ġcháº£":5390,"Ġsex":5391,"Ġj":5392,"ky":5393,"Ġrao":5394,"ĠMicrosoft":5395,"uela":5396,"58":5397,"ect":5398,"':":5399,"NgÃ¢n":5400,"Ġa":5401,"otein":5402,"ĠxÃŃ":5403,"ward":5404,"ĠEver":5405,"ĠNo":5406,"PA":5407,"ĠXin":5408,"ĠRam":5409,"lÃłm":5410,"ĠCÃºp":5411,"Ġgáº§m":5412,"ĠLÄĥng":5413,"ĠQatar":5414,"ĠCáºŃn":5415,"ĠBÃłn":5416,"ĠmÃŃa":5417,"Ġ04":5418,"900":5419,"NS":5420,"ings":5421,"oney":5422,"ĠGa":5423,"ĠZealand":5424,"ChuyÃªn":5425,"ĠÄĲBSCL":5426,"NÆ°á»Ľc":5427,"Thiáº¿u":5428,"ĠbÆ°á»Łi":5429,"Tiáº¿n":5430,"Ġ350":5431,"cá»ķ":5432,"ĠtÃ¹ng":5433,"ĠSÃ¢n":5434,"VáºŃy":5435,"ĠLÄ©nh":5436,"59":5437,"Ġvá»©t":5438,"ital":5439,"ĠCNTT":5440,"ezuela":5441,"ĠTuyáº¿n":5442,"TÃ¢n":5443,"ĠthÃ¬a":5444,"Ġtá»ĳng":5445,"Ľc":5446,"Tá»·":5447,"ren":5448,"che":5449,"Vietnam":5450,"eta":5451,"ĠCÄĥn":5452,"Ġnhiáº¿p":5453,"ĠcháºŃu":5454,"ĠnÃ©n":5455,"lay":5456,"Ġfacebook":5457,"Ġgas":5458,"Ġ76":5459,"Ġváº¡ch":5460,"Å©a":5461,"Ġvá»ĭnh":5462,"Nhá»Ŀ":5463,"Ġmá»ĵi":5464,"ors":5465,"ĠSw":5466,"ĠÃĤm":5467,"Ġlau":5468,"ĠvÆ°á»£ng":5469,"Ġlog":5470,"ĠBus":5471,"ĠCalifornia":5472,"ĠxÃ¡t":5473,"ĠÄĳÃ¨":5474,"ment":5475,"Ġtáº·c":5476,"ĠMot":5477,"ĠSerg":5478,"ĠbÃ¹n":5479,"Ġtháº¯p":5480,"aco":5481,"âĢĵ":5482,"Ar":5483,"Cá»±u":5484,"Ġ77":5485,"Ġmá»ĭn":5486,"ĠMÃ¹a":5487,"ĠÄĳÃŃnh":5488,"ANTÄĲ":5489,"any":5490,"Ġquá»µ":5491,"ĠDr":5492,"ĠTÃ¡m":5493,"Ġbáº¥y":5494,"ĠRá»ĵi":5495,"ĠquyÃªn":5496,"andal":5497,"Ġrá»ĵng":5498,"UV":5499,"ĠTay":5500,"QuÃ¢n":5501,"ĠSil":5502,"ĠtrÄĥn":5503,"ĠÃģo":5504,"Ġgiá»ģng":5505,"tá»©c":5506,"ÄĲi":5507,"ĠXI":5508,"ĠBel":5509,"ĠKhoáº£n":5510,"ĠBi":5511,"ĠÄĳáº¿m":5512,"ĠSV":5513,"54":5514,"199":5515,"sá»Ńa":5516,"ĠquÃ¡t":5517,"Ġlui":5518,"eland":5519,"Ġngáº¥t":5520,"ĠrÃ¡o":5521,"ĠhÃłn":5522,"ĠDiá»ĩp":5523,"Äĳá":5524,"Äĳá»":5525,"----":5526,"Ġbuá»ĵng":5527,"ibank":5528,"Minh":5529,"ĠKm":5530,"ĠcÃłnh":5531,"Ná»Ļi":5532,"ĠnÃ¢u":5533,"MÃ¹a":5534,"ĠÃª":5535,"Ġviáº¿ng":5536,"áº»m":5537,"ĠÄĳá»ĳng":5538,"he":5539,"ĠSouth":5540,"sky":5541,"ĠTháºŃt":5542,"ĠPan":5543,"ĠÄĳá»ĩm":5544,"aff":5545,"ĠNT":5546,"UY":5547,"Ġaxit":5548,"hÃ³a":5549,"ĠvuÃ´ng":5550,"Ġno":5551,"Ġemail":5552,"eymar":5553,"abe":5554,"ĠTNGT":5555,"Ġcm":5556,"ĠKar":5557,"ĠAc":5558,"¨m":5559,"Ġngá»įc":5560,"Ġdáº·n":5561,"ym":5562,"ander":5563,"Ká»³":5564,"ĠLHP":5565,"obot":5566,"ĠMÃ¬nh":5567,"ĠVietcombank":5568,"ĠRos":5569,"sa":5570,"att":5571,"ÄĲÃªm":5572,"etty":5573,"dows":5574,"ĠTom":5575,"Ġ79":5576,"ĠHuawei":5577,"So":5578,"táº¥n":5579,"ĠSl":5580,"ĠInstagram":5581,"Ġháº¡ch":5582,"aka":5583,"ĠKhÃŃ":5584,"ĠTá»©":5585,"ĠClin":5586,"ĠtÃ²":5587,"way":5588,"ĠTrá»Ŀi":5589,"cÃ´ng":5590,"Ġváº·t":5591,"ĠNháºŃn":5592,"Quang":5593,"ĠYouT":5594,"ĠVenezuela":5595,"áº½n":5596,"Ġ86":5597,"Ġxá»ķ":5598,"Ġkhao":5599,"Ġ1992":5600,"ĠKur":5601,"PhiÃªn":5602,"Ġngáº§n":5603,"ĠGo":5604,"Ġ900":5605,"ĠtrÃ¡n":5606,"Ġdá»Ĺ":5607,"RO":5608,"ĠkÃŃp":5609,"Æł":5610,"gon":5611,"ĠKá»ĥ":5612,"Ġ2003":5613,"Ġ06":5614,"Man":5615,"ĠSL":5616,"ĠMu":5617,"ji":5618,"Ġkhuáº¥t":5619,"Vá»ĭ":5620,"ĠBIDV":5621,"yan":5622,"»¦y":5623,"á»¦y":5624,"ates":5625,"Ġ71":5626,"ĠdÃło":5627,"oz":5628,"ĠMáº¡ch":5629,"Clip":5630,"Ġmá»ī":5631,"igh":5632,"ĠsÆ°á»Ŀn":5633,"ĠCATP":5634,"Ġprotein":5635,"ĠvÃº":5636,"ĠChÃ¢n":5637,"ÃĬ":5638,"ĠKia":5639,"Ġgiáº¿ng":5640,"ĠPhá»ĳ":5641,"Ġ81":5642,"ĠGeor":5643,"ĠQuáº£":5644,"Ġgirl":5645,"Äĥk":5646,"ĠMÃ¡y":5647,"ĠZing":5648,"Ġkhiáº¿p":5649,"my":5650,"VTC":5651,"Ġgieo":5652,"ĠÄĳiá»ģn":5653,"ĠnÃ²ng":5654,"ĠkhiÃªu":5655,"Báº¯c":5656,"ĠIr":5657,"wn":5658,"ĠchiÃªn":5659,"ĠCháº¥t":5660,"ĠSG":5661,"ĠÃĤn":5662,"ĠTech":5663,"?âĢĿ.":5664,"BA":5665,"Ġxoáº¯n":5666,"Ġ73":5667,"XÃ¢y":5668,"ĠHa":5669,"Ġvan":5670,"ThÃªm":5671,"ĠOld":5672,"ĠMÃª":5673,"náº¿u":5674,"ali":5675,"ĠTrÃ¢m":5676,"Ġgiáº·t":5677,"Pad":5678,"ĠÄĲá»ı":5679,"ĠÄĳáº·n":5680,"ĠAv":5681,"Ġgolf":5682,"Quyáº¿t":5683,"pe":5684,"ĠrÃ²":5685,"Ġnáº¡":5686,"top":5687,"ÄĲá»©c":5688,"Ġ2004":5689,"Ġham":5690,"Ġnghá»ĭch":5691,"ĠChan":5692,"ĠhÃ©":5693,"QL":5694,"ĠBol":5695,"Ġcáº¥y":5696,"ĠtÃ³m":5697,"ĠVictor":5698,"ĠcÃ²i":5699,"ĠNgÃłnh":5700,"ĠVáº¥n":5701,"ĠthÃ¡m":5702,"Xuáº¥t":5703,"ĠBÆ°á»Ľc":5704,"ĠKT":5705,"tá»±":5706,"ele":5707,"Ġtháº±ng":5708,"ĠHolly":5709,"ĠSá»Ń":5710,"ThÆ°Æ¡ng":5711,"ĠLiga":5712,"Sinh":5713,"BÄĲ":5714,"ĠThan":5715,"PG":5716,"ĠKhuÃª":5717,"ĠÄĲi":5718,"64":5719,"chi":5720,"ĠsÆ°á»Ľng":5721,"agon":5722,"»įng":5723,"á»įng":5724,"ĠNV":5725,"Nháº±m":5726,"ĠCNN":5727,"ĠPlus":5728,"chÃ":5729,"ĠHyundai":5730,"Ġ74":5731,"Ġhao":5732,"ĠYoung":5733,"Ġ08":5734,"ĠPhiÃªn":5735,"ĠWindows":5736,"letico":5737,"ĠRod":5738,"ĠbÆ°u":5739,"HÃłn":5740,"Ġgen":5741,"Ġnáº¯p":5742,"Quá»ĳc":5743,"ĠxÄĥm":5744,"ĠNÃºi":5745,"enc":5746,"Pháº£i":5747,"estine":5748,"ĠMercedes":5749,"ĠcÆ°ng":5750,"Ġsc":5751,"NgÃ´i":5752,"NLÄĲ":5753,"áºł":5754,"oth":5755,"burg":5756,"ĠStar":5757,"ĠTri":5758,"Ġ82":5759,"GiÃ¡o":5760,"ĠGar":5761,"ĠLÃ²":5762,"Ġbáº«y":5763,"SCO":5764,"Iá":5765,"Iá»":5766,"ĠAss":5767,"ĠShin":5768,"Danh":5769,"ĠUAE":5770,"Kim":5771,"ĠmÆ°á»Ŀi":5772,"ĠBig":5773,"ĠNSND":5774,"ĠlÃ³t":5775,"Ġná»ĳt":5776,"ĠÄĲá»«ng":5777,"ĠShi":5778,"Tá»Ŀ":5779,"ĠGrab":5780,"Ġluá»Ļc":5781,"ĠMÆ°á»Ŀi":5782,"Huáº¿":5783,"ĠRes":5784,"TÃ¢y":5785,"sá»ĳ":5786,"Ġ89":5787,"ĠbÃ³c":5788,"Ġ1995":5789,"ĠVTC":5790,"Triá»ĥn":5791,"ĠvÄĥng":5792,"ĠNSÆ¯T":5793,"Ġká»ī":5794,"ĠÄĳiÃªu":5795,"Ġnuá»ĳi":5796,"ony":5797,"ĠJose":5798,"lus":5799,"Ġxáº»":5800,"ĠxÃło":5801,"ĠDÆ°á»Ľi":5802,"ĠCas":5803,"ĠlÃª":5804,"Ai":5805,"ĠTÃ½":5806,"ock":5807,"we":5808,"ĠÄĳÃ¨o":5809,"Ġáº¡":5810,"ĠtrÃłng":5811,"ĠdÃ©p":5812,"stan":5813,"Ġchuá»ĵng":5814,"Ġradar":5815,"Ġnan":5816,"Ġháº»m":5817,"Lá»ĭch":5818,"de":5819,"ĠLÆ°á»£ng":5820,"ĠVáºŃt":5821,"Ġbá»©t":5822,"li":5823,"ĠCá»ķng":5824,"ĠLuÃ¢n":5825,"ĠXi":5826,"ÄĳÃ£":5827,"ĠPaul":5828,"ĠMichael":5829,"Ġtáº¡":5830,"SA":5831,"ĠNgá»į":5832,"ĠThÃ¡nh":5833,"our":5834,"ĠxÃ¡m":5835,"Ġtá»ħ":5836,"ĠCÆ°":5837,"Ġlá»ĳp":5838,"89":5839,"ĠEs":5840,"ins":5841,"ews":5842,"ĠKy":5843,"anc":5844,"ĠVá»ĩ":5845,"enko":5846,"ĠYouTube":5847,"ĠJon":5848,"ĠOm":5849,"ĠWar":5850,"ĠchiÃªm":5851,"Sao":5852,"ĠchuÃ´ng":5853,"ĠbÆ¡":5854,"53":5855,"ĠClinton":5856,"Ġquáº§y":5857,"ĠAz":5858,"Ġ?":5859,"ĠTa":5860,"ĠThÃŃch":5861,"ĠAgr":5862,"EM":5863,"Ġnhá»©c":5864,"Ġgá»«ng":5865,"afford":5866,"Ġngháº½n":5867,"ĠchÃ¬a":5868,"aya":5869,"ĠPalestine":5870,"Má»¥c":5871,"ĠkhiÃªm":5872,"ĠMunich":5873,"ĠMB":5874,"ella":5875,"ĠMiá»ģn":5876,"ĠÄĳÅ©a":5877,"ĠThá»©c":5878,"orm":5879,"ĠVá»«a":5880,"aza":5881,"ĠNgá»¯":5882,"HÄĲ":5883,"Ġlá»Ļt":5884,"Ġgiang":5885,"erg":5886,"Ġ87":5887,"Ġ83":5888,"áº¿ch":5889,"2008":5890,"ml":5891,"ĠCÃ¡n":5892,"Ġ96":5893,"EP":5894,"ĠOp":5895,"Ġrobot":5896,"ance":5897,"ĠBrun":5898,"ĠnÃłn":5899,"ise":5900,"Ġtá»¥t":5901,"ĠTrafford":5902,"ts":5903,"Ġ91":5904,"TNO":5905,"Ġ97":5906,"Ġá»§":5907,"ĠKhuyáº¿n":5908,"Ġkhan":5909,"ĠJenn":5910,"ĠSá»Ńu":5911,"ĠOne":5912,"ĠnghÃªnh":5913,"ĠTáº¡p":5914,"chÆ°a":5915,"ĠLand":5916,"ĠkhÃŃa":5917,"Ġxoa":5918,"chiáº¿m":5919,"Ġ1993":5920,"ĠTháº§y":5921,"nik":5922,"ĠTik":5923,"HáºŃu":5924,"istics":5925,"ĠCá»ĳ":5926,"ĠtÃ¡m":5927,"TháºŃt":5928,"iy":5929,"KhÃ¡ch":5930,"ĠChrist":5931,"ĠphÃ¬":5932,"Ġnha":5933,"ĠKhá»Łi":5934,"bi":5935,"ĠMax":5936,"ĠND":5937,"ĠNeymar":5938,"Sáº£n":5939,"Ġcor":5940,"Ġ160":5941,"Kinh":5942,"Ġ84":5943,"Ġbáº¡":5944,"ĠáºŃp":5945,"Tháº¥y":5946,"sal":5947,"¥a":5948,"Ġkhuya":5949,"ĠTháº¥t":5950,"ĠMáº«u":5951,"įi":5952,"ĠMÃ£o":5953,"ĠHollywood":5954,"ĠPat":5955,"kok":5956,"Ġlá»¯":5957,"rol":5958,"ĠÄĳun":5959,"ĠWon":5960,"Ġrong":5961,"ĠvÃ¢n":5962,"ĠmÃ¬n":5963,"ĠtrÆ¡n":5964,"its":5965,"ival":5966,"uel":5967,"Ġhoi":5968,"ĠrÄĥn":5969,"national":5970,"TTP":5971,"Ngoáº¡i":5972,"ĠbÃ³p":5973,"ĠvÄ©nh":5974,"Æ¯á»Ľc":5975,"ĠHá»Ĺ":5976,"ĠBÃ©":5977,"ĠEa":5978,"ĠBitcoin":5979,"ĠÃºt":5980,"ĠPH":5981,"Ġá»¨ng":5982,"ĠMart":5983,"ĠÄĳÃ¹i":5984,"ĠVietin":5985,"ĠLáº¡i":5986,"ĠÄĲÃªm":5987,"oto":5988,"Ġkhoanh":5989,"ĠvÃ¡n":5990,"ĠHarry":5991,"ĠSn":5992,"Ġ140":5993,"ĠHoáº¡t":5994,"áº¿m":5995,"âĢ¦,":5996,"zo":5997,"ĠlÃ¡nh":5998,"ĠNov":5999,"cÃ¡c":6000,"ishi":6001,"ĠPep":6002,"ome":6003,"Ġquáº¡t":6004,"Phá»¥":6005,"ĠGetty":6006,"ĠÄĳáº¯m":6007,"ĠÆ°á»Ľt":6008,"ĠghÃ©t":6009,"ĠmÃłi":6010,"Ġnáº¥y":6011,"Ġnhá»Ļn":6012,"Ġgáº·t":6013,"Ngá»įc":6014,"esh":6015,"Ġ1997":6016,"Ġbá»ĵ":6017,"76":6018,"ThÆ°á»£ng":6019,"ĠphÃ´":6020,"Ġváº¥p":6021,"azon":6022,"ĠMÃ¹i":6023,"thÃłnh":6024,"Nghá»ĭ":6025,"ĠThuá»Ļt":6026,"ĠPost":6027,"ĠNgÃ´i":6028,"Giá»Ŀ":6029,"ĠÄĲáº¯c":6030,"els":6031,"ĠAtletico":6032,"Ġmini":6033,"SiÃªu":6034,"eing":6035,"ĠLá»Ļ":6036,"ĠHá»£i":6037,"ĠhÃ©t":6038,"Ġ1999":6039,"ĠCrim":6040,"ĠchÃ¨o":6041,"Ġrá»ĳt":6042,"ĠsÆ°ng":6043,"ĠSUV":6044,"Ġ2002":6045,"ĠQuá»·":6046,"ĠLibya":6047,"ĠLá»¯":6048,"ÄĳÆ°á»Ŀng":6049,"56":6050,"ĠFlor":6051,"ĠKl":6052,"Ġ1994":6053,"ĠxuÃ´i":6054,"ĠxÃ¬":6055,"Ġchiáº¿t":6056,"ĠChiá»ĥu":6057,"Ġ(+":6058,"ÃŃp":6059,"Ġtia":6060,"LÃª":6061,"ĠCá»±u":6062,"ga":6063,"ĠNet":6064,"ĠCro":6065,"FTA":6066,"bin":6067,"ĠlÆ°á»Ľt":6068,"Ġlá»¥y":6069,"»ģn":6070,"á»ģn":6071,"ĠPhim":6072,"Ġchui":6073,"Ġ/":6074,"ĠVá»£":6075,"ĠKS":6076,"KV":6077,"ĠHÃło":6078,"ĠTinh":6079,"ĠÄĲen":6080,"ĠÄĳan":6081,"ĠTá»ĭnh":6082,"za":6083,"gr":6084,"ida":6085,"ĠKu":6086,"ÄĲÆ¡n":6087,"ĠMÃł":6088,"MS":6089,"yn":6090,"OSE":6091,"ĠJord":6092,"uki":6093,"Ġviá»ĩt":6094,"ĠCom":6095,"ĠbÃ´i":6096,"ĠGold":6097,"aba":6098,"ĠBMW":6099,"Ġgai":6100,"ĠgáºŃy":6101,"ĠChuyá»ĩn":6102,"Ġchá»įc":6103,"erson":6104,"ĠXK":6105,"ĠNgÅ©":6106,"ĠBill":6107,"Ġsá»ıi":6108,"ĠSHB":6109,"Ã¹y":6110,"pa":6111,"ĠOai":6112,"ernand":6113,"ĠTÃ¡o":6114,"ĠCO":6115,"Ġblo":6116,"Ġ125":6117,"ĠRang":6118,"Ġpháº³ng":6119,"ĠchÃ¡o":6120,"trÃ¡i":6121,"Ġláº«y":6122,"ks":6123,"Ġlá»Ļng":6124,"ĠCá»§":6125,"ĠSLNA":6126,"ÄĲÃºng":6127,"ĠÄĲÃ´i":6128,"ĠRobert":6129,"ĠHill":6130,",âĢĿ":6131,"ĠBÆ°u":6132,"ĠâĢ¦":6133,"ĠJi":6134,"Ġcá»Ĺ":6135,"CÃ¡i":6136,"Ġset":6137,"ĠKo":6138,"cus":6139,"ĠTMCP":6140,"ĠVua":6141,"Ġ1991":6142,"Ġkhá»ī":6143,"ĠLou":6144,"Ġbá»ī":6145,"ale":6146,"Ġam":6147,"ĠCáº£m":6148,"Du":6149,"ĠVina":6150,"Ġsáº§u":6151,"ĠCha":6152,"Ġthon":6153,"ĠMel":6154,"ĠxoÃ¡y":6155,"ĠBarack":6156,"ĠCrimea":6157,"ĠInternational":6158,"ĠbÃ¡u":6159,"Ġ93":6160,"ĠDa":6161,"Ġquyá»ĥn":6162,"ĠLang":6163,"Ġtam":6164,"ĠÃºng":6165,"Ġthá»ĳi":6166,"ĠCÃ¡":6167,"Ġ115":6168,"ustin":6169,"tis":6170,"ĠBangkok":6171,"ĠPhÃ¢n":6172,"ĠiPad":6173,"Ġtáº©u":6174,"Ġ1996":6175,"ĠmÃ¡c":6176,"ĠTD":6177,"Ġcá»į":6178,"ĠthÃ¨m":6179,"ĠÃ¢u":6180,"Ġngá»ı":6181,"ĠVÆ°á»Ŀn":6182,"Ġcáº©u":6183,"TrÆ°á»Łng":6184,"ĠgiÃ²":6185,"ĠTy":6186,"Ġchá»ĳn":6187,"ĠPhá»¥ng":6188,"Ġxay":6189,"ĠSÃ¡ch":6190,"ĠÃªm":6191,"ĠCharl":6192,"NgÃłnh":6193,"out":6194,"ĠHung":6195,"ĠlÃ¡ch":6196,"ĠxÆ°á»Ľng":6197,"ThÃŃ":6198,"bÃ¡n":6199,"lá":6200,"lá»":6201,"lan":6202,"PhÃº":6203,"ĠVang":6204,"ĠbÃºn":6205,"ĠÄĳá»ĳn":6206,"ĠNhuáºŃn":6207,"ĠchÆ°ng":6208,"Ġná»Ļ":6209,"ĠTá»Ľi":6210,"PhÃ¡p":6211,"51":6212,"aku":6213,"ĠSim":6214,"ĠMartin":6215,"ĠVáº¥p":6216,"ĠSuper":6217,"int":6218,"KhÃ¡nh":6219,"Ġ07":6220,"nÃ³ng":6221,"92":6222,"Äĳáº¡i":6223,"ĠVol":6224,"ĠtÃ¡t":6225,"ĠRich":6226,"dr":6227,"esel":6228,"ĠCÃ¢y":6229,"Váº¥n":6230,"!âĢĿ.":6231,"BV":6232,"ĠThá»Ľi":6233,"TuyÃªn":6234,"ĠngÃłng":6235,"ĠPu":6236,"Ġgu":6237,"ĠLi":6238,"Ġ2001":6239,"CÃ¢y":6240,"Ġ1982":6241,"Tá»īnh":6242,"ĠBor":6243,"ĠNor":6244,"ĠJun":6245,"ĠBlu":6246,"Ġdai":6247,"ĠquáºŃt":6248,"ĠInd":6249,"ĠsÃłnh":6250,"ĠHÃ¨":6251,"Ġcorona":6252,"Ġmáº¯ng":6253,"ĠAnton":6254,"Ġtáº¥p":6255,"TO":6256,"ĠAgribank":6257,"Ġxáº¯n":6258,"!!":6259,"ĠTQ":6260,"ĠÄĳinh":6261,"Ġrá»ķ":6262,"ĠLat":6263,"Tráº§n":6264,"FC":6265,"73":6266,"ĠÄĳá»¥c":6267,"ĠKháº£":6268,"iban":6269,"ĠmÆ°Æ¡i":6270,"ĠLÃłng":6271,"ĠAPEC":6272,"obal":6273,")âĢ¦":6274,"gg":6275,"ĠÄĲam":6276,"ĠBloom":6277,"ĠEur":6278,"ĠchÃ©n":6279,"ĠTháº©m":6280,"Ġlung":6281,"ĠCÃ´n":6282,"BTC":6283,"ĠAmazon":6284,"Ńng":6285,"Ġrá»¥i":6286,"PGS":6287,"QS":6288,"gia":6289,"Ġngoáº¡n":6290,"ega":6291,"ĠTÃ´ng":6292,"ĠgiÃ´ng":6293,"ĠVNPT":6294,"Bá»©c":6295,"Ġti":6296,"ĠChá»¯":6297,"ĠvÃ¡c":6298,"Tháº§y":6299,"Tuáº§n":6300,"Ġ1980":6301,"ĠNghe":6302,"ĠLáº§u":6303,"Ġdiá»ĩu":6304,"Wh":6305,"oshi":6306,"Ġ1998":6307,"Ġmáº¡":6308,"Ġráº«y":6309,"ĠBÃ¢y":6310,"ĠÄĲÃºng":6311,"ĠWilliam":6312,"ife":6313,"Ġlam":6314,"ĠDam":6315,"Ġlá»¥a":6316,"ÄĲB":6317,"vi":6318,"ĠgiÃ²n":6319,"TÃªn":6320,"MP":6321,"COP":6322,"ille":6323,"eroin":6324,"azda":6325,"ĠchÃ¹m":6326,"Hiá»ĩp":6327,"so":6328,"ĠmáºŃp":6329,"Tá»Ń":6330,"61":6331,"Ġtáº¥u":6332,"ĠMe":6333,"Ġchen":6334,"ĠNÆ¡i":6335,"oli":6336,"Ġ2024":6337,"opa":6338,"mund":6339,"ĠGiai":6340,"ye":6341,"ĠColom":6342,"ĠcÃ¡m":6343,"Ġscandal":6344,"low":6345,"ĠBL":6346,"ust":6347,"kho":6348,"SNN":6349,"press":6350,"Má»©c":6351,"ĠÄĲáº±ng":6352,"acom":6353,"ĠLED":6354,"ÄĲá»Ļng":6355,"Ġngáº«u":6356,"Ġbáº¡t":6357,"Ġtem":6358,"ĠUr":6359,"ski":6360,"ĠsÃ¢m":6361,"»Ĺng":6362,"á»Ĺng":6363,"TÃ¡c":6364,"ĠchoÃ¡ng":6365,"ĠPow":6366,"ĠRá»ĵng":6367,"nhÃł":6368,"Ġgá»ĳm":6369,"Ġthá»īnh":6370,"isa":6371,"ĠVII":6372,"ĠÃł":6373,"GÄĲ":6374,"ĠCR":6375,"ĠNat":6376,"ĠCen":6377,"Ġgáº¡t":6378,"Ġdáº»o":6379,"van":6380,"Kiá»ĥm":6381,"Ġ(-":6382,"ĠbÃ©n":6383,"CÃ¡":6384,"ĠKhÃ´i":6385,"ĠIP":6386,"Ġhá»ĳt":6387,"ĠdÆ°ng":6388,"ĠcÃ´i":6389,"ĠAsian":6390,"ÄĲá»«ng":6391,"Ġá»§i":6392,"agen":6393,"ivi":6394,"Bá»Łi":6395,"AI":6396,"ĠÃģi":6397,"Ġgáº¥u":6398,"ĠOscar":6399,"ĠCáºŃu":6400,"Ġmuá»Ĺi":6401,"Lá»£i":6402,"ĠNghiÃªm":6403,"Thiáº¿t":6404,"ĠYÃªu":6405,"ogba":6406,"ĠRáºŃp":6407,"ĠJordan":6408,"arm":6409,"ĠStr":6410,"ĠBáº£ng":6411,"ĠrÆ°á»Ľc":6412,"ĠMáºŃu":6413,"ĠthÃª":6414,"BÃ©":6415,"ita":6416,"ĠBoeing":6417,"âĢĿâĢ¦":6418,"ĠAbe":6419,"ĠlÃ©n":6420,"Ġheroin":6421,"amil":6422,"erm":6423,"ĠWall":6424,"ĠTráºŃn":6425,"Ġbá»ĩ":6426,"ĠHáº£o":6427,"ĠÆ°á»Ľp":6428,"ĠlÃºn":6429,"udi":6430,"ĠLÃ¢n":6431,"Ġrá»¥ng":6432,"Ġká»ĩ":6433,"ĠVÃ²ng":6434,"ĠNote":6435,"74":6436,"ĠATM":6437,"Má»Ł":6438,"ci":6439,"Báº±ng":6440,"Khá»Łi":6441,"ĠNgÆ°":6442,"Ġnguá»Ļi":6443,"Ġquáº¥y":6444,"aser":6445,"ĠGB":6446,"gar":6447,"Phi":6448,"ris":6449,"rov":6450,"ĠnháºŃm":6451,"PhÃºt":6452,"emen":6453,"Hoáº¡t":6454,"ĠrÃ¡ch":6455,"Ghi":6456,"ĠKáº¡n":6457,"ĠÄĲÃ¡":6458,"Ã²m":6459,"cá":6460,"cá»":6461,"Ġ1975":6462,"ĠIm":6463,"ĠLos":6464,"ĠÄĲÄĥk":6465,"ĠWHO":6466,"MÃ¬nh":6467,"ĠCháº¿":6468,"ĠhÃ£m":6469,"Xin":6470,"ESCO":6471,"ĠVHTT":6472,"VT":6473,"ngá»¥":6474,"ĠJin":6475,"ĠRed":6476,"estival":6477,"ĠÄĲá»ĵ":6478,"siÃªu":6479,"ĠvÃ¡ch":6480,"ĠUniver":6481,"ĠTá»ĳ":6482,"ĠFLC":6483,"ortmund":6484,"ĠTho":6485,"ppo":6486,"ĠMoham":6487,"Ġhttps":6488,"ĠiOS":6489,"giáº£m":6490,"ĠbÆ°á»Ľ":6491,"ĠhÄĥng":6492,"ĠnhÆ°á»£c":6493,"ĠANTT":6494,"osh":6495,"ield":6496,"ĠlÃ¬":6497,"SE":6498,"ĠTrÃłng":6499,"Ġ1989":6500,"Ġbong":6501,"ĠsuÃ½t":6502,"Ġkeo":6503,"ĠhÃ¡o":6504,"ĠÄĳáº¥m":6505,"ĠCu":6506,"ĠmÃ´ng":6507,"ĠXIV":6508,"ĠxoÃłi":6509,"TháºŃm":6510,"ĠTÃ¡c":6511,"oid":6512,"Ġ1988":6513,"Ġlogistics":6514,"ĠSaigon":6515,"Ġ450":6516,"ĠNhÃ¬":6517,"Ġcuá»Ļn":6518,"Ġsáº¥u":6519,"res":6520,"ĠNhÃ¢m":6521,"AC":6522,"ĠDani":6523,"71":6524,"ĠKi":6525,"ĠXem":6526,"okia":6527,"kov":6528,"Ġná»©c":6529,"Truyá»ģn":6530,"Ġnhá»¥c":6531,"Má»Ŀi":6532,"Ġtáº£n":6533,"VÅ©ng":6534,"ĠBR":6535,"Tok":6536,"Ġgáº§y":6537,"hip":6538,"Chu":6539,"ĠTaliban":6540,"ĠTrá»±c":6541,"ĠPhÃ³ng":6542,"ĠÃļt":6543,"86":6544,"Ġpháº«n":6545,"ĠBloomberg":6546,"ĠHiá»ĥu":6547,"ĠmÃŃt":6548,"ĠHÃ²n":6549,"Ġráº¡ch":6550,"ĠGÃ³c":6551,"Ġuá»ĳn":6552,"cel":6553,"ÄĲiá»ĩn":6554,"ĠDoÃ£n":6555,"Ġrá»ħ":6556,"TÃ¬m":6557,"ium":6558,"Ġcá»ĳi":6559,"Ġnhiá»ħu":6560,"itt":6561,"ĠxÃłi":6562,"pper":6563,"Ġser":6564,"dan":6565,"ĠJohnson":6566,"ĠQU":6567,"Lá»Ŀi":6568,"trÃº":6569,"IT":6570,"chá»§":6571,"ĠNáº¡n":6572,"ĠCos":6573,"oC":6574,"âĢ¦âĢĿ.":6575,"ĠBÃłng":6576,"ĠVÆ°á»£ng":6577,"ĠMag":6578,"ĠColombia":6579,"Ã³p":6580,"ĠbÃ£":6581,"ĠVCK":6582,"ĠHyun":6583,"Ġsá»į":6584,"ĠkiÃªng":6585,"ĊĊĊ":6586,"aki":6587,"ĠSm":6588,"ĠmÆ°Æ¡ng":6589,"ĠTuáº¥t":6590,"ĠDis":6591,"150":6592,"ĠLiá»ĩt":6593,"Giao":6594,"ĠThÃ¬n":6595,"Ġxáº¥p":6596,"ĠCanh":6597,"ĠhÃŃ":6598,"nhá»¯ng":6599,"ĠMail":6600,"ĠhoÃ¡n":6601,"ĠtÆ¡":6602,"Ġbá»«ng":6603,"âĢ¦.":6604,"bor":6605,"utnik":6606,"ach":6607,"Ġ108":6608,"ĠBÃ¡t":6609,"ĠSky":6610,"cÆ¡":6611,"Ġnuá»ĳt":6612,"ĠPle":6613,"Ġná»ĥ":6614,"ĠMed":6615,"ĠMÃ³ng":6616,"Ġcháº£o":6617,"istiano":6618,"MO":6619,"Ġtáº¡t":6620,"imes":6621,"icester":6622,"ss":6623,"NghiÃªn":6624,"Ġtá»ĳp":6625,"ĠXÃ¡":6626,"iola":6627,"Ġ94":6628,"Ġ220":6629,"ĠFA":6630,"Ġ170":6631,"ĠDáºŃu":6632,"ĠNgÆ°á»£c":6633,"Pháº¡m":6634,"ĠmuÃ´n":6635,"dinh":6636,"Ġbáº©m":6637,"Ġhá»©c":6638,"pháº£i":6639,"Ġbik":6640,"xe":6641,"thá»ĭ":6642,"nhÆ°":6643,"ĠKurd":6644,"Long":6645,"ĠBern":6646,"Thá»ĳng":6647,"ĠvÃ¹i":6648,"ki":6649,"ni":6650,"Ġxá»ĭt":6651,"anda":6652,"ĠKrÃ´ng":6653,"Ġcá»Ľ":6654,"ame":6655,"ĠSE":6656,"Ġtrá»ĩ":6657,"Cá»©":6658,"HÆ°á»Ľng":6659,"ÄĲoáº¡n":6660,"ĠPT":6661,"ĠphÃŃm":6662,"Ġdiá»ħu":6663,"ĠTá»Ŀ":6664,"ody":6665,"Ġlá»į":6666,"Ġchá»įi":6667,"Háº§u":6668,"ĠvÃ©t":6669,"ĠCat":6670,"ling":6671,"Ġcanxi":6672,"ĠBin":6673,"ĠMW":6674,"Ġhá»ķng":6675,"TPO":6676,"DP":6677,"ĠSA":6678,"Äĳi":6679,"VÅ©":6680,"ÄĲH":6681,"ĠTor":6682,"icron":6683,")...":6684,"by":6685,"ĠJer":6686,"gá»ĵm":6687,"eting":6688,"ĠliÃªng":6689,"ĠLoáº¡i":6690,"ÃĿ":6691,"ĠCháº¥n":6692,"ĠKing":6693,"exit":6694,"page":6695,"Ġbá»Ľi":6696,"Ġphao":6697,"nes":6698,"ĠMaria":6699,"»ħ":6700,"á»ħ":6701,"ÄĲá»ĭa":6702,"ĠGreen":6703,"Ġrá»Ľt":6704,"TrÃ¡i":6705,"Lo":6706,"ĠRáº«y":6707,"ĠLav":6708,"ĠTel":6709,"Nghe":6710,"ĠPogba":6711,"Ġ...":6712,"ĠÄĲiá»ĩp":6713,"ĠHáº¡t":6714,"Ġmuá»Ĺng":6715,"ES":6716,"ĠMH":6717,"Ġtháº¡c":6718,"ÄĳÆ°á»£c":6719,"ĠAsia":6720,"ĠNig":6721,"Ġdiesel":6722,"ĠLiá»ĩu":6723,"ĠHal":6724,"Ġnáº£n":6725,"OC":6726,"ĠJung":6727,"Ġá»©":6728,"ĠVÄ©":6729,"ĠxÃ©":6730,"uck":6731,"ila":6732,"BiÃªn":6733,"Buá»ķi":6734,"ÄĤn":6735,"Sá»©c":6736,"ĠPo":6737,"ĠSi":6738,"ĠPol":6739,"Ġtao":6740,"ĠSir":6741,"ĠrÃ¢u":6742,"iku":6743,"ĠChÃ¹a":6744,"arus":6745,"ĠCM":6746,"Chá»©ng":6747,"ĠQuÃ¡ch":6748,"ĠLim":6749,"ĠBáº§u":6750,"HÃ²a":6751,"ider":6752,"der":6753,"ĠnhÃ´m":6754,"Ġ1986":6755,"NamNet":6756,"ĠPhÃºt":6757,"ĠDan":6758,"cast":6759,"ĠnÃ´":6760,"Dá»ĭch":6761,"Ġáº¡t":6762,"oss":6763,"ĠAll":6764,"ĠDinh":6765,"Sáº½":6766,"ĠHoan":6767,"NÃ¢ng":6768,"ĠLá»Ľn":6769,"ĠvÃ²i":6770,"Ġnáº¡o":6771,"ĠHye":6772,"Nghi":6773,"Ġsexy":6774,"ĠXÆ°Æ¡ng":6775,"ĠGlobal":6776,"ĠdÃ¬":6777,"ĠNguy":6778,"ĠDortmund":6779,"ll":6780,"atia":6781,"ĠÃ³c":6782,"Triá»ģu":6783,"tu":6784,"ĠOCOP":6785,",\"":6786,"ĠRi":6787,"Ġqui":6788,"phÃºt":6789,"82":6790,"Ġláº©n":6791,"Ġnhá»įc":6792,"ĠVu":6793,"84":6794,"Äĳá»ĳi":6795,"vel":6796,"ĠBÃ¡n":6797,"ĠCÃºc":6798,"imex":6799,"Cáº·p":6800,"Fast":6801,"lÃł":6802,"Ġ105":6803,"ĠnÃ¡o":6804,"...,":6805,"phá»":6806,"arez":6807,"air":6808,"ĠTáº¡o":6809,"tuáº§n":6810,"Ġphá»Ł":6811,"ĠUNESCO":6812,"Ġkhiáº¿m":6813,"Ġyáº¿n":6814,"Ġkhang":6815,"chá»ī":6816,"ric":6817,"ĠHÆ°á»Ŀng":6818,"Ġtriáº¿t":6819,"ĠgÃ³t":6820,"BI":6821,"utsal":6822,"ĠRAM":6823,"ĠMazda":6824,"ĠRT":6825,"BÃłn":6826,"XD":6827,"ĠSuz":6828,"ºp":6829,"Ġáº¤":6830,"Ġliveshow":6831,"PhÃ³ng":6832,"kin":6833,"âĢ¢":6834,"Ġmiá»ĩt":6835,"ĠthÃ²i":6836,"uez":6837,"ĠLouis":6838,"ĠgiÃ£":6839,"ĠQLTT":6840,"Bá»ĳ":6841,"ĠMoon":6842,"ĠMáº¡c":6843,"ĠBÃ£i":6844,"ĠHOSE":6845,"elle":6846,"Máº«u":6847,"tion":6848,"ĠMáº«n":6849,"ĠÄĳáº«m":6850,"brid":6851,"ĠTeh":6852,"ĠMur":6853,"Báº£ng":6854,"bra":6855,"ĠGuardiola":6856,"ĠchÃ³t":6857,"Ġ1987":6858,"ĠtrÃªu":6859,"ĠLG":6860,"ĠFl":6861,"dogan":6862,"ĠACB":6863,"ĠMir":6864,"Phong":6865,"ĠZh":6866,"Æ¯u":6867,"ĠAmer":6868,"ĠOmicron":6869,"ĠÄĳu":6870,"ĠNSNN":6871,"Ġnhá»§":6872,"sey":6873,"ĠBT":6874,"ĠTur":6875,"ĠYout":6876,"Ġ00":6877,"ence":6878,"CÃ¡n":6879,"ĠnhÃ£":6880,"ĠVn":6881,"Ġthen":6882,"ĠBiáº¿t":6883,"Táº¿t":6884,"Ġtivi":6885,"ĠNav":6886,"IDS":6887,"ĠTÃªn":6888,"Äĳiá»ĥm":6889,"ĠRON":6890,"Ġdang":6891,"ett":6892,"CL":6893,"ĠÄĲá»ģn":6894,"nguyÃªn":6895,"ĠrÃ£":6896,"Ġcarbon":6897,"ĠEV":6898,"ove":6899,"TÃ²a":6900,"omas":6901,"ĠBáº¯t":6902,"LÆ°u":6903,"Ġráº¡n":6904,"Ġtáº¡c":6905,"ĠTHA":6906,"mail":6907,"Ġthá»¥c":6908,"ĠbÃº":6909,"ĠLHPN":6910,"MA":6911,"Cáº£m":6912,"ĠÄĳÃ²":6913,"ĠKe":6914,"ĠkÃ¬m":6915,"ĠSuá»ĳi":6916,"ĠcÃµ":6917,"ChÃº":6918,"rig":6919,"83":6920,"ĠDÆ°":6921,"ĠThiÃªm":6922,"ĠTÃ¬m":6923,"ĠSar":6924,"ĠphÃł":6925,"»«":6926,"á»«":6927,"Ġni":6928,"be":6929,"YÃªu":6930,"Ġmod":6931,"ĠAh":6932,"cean":6933,"ĠBao":6934,"ĠSev":6935,"Ġsáº¥y":6936,"ĠLau":6937,"ĠbÃªnh":6938,"Ġá»ĵ":6939,"Ġlen":6940,"Ġbikini":6941,"Ġngá»Ńa":6942,"Ġhit":6943,"ker":6944,"ĠOl":6945,"pop":6946,"Ġnang":6947,"iF":6948,"ĠMuá»ĳn":6949,"Ġbo":6950,"kva":6951,"Ġsá»«ng":6952,"ĠMiura":6953,"ĠPhÆ°á»Ŀng":6954,"ĠngÃ¢y":6955,"red":6956,"Ġvá»Ĺ":6957,"Ġngháº¹n":6958,"ĠNex":6959,"SV":6960,"iana":6961,"ĠChÃºc":6962,"ĠngáºŃm":6963,"+)":6964,"Ġmá»ĳt":6965,"ĠThÃŃ":6966,"Hay":6967,"Ġdáº¥y":6968,"ven":6969,"fe":6970,"ĠNm":6971,"ĠPe":6972,"kaku":6973,"giáº£i":6974,"uay":6975,"XB":6976,"ĠAFC":6977,"kel":6978,"aptop":6979,"ĠMÃ´":6980,"ĠHá»ıa":6981,"2007":6982,"ĠBCH":6983,"ĠSputnik":6984,"Ġsá»Łi":6985,"Ġ1985":6986,"EF":6987,"ĠnhÃ¡i":6988,"ĠtÄĥm":6989,"Náº¡n":6990,"Ġnhuá»Ļm":6991,"ĠUber":6992,"Vi":6993,"wa":6994,"ĠUSS":6995,"ĠTehran":6996,"eda":6997,"ĠAbd":6998,"Ġngáº¡t":6999,"ĠFernand":7000,"cÃ´":7001,"ĠChÃºa":7002,"ĠDong":7003,"assage":7004,"ĠLeicester":7005,"ĠSha":7006,"ĠÄĲá»Ļc":7007,"osa":7008,"ĠTuyá»ģn":7009,"ĠBeck":7010,"VÃ²ng":7011,"ĠTCT":7012,"ĠWil":7013,"ĠBrexit":7014,"ĠSC":7015,"ĠFin":7016,"ĠChÄĥm":7017,"ĠODA":7018,"LÃło":7019,"ĠKyo":7020,"Ġbá»±c":7021,"ĠInf":7022,"ĠbÃ¬a":7023,"ĠTPP":7024,"ĠDiÃªn":7025,"ĠDÃ¹ng":7026,"ime":7027,"ĠSGK":7028,"XÃ©t":7029,"ĠÃ¡":7030,"ĠJae":7031,"ĠÄĲÃ´n":7032,"elen":7033,"ixel":7034,"aro":7035,"les":7036,"cÃ¹ng":7037,"ĠYemen":7038,"ĠNik":7039,"Ġnhuyá»ħn":7040,"KCN":7041,"ĠNhÃłn":7042,"Kiáº¿n":7043,"ĠVictoria":7044,"ster":7045,"Ġgiáº·c":7046,"ĠHun":7047,"ĠÃ¡ch":7048,"oga":7049,"ĠBBC":7050,"Giá»¯a":7051,"phu":7052,"ĠTikTok":7053,"ĠIdol":7054,"vo":7055,"ĠNic":7056,"ÄĲÃ´ng":7057,"á»ĩt":7058,"ĠMoskva":7059,"Ġnhá»ĭn":7060,"ĠAndre":7061,"Ġráº§m":7062,"ĠBelarus":7063,"Ġ128":7064,"PEC":7065,"Ġtháº£n":7066,"ĠKrem":7067,"ĠhÆ°ng":7068,"ĠVo":7069,"ĠÄĲá»Ŀi":7070,"Cháº³ng":7071,"Ġrun":7072,"esla":7073,"ĠphÃ¡c":7074,"ush":7075,"ĠIa":7076,"ĠNghiá»ĩp":7077,"LÃ¢m":7078,"ĠDj":7079,"Ġngá»©a":7080,"Ŀn":7081,"Ġváº¯t":7082,"ĠCháº¯c":7083,"Ġná»į":7084,"Ġháº£":7085,"Hy":7086,"ĠKÃ½":7087,"ĠLÃ´":7088,"ĠTan":7089,"ĠÄĳÃºp":7090,"Phim":7091,"ĠDÄ©":7092,"ĠgÃµ":7093,"ĠNokia":7094,"Ġngoáº·t":7095,"ĠRanh":7096,"trÃªn":7097,"ĠnhÄĥn":7098,"Ġ|":7099,"ĠBur":7100,"ĠTuÃ¢n":7101,"ĠYoutube":7102,"87":7103,"hÆ¡n":7104,"tÃªn":7105,"ĠNiÃª":7106,"ĠChina":7107,"ĠArt":7108,"Ġchá»¯ng":7109,"Ġnhá»ĵi":7110,"ĠMb":7111,"kara":7112,"ĠRooney":7113,"ĠCristiano":7114,"ĠUÃ´ng":7115,"Váº«n":7116,"jet":7117,"ĠVÃłnh":7118,"opp":7119,"?âĢĿ":7120,"Ġlá»Ŀ":7121,"Káº¿":7122,"ĠPlay":7123,"ĠNháº¡c":7124,"ude":7125,"ĠHÃ³c":7126,"ĠdÃ¨":7127,"Trá»Ł":7128,"issan":7129,"ASA":7130,"Ã©m":7131,"ĠcÃºc":7132,"ĠrÃ¹a":7133,"KhÃ³":7134,"Ġmiá»ĩn":7135,"ĠKSND":7136,"ika":7137,"ema":7138,"Ġtháº¡o":7139,"Ġbá»įt":7140,"TU":7141,"ĠcÆ°á»£c":7142,"CCI":7143,"ná»¯":7144,"»§":7145,"á»§":7146,"alk":7147,"ĠthÃŃnh":7148,"edan":7149,"ThiÃªn":7150,"Ġbá»ĭt":7151,"vÃ¹ng":7152,"ĠFestival":7153,"Tráº»":7154,"ĠnÃ³c":7155,"XÃ¡c":7156,"ĠEURO":7157,"ĠAngela":7158,"Tá»±":7159,"BH":7160,"ĠFrank":7161,"ĠAC":7162,"ene":7163,"ĠdÃª":7164,"Tá»«ng":7165,"Ġ1984":7166,"ĠPleiku":7167,"esterol":7168,"Ġtá»¥y":7169,"ĠhÃ´ng":7170,"ĠKremlin":7171,"Ġsáº¯n":7172,"ĠComp":7173,"ĠFir":7174,"ĠSony":7175,"ĠhÃŃt":7176,"ĠNay":7177,"hiá»ĩn":7178,"Ġlogo":7179,"mo":7180,"nay":7181,"ĠCQ":7182,"ĠAngeles":7183,"HQ":7184,"Ġgiá»¥c":7185,"cao":7186,"ĠSX":7187,"treet":7188,"ĠkhoÃ¡i":7189,"ĠmÃ£nh":7190,"ĠTÆ¯":7191,"ĠNTK":7192,"Ġtrá»įt":7193,"ĠBÃ¨":7194,"ĠÄĳáº£":7195,"EN":7196,"ĠTrÃ¢n":7197,"Al":7198,"ĠtÃł":7199,"ĠXá»Ń":7200,"ifer":7201,"Chuyáº¿n":7202,"Ġcáº©m":7203,"ĠModel":7204,"ÃĬN":7205,"?\".":7206,"ĠLion":7207,"ĠTráº¡i":7208,"DÃ²ng":7209,"ĠlÃºng":7210,"ĠOcean":7211,"ÄĲang":7212,"ĠlÅ©ng":7213,"ĠSÃ©c":7214,"cep":7215,"ĠÄĤn":7216,"ĠMÅ©i":7217,"NHNN":7218,"ĠLá»Ŀi":7219,"US":7220,"ĠvÃłn":7221,"ĠÆ¯á»Ľc":7222,"ĠVir":7223,"ĠThomas":7224,"ĠChÆ°":7225,"ĠMong":7226,"ĠCroatia":7227,"ami":7228,"qua":7229,"ĠxÃ¡o":7230,"ĠbÃºp":7231,"Ġthá»ĳn":7232,"ĠXÃª":7233,"si":7234,"ĠWhi":7235,"ÄĳÃ¡nh":7236,"Ġkháº¯t":7237,"ilon":7238,"ÃŃu":7239,"appe":7240,"ĠHuáº¥n":7241,"ĠEverton":7242,"Ġgá»Ļp":7243,"ĠYang":7244,"ChÃ¢n":7245,"Thi":7246,"ĠHen":7247,"ĠIreland":7248,"Ġdáº¡t":7249,"UB":7250,"ĠTex":7251,"Ãµm":7252,"ĠNad":7253,"Khai":7254,"ĠSá":7255,"ĠSá»":7256,"ĠAnkara":7257,"ĠBerlin":7258,"vÃł":7259,"Ġac":7260,"mit":7261,"ĠMusk":7262,"Ġlivestream":7263,"ĠST":7264,"Ġ1970":7265,"Ġ360":7266,"Ġje":7267,"ĠChuyá»ĥn":7268,"KD":7269,"acombank":7270,"ĠTrÃ¬nh":7271,"ĠWat":7272,"ĠHungary":7273,"HÆ°Æ¡ng":7274,"ĠDO":7275,"ign":7276,"jaer":7277,"Ġcalo":7278,"ĠGiÃªng":7279,"ĠnÃªm":7280,"TÄĲ":7281,"thi":7282,"Tá»Ľi":7283,"Ġsáº¿p":7284,"ĠJan":7285,"ĠChile":7286,"Ġthoa":7287,"ĠÄĲTQG":7288,"Ġli":7289,"ĠgÃłng":7290,"ĠVá»¹":7291,"ato":7292,"enger":7293,"tic":7294,"XuÃ¢n":7295,"ĠRáº¡ch":7296,"ĠNe":7297,"Chung":7298,"hÃłng":7299,"Sh":7300,"Viá»ĩn":7301,"Ġviá»ģn":7302,"ĠGV":7303,"Ġ1000":7304,"ĠDie":7305,"Cá»ķ":7306,"ĠgÃ²":7307,"IP":7308,"amaha":7309,"Ġháº¥u":7310,"WHO":7311,"ĠnÃ³n":7312,"ĠGiá»įng":7313,"Ġxáº£o":7314,"ĠTesla":7315,"won":7316,"ĠMah":7317,"Ronaldo":7318,"GDVN":7319,"ĠGPMB":7320,"Ġnguyá»ĩt":7321,"ĠhÃ¡n":7322,"ĠBTS":7323,"SÆ¡n":7324,"Ġchá»£t":7325,"Ġchol":7326,"ĠNoel":7327,"den":7328,"ĠTC":7329,"ĠsuÃ´n":7330,"ĠÄĲáºŃu":7331,"uri":7332,"ĠDub":7333,"etsk":7334,"aland":7335,"ĠDao":7336,"ĠFranc":7337,"kÃŃp":7338,"ĠvÃ´i":7339,"Ġchá»Ľp":7340,"ĠPháº£":7341,"96":7342,"ĠKhÃ¡m":7343,"ĠgÃ¢n":7344,"ĠGeorge":7345,"ĠHoáº·c":7346,"Ġmassage":7347,"ĠTrÃ£i":7348,"ım":7349,"ĠFox":7350,"chiáº¿n":7351,"amb":7352,"ĠHari":7353,"Ġtá»īa":7354,"gin":7355,"ĠTá»ĳng":7356,"Ġlaptop":7357,"ÄĲÃ´i":7358,"DCND":7359,"ave":7360,"NK":7361,"skjaer":7362,"ĠRodrig":7363,"Ġtui":7364,"jan":7365,"Ġnáº¿n":7366,"okovic":7367,"ĠtrÃ¹":7368,"ĠATTP":7369,"oster":7370,"81":7371,"Sá»Ń":7372,"ĠHag":7373,"NLÄĲO":7374,"adi":7375,"ĠChia":7376,"Tuyá»ĥn":7377,"ĠGaal":7378,"Ġáº©u":7379,"Ġdáº·m":7380,"ĠsÃło":7381,"Ġcholesterol":7382,"Ġgiáº±ng":7383,"Ġliá»ħu":7384,"ĠErdogan":7385,"MU":7386,"»¡":7387,"á»¡":7388,"ĠTá»µ":7389,"ati":7390,"CÃł":7391,"ĠcÃºi":7392,"ĠNáºŃm":7393,"mann":7394,"lec":7395,"ĠMike":7396,"imbank":7397,"Há»ĵng":7398,"ado":7399,"ĠCosta":7400,"LA":7401,"ibaba":7402,"St":7403,"láº§n":7404,"ĠCá»¥m":7405,"ĠSec":7406,"TPHCM":7407,"ĠSel":7408,"Dá»ĭp":7409,"ĠKa":7410,"hai":7411,"ps":7412,"ĠXiao":7413,"ĠcÃło":7414,"ĠHer":7415,"Ãºm":7416,"Ġnhá»ĭ":7417,"Ġ1983":7418,"ĠFab":7419,"sá»±":7420,"Ġ2050":7421,"ĠBos":7422,"Ġruá»ĵi":7423,"Ġmá»³":7424,"ĠbÃºa":7425,"Tráº£i":7426,"http":7427,"Ġghe":7428,"Cao":7429,"ĠAward":7430,"field":7431,"ĠÄĲÃ¡nh":7432,"ĠThá»ıa":7433,"ery":7434,"Quáº£":7435,"ĠBro":7436,"**":7437,"ĠBÃ´ng":7438,"ĠÄĳao":7439,"MÃłn":7440,"Ġlá»±u":7441,"ĠSerie":7442,"Ġngáº£":7443,"ĠChÄĥn":7444,"TrÆ°a":7445,"ĠRap":7446,"ole":7447,"phi":7448,"NV":7449,"ĠPVN":7450,"Ġkhá»ĳn":7451,"ÃĲ":7452,"Ġ103":7453,"ĠVinFast":7454,"ĠHaw":7455,"ĠMáº¡ng":7456,"ĠKaz":7457,"ĠTuyá»ĥn":7458,"VP":7459,"Ra":7460,"Xá»Ń":7461,"ĠtrÃ¨o":7462,"ĠcÃ²":7463,"Ġtro":7464,"iness":7465,"Ġgá»Ļi":7466,"ĠGea":7467,"ĠKhmer":7468,"Ġbáº»":7469,"amilk":7470,"Ġtrá»ķ":7471,"ĠASIA":7472,"há»įc":7473,"250":7474,"tress":7475,"hot":7476,"ury":7477,"Ġtoa":7478,"Ġvun":7479,"ĠLin":7480,"ĠngÃ¡n":7481,"ĠrÆ¡m":7482,"Ġquáº¿":7483,"Ġlay":7484,"ĠMáº§m":7485,"Ġquáº¥n":7486,"ages":7487,"ĠngÃłi":7488,"ĠJones":7489,"Top":7490,"Æ°á»Ŀm":7491,"ĠVideo":7492,"ÃĶNG":7493,"Hen":7494,"ĠNi":7495,"ĠVÃ´":7496,"Ġráº£nh":7497,"Ġkhá»ıa":7498,"Äĳoáº¡n":7499,"Ġtrau":7500,"agh":7501,"ĠMá»Ł":7502,"ĠcÃły":7503,"Ġ=":7504,"ĠMÃ¢y":7505,"ĠSand":7506,"ĠCHQS":7507,"Ġrang":7508,"sau":7509,"ĠCarl":7510,"Muá»ĳn":7511,"Ġquáº¥t":7512,"zy":7513,"akar":7514,"Ġtháº¯m":7515,"ĠhÃ³c":7516,"Ġ113":7517,"ĠFerr":7518,"ĠChá»ĵng":7519,"ĠMerkel":7520,"ĠNap":7521,"»¨ng":7522,"á»¨ng":7523,"Mar":7524,"bÃ¬nh":7525,"Ġtoan":7526,"ĠNhá»±":7527,"ĠTTHC":7528,"ĠTÆ°á»Łng":7529,"dor":7530,"ĠVietinBank":7531,"Bar":7532,"Ġquá»·":7533,"castle":7534,"ĠSáº½":7535,"Ã¨m":7536,"dam":7537,"Benz":7538,"ĠcÆ°a":7539,"ĠpháºŃt":7540,"ĠCá»±c":7541,"ĠPhu":7542,"ĠPhá»¥c":7543,"ift":7544,"ĠAM":7545,"ĠBale":7546,"tro":7547,"artup":7548,"du":7549,"Ġ1979":7550,"Ġ101":7551,"ĠDNNN":7552,"ĠkÃ¨o":7553,"VÃŃ":7554,"KTÄĲT":7555,"Ġsáº¹":7556,"ĠCDC":7557,"cá»§a":7558,"ĠphÃłn":7559,"ĠTai":7560,"ĠIM":7561,"ase":7562,"ĠKen":7563,"ĠgiÃ¡ng":7564,"ĠlÃ¹m":7565,"ĠAlexander":7566,"ĠMotor":7567,"ĠVPF":7568,"ÄĲK":7569,"ĠLÃ£o":7570,"ĠVilla":7571,"Ġlá»«ng":7572,"Ġsáº¹o":7573,"ago":7574,"Huyá»ĩn":7575,"ET":7576,"Náº±m":7577,"ĠÄĲÆ°a":7578,"Ã²e":7579,"ĠNK":7580,"Iáº¾":7581,"ĠCNVC":7582,"ĠEuropa":7583,"ĠSuarez":7584,"ĠTranh":7585,"Ġthá»ĳt":7586,"ĠSuzuki":7587,"ĠDÃ²ng":7588,"ĠFlorida":7589,"ĠAlibaba":7590,"ĠJul":7591,"ĠThiá»ĩu":7592,"____":7593,"fi":7594,"VÄ©nh":7595,"Äĳáº§u":7596,"ĠToáº£n":7597,"ĠDonetsk":7598,"ĠNXB":7599,"mÃ£":7600,"ĠCHDCND":7601,"%);":7602,"aby":7603,"ĠDamas":7604,"ĠÄĲá»ķi":7605,"ĠvÃ¡":7606,"ĠSM":7607,"itan":7608,"ĠráºŃp":7609,"Vin":7610,"ĠPhÃ¡o":7611,"tyle":7612,"ĠThÆ°á»Łng":7613,"MÃ´":7614,"ĠgáºŃp":7615,"ÄĲáº¡o":7616,"CáºŃu":7617,"Giai":7618,"ream":7619,"Ġcháº£nh":7620,"Mua":7621,"ĠMbappe":7622,"ius":7623,"thu":7624,"ĠÄĳÃ¡i":7625,"Ġrock":7626,"wan":7627,"ĠlÆ°á»£n":7628,"ĠDA":7629,"Ġquá»³":7630,"Ġ240":7631,"ĠLiá»ħu":7632,"ĠLÃ¡ng":7633,"UYá":7634,"UYá»":7635,"97":7636,"ĠTTCK":7637,"Ġá»ĳp":7638,"ĠNigeria":7639,"ĠIns":7640,"ThÆ°á»Ŀng":7641,"91":7642,"ÄĲáº£ng":7643,"ĠChuáº©n":7644,"ĠIl":7645,"Ġbá»ĵng":7646,"PhÃ¢n":7647,"EL":7648,"star":7649,"Ġ)":7650,"ĠRoy":7651,"ubishi":7652,"ĠNÃ¢ng":7653,"Ġmá»§":7654,"ĠWenger":7655,"ĠkiÃªu":7656,"ĠxÃ¹m":7657,"ĠPower":7658,"rey":7659,"ĠMang":7660,"ĠEc":7661,"ĠShow":7662,"ĠAudi":7663,"eam":7664,"aint":7665,"ĠBrent":7666,"ĠQR":7667,"Cha":7668,"ĠTexas":7669,"DÃ¹ng":7670,"á»įa":7671,"ĠPháº¥n":7672,"TÃ¢m":7673,"ĠUAV":7674,"ĠloÃ©t":7675,"ĠUng":7676,"Cá»ĳ":7677,"ĠIbra":7678,"ĠSolskjaer":7679,"ĠTháº¯m":7680,"ĠrÆ°á»¡i":7681,"ĠBá»Ŀ":7682,"khu":7683,"ves":7684,"ĠAssad":7685,"ĠXX":7686,"Ex":7687,"Chinh":7688,"elli":7689,"ÄĲTB":7690,"ĠCáº§m":7691,"itsubishi":7692,"Ġsim":7693,"ĠDamascus":7694,"Real":7695,"Ġ[":7696,"Ġ135":7697,"báº¯t":7698,"MÆ°a":7699,"Ãļ":7700,"Sam":7701,"ĠSin":7702,"ĠKhiÃªm":7703,"Ġbá»«a":7704,"ĠSoo":7705,"TVN":7706,"93":7707,"ĠQuá»³":7708,"ĠTrÃłm":7709,"Ġhu":7710,"ĠmÆ°á»£t":7711,"áºµn":7712,"CáºŃn":7713,"ĠAut":7714,"ĠSacombank":7715,"bus":7716,"ĠtrÃºt":7717,"ardo":7718,"Ġthuá»Ł":7719,"ĠAR":7720,"ĠCapital":7721,"ĠmiÃªu":7722,"Ġnilon":7723,"fl":7724,"ĠRoma":7725,"ĠAleppo":7726,"vá»Ľi":7727,"Láº¥y":7728,"ĠTae":7729,"iff":7730,"KhÃ¡c":7731,"rop":7732,"abeco":7733,"hoáº·c":7734,"ĠTDTT":7735,"lott":7736,"Ġhack":7737,"Ninh":7738,"iFone":7739,"ĠGÄĲ":7740,"Ġ102":7741,"ĠNghÃ":7742,"Ġvá»Ŀ":7743,"ĠGiá»¯a":7744,"ĠLS":7745,"tháº§n":7746,"ĠMP":7747,"Chuyá»ĥn":7748,"ĠThao":7749,"Mai":7750,"EFA":7751,"ition":7752,"ĠsÃ²ng":7753,"esl":7754,"ĠvÃ¡ng":7755,"ĠDaniel":7756,"ĠHold":7757,"med":7758,"ĠLÃ£ng":7759,"ĠDes":7760,"Chelsea":7761,"ĠKhÃ³":7762,"AF":7763,"94":7764,"EX":7765,"Ġnhá»ĳt":7766,"ĠlÆ°á»Ŀi":7767,"á»ķn":7768,"Ġfor":7769,"Ġáº§m":7770,"hr":7771,"gáº§n":7772,"ampton":7773,"Ġrá»Ĺi":7774,"ning":7775,"ĠÄĲá»ĳc":7776,"ĠTrá»¥":7777,"ĠEximbank":7778,"ĠVOV":7779,"ĠmiÃªn":7780,"Ġlanh":7781,"Ġcabin":7782,"Ġvá»¥n":7783,"ÄĲÃłi":7784,"Ġáº¥u":7785,"ĠLad":7786,"INH":7787,"Ġmau":7788,"ĠÆ°ng":7789,"Ġká»µ":7790,"ĠTaylor":7791,"TTS":7792,"ĠBul":7793,"ĠWales":7794,"ĠVietNamNet":7795,"tá»ķng":7796,"ĠSung":7797,"Ġ2026":7798,"ten":7799,"Äĳá»ĵng":7800,"ĠASIAD":7801,"NÃªn":7802,"ĠGiÃłng":7803,"bek":7804,"izer":7805,"ĠBuá»ķi":7806,"ere":7807,"khÃ³a":7808,"ĠÃįt":7809,"ĠNob":7810,"ĠFeder":7811,"ĠvÃµng":7812,"ĠCá»Ŀ":7813,"ĠGun":7814,"Ġmic":7815,"ĠXÃ©t":7816,"HoÃłn":7817,"bes":7818,"ĠNhá»ĭ":7819,"Cháº¥t":7820,"ĠbÄĥm":7821,"SB":7822,"ĠMacron":7823,"ason":7824,"ĠrÃ¡n":7825,"ĠloÃ£ng":7826,"khi":7827,"ĠTÆ°á»Ľng":7828,"ĠCáº·p":7829,"itch":7830,"ChÃ¢u":7831,"mad":7832,"ĠghÃª":7833,"eto":7834,"Chá»ĵng":7835,"Ġngáº¯t":7836,"ĠÄĲáº¥u":7837,"rm":7838,"ĠKat":7839,"ĠOpen":7840,"ĠForm":7841,"Ġdá»©a":7842,"Ġcá»Ļi":7843,"Ġcháº£i":7844,"awa":7845,"âĢ¦)":7846,"Ġse":7847,"tw":7848,"ĠVit":7849,"Ġláº§u":7850,"ĠrÃ³t":7851,"ĠHi":7852,"ĠÆ°Æ¡m":7853,"kip":7854,"ĠPha":7855,"LS":7856,"Ġstress":7857,"ĠgáºŃt":7858,"ĠLionel":7859,"ĠDjokovic":7860,"ĠUl":7861,"Ġhá»ĩt":7862,"Cl":7863,"ĠErik":7864,"ĠCáº£i":7865,"ĠÄĲá»ĩ":7866,"2026":7867,"ald":7868,"ĠâĢĿ":7869,"ĠSergei":7870,"ĠNgÃ£":7871,"ĠUSB":7872,"ĠCá»ĳng":7873,"ĠHá»Ľi":7874,"ĠEnter":7875,"ĠMid":7876,"Ġnhá»ī":7877,"May":7878,"Ġkáº¹p":7879,"á»įt":7880,"idane":7881,"chez":7882,"ĠIntel":7883,"hay":7884,"ĠNext":7885,"Ġ1972":7886,"ĩn":7887,"ific":7888,"ĠAli":7889,"ets":7890,"yÃªu":7891,"ĠthÃ¢u":7892,"ĠSub":7893,"ĠThai":7894,"Ġcá»¥t":7895,"Ġsá»Ŀ":7896,"ĠnÃłnh":7897,"ĠsÆ°á»Łi":7898,"king":7899,"350":7900,"ĠYamaha":7901,"news":7902,"ĠlÃ³c":7903,"ĠHoáº±ng":7904,"ĠVill":7905,"LO":7906,"oly":7907,"ways":7908,"CDC":7909,"Br":7910,"ĠHá»©a":7911,"\"...":7912,"ĠVietjet":7913,"ĠSilva":7914,"aga":7915,"ĠChÃ¡u":7916,"ĠKal":7917,"QuÃ½":7918,"ĠVáº«n":7919,"CÃº":7920,"Ġthá»ģ":7921,"ĠPeter":7922,"ban":7923,"ĠDubai":7924,"!âĢĿ":7925,"ette":7926,"ĠtrÅ©ng":7927,"cha":7928,"Ġ1981":7929,"ĠCQÄĲT":7930,"ĠVer":7931,"RE":7932,"ĠRaf":7933,"Giáº£m":7934,"ĠtoÃ¡t":7935,"UN":7936,"Ġcom":7937,"ĠLuis":7938,"Ġláº§y":7939,"ĠngÆ¡":7940,"ĠSnap":7941,"ĠDiego":7942,"ĠKha":7943,"ĠGra":7944,"Ġdáº§m":7945,"col":7946,"Loáº¡i":7947,"ĠTuá»ĩ":7948,"ĠKlopp":7949,"\";":7950,"Ġnáº§n":7951,"cher":7952,"Mo":7953,"ĠLavrov":7954,"SÃ¢n":7955,"Ġlá»Ńng":7956,"ĠNewcastle":7957,"Å©y":7958,"ĠTiá»ĩp":7959,"ĠchÃ¨n":7960,"ĠMáº¥y":7961,"ĠDiá»ĩn":7962,"Ġgáº¯m":7963,"eva":7964,"ĠBXH":7965,"ĠLÃ¡i":7966,"ĠNou":7967,"ĠSSI":7968,"cÃ²n":7969,"ef":7970,"ĠMr":7971,"itz":7972,"»Ŀ":7973,"ĠTW":7974,"á»Ŀ":7975,"ĠvÃ£n":7976,"VáºŃn":7977,"MÃ³n":7978,"ĠMeg":7979,"ĠKáº»":7980,"Ġsedan":7981,"ĠSum":7982,"ĠPas":7983,"ĠquÃ¢y":7984,"ĠSáº§m":7985,"CD":7986,"ĠTÃ³c":7987,"Ġmáº©n":7988,"ĠVoice":7989,"Ġdiá»ģu":7990,"ĠtÃ©":7991,"ĠkWh":7992,"ĠngÃ³ng":7993,"ĠQuáº¥t":7994,"ĠÄĲáº§m":7995,"ĠThy":7996,"stal":7997,"ĠOPEC":7998,"táº¡i":7999,"Ãįt":8000,"ĠUniverse":8001,"ĠCá»ĳc":8002,"âĢ¦âĢĿ":8003,"ĠVinamilk":8004,"KhÃ¡m":8005,"ĠGDÄĲT":8006,"ĠFrancis":8007,"Ġhorm":8008,"Ġá»ıi":8009,"ĠTÃł":8010,"Ġngá»¥y":8011,"EVN":8012,"Biáº¿t":8013,"ĠTá»ĳt":8014,"ory":8015,"tral":8016,"ĠAsh":8017,"ĠNDT":8018,"ĠLeon":8019,"Thá»«a":8020,"Phan":8021,"giÃ¡":8022,"ĠPort":8023,"áº¬":8024,"Ġcá»«":8025,"ĠThá»¥":8026,"Ġ''":8027,"ĠUkraina":8028,"cuá»Ļc":8029,"viet":8030,"terte":8031,"ÄĲáº©y":8032,"lib":8033,"ĠLux":8034,"ĠChang":8035,"Ġcá»ĵng":8036,"ĠBá»©c":8037,"ĠFace":8038,"ĠMik":8039,"ĠrÃ£nh":8040,"''":8041,"Ġ230":8042,"Ġtráº·c":8043,"2006":8044,"Giadinh":8045,"br":8046,"Ġquáº·ng":8047,"ĠTá»«ng":8048,"--------":8049,"ĠMobiFone":8050,"ĠUP":8051,"Ġphen":8052,"âĢĿ...":8053,"tan":8054,"ĠJol":8055,"Ġ1976":8056,"ĠVá»ĳn":8057,"ĠTáº§n":8058,"ĠBas":8059,"ĠquÃ½t":8060,"ĠGer":8061,"ĠBrid":8062,"ĠngÃ²i":8063,"Ġxuá»ĵng":8064,"Ġtua":8065,"cháº¡y":8066,"Ġres":8067,"ĠSP":8068,"ĠMiáº¿u":8069,"Ã¬a":8070,"Ãģo":8071,"Ġngháº¹t":8072,"Ġxá»īu":8073,"eman":8074,"ĠFTA":8075,"ĠUz":8076,"Ġngá»¥c":8077,"Apple":8078,"Äĳá»ĥ":8079,"ĠJustin":8080,"ĠnáºŃp":8081,"Há»£p":8082,"ashion":8083,"Ġkhuáº¥y":8084,"uguay":8085,"ĠPor":8086,"ĠGaza":8087,"ĠSom":8088,"ĠRichard":8089,"ÄĲS":8090,"Ġ1960":8091,"ÄĤ":8092,"ito":8093,"ĠTour":8094,"ĠDuterte":8095,"Ġki":8096,"ĠVNÄĲ":8097,"ĠCPI":8098,"Ġ112":8099,"ĠRai":8100,"ĠMek":8101,"fizer":8102,"Chinhphu":8103,"ĠRÃµ":8104,"ĠOk":8105,"cÃ¡i":8106,"Ŀm":8107,"AIDS":8108,"Ġ%":8109,"ĠLuáºŃn":8110,"ĠGe":8111,"ĠchÃ¡nh":8112,"Ġ116":8113,"Ġmáº¹o":8114,"ĠGh":8115,"Ġnáº¡t":8116,"SM":8117,"ĠBÃŃnh":8118,"dá»±":8119,"Ġkhinh":8120,"ĠcháºŃp":8121,"bÃł":8122,"tiá»ģn":8123,"ĠSá»ĳng":8124,"ĠBrad":8125,"»Ĳ":8126,"á»Ĳ":8127,"ĠCBCS":8128,"ĠBiá»ĥu":8129,"há»Ļ":8130,"Äĳáº·c":8131,"RÃµ":8132,"ĠLew":8133,"ĠMedia":8134,"sá»ĳng":8135,"ĠMetro":8136,"Ġme":8137,"XÃ£":8138,"ÄĲá»©ng":8139,"NgÆ°á»£c":8140,"Ġhá»§":8141,"ĠJav":8142,"ĠtrÃ³i":8143,"kV":8144,"ĠSáº¯c":8145,"ĠPac":8146,"ĠDelta":8147,"ĠImages":8148,"ĠEng":8149,"ĠShar":8150,"ĠForbes":8151,"Ġfanpage":8152,"ĠTÃ¹y":8153,"Háº¡":8154,"fa":8155,"ĠGab":8156,"ĠGuardian":8157,"ĠxÃŃt":8158,"ĠÆ¡":8159,"ĠTCTD":8160,"ĠSav":8161,"ĠBom":8162,"Ġseries":8163,"Ġ104":8164,"Ġmix":8165,"Há»Ĺ":8166,"act":8167,"ĠFo":8168,"pot":8169,"ĠnhÃło":8170,"udio":8171,"Ġuáº¥t":8172,"ĠKÃŃnh":8173,"ĠthÃªu":8174,"Ġ750":8175,"ĠFort":8176,"CLB":8177,"Ġxua":8178,">>>":8179,"ĠCatal":8180,"rick":8181,"ĠHee":8182,"ĠGAS":8183,"ĠvÃ²m":8184,"ĠÄĲáº©y":8185,"Ġlá»ģu":8186,"ÄĲÆ°a":8187,"ĠPau":8188,"ĠSÆ°Æ¡ng":8189,"play":8190,"ovo":8191,"Ġshop":8192,"ĠLÃ¢u":8193,"ĠThá»¥c":8194,"ĠphiÃªu":8195,"ĠIdlib":8196,"Ġ175":8197,"ĠkÃ©t":8198,"Ġmáº£i":8199,"ĠKang":8200,"Ġcháº±ng":8201,"ĠAwards":8202,"iger":8203,"ķi":8204,"ĠKane":8205,"?âĢĿ,":8206,"ĠHome":8207,"ĠRock":8208,"uan":8209,"vÃ´":8210,"ĠCang":8211,"ĠTÃŃch":8212,"áº¦":8213,"Ġkhiáº¿t":8214,"Ġnáº¿m":8215,"ĠtÆ°ng":8216,"ĠngÃ¹i":8217,"Ġbung":8218,"ĠMÃ£i":8219,"Ġchuá»Ļc":8220,"Ġz":8221,"Ġvisa":8222,"ĠCÃº":8223,"ĠVHTTDL":8224,"san":8225,"Arsenal":8226,"Cam":8227,"ĠVCB":8228,"ĠLex":8229,"ĠnhÃ³c":8230,"PTPP":8231,"ĠMiG":8232,"orsche":8233,"ison":8234,"encia":8235,"ĠchÃŃch":8236,"cc":8237,"dio":8238,"Ġphá»ĵng":8239,"evin":8240,"gá»įi":8241,"ĠCÃłng":8242,"Biá»ĥu":8243,"Vn":8244,"NÆ¡i":8245,"ĠYe":8246,"Äĳáº¡t":8247,"ĠMua":8248,"Ġ650":8249,"icon":8250,"ĠBrunei":8251,"ĠBenz":8252,"ĠgÄĥng":8253,"ĠVGP":8254,"ÄĲa":8255,"https":8256,"elf":8257,"Ġngao":8258,"otland":8259,"ĠÄĲV":8260,"min":8261,"ĠkhoÃ¡t":8262,"dy":8263,"bekistan":8264,"omes":8265,"Ġ107":8266,"ĠStreet":8267,"Tuyáº¿n":8268,"BÃ¡nh":8269,"ERS":8270,"ĠZidane":8271,"Ġve":8272,"ĠÃºp":8273,"rolimex":8274,"Ġngáº¥m":8275,"ĠSmart":8276,"ĠDÄ©nh":8277,"ĠSanchez":8278,"...âĢĿ.":8279,"ĠKid":8280,"ĠBinh":8281,"!\".":8282,"Ġbá»į":8283,"ĠSports":8284,"ĠHaz":8285,"ĠYong":8286,"ĠSaint":8287,"Ġnung":8288,"Ah":8289,"ĠID":8290,"mg":8291,"AV":8292,"ĠÄĳáºŃy":8293,"win":8294,"ĠDem":8295,"ĠXa":8296,"ĠJam":8297,"ĠPeru":8298,"ĠDmit":8299,"ealth":8300,"ÃĮ":8301,"ĠsÆ°a":8302,"www":8303,"ĠJim":8304,"ĠEv":8305,"RC":8306,"Máº¥y":8307,"NÃ´ng":8308,"SP":8309,"hÃłnh":8310,"ĠTrao":8311,"ĠgiÆ¡":8312,"Ġtáº£o":8313,"BÃ¢y":8314,"ois":8315,"Ġbl":8316,"ĠJennifer":8317,"ĠcÃµi":8318,"Ukrain":8319,"ode":8320,"Ġáº¿":8321,"ĠCÃ¹":8322,"Hz":8323,"Ġmá»īm":8324,"Ġgiá»ı":8325,"ĠApp":8326,"ĠBQL":8327,"TiÃªu":8328,"ĠWi":8329,"Ġtrá»ĵ":8330,"vest":8331,"Uá»ĳng":8332,"Ġchá»ĳc":8333,"ydney":8334,"Giá»ĳng":8335,"ĠHillary":8336,"Ġbody":8337,"rystal":8338,"Bá»ĳn":8339,"Ġ1978":8340,"ĠPfizer":8341,"Ġgang":8342,"Ġ114":8343,"há»ģ":8344,"ĠMitsubishi":8345,"ĠDuáº©n":8346,"ori":8347,"»ĩnh":8348,"á»ĩnh":8349,"ĠNep":8350,"ĠNadal":8351,"ÃĤN":8352,"Ká»·":8353,"nhap":8354,"ashford":8355,"ĠBeckham":8356,"Nháº¡c":8357,"ĠmÃ©o":8358,"ĠMÃłu":8359,"ĠPN":8360,"ĠNhiá»ĩm":8361,"ĠUruguay":8362,"Táº¡o":8363,"ÄĲáº¯k":8364,"Re":8365,"org":8366,"ĠJolie":8367,"TI":8368,"ĠGiá»ĳng":8369,"ora":8370,"Ġ106":8371,"ĠxÆ°á»Ľc":8372,"ĠAndr":8373,"aeda":8374,"DÆ°Æ¡ng":8375,"chá»ĭ":8376,"ĠtrÄ©":8377,"ĠAD":8378,"ĠPalace":8379,"erto":8380,"Ġsá»¡":8381,"ADS":8382,"ĠNissan":8383,"Vá»ĳn":8384,"ĠLáº¥y":8385,"KTS":8386,"Ġmark":8387,"Ġváº«y":8388,"ĠSerbia":8389,"báº¥t":8390,"Ġmáº«n":8391,"ĠNÃł":8392,"Ġ1968":8393,"ĠAntonio":8394,"ĠCÃ¡nh":8395,"ĠVietlott":8396,"Hot":8397,"ĠValent":8398,"ĠAmerica":8399,"Ġxá»ĳp":8400,"thá»Ŀi":8401,"Ġtáº©m":8402,"TÆ°":8403,"ĠMobile":8404,"ĠXVII":8405,"ĠXp":8406,"ĠPhá»ĳi":8407,"TD":8408,"´m":8409,"Ġ123":8410,"Äĳá»ĭa":8411,"tÃŃnh":8412,"ĠManila":8413,"Ġbin":8414,"ĠWeb":8415,"ĠNho":8416,"ĠLen":8417,"ĠAston":8418,"ĠBund":8419,"Ġnhang":8420,"ĠVá»įng":8421,"ĠUzbekistan":8422,"Ġmá»©t":8423,"ĠNÄĲT":8424,"ĠChá»ĳng":8425,"ghini":8426,"ĠchÆ°á»Ľng":8427,"Ġ190":8428,"Ġbáº©y":8429,"unt":8430,"Ġnháº±n":8431,"ĠBTV":8432,"ĠXu":8433,"ican":8434,"Tiáº¿t":8435,"ĠbÆ°á»Ľu":8436,"ĠGiáº£m":8437,"Ġfl":8438,"Ġ1974":8439,"Giáº¿t":8440,"370":8441,"borghini":8442,"KiÃªn":8443,"orning":8444,"ĠBÃ¡nh":8445,"ĠVar":8446,"ĠmÃ©p":8447,"ĠRoll":8448,"ĠCCC":8449,"ĠVIII":8450,"ĠDJ":8451,"ĠUEFA":8452,"ÄĲÃłn":8453,"tein":8454,"Ġ550":8455,"ior":8456,"ÄĲÃ¡p":8457,"ĠLuc":8458,"CG":8459,"Media":8460,"ChÃłng":8461,"ĠCav":8462,"¹n":8463,"Messi":8464,"ĠTang":8465,"ĠMÃ³n":8466,"irl":8467,"ÄĲáº¥t":8468,"ĠFormosa":8469,"Ġray":8470,"Ġsum":8471,"Tiáº¿ng":8472,"NÃ³":8473,"tron":8474,"ĠphÃ´ng":8475,"ĠCorp":8476,"uma":8477,"ĠLÆ°":8478,"ĠDelhi":8479,"ĠBá»ĳn":8480,"ĠSydney":8481,"ĠPomp":8482,"ĠXÃºc":8483,"HNM":8484,"ĠNASA":8485,"Ġniá»ĩu":8486,"ĠFan":8487,"Quá»·":8488,"ĠÄĲang":8489,"Ġsáº£o":8490,"ĠTháº¡c":8491,"ĠAirways":8492,"ķng":8493,"VÃ¹ng":8494,"ĠDay":8495,"ĠRen":8496,"Ġáº¿ch":8497,"Ġphá»¥ng":8498,"Ġ117":8499,"ĠAj":8500,"ĠLexus":8501,"ĠKel":8502,"ÄĳÃ³ng":8503,"Ġ155":8504,"Ġvuá»ĳt":8505,"trá»«":8506,"hy":8507,"Ġ320":8508,"ĠTB":8509,"Ukraine":8510,"ĠTrÃ¡ch":8511,"ĠHO":8512,"Ġcháº¡p":8513,"ĠQÄĲ":8514,"ĠLá»ĩnh":8515,"ĠCAQ":8516,"ather":8517,"anon":8518,"ushi":8519,"ĠHarv":8520,"Ġstartup":8521,"Ġ109":8522,"Ġ1973":8523,"Ġbiáº¿u":8524,"má»Ĺi":8525,"ĠvÆ¡":8526,"ĠGTGT":8527,"Ġ111":8528,"ĠQuáº§n":8529,"máº¹":8530,"ĠCá»©u":8531,"Ġteen":8532,"ĠChris":8533,"din":8534,"Ġkiáº¿p":8535,"otti":8536,"olog":8537,"ĠSteph":8538,"Ġlaser":8539,"ĠnhÃłn":8540,"ĠÄĳÃłng":8541,"ĠFerrari":8542,"ĠMekong":8543,"Ġbáº§m":8544,"Ġcheck":8545,"ĠphÃ´i":8546,"Ġthiá»ģn":8547,"...)":8548,"Pháº£n":8549,"akarta":8550,"ĠThÃºc":8551,"ĠBlues":8552,"ĠThoáº¡i":8553,"»©ng":8554,"á»©ng":8555,"Báº¿n":8556,"Hiá»ĩu":8557,"ĠThoa":8558,"ĠBá»Ńu":8559,"ĠÄĳiá»ģm":8560,"ĠEb":8561,"Sá»ĳng":8562,"Ġhoay":8563,"HT":8564,"chu":8565,"ĠShop":8566,"akhstan":8567,"urt":8568,"ĠMet":8569,"ĠScotland":8570,"ĠWang":8571,"ray":8572,"ĠSteve":8573,"Ġxiáº¿c":8574,"2030":8575,"gen":8576,"Ġtá»¥i":8577,"olas":8578,"owski":8579,"ĠTak":8580,"ĠJean":8581,"Mal":8582,"ĠTs":8583,"row":8584,"onia":8585,"ĠIbrahim":8586,"Bao":8587,"Ġ1977":8588,"tech":8589,"TÆ¯":8590,"Ġjeans":8591,"ĠHCB":8592,"ĠWoo":8593,"ĠSina":8594,"lex":8595,"Ġmodel":8596,"ĠLÄĲBÄĲ":8597,"Ġkáº½m":8598,"Ġvá»ın":8599,"ĠNgÃł":8600,"ĠPPP":8601,"Ġáº£m":8602,"akia":8603,"ĠHáº¡m":8604,"ĠCCCD":8605,"ĠDá":8606,"ĠGiÃ¢y":8607,"ĠDá»":8608,"ĠnhÃłm":8609,"ĠSudan":8610,"Tranh":8611,"Cháº¯c":8612,"TrÆ°Æ¡ng":8613,"ĠTráº£ng":8614,"ATGT":8615,"Ġchá»ĩ":8616,"Fed":8617,"âĢĿ:":8618,"ement":8619,"ladesh":8620,"ĠÄĲoan":8621,"gÃ¢y":8622,"ĠCharles":8623,"ĠFar":8624,"ĠnÃŃu":8625,"ĠHK":8626,"ily":8627,"Tiá»ĥu":8628,"ru":8629,"ĠHP":8630,"tÃ¬nh":8631,"ĠType":8632,"ĠKan":8633,"ÄĲá»įc":8634,"Ġngá»Ŀi":8635,"olo":8636,"Ġcá»§i":8637,"esse":8638,"dragon":8639,"ĠgÃ¡y":8640,"ĠnCoV":8641,"2005":8642,"Táº¡m":8643,"TVQH":8644,"ĠRio":8645,"Rá»ĵi":8646,"Ġgram":8647,"eca":8648,"Ġnghiá»ģn":8649,"Ġcatw":8650,"ĠIX":8651,"ĠMcC":8652,"ĠKerry":8653,"Ġwww":8654,"ĠChÃŃn":8655,"Linh":8656,"ĠSD":8657,"oni":8658,"GAP":8659,"VÃłi":8660,"ĠSur":8661,"imb":8662,"ĠRy":8663,"Ġcatwalk":8664,"ĠchÃ³i":8665,"ĠchÃł":8666,"ĠMÆ¡":8667,"LED":8668,"ĠTrans":8669,"?\"":8670,"Ġbe":8671,"ChÃ¡u":8672,"ĠFre":8673,"ĠGates":8674,"ĠChoi":8675,"TE":8676,"ĠÄĳiáº¿u":8677,"ĠThiá»ģu":8678,"ĠWatch":8679,"ĠLife":8680,"ĠCel":8681,"ĠThÆ¡m":8682,"ĠBuff":8683,"ĠSuá»ĳt":8684,"Ġfutsal":8685,"ĠBruno":8686,"gor":8687,"ĠAp":8688,"Tai":8689,"off":8690,"ĠSant":8691,"una":8692,"ĠDom":8693,"SH":8694,"bÃªn":8695,"day":8696,"vin":8697,"ĠTechcombank":8698,"ĠShinzo":8699,"ĠLÄĲTB":8700,"ĠSÃ¢m":8701,"Gáº·p":8702,"Ġbus":8703,"Ġyoga":8704,"Ġnhai":8705,"Nguy":8706,"kinh":8707,"ChÃºc":8708,"ĠÆ¯u":8709,"ĠConte":8710,"RA":8711,"Dr":8712,"ĠSlov":8713,"GC":8714,"ĠNepal":8715,"Ã½p":8716,"ĠZelen":8717,"GTVT":8718,"ĠHCÄĲ":8719,"igan":8720,"MÃłu":8721,"MTTQ":8722,"Ġnhá»ķ":8723,"ĠIndex":8724,"Ġcafe":8725,"1945":8726,"ĠTráº£i":8727,"ĠTiáº¿t":8728,"ĠxÃŃu":8729,"Ġlike":8730,"ĠDáº¡":8731,"abeth":8732,"lÃªn":8733,"cÃ¡ch":8734,"Iá»Ĩ":8735,"âĢĻ.":8736,"ĠmÃ´tÃ´":8737,"ĠQuyáº¿n":8738,"PM":8739,"ĠKháº£o":8740,"Chuáº©n":8741,"ĠÄĲá»īnh":8742,"Ġthung":8743,"ĠÃ²a":8744,"Cá»Ń":8745,"Ġtá»§i":8746,"ger":8747,"ĠÄĳáº½":8748,"Ġngá»«":8749,"Ġur":8750,"Ġ141":8751,"ĠSalah":8752,"thá»©":8753,"Ġgiáº¥m":8754,"Is":8755,"etooth":8756,"ĠÄĳá»į":8757,"ĠGang":8758,"Ġtáº»":8759,"Thá»§y":8760,"ĠTNCS":8761,"To":8762,"ĠRashford":8763,"ĠBusiness":8764,"ingroup":8765,"ĠLaz":8766,"BGD":8767,"inet":8768,"ĠVNM":8769,"Ġváº¡":8770,"ĠPompeo":8771,"ĠHazard":8772,"ĠPlaza":8773,"Ġgiá»Ĺ":8774,"Zen":8775,"raph":8776,"ĠMáº¯t":8777,"phÃ¡t":8778,"ĠEVFTA":8779,"ĠSnapdragon":8780,"hen":8781,"cept":8782,"Ġ210":8783,"ĠAk":8784,"amine":8785,"Ġhormone":8786,"ĠCTCK":8787,"ĠZalo":8788,"ĠkhÃ©t":8789,"BNV":8790,"Ġ126":8791,"ĠBruss":8792,"Ġrá»Ĺng":8793,"QuáºŃn":8794,"ĠStore":8795,"ĠDy":8796,"ĠFederer":8797,"ĠDTTS":8798,"Ġle":8799,"wer":8800,"oko":8801,"urnal":8802,"ĠUp":8803,"ĠJeff":8804,"ope":8805,"ĠMT":8806,"ĠCCB":8807,"ĠGard":8808,"ĠBil":8809,"ibo":8810,"ĠPorsche":8811,"ĠSri":8812,"ĠNas":8813,"thony":8814,"ĠDmitry":8815,"ĠPers":8816,"trÆ°á»Ľc":8817,"ĠClub":8818,"ĠVÄĲ":8819,"Ġrapper":8820,"ĠMarc":8821,"Ġgym":8822,"ĠÃģp":8823,"HD":8824,"ĠKÃªnh":8825,"lam":8826,"ĠSwift":8827,"avi":8828,"Ġ270":8829,"Niá»ģm":8830,"ĠKpop":8831,"esliga":8832,"ĠPi":8833,"Iran":8834,"vá»£":8835,"ĠTO":8836,"ĠngÃ¡ch":8837,"ĠShe":8838,"Ass":8839,"Ġchá»īn":8840,"ĠXS":8841,"ĠRub":8842,"MV":8843,"%...":8844,"Ġcáº¡o":8845,"BÃ³ng":8846,"ĠCNVCLÄĲ":8847,"Pet":8848,"Nháº¯c":8849,"nhÃ¢n":8850,"zone":8851,"CoM":8852,"ĠLeb":8853,"oshenko":8854,"ĠBenzema":8855,"ĠWTO":8856,"ÄĲá»ķi":8857,"athon":8858,"ĠNobel":8859,"Ġsal":8860,"avel":8861,"Ġ260":8862,"ĠHA":8863,"Ġquáº©n":8864,"ĠResort":8865,"Sang":8866,"ĠXÃŃ":8867,"Ġxá»Ļn":8868,"Ná»Ĺi":8869,"Cá»Ļng":8870,"ĠLig":8871,"ĠJakarta":8872,"120":8873,"ann":8874,"Ã¬n":8875,"Má»ĳi":8876,"JI":8877,"báº£o":8878,"ĠBangladesh":8879,"ĠSmith":8880,"2024":8881,"ĠCá»±":8882,"ait":8883,"ĠGiáº£ng":8884,"ĠXÃ¡c":8885,"ĠchÃ²i":8886,"ĦN":8887,"ĠFBI":8888,"ÄĳÆ¡n":8889,"ĠRamos":8890,"ĠKevin":8891,"ĠRog":8892,"ĠVIC":8893,"ĠAgu":8894,"Ġview":8895,"ĠYonhap":8896,"ĠSergio":8897,"ons":8898,"ĠBridge":8899,"erby":8900,"ĠMorning":8901,"igu":8902,"ĠQueen":8903,"ĠIc":8904,"rom":8905,"chiáº¿c":8906,"ĠKazakhstan":8907,"ĠDáº«u":8908,"ĠAdam":8909,"Ġvung":8910,"ĠGÆ°Æ¡m":8911,"azz":8912,"hat":8913,"NDÄĲT":8914,"Ġmicro":8915,"ĠBlue":8916,"Ġpen":8917,"Chá»£":8918,"ĠSIM":8919,"ĠDia":8920,"2000":8921,"cent":8922,"ĠNgáº¡n":8923,"TrÃł":8924,"âĢĿ?":8925,"Ġthiá»ģu":8926,"Ġvo":8927,"ĠKhe":8928,"Khá»ĳi":8929,"ĠRu":8930,"Ġláº©u":8931,"ĠÄĲáº¿":8932,"eron":8933,"phÃª":8934,"izen":8935,"IL":8936,"ĠXNK":8937,"ĠFED":8938,"ĠchiÃªng":8939,"Ġren":8940,"gov":8941,"ĠXiaomi":8942,"ĠBrussels":8943,"earch":8944,"ĠGÆ°Æ¡ng":8945,"ÄĲTCK":8946,"ĠLukaku":8947,"ĠVAM":8948,"aghd":8949,"Fi":8950,"bu":8951,"ĠCannes":8952,"ĠNag":8953,"QuÃ¡n":8954,"ĠCorona":8955,"ĠtrÆ¡":8956,"Thá»ķ":8957,"Samsung":8958,"\"-":8959,"ĠCháº¡p":8960,"ĠÂ":8961,"VÃłng":8962,"dro":8963,"ont":8964,"máº¥t":8965,"vá»ģ":8966,"ĠElec":8967,"thuc":8968,"obile":8969,"ĠBia":8970,"wang":8971,"ĠCarol":8972,"chia":8973,"ĠchÃłi":8974,"ĠHel":8975,"Suá»ĳt":8976,"ĠnhÃ©t":8977,"Ġna":8978,"ĠTáº¿":8979,"ĠTÆ°á»£ng":8980,"ĠRyan":8981,"VÆ°á»£t":8982,"ĠVai":8983,"Ġbai":8984,"Ġcáº¥n":8985,"Ġrá»ĳn":8986,"ĠPin":8987,"Philip":8988,"ĠCV":8989,"ĠSy":8990,"Honda":8991,"jo":8992,"ĠCá»Ń":8993,"reak":8994,"had":8995,"thÃ´n":8996,"ĠGÃ³i":8997,"ĠRad":8998,"ret":8999,"ĠNick":9000,"ĠtÃ²i":9001,"ĠÄĳá»±c":9002,"ĠBash":9003,"ĠMA":9004,"ĠNgÆ°u":9005,"ĠrÃ¡t":9006,"ĠTá»©c":9007,"eller":9008,"ĠLamborghini":9009,"ĠvÃŃa":9010,"Indonesia":9011,"lanh":9012,"Ġup":9013,"ĠMÃłn":9014,"ĠthÃł":9015,"Ġben":9016,"Trá»įng":9017,"ision":9018,"Ġchá»ĩch":9019,"ĠCMND":9020,"ĠLuyá»ĩn":9021,"SGGP":9022,"Váº»":9023,"Káº»":9024,"ĠHTC":9025,"ĠLove":9026,"ĠDar":9027,"ire":9028,"ĠPVC":9029,"ĠOle":9030,"Ġ280":9031,"ever":9032,"ĠScott":9033,"Ġmarketing":9034,"izabeth":9035,"Ġloay":9036,"ĠBA":9037,"ĠDisney":9038,"comm":9039,"Ãģp":9040,"ĠhiÃªn":9041,"ĠLÃªn":9042,"bert":9043,"Ġkhoáº¯n":9044,"2004":9045,"ĠBundesliga":9046,"ĠLÃ£":9047,"ĠGáº¡o":9048,"Cap":9049,"ĠBat":9050,"sul":9051,"ĠCIA":9052,"ĠValencia":9053,"elfie":9054,"ĠngÃł":9055,"ange":9056,"ĠkhÄĥng":9057,"ĠVingroup":9058,"ms":9059,"tainment":9060,"hu":9061,"ĠAirbus":9062,"Trá»±c":9063,"ĠSouthampton":9064,"ĠAbu":9065,"ĠWB":9066,"OM":9067,"ĠÄĲáº£m":9068,"ĠrÆ°ng":9069,"ĠVÃłi":9070,"ĠÄĲÆ°Æ¡ng":9071,"TF":9072,"ved":9073,"Tam":9074,"Sing":9075,"Ġ2045":9076,"WS":9077,"ĠNapoli":9078,"ĠEbola":9079,"ĠMá»ĭch":9080,"ĠPen":9081,"thá»±c":9082,"ĠVÃĢ":9083,"XP":9084,"ráº¥t":9085,"ĠAy":9086,"ĠAstra":9087,"ĠKate":9088,"ĠnÄĥn":9089,"Ġsáº£nh":9090,"ĠmÃºi":9091,"Ġsh":9092,"iro":9093,"Ġ118":9094,"ĠHá»ķ":9095,"chain":9096,"ĠVinac":9097,"ĠXH":9098,"Ġthun":9099,"ĠPetrolimex":9100,"ĠCD":9101,"ador":9102,"RI":9103,"ĠkhÃ³m":9104,"ĠDV":9105,"ÆłNG":9106,"ĠRÄĥng":9107,"Ġnhung":9108,"ĠKá»ĭch":9109,"Liverpool":9110,"ical":9111,"Bay":9112,"Ġ1971":9113,"Can":9114,"iá»ĥng":9115,"gy":9116,"pha":9117,"Quá»¹":9118,"ĠngÃ³":9119,"khÃ³":9120,"ĠBent":9121,"ĠTÃło":9122,"giai":9123,"ĠKiatis":9124,"Tuáº¥n":9125,"LÆ°Æ¡ng":9126,"ĠTHá":9127,"ĠTHá»":9128,"Quáº£n":9129,"ĠtrÃ³t":9130,"quy":9131,"Ġxiáº¿t":9132,"Book":9133,"cháº¥t":9134,"ĠJournal":9135,"Ġnet":9136,"Ġcuá»ĳng":9137,"PS":9138,"iter":9139,"áº³m":9140,"ĠtuÃ´ng":9141,"Di":9142,"OO":9143,"ÄĲÃ¡m":9144,"Ãĵ":9145,"Ġtáº¯n":9146,"ĠEntertainment":9147,"Ġom":9148,"ĠFerg":9149,"CTN":9150,"FI":9151,"ĠÄĲo":9152,"ĠUBKT":9153,"OA":9154,"ĠBon":9155,"ĠADN":9156,"Assad":9157,"báº£n":9158,"Ġháº¥t":9159,"eop":9160,"ĠlÃ¡n":9161,"160":9162,"Ġquyá»ĩn":9163,"uson":9164,"bach":9165,"ĠNgÃłi":9166,"ĠCrystal":9167,"BNN":9168,"Ġhá»ĳc":9169,"ĠSho":9170,"ĠCX":9171,"Äĳá»Ļc":9172,"ĠCC":9173,"Ġkali":9174,"Ġ??":9175,"Ġthá»«ng":9176,"Æ¯ÆłNG":9177,"Ġmá»ĵm":9178,"UYá»ĦN":9179,"hire":9180,"ĠLanka":9181,"ĠNar":9182,"ĠBashar":9183,"Thá»ĭt":9184,"Quá»³nh":9185,"ĠTHADS":9186,"ĠKir":9187,"ĠWay":9188,"ĠbÃ¨o":9189,"Roy":9190,"1975":9191,"Bl":9192,"ĠSÆ¡":9193,"abi":9194,"ĠLisa":9195,"onex":9196,"Ġcá»ĳp":9197,"Ġnáº·c":9198,"ĠIMF":9199,"ĠCPTPP":9200,"YÃªn":9201,"VnMedia":9202,"cá»±u":9203,"cÆ¡n":9204,"athan":9205,"Ġ119":9206,"ĠTen":9207,"Ġresort":9208,"Ġit":9209,"irates":9210,"LÆ°á»£ng":9211,"sáº½":9212,"ĠAnthony":9213,"Ġdáº±n":9214,"ĠBir":9215,"ĠPacific":9216,"KTSG":9217,"erbai":9218,"bá»ĭ":9219,"ĠJoong":9220,"Tay":9221,"bá»Ļ":9222,"ĠSabeco":9223,"ĠChuyáº¿n":9224,"á»ĭm":9225,"ĠVietinbank":9226,"iPhone":9227,"ju":9228,"Ġpro":9229,"ĠPetro":9230,"ĠVAT":9231,"cÃ¢y":9232,"ĠStam":9233,"ĠTÃ²ng":9234,"ĠOx":9235,"NATO":9236,"Mang":9237,"ĠChÃłng":9238,"Ġráº±m":9239,"Qaeda":9240,"ÄĲá»£t":9241,"ology":9242,"lÆ°á»£t":9243,"%-":9244,"Ġcent":9245,"ĠHoldings":9246,"amboo":9247,"ĠNgÃ´n":9248,"chá»ĳng":9249,"ness":9250,"ĠLas":9251,"ĠVCCI":9252,"tá»ķ":9253,"ĠAK":9254,"ĠHinh":9255,"Jo":9256,"Äĳáº¥t":9257,"ingham":9258,"Ãµng":9259,"ĠMill":9260,"ĠGran":9261,"Ġekip":9262,"ĠtuÃ½p":9263,"ĠCru":9264,"Ġ121":9265,"ĠElon":9266,"BÃ£o":9267,"ĠElizabeth":9268,"Ġyáº¿m":9269,"âĢĻ,":9270,"erbaijan":9271,"Triá»ĩu":9272,"ĠSevilla":9273,"Ġhen":9274,"ĠValentine":9275,"ĠDOJI":9276,"Zeneca":9277,"ĠsÃºp":9278,"ĠGhi":9279,"ĠHoÃłnh":9280,"ĠÄĲHQG":9281,"under":9282,"KL":9283,"ĠRay":9284,"ĠMÆ°a":9285,"Ġ122":9286,"Ġreo":9287,"Cháº¿":9288,"ĠQual":9289,"ĠInn":9290,"ĠcÃ¹":9291,"Chá»įn":9292,"ĠZelensky":9293,"Ġnude":9294,"ĠÄĲoáº¡n":9295,"Ġngáº«m":9296,"ĠÄĲá»©ng":9297,"Ġ145":9298,"Nhiá»ĩm":9299,"PLX":9300,"ĠThá»ĭt":9301,"Ġtá»³":9302,"Ġphai":9303,"Ġlon":9304,"ogen":9305,"Ġ132":9306,"Ġvon":9307,"ĠBluetooth":9308,"quan":9309,"Äĳang":9310,"ĠXÄĥng":9311,"ĠBÃłu":9312,"ĠJuan":9313,"ĠMatt":9314,"tho":9315,"ká»ĥ":9316,"DÃłn":9317,"ĠPes":9318,"Ġselfie":9319,"las":9320,"ĠEco":9321,"Ġá»Ĳ":9322,"Ġpho":9323,"EV":9324,"ÄĲá»Ļc":9325,"ĠDream":9326,"ĠLop":9327,"ÃĮNH":9328,"ĠxÃ³i":9329,"ĠLÃ¡":9330,"ĠJang":9331,"ĠNghá»ģ":9332,"ĠLebanon":9333,"ĠGor":9334,"ĠTeleg":9335,"Ġáº¢NH":9336,"Ġ@":9337,"Ráº¡ng":9338,"LVT":9339,"ĠBLHS":9340,"ngh":9341,"ĠTL":9342,"ĠBá»ĵng":9343,"light":9344,"Ġdáº«u":9345,"ĠvÆ¡i":9346,"Ġcá»Ļm":9347,"130":9348,"Ġnháº£":9349,"ĠTÄĲ":9350,"geria":9351,"oph":9352,"Æ°Æ¡u":9353,"ĠÃ¡t":9354,"ĠtrÆ°á»Ľng":9355,"ĠMinzy":9356,"Nhu":9357,"bá»ı":9358,"Dá»±a":9359,"ĠGiáº¿t":9360,"sin":9361,"ĠTá»ĳc":9362,"Ġgá»įt":9363,"Ġbá»¥c":9364,"MI":9365,"ĠVÄĲQG":9366,"Reuters":9367,"ĠLÅ©ng":9368,"ASS":9369,"fan":9370,"Thá»ĥ":9371,"Ġcau":9372,"iago":9373,"ĠThÃ¬":9374,"ĠhÃ©c":9375,"menia":9376,"Liá»ĩu":9377,"har":9378,"Ġmiáº¿u":9379,"ĠNHTM":9380,"Ġwon":9381,"ĠCz":9382,"ienthuc":9383,"ĠFal":9384,"ĠYoo":9385,"Ġbáº¹p":9386,"ĠngÃ³i":9387,"Kháº£":9388,"ĠtÆ¡i":9389,"ĠCNLÄĲ":9390,"Ġdá»Ļt":9391,"ĠHá»Ļ":9392,"Ġxy":9393,"Ġcháº¯t":9394,"NgÃ´":9395,"ĠFerguson":9396,"ahoo":9397,"Ġmá»ĭt":9398,"garia":9399,"áº®":9400,"ĠNÃłng":9401,"ĠVui":9402,"Ġapp":9403,"Bu":9404,"Ġlive":9405,"ĠSVÄĲ":9406,"ds":9407,"alty":9408,"ĠGeneva":9409,"Ġacid":9410,"ĠVF":9411,"Lá»Ļ":9412,"ĠbÆ°á»Ľm":9413,"vÃłng":9414,"Bá»ı":9415,"ĠWilliams":9416,"ĠGáº·p":9417,"wagen":9418,"ĠVPBank":9419,"ira":9420,"Äĳá»ģ":9421,"OR":9422,"KVÄĲ":9423,"Ġphá»Ľt":9424,"ĠÃĲáº£ng":9425,"ĠChen":9426,"ĠThuá»ĳc":9427,"ĠVá":9428,"ĠVá»":9429,"ips":9430,"ĠHPG":9431,"ĠkÃ¬nh":9432,"ĠCenter":9433,"ĠYan":9434,"Hano":9435,"ĠStan":9436,"Ġtá»§y":9437,"Ġnhá»Ŀn":9438,"ĠCháº£i":9439,"ĠKn":9440,"Philipp":9441,"Ġsáº£":9442,"ĠDep":9443,"ĠMusic":9444,"ĠKai":9445,"Ġ1969":9446,"ĠWan":9447,"ĠÄĲá»įc":9448,"Sáº¯p":9449,"LÃłng":9450,"Ġ127":9451,"ĠdÄĥm":9452,"ĠSá»¯a":9453,"Ġháº¯t":9454,"ĠnhoÃ¡ng":9455,"ĠSeung":9456,"Ġblock":9457,"xx":9458,"ĠmáºŃn":9459,"Toy":9460,"ĠHouse":9461,"xcÆ¡":9462,"ĠBy":9463,"Dáº¥u":9464,"ĠBÃ¹":9465,"áº¥ng":9466,"ĠtrÃ¡":9467,"ux":9468,"atra":9469,"ĠnhÃŃch":9470,"Khoáº£nh":9471,"cháº¿t":9472,"ĠYoon":9473,"ĠthÃ¡n":9474,"ĠMonaco":9475,"Ġspa":9476,"Ġgiun":9477,"Ġsáº·c":9478,"ĠPoroshenko":9479,"ĠAstraZeneca":9480,"GiadinhNet":9481,"ĠLáºŃy":9482,"ĠStamford":9483,"ĠThÃ´n":9484,"ĠOlympia":9485,"ĠhÃ²ng":9486,"real":9487,"ĠChev":9488,"kswagen":9489,"Ġnu":9490,"Ġtrá»Ĺi":9491,"ĠEmirates":9492,"BT":9493,"yes":9494,"ĠTun":9495,"uador":9496,"Sai":9497,"ĠRáº¡ng":9498,"Ġsáº£ng":9499,"Mong":9500,"Ġ1967":9501,"Lan":9502,"ĠCook":9503,"ĠKhÃ³a":9504,"ĠNhá»Ľ":9505,"thay":9506,"ĠCÄĲCS":9507,"ĠNhiÃªn":9508,"Ġdr":9509,"ista":9510,"ĠMartial":9511,"Ġque":9512,"ĠKos":9513,"ĠKhÃ¡n":9514,"ĠCáº¥m":9515,"BCK":9516,"Ġ124":9517,"New":9518,"ĠrÆ°á»£t":9519,"ĠmÃªnh":9520,"urs":9521,"ĠGR":9522,"ĠTriáº¿t":9523,"Ġ1945":9524,"Ġthá»ı":9525,"ĠThÃ©p":9526,"ĠKam":9527,"abeu":9528,"ĠKab":9529,"ĠÄĳá»ĳm":9530,"750":9531,"Ġshi":9532,"ahu":9533,"ĠTrÃ¹ng":9534,"ĠJet":9535,"Äĳiá»ģu":9536,"Hanoinet":9537,"ĠsÃ´":9538,"eber":9539,"TVS":9540,"alem":9541,"VÃµ":9542,"Ġmet":9543,"ĠVirgin":9544,"ĠWhite":9545,"ĠQLDA":9546,"Ġtháº³m":9547,"ĠKHCN":9548,"ĠKhuáº¥t":9549,"Ġ330":9550,"ĠMarvel":9551,"ĠMary":9552,"ĠTráº£":9553,"ĠRomania":9554,"há»ĩ":9555,"ĠGiÃłu":9556,"ĠJackson":9557,"ĠTáº¥m":9558,"Huyá»ģn":9559,"ĠBernabeu":9560,"ĠAguero":9561,"ĠCá»ı":9562,"ĠCzech":9563,"Nhá»Ľ":9564,"UD":9565,"irus":9566,"ĠmÃ¨":9567,"Vinh":9568,"ĠIvan":9569,"Äĳá»Ļi":9570,"âĢ¦âĢĿ,":9571,"Cá»Ńa":9572,"Báº§u":9573,"chuyá»ĩn":9574,"ĠFu":9575,"Ġ#":9576,"ĠliÃªm":9577,"ĠHQ":9578,"ÄĲá»ĵ":9579,"Biáº¿n":9580,"táº¡m":9581,"ures":9582,"Thá»¥y":9583,"Ġxá»īn":9584,"ĠHil":9585,"afe":9586,"£m":9587,"ĠRolls":9588,"Äĳáº¿n":9589,"ĠSanta":9590,"duc":9591,"Singapore":9592,"Ġváº·n":9593,"ĠXoÃłi":9594,"ĠArmenia":9595,"rin":9596,"ĠRet":9597,"Toyota":9598,"ennis":9599,"ĠgÃło":9600,"ĠTMÄĲT":9601,"Ġáº£":9602,"...\".":9603,"ĠRodriguez":9604,"Ġcuá»ĳc":9605,"Ġriáº¿t":9606,"oke":9607,"ĠPhÃ¡i":9608,"ká»³":9609,"ĠmÃºc":9610,"gas":9611,"ĠDá»ĩt":9612,"ĠLar":9613,"ĠTÆ¡":9614,"ĠCá»«":9615,"Ġnguyá»ģn":9616,"CÆ¡n":9617,"ĠHÄĲT":9618,"ĠAbb":9619,"room":9620,"Ġnem":9621,"ĠSeries":9622,"ĠShang":9623,"ĠÄĲKVÄĲ":9624,"ĠUá»ĳng":9625,"Ġ138":9626,"ĠMen":9627,"Ġnháº¹n":9628,"Ġvest":9629,"Ġá»ķi":9630,"ĠHaaland":9631,"ĠRem":9632,"ĠAzerbaijan":9633,"ĠBush":9634,"ĠÄĲá»£t":9635,"Kienthuc":9636,"²m":9637,"Ġlá»£p":9638,"ifi":9639,"ĠxoÄĥn":9640,"Ġhuyá»ĩt":9641,"Ġláº¡ng":9642,"Ãį":9643,"ĠNháº±m":9644,"káº»":9645,"Æ°á»£m":9646,"ĠSÃ³ng":9647,"cert":9648,"Ġngá»ķn":9649,"ĠCit":9650,"ĠrÃ¬nh":9651,"Xu":9652,"Philippines":9653,"ĠSÃª":9654,"Ġmar":9655,"ĠQualcomm":9656,"IG":9657,"ÄĲÃ³ng":9658,"ĠYu":9659,"CATP":9660,"ĠhÃºc":9661,"ĠHH":9662,"Ġmetro":9663,"Malaysia":9664,"ĠBrit":9665,"QP":9666,"ĠDen":9667,"Ġplay":9668,"ĠAV":9669,"ĠnÃ¡ch":9670,"ting":9671,"ĠHiÃªn":9672,"ĠÄĲTVN":9673,"azer":9674,"ĠAlgeria":9675,"Ġsá»¥c":9676,"ĠChÃ¡y":9677,"ĠAth":9678,"SDÄĲ":9679,"can":9680,"Ġgá»ĵng":9681,"ator":9682,"ĠMá»ĳi":9683,"ĠRau":9684,"cu":9685,"ĠPCR":9686,"ÄĲSPL":9687,"ThÃº":9688,"ST":9689,"conom":9690,"zz":9691,"Cad":9692,"ĠMasan":9693,"cheon":9694,"Ġmá»ĵng":9695,"ĠChÃłm":9696,"ĠHarris":9697,"ĠVIP":9698,"ĠTrá»£":9699,"La":9700,"girl":9701,"Ġcover":9702,"ĠKhoÃ¡ng":9703,"cl":9704,"Ġkhay":9705,"Ġváº§y":9706,"VH":9707,"Ġdáº¥n":9708,"esus":9709,"ĠBP":9710,"side":9711,"ĠKCB":9712,"ĠHolland":9713,"cÃ²":9714,"earl":9715,"atus":9716,"ĠJac":9717,"ĠSáº¯p":9718,"ĠVietGAP":9719,"ĠAB":9720,"áºłI":9721,"ĠKhÃ¡c":9722,"ĠÄĲáº«y":9723,"ĠBulgaria":9724,"Ġnhá»ĩn":9725,"well":9726,"Ġhanh":9727,"Ġrá»ĵ":9728,"ĠNá»ķi":9729,"ICA":9730,"Ġchat":9731,"loud":9732,"Ġyen":9733,"Royce":9734,"Ġcáº±m":9735,"cr":9736,"Lá»«a":9737,"thá»§":9738,"Ġngá»§i":9739,"ĠGot":9740,"Ġtrailer":9741,"ĠGarden":9742,"ĠÃģng":9743,"ĠÄĲÃ¡p":9744,"!!!":9745,"WB":9746,"Ġ165":9747,"báº±ng":9748,"ĠUV":9749,"ĠHoSE":9750,"ĠGom":9751,"thÃ´ng":9752,"Ġbá»ĭa":9753,"Ġná»ī":9754,"Ġquai":9755,"ĠDow":9756,"Ġnick":9757,"ĠlÃºt":9758,"Ġtriá»ģn":9759,"biáº¿n":9760,"ĠMÃ¡t":9761,"ĠPhn":9762,"TBKTSG":9763,"ĠGPLX":9764,"má»Ł":9765,"ima":9766,"ĠTáº§m":9767,"UA":9768,"eu":9769,"ĠNhá»±t":9770,"ĠkhoÃ©t":9771,"KhÃ":9772,"diá»ħn":9773,"esa":9774,"arth":9775,"ĠLog":9776,"DR":9777,"vÃ¬":9778,"Ġroi":9779,"ucker":9780,"Ġbáº§y":9781,"2003":9782,"axi":9783,"ĠLigue":9784,"ĠCentral":9785,"2001":9786,"wich":9787,"ĠphÆ°á»£ng":9788,"iez":9789,"ĠcÃ¡u":9790,"ror":9791,"Ġ389":9792,"Ġbá»Ļn":9793,"Ġ134":9794,"ĠCáº¡nh":9795,"ĠNorth":9796,"ĠCAH":9797,"Ġhacker":9798,"nÆ°á»Ľc":9799,"ĠHanoi":9800,"ĠLump":9801,"vedev":9802,"?!":9803,"ĠLes":9804,"ĠMÃ¨o":9805,"ĠEcuador":9806,"850":9807,"ĠOt":9808,"ĠoÃ¡n":9809,"ĠHÆ°á»Łng":9810,"Ġnhuáº§n":9811,"ĠBamboo":9812,"Ġtuá»Ļt":9813,"ĠchÃ¡t":9814,"El":9815,"ĠWood":9816,"ĠÃĬ":9817,"Ġ365":9818,"Ġcháº¯p":9819,"Ġrap":9820,"ĠIC":9821,"ĠrÃ¹ng":9822,"ĠFrancisco":9823,"rolet":9824,"celotti":9825,"ĠhÃ£nh":9826,"Ġstyle":9827,"ĠTro":9828,"iki":9829,"Duy":9830,"MD":9831,"ĠOd":9832,"Bo":9833,"Biá»ĥn":9834,"ĠchÆ°á»Ľc":9835,"Ġ999":9836,"ĠSter":9837,"Ġoff":9838,"IÃĬN":9839,"ĠZika":9840,"Vua":9841,"ĠPay":9842,"ĠGÃ¢y":9843,"FO":9844,"ĠEric":9845,"ĠEun":9846,"ĠDiá»ĩc":9847,"ĠLáº¡ch":9848,"Ġthá»ĩ":9849,"ĠxÃª":9850,"Tinh":9851,"dong":9852,"ĠTower":9853,"!\"":9854,"utter":9855,"ÄĲiá»ĥn":9856,"ĠsÃ¡n":9857,"ĠPR":9858,"ĠTIáº¾":9859,"BÃ¡n":9860,"Ġlink":9861,"ĠBHTN":9862,"andowski":9863,"BHXH":9864,"ĠChiÃªu":9865,"ĠInvest":9866,"ĠGI":9867,"ĠUPCoM":9868,"'),":9869,"ĠAuto":9870,"ĠBÃª":9871,"Huy":9872,"ĠInc":9873,"ivia":9874,"ffe":9875,"ĠIbrahimovic":9876,"Ġhydro":9877,"Tháº£o":9878,"ĠChic":9879,"ĠHáº¡ng":9880,"ĠdÃŃ":9881,"ĠCur":9882,"TTT":9883,"ĠLatinh":9884,"dÃ¢n":9885,"quÃª":9886,"ĠDig":9887,"Ġmáº¥u":9888,"Zing":9889,"ĠHamas":9890,"©n":9891,"Rau":9892,"ĠAnn":9893,"ĠÄĳÃ£ng":9894,"VFF":9895,"Giá»¯":9896,"ovich":9897,"?\",":9898,"ĠCK":9899,"loáº¡i":9900,"ĠFashion":9901,"ĠTechn":9902,"ĠKhÃºc":9903,"gger":9904,"Facebook":9905,"rad":9906,"ĠBoy":9907,"ĠMis":9908,"Ġnáº¡c":9909,"ĠFul":9910,"Times":9911,"Ġxoang":9912,"cáº§u":9913,"Truy":9914,"Lee":9915,"ĠMXH":9916,"Ġnhá»ĳi":9917,"Thuá»ĳc":9918,"Ġbá»ĭch":9919,"CTCP":9920,"Ġkn":9921,"anyahu":9922,"ĠLumpur":9923,"ĠLamp":9924,"Ná»ķi":9925,"ĠTá»Ļi":9926,"Ġdáº³ng":9927,"ĠBeau":9928,"ĠBoris":9929,"ĠThÃ¡m":9930,"Ġsolo":9931,"ĠHarvard":9932,"ĠFood":9933,"ĠVios":9934,"ĠFe":9935,"ĠRiver":9936,"ighton":9937,"qui":9938,"Ġthá»Ľt":9939,"vÆ°á»£t":9940,"Äĳá»©ng":9941,"ĠrÆ¡":9942,"ĠPNJ":9943,"ĠhÃ¢n":9944,"ĠPenn":9945,"Ġcháº§n":9946,"ĠRover":9947,"inez":9948,"ĠKuala":9949,"ĠÄĲáº¥y":9950,"ots":9951,"thiÃªn":9952,"ĠhÃ¹m":9953,"ĠGÃł":9954,"Ġláº»o":9955,"ĠTimor":9956,"Ġsáº§m":9957,"ĠExc":9958,"PR":9959,"ĠráºŃm":9960,"Ġdong":9961,"450":9962,"tino":9963,"UNG":9964,"Cáº£i":9965,"báº¡n":9966,"ĠNá»ģn":9967,"Ġ1950":9968,"Ġcá»«u":9969,"Æ¯á»ľ":9970,"ThÆ°":9971,"Ġtá»Ľ":9972,"ĠsÃ¡o":9973,"ylv":9974,"cp":9975,"appy":9976,"Ġchao":9977,"ĠKhÃ¡ng":9978,"ĠchÆ°":9979,"uckerberg":9980,"lá»Ľp":9981,"for":9982,"ĠBVÄĲK":9983,"Ġmuá»ĳng":9984,"aine":9985,"aster":9986,"\":":9987,"giá»¯a":9988,"ĠFer":9989,"ĠLum":9990,"ĠFortun":9991,"ĠrÃ´":9992,"Ġ129":9993,"ĠPersie":9994,"?.":9995,"ĠNetanyahu":9996,"sterdam":9997,"bá»ĩnh":9998,"ĠDev":9999,"Ġmg":10000,"aren":10001,"ĠsÃł":10002,"Ġ225":10003,"Ġgames":10004,"ĠMap":10005,"ĠmÆ°á»Ľt":10006,"ĠVietnamnet":10007,"ĠThá»Ń":10008,"Æ°á»Ľn":10009,"ĠMedvedev":10010,"ĠEti":10011,"ĠHáº¡n":10012,"ÄĲÃło":10013,"ÄĲá»Ĺ":10014,"ĠPed":10015,"ĠTáº£":10016,"ĠWol":10017,"ĠZen":10018,"ĠDal":10019,"ĠInsider":10020,"ĠthuyÃªn":10021,"Ġtháº·ng":10022,"ĠTGÄĲ":10023,"ĠMega":10024,"opy":10025,"html":10026,"Ġváº¿":10027,"uat":10028,"Ġtanh":10029,"ĠCá»ĵn":10030,"ĠFel":10031,"ĠMSN":10032,"Ġday":10033,"Ġpoly":10034,"mark":10035,"lat":10036,"It":10037,"ĠCAP":10038,"320":10039,"ASEAN":10040,"Ġrá»£n":10041,"GV":10042,"BYT":10043,"ĠChá»įn":10044,"NSND":10045,"ĠHor":10046,"Tháº§n":10047,"KhÃ¡n":10048,"rot":10049,"Tang":10050,"ĠgiÄĥng":10051,"ĠPhÃŃ":10052,"Ġmui":10053,"teur":10054,"manuel":10055,"list":10056,"ĠngÃºt":10057,"Camp":10058,"Binh":10059,"Ġ1965":10060,"DÆ°":10061,"áº¦N":10062,"obs":10063,"Ġhat":10064,"ĠXá»©":10065,"bass":10066,"NSÆ¯T":10067,"Máº¥t":10068,"plus":10069,"ĠPhone":10070,"Trá»Ŀi":10071,"Ġyou":10072,"ĠGirl":10073,"ĠDragon":10074,"Cadn":10075,"trick":10076,"Ġ144":10077,"Ġtru":10078,"ild":10079,"rÃºt":10080,"alines":10081,"Ġfile":10082,"dau":10083,"ĠphÃ¡ch":10084,"DS":10085,"HNMO":10086,"ĠGon":10087,"Ġ1966":10088,"ĠBC":10089,"ĠsÃ¡":10090,"ze":10091,"tar":10092,"ĠFred":10093,"quá»ĳc":10094,"usalem":10095,"ĠLight":10096,"Ãªng":10097,"ĠBVTV":10098,"Ká»¹":10099,"Express":10100,"PH":10101,"ÄĳÃ¡":10102,"ize":10103,"ĠLLVT":10104,"ĠxÃ¹":10105,"Dáº«n":10106,"aii":10107,"ĠPop":10108,"nar":10109,"ĠTer":10110,"Ġ>":10111,"ĠPanama":10112,"Bá»¯a":10113,"ĠxÃ²e":10114,"DÄĲ":10115,"Ġnoi":10116,"Ġgo":10117,"ĠdÃ¬u":10118,"TAND":10119,"ĠFernandes":10120,"ĠBST":10121,"ĠtÃ¬":10122,"Ġtáº¥c":10123,"Ma":10124,"ĠHenry":10125,"Ang":10126,"bay":10127,"ĠLá»Ľp":10128,"ĠWeek":10129,"cáº£":10130,"iezmann":10131,"ĠAndrew":10132,"ĠAjax":10133,"ChÃ¡y":10134,"Ġcáº·n":10135,"ĠNCT":10136,"ĠtÃŃt":10137,"ĠGener":10138,"ĠtrÃ³c":10139,"Ġis":10140,"IB":10141,"ĠGabri":10142,").-":10143,"ĠOh":10144,"each":10145,"ĠMaster":10146,"Na":10147,"ĠHDBank":10148,"ĠChristian":10149,"ĠNoo":10150,"??":10151,"ilo":10152,"ĠDC":10153,"Chá»ĳt":10154,"ĠRaj":10155,"ĠMá":10156,"ĠMá»":10157,"TIN":10158,"ĠIceland":10159,"ĠÄĲá»ķng":10160,"ĠRS":10161,"ĠCy":10162,"ĠÄĳong":10163,"Ġnáº¥c":10164,"PLO":10165,"ĠLink":10166,"box":10167,"ĠYing":10168,"GDP":10169,"Ġnháº¥p":10170,"áº«ng":10171,"ĠGad":10172,"Ġsá»Ļ":10173,"chÃ¢n":10174,"ject":10175,"ĠNational":10176,"IVE":10177,"Ġ1962":10178,"ĠCSHS":10179,"ĠChicago":10180,"Ġsá»įc":10181,"ĠSk":10182,"ĠEC":10183,"ĠClip":10184,"back":10185,"ĠMand":10186,"ĠZuckerberg":10187,"ĠHuyáº¿t":10188,"ĠnhÄ©":10189,"ĠnhÃºng":10190,"ĠBÆ°á»Łi":10191,"ĠthÃ³c":10192,"ĠHous":10193,"Ġpenalty":10194,"ĠMohamed":10195,"ĠÄĲak":10196,"ĠGaz":10197,"ington":10198,"chÃŃnh":10199,"PhÃ¡o":10200,"âĢ¦).":10201,"bang":10202,"ĠAncelotti":10203,"lyn":10204,"TrÃ¬nh":10205,"ĠPeskov":10206,"giao":10207,"ĠChanel":10208,"Ġxui":10209,"ĠFBNV":10210,"ĠChe":10211,"Phá»ĳ":10212,"ĠrÃªu":10213,"ĠvÃ£i":10214,"ĠIU":10215,"ĠATVS":10216,"ault":10217,"ĠTime":10218,"rique":10219,"omo":10220,"tiáº¿p":10221,"Ġyá»ĥ":10222,"ĠCTV":10223,"ĠJerusalem":10224,"TR":10225,"ĠBaltic":10226,"Diá»ĩn":10227,"ÄĲá»ĭnh":10228,"ĠSpace":10229,"ĠOff":10230,"ĠIPO":10231,"Ġ136":10232,"Ġbá»īm":10233,"emy":10234,"ĠNev":10235,"ĠGolf":10236,"fo":10237,"idi":10238,"Táº¥m":10239,"VÆ°Æ¡ng":10240,"Sp":10241,"ĠDol":10242,"Chá»ĳng":10243,"tá»·":10244,"ashin":10245,"ĠFuk":10246,"ĠExpress":10247,"ĠGam":10248,"ÄĲáº·t":10249,"ráºŃp":10250,"ĠTuyá»ĩt":10251,"ĠvÅ©ng":10252,"egas":10253,"ĠRonald":10254,"ĠHÃ¡t":10255,"ĠAngelina":10256,"ĠlÆ°Æ¡n":10257,"ĠKenn":10258,"Ġpop":10259,"ĠBaghd":10260,"log":10261,"ĠGiá»¯":10262,"Ġderby":10263,"ĠPap":10264,"ĠlÃ©p":10265,"ĠhÅ©":10266,"Ġáº":10267,"ĠFil":10268,"Vai":10269,"ĠVAMC":10270,"ĠVolkswagen":10271,"ese":10272,"ĠMáºŃt":10273,"Ġnga":10274,"ĠHot":10275,"ĠFull":10276,"ĠEmmanuel":10277,"ĠNguyen":10278,"ĠMartinez":10279,"ĠGolden":10280,"ĠPasteur":10281,"view":10282,"ĠCarlos":10283,"ĠGala":10284,"ĠLive":10285,"Ġ133":10286,"Ġcl":10287,"ĠhÃ²m":10288,"xcÆ¡va":10289,"Láº¡i":10290,"ĠNGUYá»ĦN":10291,"ĠChá»©c":10292,"ĠWeibo":10293,"CÃłng":10294,"kei":10295,"ĠRoyal":10296,"bul":10297,"ĠÄĲÃ¡n":10298,"ĠKN":10299,"ĠModern":10300,"ĠJoon":10301,"ĠbÃ¹i":10302,"bom":10303,"ĠThuáº§n":10304,"ĠTháºŃp":10305,"nÃ³i":10306,"Ġhan":10307,"ĠBahr":10308,"ĠBob":10309,"nÆ¡i":10310,"Ġbáº¥p":10311,"Ġ1964":10312,"ĠMario":10313,"esta":10314,"HÄĲND":10315,"ĠGareth":10316,"Ġphá»ĵn":10317,"ĠTrÃ¡nh":10318,"há»ģnh":10319,"Dáº«u":10320,"bar":10321,"Ġ146":10322,"LG":10323,"LÃ¡":10324,"ĠTony":10325,"CMP":10326,"Ġmake":10327,"amex":10328,"ĠHuynh":10329,"ĠSecret":10330,"ĠNiá»ģm":10331,"ĠgÄĥm":10332,"ĠquÄĥng":10333,"Dáº§u":10334,"ĠPot":10335,"Mart":10336,"Ġsá»ī":10337,"ĠMass":10338,"Ġháº±n":10339,"sy":10340,"PCR":10341,"Cung":10342,"ĠVAR":10343,"ĠSuk":10344,"ĠThÃ´i":10345,"ĠBÃ©o":10346,"ĠVNA":10347,"ĠVitamin":10348,"ater":10349,"ĠVel":10350,"ĠCarr":10351,"uire":10352,"ĠAmsterdam":10353,"âĢ¦;":10354,"ÃŃa":10355,"Ġngá»£p":10356,"cÄĥn":10357,"ĠVinhomes":10358,"thÆ°Æ¡ng":10359,"fer":10360,"usta":10361,"Ġteam":10362,"ĠrÃ´n":10363,"onet":10364,"Ġ1954":10365,"ĠBrown":10366,"ĠNicolas":10367,"ĠMá»ı":10368,"Ġláº«m":10369,"ĠLotte":10370,"ChÃło":10371,"house":10372,"ĠÄĲÃª":10373,"ĠOsaka":10374,"ĠLeg":10375,"ĠFr":10376,"Ġkit":10377,"Äĳa":10378,"LáºŃp":10379,"trung":10380,"ĠHav":10381,"Ġnetizen":10382,"Ġsáº¡p":10383,"Ġbiáº¿ng":10384,"ĠOut":10385,"ĠDÆ°á»Ŀng":10386,"Ġgáº¯p":10387,"ĠLÅ©y":10388,"ental":10389,"ĠETF":10390,"ĠÄĲáº·t":10391,"Ġ139":10392,"Phá»ĳi":10393,"HoÃłi":10394,"itar":10395,"¬a":10396,"ĠNgá»±":10397,"pháº§n":10398,"Loáº¡t":10399,"ĠBá»Ļi":10400,"ĠTorres":10401,"sp":10402,"ĠBak":10403,"ĠkÃ¨n":10404,"háº¡":10405,"Ġgiá»Ł":10406,"ware":10407,"ĠHealth":10408,"ĠUBMTTQ":10409,"ĠLab":10410,"ĠPitt":10411,"ĠBB":10412,"idol":10413,"GM":10414,"ĮC":10415,"board":10416,"Ġnhá»Ľt":10417,"ĠJay":10418,"inc":10419,"ĠCameron":10420,"ĠBieber":10421,"hani":10422,"ĠBai":10423,"ĠGH":10424,"ĠNghÄ©":10425,"ollagen":10426,"Australia":10427,"ĠHTV":10428,"Ġ131":10429,"ĠFutsal":10430,"ĠSteven":10431,"tai":10432,"enna":10433,"ĠSea":10434,"Ġháº¥n":10435,"Tháº¯ng":10436,"ĠGomez":10437,"EE":10438,"Ġsá»§a":10439,"ĠkÃ©n":10440,"ĠCamry":10441,"hoa":10442,"thanh":10443,"ĠTab":10444,"mon":10445,"ĠYeon":10446,"ÃĢNG":10447,"ĠKelly":10448,"ĠTrá»ĵng":10449,"ĠÄĲÃ¨o":10450,"Ġfol":10451,"ĠnÃ¡m":10452,"agan":10453,"ĠPhnom":10454,"CTnews":10455,"tÃ´ng":10456,"Ngáº¯m":10457,"Ġ850":10458,"ĠLÃ´i":10459,"NÃłng":10460,"Ġ152":10461,"ĠHit":10462,"ĠPenh":10463,"ĠLÆ°á»Ľi":10464,"ĠLáº¡nh":10465,"Ġcáº³ng":10466,"Ġchá»Ľ":10467,"tÃŃn":10468,"á»¥y":10469,"Ġtráº»o":10470,"ĠMiami":10471,"ABank":10472,"ĠChat":10473,"ĠLewandowski":10474,"ĠOman":10475,"Ġkiá»ĥng":10476,"ĠKas":10477,"ĠTTATGT":10478,"ĠGame":10479,"ĠdÃ£i":10480,"Sáº¯c":10481,"IMF":10482,"HA":10483,"Thá»ıa":10484,"ÄĲáº£m":10485,"vÃło":10486,"Ġphá»ĳt":10487,"ĠTráº§m":10488,"ĠBahrain":10489,"ĠBh":10490,"lÃ´":10491,"ĠRoberto":10492,"Ġgá»ī":10493,"Ġconcept":10494,"ĠZhang":10495,"tay":10496,"ido":10497,"Ġtáº±m":10498,"ĠtrÃłm":10499,"aph":10500,"ollah":10501,"ThÆ°a":10502,"ĠSXH":10503,"ĠNVCC":10504,"cÅ©ng":10505,"ĠNháº¡":10506,"Ġmo":10507,"VÆ°á»Ŀn":10508,"ĠHawaii":10509,"Ġoanh":10510,"ÄĲÃ³n":10511,"ĠChar":10512,"ĠRanger":10513,"ĠBurn":10514,"ĠMeghan":10515,"ªu":10516,"Giá»įng":10517,"ÄĲau":10518,"tinh":10519,"boy":10520,"ĠsÃ²":10521,"Ġcháº¥u":10522,"cá»©":10523,"ecamex":10524,"ĠCáº¥n":10525,"Ġtráº§u":10526,"flix":10527,"ĠEdition":10528,"ĠLiu":10529,"ĠRafael":10530,"650":10531,"World":10532,"TTM":10533,"Am":10534,"quÃ¡":10535,"phÃ²ng":10536,"Ġ137":10537,"ĠMichel":10538,"ĠChiÃªm":10539,"zi":10540,"ĠThuáºŃt":10541,"Ġchá»ķi":10542,"ĠIT":10543,"iti":10544,"ĠPier":10545,"ĠDT":10546,"tom":10547,"ĠrÃ¢m":10548,"Berry":10549,"ĠTG":10550,"ĠHigh":10551,"ĠVEC":10552,"Tráº¡m":10553,"urne":10554,"ĠÆ°":10555,"ĠCout":10556,"quáº£":10557,"Cuá»ĳn":10558,"ĠLind":10559,"hÃ³i":10560,"ĠTÃły":10561,"ĠHum":10562,"Ġnhá»īnh":10563,"ĠbÃ¡i":10564,"ĠÄĲTDÄĲ":10565,"ĠkhÃ¢m":10566,"ĠFut":10567,"CáºŃp":10568,"Ġdáº«m":10569,"ĠJackpot":10570,"ĠnhÃ²a":10571,"ĠKard":10572,"Ġ167":10573,"Ġphot":10574,"Ġ156":10575,"Ġknock":10576,"Cáº©m":10577,"HAGL":10578,"TTH":10579,"ĠMak":10580,"ĠChiá»ģng":10581,"Ġpháº¥t":10582,"ĠKyl":10583,".)":10584,"thÆ°á»Ŀng":10585,"Google":10586,"ĠABC":10587,"ĠCastro":10588,"ĠIncheon":10589,"Ġhybrid":10590,"Ġ185":10591,"Ġ370":10592,"ĠÄĳá»Ĺi":10593,"tha":10594,"SÆ°":10595,"ĠTÃºc":10596,"Ġcomp":10597,"ĠÄĳÃ´la":10598,"Ná»ģn":10599,"ĠGriezmann":10600,"Ġdá»ım":10601,"yeong":10602,"ĠKore":10603,"ĠLÃ¡t":10604,"tháº¿":10605,"ĠSap":10606,"Ġxuyáº¿n":10607,"ĠHáº¯n":10608,"LIVE":10609,"vua":10610,"ĠgÆ°á»£ng":10611,"BD":10612,"ĠGiáº½":10613,"iri":10614,"há»£p":10615,"ĠThÆ°a":10616,"Ġ1963":10617,"ĠLampard":10618,"Sport":10619,"ĠMurray":10620,"aris":10621,"ĠLuÃ´ng":10622,"eira":10623,"upe":10624,"itr":10625,"elo":10626,"ute":10627,"zh":10628,"Ġtá»Ļt":10629,"Ġas":10630,"ĠSanh":10631,"cÆ°á»Ŀi":10632,"CÄĥng":10633,"trÆ°á»Ŀng":10634,"ĠDáº£i":10635,"Pha":10636,"ĠCard":10637,"Â°":10638,"Thá»Ń":10639,"ĠTKV":10640,"ĠBCÄĲ":10641,"ĠNNPTNT":10642,"ĠNovos":10643,"iva":10644,"ool":10645,"Ser":10646,"ĠnÃ´i":10647,"ello":10648,"Car":10649,"ĠVik":10650,"uchel":10651,"ĠxÃ³c":10652,"Ġáº¯p":10653,"NC":10654,"ÃĻ":10655,"ĠLaw":10656,"nger":10657,"cÃ¡":10658,"Ġsáº£i":10659,"ĠSenkaku":10660,"ĠHT":10661,"SL":10662,"inson":10663,"ĠGeorgia":10664,"ĠRun":10665,"oda":10666,"GÃ¢y":10667,"Ġgameshow":10668,"Ġgene":10669,"ĠSab":10670,"Plus":10671,"ĠKitco":10672,"ĠTar":10673,"ĠCharlie":10674,"ĠEtihad":10675,"ĠABS":10676,"Pod":10677,"ĠBell":10678,"ĠMirror":10679,"Ġpiano":10680,"ĠHáº¿t":10681,"ĠLNG":10682,"edy":10683,"ĠRain":10684,"káº¿t":10685,"ther":10686,"ĠngoÃ£n":10687,"Ġká»ģnh":10688,"ĠSnow":10689,"ĠCCH":10690,"ussia":10691,"uatin":10692,"LT":10693,"quang":10694,"ĠCle":10695,"ĠAnt":10696,"ĠGian":10697,"allad":10698,"CEO":10699,"oiduatin":10700,"VKS":10701,"ĠThiá»ģn":10702,"»Ķ":10703,"wi":10704,"á»Ķ":10705,"oidai":10706,"Quyá»ģn":10707,"thoidai":10708,"Ġhom":10709,"ĠTá»ī":10710,"ĠLopez":10711,"essica":10712,"no":10713,"Ġtá»£n":10714,"CSGT":10715,"Gá»Ńi":10716,"Ġvá»¥ng":10717,"ĠTNXP":10718,"Ġ142":10719,"cia":10720,"ĠSterling":10721,"MÃ¡i":10722,"Ngá»ĵi":10723,"sáº£n":10724,"Ġcas":10725,"asa":10726,"alle":10727,"ĠCNCH":10728,"Ġcollagen":10729,"chet":10730,"ĠStephen":10731,"ĠKabul":10732,"work":10733,"ĠcÄĥm":10734,"ĠIv":10735,"Ġtráº§y":10736,"CÃ¡nh":10737,"ĠLÃ£i":10738,"ĠUltra":10739,"able":10740,"Ġhá»Ŀ":10741,"Class":10742,"ĠQÄĲND":10743,"ii":10744,"cam":10745,"ĠNA":10746,"pol":10747,"inch":10748,"Ġvá»¥t":10749,"LÃªn":10750,"ĠGCN":10751,"ĠmÆ°á»Ľp":10752,"asaki":10753,"GÆ°Æ¡ng":10754,"âĢ¦âĢ¦":10755,"ĠDoji":10756,"Ġngáº©n":10757,"ĠMosul":10758,"ÄĳoÃłn":10759,"uiz":10760,"ĠChevrolet":10761,"gl":10762,"Ġá»ī":10763,"ĠÄĲÃ¡m":10764,"ĠTed":10765,"ĠTao":10766,"ĠHim":10767,"ĠMÃ¡c":10768,"ĠPhill":10769,"ĠBiáº¿n":10770,"ĠchÃ´m":10771,"endy":10772,"ĠDonbass":10773,"140":10774,"Ġváº£y":10775,"chÆ¡i":10776,"HÄĲXX":10777,"stock":10778,"Ġ720":10779,"nhÃ³m":10780,"thoidaiplus":10781,"ĠliÃªu":10782,"ĠngÃ¹ng":10783,"ĠPA":10784,"ĠcÆ°á»¡i":10785,"ĠLá»©c":10786,"Ġsil":10787,"ĠSCIC":10788,"ĠBali":10789,"Ġblue":10790,"sao":10791,"ĠTe":10792,"ĠLÃłnh":10793,"ÄĲÃ¬nh":10794,"Ġ981":10795,"ĠKhal":10796,"ĠXperia":10797,"ĠBruy":10798,"mun":10799,"ĠDK":10800,"Bra":10801,"ĠAnfield":10802,"ĠRÃło":10803,"Dav":10804,"Ġmá»Ľ":10805,"Ġváº¡t":10806,"ĠCiv":10807,"ĠHollande":10808,"Ġnáº¯n":10809,"umb":10810,"ĠVinalines":10811,"ĠSlovakia":10812,"ĠMoyes":10813,"125":10814,"ĠPL":10815,"atin":10816,"Ġboy":10817,"ĠthÃ©t":10818,"ĠcÃ²ng":10819,"ĠSlam":10820,"sÃ¡ng":10821,"ĠVIB":10822,"oma":10823,"Lá»Ľp":10824,"izLIVE":10825,"ÄĲÃłm":10826,"Ġvali":10827,"ĠCNBC":10828,"ĠMá»Ļng":10829,"Fan":10830,"book":10831,"ken":10832,"Ġblog":10833,"ĠDiam":10834,"ĠÄĲáº¡m":10835,"ANG":10836,"Ãģnh":10837,"ĠBrook":10838,"hanol":10839,"Xung":10840,"ĠAnna":10841,"anka":10842,"ĠÄĲK":10843,"reen":10844,"Ġ143":10845,"ĠEdward":10846,"Ġgl":10847,"eed":10848,"ĠKP":10849,"uoiduatin":10850,"jamin":10851,"ĠKhan":10852,"110":10853,"ĠHir":10854,"ĠPCTN":10855,"ĠÃ³i":10856,"Ġsáº£y":10857,"luck":10858,"ĠAbram":10859,"ĠLock":10860,"ĠMaduro":10861,"ĠKaw":10862,"ĠBruyne":10863,"ĠMohammed":10864,"ĠDeir":10865,"Ġcáº±n":10866,"ĠVÃłm":10867,"stanbul":10868,"ĠIsland":10869,"Ġtruáº¥t":10870,"uthi":10871,"Ġnhuá»ĩ":10872,"XS":10873,"Ġ;":10874,"tim":10875,"ĠPerez":10876,"MÃ£":10877,"iko":10878,"Ġkáº»o":10879,"Ġ256":10880,"Ġtrá»£n":10881,"ĠPhilip":10882,"ĠphÃ¨n":10883,"IF":10884,"ĠJoo":10885,"usse":10886,"ĠÃ¬":10887,"loween":10888,"ĠmÄ©":10889,"Israel":10890,"ĠRC":10891,"Ġlogic":10892,"ĠKenya":10893,"ĠPCTT":10894,"ĠMaguire":10895,"ĠRome":10896,"Post":10897,"ĠCavani":10898,"ĠmAh":10899,"ĠÄĲáº¹p":10900,"phiÃªn":10901,"ĠGio":10902,"ĠCross":10903,"ĠquÃŃ":10904,"Ġ168":10905,"ĠBaby":10906,"ĠNikkei":10907,"ĠMata":10908,"EUT":10909,"estay":10910,"KÃ½":10911,"gu":10912,"chuyÃªn":10913,"ĠAbdul":10914,"ĠArteta":10915,"ĠVes":10916,"Ġidol":10917,"ĠVinaconex":10918,"Ġhá»¥i":10919,"Ġstatus":10920,"ĠkV":10921,"ullah":10922,"ĠSaf":10923,"Ġ737":10924,"ĠTá»įa":10925,"ĠISO":10926,"ĠVincom":10927,"ĠÄĲáº¡":10928,"ĠGood":10929,"ĠsÃ³i":10930,"ĠrÃª":10931,"apan":10932,"ĠTravel":10933,"ĠPTNT":10934,"ĠHotel":10935,"ĠBrighton":10936,"ĠDef":10937,"ĠGeun":10938,"ĠShaw":10939,"ĠKids":10940,"Nháº¥n":10941,"ĠShark":10942,"ÄĲá»Ŀi":10943,"Ġmag":10944,"ĠlÃ¬a":10945,"rent":10946,"ĠColor":10947,"ĠnhÅ©":10948,"âĢĺ":10949,"ĠbÃ³i":10950,"Ġáº¤t":10951,"ĠChá»©":10952,"ĠchÃ²m":10953,"ĠRIA":10954,"ĠXá»ķ":10955,"Ġkhuynh":10956,"khai":10957,"ĠIR":10958,"ough":10959,"roud":10960,"ĠBá»ķ":10961,"ĠArena":10962,"ĠnhÃ´":10963,"ĠGil":10964,"Cáº¥p":10965,"thong":10966,"ĠResearch":10967,"Ná»Ĺ":10968,"Ġby":10969,"ĠNá»Ĺi":10970,"CSXH":10971,"Ġváº§n":10972,"ĠSher":10973,"Ġhá»ķi":10974,"Háº¿t":10975,"Bá»ķ":10976,"ĠnguÃ´i":10977,"tri":10978,"ĠScar":10979,"........":10980,"ĠUBTÆ¯":10981,"osite":10982,"rotimes":10983,"ula":10984,"ĠÄĳá»Ļn":10985,"BM":10986,"...\"":10987,"ĠBaghdad":10988,"tÃłi":10989,"HP":10990,"TÆ°á»Ľng":10991,"tÃ¢m":10992,"isia":10993,"ĠXL":10994,"EUTERS":10995,"ĠMarketing":10996,"Ġcáº¡p":10997,"ĠTrá»Ł":10998,"ĠtÃ©p":10999,"Ġmá»įng":11000,"ĠCamera":11001,"ersburg":11002,"Nhan":11003,"haw":11004,"chá»ĵng":11005,"Gal":11006,"Ġvá»¯a":11007,"SO":11008,"Ġ340":11009,"My":11010,"Ġ380":11011,"ais":11012,"Há»ıi":11013,"ĠHugo":11014,"ĠNu":11015,"LD":11016,"ĠEPA":11017,"TrÃ²":11018,"ĠIstanbul":11019,"ĠTáº§ng":11020,"Iá»Ĥ":11021,"ĠKey":11022,"ĠSad":11023,"tham":11024,"ĠModi":11025,"Ġout":11026,"ĠNgoan":11027,"240":11028,"ĠTrip":11029,"ĠTelegraph":11030,"ĠFranco":11031,"Ġsá»¯ng":11032,"Khoa":11033,"ĠCuÃ´ng":11034,"BO":11035,"ĠBrand":11036,"Ġdáº»":11037,"ĠCer":11038,"HÃ³a":11039,"ĠRodrigo":11040,"ĠMol":11041,"ĠKhiáº¿t":11042,"ĠKiá»ĥu":11043,"Ġgá»Ŀm":11044,"nhiá»ĩm":11045,"Ġcá»Ńu":11046,"Huá»³nh":11047,"As":11048,"ĠHuyÃªn":11049,"Ġtab":11050,"Su":11051,"ĠLady":11052,"áº¾T":11053,"ĠNord":11054,"ĠLis":11055,"ĠhÃº":11056,"Ġitem":11057,"ĠKhÃ¡":11058,"qa":11059,"ĠStand":11060,"»ī":11061,"á»ī":11062,"xem":11063,"ĠTown":11064,"ĠTASS":11065,"bridge":11066,"vietnam":11067,"ĠThuyáº¿t":11068,"LÃ¢u":11069,"Ġteo":11070,"ĠArsen":11071,"DT":11072,"ĠInfonet":11073,"ngÃ´i":11074,"ĠThÃ¢m":11075,"ĠHÄĲTV":11076,"name":11077,"ĠMÃ¹":11078,"ĠNetflix":11079,"Campuchia":11080,"Ġbá»ģnh":11081,"ĠXVI":11082,"ĠCarolina":11083,"ĠTi":11084,"chim":11085,"Háº¡t":11086,"Ġphiá»ĩn":11087,"PK":11088,"ading":11089,"ĠbáºŃy":11090,"TÃ³c":11091,"ĠBlock":11092,"aska":11093,"VND":11094,"eld":11095,"fia":11096,"ĴNG":11097,"Ġ147":11098,"Ġ162":11099,"xanh":11100,"Ġ148":11101,"tour":11102,"ser":11103,"ĠDá»±a":11104,"ĠWolf":11105,"Ġtrá»įc":11106,"stem":11107,"idel":11108,"ĠcÃłn":11109,"prom":11110,"ĠGiÃ¡c":11111,"ĠEX":11112,"ĠphÃ¬nh":11113,"HÆ°ng":11114,"ĠYingluck":11115,"ĠGabriel":11116,"ĠJr":11117,"try":11118,"ĠTHX":11119,"ĠLáº¯c":11120,"ĠBá»īnh":11121,"Ġlim":11122,"ĠTuchel":11123,"ĠNáº±m":11124,"Ġsi":11125,"urgen":11126,"ĠDiamond":11127,"ĠBenjamin":11128,"ĠmÃ¡ch":11129,"ikh":11130,"ĠCáº©n":11131,"BL":11132,"Ġvá»ĩt":11133,"ĠLÄĲLÄĲVN":11134,"doanh":11135,"ĠUBCK":11136,"ĠYam":11137,"THPT":11138,"GÃ³p":11139,"Ġte":11140,"550":11141,"ĠOLED":11142,"Háº¡nh":11143,"ngoÃłi":11144,"Ġ153":11145,"ĠVÆ°á»£t":11146,"...).":11147,"ĠKardashi":11148,"ylvania":11149,"ĠTáº¡ng":11150,"Ġmáº©u":11151,"ĠVirginia":11152,"ĠSor":11153,"ĠvÃ©n":11154,"ĠMá»ħ":11155,"ĠMorgan":11156,"Ġbá»£":11157,"ĠBook":11158,"ĠMinsk":11159,"Quáº§n":11160,"Ġ174":11161,"olla":11162,"HNX":11163,"ĠBecamex":11164,"ĠnhÃ¡c":11165,"ĠThung":11166,"ict":11167,"ieu":11168,"Ġxá»ĭn":11169,"ender":11170,"ĠSTB":11171,"ĠBrom":11172,"ĠKBNN":11173,"sÃ¢n":11174,"Ġngá»ĳc":11175,"ÄĲÄĥng":11176,"Ġbáº§n":11177,"ĠÄĲau":11178,"ĠMul":11179,"Un":11180,"ĠXung":11181,"LÄĲLÄĲ":11182,"ĠPhá»ķi":11183,"Sá»¯a":11184,"ĠTáº¡m":11185,"Tháº¥t":11186,"ĠKhÃ¡i":11187,"Pr":11188,"Ġnháº½":11189,"Land":11190,"Ġsho":11191,"ĠWave":11192,"ĠCarter":11193,"adona":11194,"2002":11195,"Ġshipper":11196,"Ġbá»Ŀi":11197,"ĠLing":11198,"ļI":11199,"ĠNhá»±a":11200,"ĠWTI":11201,"als":11202,"Ġháº«ng":11203,"ĠCCHC":11204,"TiÃªm":11205,"VCCI":11206,"Ġthá»ım":11207,"Khoáº£n":11208,"ĠHá»ıi":11209,"ĠYahoo":11210,"Ġ158":11211,"ThÃ¢n":11212,"xa":11213,"Ġnhá»į":11214,"ĠMali":11215,"ĠlÃŃu":11216,"ĠmÃło":11217,"form":11218,"ĠYas":11219,"atti":11220,"ĠGas":11221,"ĠKum":11222,"BÃ£i":11223,"Ġ290":11224,"Ġhá»ħ":11225,"ĠsuÃ´ng":11226,"Ġcá»©a":11227,"TÆ°á»Łng":11228,"±a":11229,"cap":11230,"gmail":11231,"Ġten":11232,"ball":11233,"Ġváº¯cxin":11234,"Lao":11235,"ĠBoston":11236,"ĠcÃµng":11237,"ĠSÃ¹ng":11238,"Ġrocket":11239,"ĠsÃ¹i":11240,"ĠThá»īnh":11241,"Ġmaz":11242,"LÃ£i":11243,"ĠÄĲÃ©c":11244,"Ġngá»Ńi":11245,"cal":11246,"ĠÄĳÃ¹m":11247,"ĠquáºŃy":11248,"ector":11249,"ĠHalloween":11250,"ĠPel":11251,"ichi":11252,"ĠAndy":11253,"180":11254,"ĠKhá»ķng":11255,"ĠhÆ°Æ¡u":11256,"khÃ¡ch":11257,"ĠLumia":11258,"Ġ163":11259,"kins":11260,"QÄĲND":11261,"Nghá»ģ":11262,"ĠTÃ¡i":11263,"ĠJoseph":11264,"ĠGiáº£":11265,"ĠPhilippe":11266,"ĠnÃł":11267,"ĠVegas":11268,"Ġhá»Łi":11269,"ĠWayne":11270,"ĠBG":11271,"ĠFrance":11272,"trang":11273,"ĠManuel":11274,"Ġchá»Ļi":11275,"ĠHSBC":11276,"ping":11277,"Ġstream":11278,"ĠvÃ²":11279,"than":11280,"ĠlÃµm":11281,"NghÄ©a":11282,"ĠRol":11283,"ĠRá»«ng":11284,"ĠNovosti":11285,"ĠchÃ´ng":11286,"________":11287,"Ġnáº»o":11288,"ĠVinaPhone":11289,"1000":11290,"wait":11291,"ĠRon":11292,"ĠHass":11293,"Ġtal":11294,"ĠCTG":11295,"ĠCong":11296,"Há»įa":11297,"ĠnhÃ¡y":11298,"inger":11299,"ĠGHPG":11300,"SÃ¡ch":11301,"ĠPra":11302,"ĠGRDP":11303,"ĠSay":11304,"ĠKCNA":11305,"ĠGPS":11306,"ĠchoÃłng":11307,"Ġoi":11308,"ELTS":11309,"uyen":11310,"Ġmá»īa":11311,"ThÃŃch":11312,"lic":11313,"ĠrÃ´ng":11314,"eno":11315,"ĠKer":11316,"David":11317,"Â²":11318,"phong":11319,"Miss":11320,"ĠlÃ¹n":11321,"arab":11322,"Kháº£o":11323,"tÆ¡":11324,"ĠVnExpress":11325,"mÃ¡y":11326,"tá»ĳ":11327,"ĠDáº¥u":11328,"ĠNgá»¥y":11329,"Ġcard":11330,"ĠBlackBerry":11331,"umi":11332,"Ġ157":11333,"050":11334,"ĠThuyá»ģn":11335,"ĠLyon":11336,"Ġ420":11337,"ĠMach":11338,"Ġhá»Ŀn":11339,"'?":11340,"Miá»ģn":11341,"bÃ£o":11342,"ĠÃĶn":11343,"ĠtÃºm":11344,"CÆ°á»Ľp":11345,"Háº±ng":11346,"ĠTitan":11347,"ĠBez":11348,"Cháº¡y":11349,"Ġngá»Ľt":11350,"...;":11351,"VÃ¢n":11352,"ĠDá»«a":11353,"ĠRica":11354,"ĠModric":11355,"ience":11356,"Ġbitcoin":11357,"ĠModerna":11358,"ĠbÃ¹a":11359,"ĠmÆ°á»Ľn":11360,"Ġluyáº¿n":11361,"sson":11362,"FDI":11363,"dg":11364,"tiá»ĥu":11365,"ĠKit":11366,"jk":11367,"ĠCL":11368,"ĠLP":11369,"Ġvá»«ng":11370,"Iá»Ģ":11371,"Ġnham":11372,"ĠConn":11373,"ĠCáº¡p":11374,"ĠRah":11375,"Ġ911":11376,"Ġxá»ĩ":11377,"Mos":11378,"Ġbuá»ĳt":11379,"ĠSimon":11380,"eds":11381,"Ġcast":11382,"yong":11383,"ĠhÃ©o":11384,"via":11385,"ĠTem":11386,"otelli":11387,"ills":11388,"Ġgiáº§y":11389,"Ġchan":11390,"ĠLCD":11391,"Soi":11392,"giáº¿t":11393,"cáºŃu":11394,"Barca":11395,"Ġhá»Ŀi":11396,"»Ĩ":11397,"á»Ĩ":11398,"ville":11399,"ĠSantos":11400,"ĠKardashian":11401,"ĠKTS":11402,"ÄĲBQH":11403,"ĠNgá»Ļ":11404,"ĠInnova":11405,"ĠÄĲÃ³ng":11406,"ys":11407,"ĠKiatisak":11408,"láº¥y":11409,"Ġbá»¡":11410,"Ġthá»ıi":11411,"ĠÆł":11412,"ĠTrÃ¡c":11413,"ĠPre":11414,"CX":11415,"quÃ¡i":11416,"ĠSÃłn":11417,"nia":11418,"Äĳáº¡o":11419,"Ġad":11420,"Ġngáº¡o":11421,"Ġml":11422,"ĠNHM":11423,"ná»ķi":11424,"ĠBuk":11425,"Viettel":11426,"ĠZo":11427,"ĠBun":11428,"ĠMao":11429,"Ġgá»Ľm":11430,"Ġroom":11431,"ĠFortuner":11432,"ĠPVF":11433,"ĠDá»¯":11434,"xÃ¢y":11435,"ĺI":11436,"Ġáº¤y":11437,"arma":11438,"ĠMarcel":11439,"des":11440,"sang":11441,"tylist":11442,"long":11443,"bá»ĳ":11444,"ĠAlexand":11445,"ears":11446,"uta":11447,"sylvania":11448,"ylon":11449,"TÃ¹y":11450,"orth":11451,"daq":11452,"ĠXIX":11453,"Ġnáº·n":11454,"dafi":11455,"ĠPixel":11456,"ĠTáº¯c":11457,"ĠGall":11458,"ĠtáºŃu":11459,"CAO":11460,"CLOS":11461,"Ã³e":11462,"ĠMacBook":11463,"Donald":11464,"nguá»ĵn":11465,"Ġtá»µ":11466,"BGDÄĲT":11467,"ĠVid":11468,"ĠJesus":11469,"iesta":11470,"ĠCoca":11471,"ĠTher":11472,"etta":11473,"ĠJohan":11474,"bit":11475,"ĠChristoph":11476,"Háº¡n":11477,"ĠKháº©u":11478,"ĠHad":11479,"ĠAmerican":11480,"Ġ1961":11481,"ĠTerry":11482,"ĠHá»·":11483,"sÄĥn":11484,"ĠvÃ£ng":11485,"ĠHC":11486,"ancial":11487,"Har":11488,"jin":11489,"Ġduá»ĩ":11490,"ĠTayy":11491,"ĠViktor":11492,"ĠMÃ¢u":11493,"ussier":11494,"ĠMÃ¡i":11495,"Ta":11496,"ĠhÄĥm":11497,"Ġ480":11498,"dd":11499,"ĠCarib":11500,"ĠNÃ´":11501,"Ġnao":11502,"hana":11503,"ĠIELTS":11504,"ĠChanh":11505,"Ġchá»«":11506,"estr":11507,"BÃ¹i":11508,"Brazil":11509,"ħu":11510,"ĠStream":11511,"ĠExp":11512,"ĠTruyá»ĩn":11513,"ĠhÃª":11514,"ĠTele":11515,"NTM":11516,"ĠManag":11517,"Ġtuá»ĵng":11518,"Ġbuá»ĵm":11519,"Ġmeg":11520,"ĠManh":11521,"ĠÄĲá»ĭch":11522,"Táº¡p":11523,"furt":11524,"ĠEnrique":11525,"CÆ°":11526,"ĠJobs":11527,"ĠÄĲHÄĲ":11528,"ĠFur":11529,"ĠBest":11530,"COM":11531,"aut":11532,"Ġ1900":11533,"ĠLtd":11534,"ĠTroussier":11535,"Ju":11536,"anium":11537,"engers":11538,"REA":11539,"On":11540,"ĠrÆ°á»Ŀm":11541,"Ġkiá»ĩu":11542,"war":11543,"áºµm":11544,"xÃª":11545,"bie":11546,"Tá»ĳt":11547,"ĠKro":11548,"Äĳá»£t":11549,"lai":11550,"bourne":11551,"cÆ°á»Ľp":11552,"nÃ©m":11553,"Ġbá»§a":11554,"tháº£":11555,"Trá»Ļm":11556,"ĠphÆ°á»£t":11557,"ĠlÃªnh":11558,"ĠAdr":11559,"ĠPennsylvania":11560,"UAE":11561,"Ġ1958":11562,"ĠBolero":11563,"pháº£n":11564,"ĠLuk":11565,"Ġ950":11566,"Trá»¥":11567,"ĠAlexis":11568,"Ġconcert":11569,"âĢĿ./.":11570,"ĠSuy":11571,"ĠJuve":11572,"ChÄĥm":11573,"lá»Ļt":11574,"Ġáº£i":11575,"ĠtÃ£":11576,"cer":11577,"ĠNgÃłn":11578,"ĠImp":11579,"chÃ¡y":11580,"utterstock":11581,"ĠNight":11582,"IDEO":11583,"cáº¥p":11584,"eiro":11585,"ĠSancho":11586,"Ġtrend":11587,"Â»":11588,"ship":11589,"ĠrÃłnh":11590,"ĠPaulo":11591,"dÆ°á»Ľi":11592,"Äĳá»ģu":11593,"ĠPháº«u":11594,"ĠrÃºng":11595,"LuÃ´n":11596,"ĠChÆ¡n":11597,"ĠCopa":11598,"ĠGÃ¡i":11599,"Ġá»Ĳc":11600,"Ġ171":11601,"»£i":11602,"á»£i":11603,"lÄĥng":11604,"Tom":11605,"ĠWom":11606,"Ġmiáº¿n":11607,"ĠTayyip":11608,"ĠYoshi":11609,"ĠTunisia":11610,"ĠLyn":11611,"awi":11612,"ICTnews":11613,"ĠÄĲHCÄĲ":11614,"ĠCatalan":11615,"ĠBet":11616,"ĠSak":11617,"Ġ1959":11618,"Ġtiáº¿u":11619,"ious":11620,"ĠHart":11621,"ĠGiroud":11622,"rÃ´":11623,"alan":11624,"viá»ĩc":11625,"Láº¡m":11626,"ĠPorto":11627,"Ġ154":11628,"ĠBá»¯a":11629,"ĠREUTERS":11630,"ĠExciter":11631,"ĠUBTVQH":11632,"ĠTrÃ¡ng":11633,"Ġáº¯c":11634,"ÃĢN":11635,"ĠhÃ¨n":11636,"Ġtwe":11637,"ĠrÃ¬a":11638,"ĠThuáº¥n":11639,"Ġ151":11640,"Ġ149":11641,"Ġfans":11642,"Web":11643,"ĠkhÃŃt":11644,"ĠCoo":11645,"ĠHouthi":11646,"Ġsá»ĩt":11647,"ĠGram":11648,"LHQ":11649,"zen":11650,"ĠMá»Ļ":11651,"tÃ¡c":11652,"ÄĳÃłn":11653,"ĠLuÃ´n":11654,"ezb":11655,"ĠKop":11656,"ĠPul":11657,"eim":11658,"ĠHend":11659,"ICE":11660,"hoÃłn":11661,"ĠngÃ³t":11662,"ĠLucas":11663,"occo":11664,"MG":11665,"Tech":11666,"ĠADB":11667,"ĠRou":11668,"...âĢĿ":11669,"Ļng":11670,"chung":11671,"VÃ´":11672,"mas":11673,"ĠXD":11674,"Ġcá»ĳm":11675,"ĠLÃ²ng":11676,"Ġcasino":11677,"ĠQuÃª":11678,"INK":11679,"opia":11680,"ardy":11681,"ĠNasdaq":11682,"iane":11683,"ĠLeo":11684,"ĠÄĲVTN":11685,"ĠBO":11686,"ĠPedro":11687,"ĠAlb":11688,"ĠÄĳÃ¹ng":11689,"ĠsÃłm":11690,"eyang":11691,"ÄĤN":11692,"ĠDá»ĭp":11693,"ĠSwan":11694,"Ġhun":11695,"GÃ³i":11696,"vis":11697,"Ġnom":11698,"ĠCad":11699,"ĠCour":11700,"táºŃp":11701,"ĠÄĲá»ĵi":11702,"ĠSK":11703,"ĠKyr":11704,"ĠÃ´xy":11705,"eet":11706,"ĠCÆ¡n":11707,"Jet":11708,"nháº¥t":11709,"uber":11710,"Ġenz":11711,"ĠKDC":11712,"ĠGaddafi":11713,"Ġbon":11714,"ĠThaco":11715,"ĠSecur":11716,"TÃ¡o":11717,"ĠKuwait":11718,"kav":11719,"ĠLil":11720,"ĠJurgen":11721,"ĠPowell":11722,"vir":11723,"nel":11724,"ĠnhÃµm":11725,"ĠSergey":11726,"ezbollah":11727,"Kiá»ĥu":11728,"vÅ©":11729,"vá»«a":11730,"ĠCab":11731,"ĠÄĲÃŃnh":11732,"Galaxy":11733,"ĠNAM":11734,"230":11735,"eri":11736,"ĠxuÃ½t":11737,"ĠPetersburg":11738,"irect":11739,"á»¥i":11740,"ĠVL":11741,"ous":11742,"CI":11743,"ats":11744,"Táº·ng":11745,"food":11746,"Ġnano":11747,"ĠBá»ı":11748,"Ġ176":11749,"vá»ĳn":11750,"ĠBud":11751,"ĠnÃ¡u":11752,"izza":11753,"ĠChÃł":11754,"Máº¡ng":11755,"ĠnhÃ¡":11756,"ĠVÃĢO":11757,"lá»£i":11758,"ĠTANDTC":11759,"ĠCivic":11760,"Asia":11761,"ĠTVB":11762,"ĠSib":11763,"ĠmÃŃch":11764,"ĠHanh":11765,"bl":11766,"cá»ĳ":11767,"ĠHÃ´n":11768,"ĠsÃłi":11769,"Æ¡ng":11770,"Ġngáº§u":11771,"ĠMáº¥t":11772,"cá»©u":11773,"SÃ³c":11774,"ĠKhoÃ¡i":11775,"ĠNhiáº¿p":11776,"Ġmazut":11777,"ense":11778,"DÄ©":11779,"ogue":11780,"ĠPatrick":11781,"RP":11782,"essa":11783,"Sc":11784,"ĠbÃ¨n":11785,"nhÆ°ng":11786,"cá»Ńa":11787,"ĠTáº£o":11788,"ĠAlpha":11789,"Ġomega":11790,"iyad":11791,"TáºŃn":11792,"oT":11793,"Ġsá»Ńng":11794,"ĠBad":11795,"inea":11796,"ĠCoun":11797,"egal":11798,"ĠRM":11799,"RT":11800,"Cr":11801,"Ġposter":11802,"ivo":11803,"TrÃ¡nh":11804,"online":11805,"ĠVision":11806,"360":11807,"ĠToshi":11808,"ĠTouch":11809,"ĠMaradona":11810,"ÃĤY":11811,"ĠStandard":11812,"ĠhÃ£n":11813,"Báº¡ch":11814,"ĠSáº£ng":11815,"Ġdel":11816,"GiÃºp":11817,"ross":11818,"Barc":11819,"GA":11820,"dep":11821,"ĠKhung":11822,"ben":11823,"ĠBezos":11824,"ĠKKT":11825,"ĠBá»ĵn":11826,"Giáº£":11827,"SÃłi":11828,"Ġváº±n":11829,"ĠEverest":11830,"ĠFri":11831,"ĠRoad":11832,"cord":11833,"trol":11834,"Ġdá»¥m":11835,"ĠBá»Ļt":11836,"ĠKem":11837,"Äĳá»ķ":11838,"ĠXHCN":11839,"ĠSCMP":11840,"ICO":11841,"Ġhotgirl":11842,"ĠhÃŃch":11843,"ĠSus":11844,"DV":11845,"Ġká»ģn":11846,"ĠDun":11847,"ĠHáº¡c":11848,"thiáº¿u":11849,"Ġváº¯n":11850,"apixel":11851,"Ġshort":11852,"ĠTill":11853,"ĠRO":11854,"mes":11855,"Ġná»ĩ":11856,"Air":11857,"CNV":11858,"ĠNáº¯ng":11859,"nd":11860,"Ġáº¯t":11861,"ĠCambridge":11862,"omet":11863,"Cá»©u":11864,"Dá»¯":11865,"ienco":11866,"Ġlá»ĳ":11867,"ĠLenovo":11868,"220":11869,"Ġ161":11870,"ĠGHPGVN":11871,"xuáº¥t":11872,"zig":11873,"ĠNhan":11874,"wondo":11875,"ĠnghÄ©nh":11876,"má»¥c":11877,"ĠCairo":11878,"John":11879,"cáº¯t":11880,"ONG":11881,"sÃ¡t":11882,"Ġsáº©":11883,"Mer":11884,"hir":11885,"ĠJohnny":11886,"treo":11887,"ĠvÃºt":11888,"Ġwith":11889,"ĠAki":11890,"ĠÄĳá»Ŀm":11891,"ĠRá":11892,"ĠRá»":11893,"ĠCore":11894,"Ġchá»ĵn":11895,"ravel":11896,"ĠEconom":11897,"set":11898,"aron":11899,"tÃ´i":11900,"tráºŃn":11901,"ĠStock":11902,"ĠMoz":11903,"Ġ310":11904,"ĠbÆ°ng":11905,"VietNamNet":11906,"cháº·t":11907,"cÃº":11908,"ĠTru":11909,"ĠFidel":11910,"háº¡ng":11911,"BizLIVE":11912,"TÃŃn":11913,"áº¢I":11914,"ias":11915,"ĠRose":11916,"Láº¡ng":11917,"say":11918,"Pro":11919,"Ġ159":11920,"Ġgá»Łi":11921,"actor":11922,"ĠMichelle":11923,"ĠGol":11924,"ĠPremium":11925,"ĠhÃłu":11926,"BB":11927,"vÄĥn":11928,"ĠHá»įa":11929,"Canada":11930,"ĠPÃ´n":11931,"TQ":11932,"ĠnÃºp":11933,"ĠJessica":11934,"NVV":11935,"Mourinho":11936,"ĠMarie":11937,"Ġluá»ĳng":11938,"ĠDá»¥c":11939,"sá»ĳt":11940,"Ġ178":11941,"arreal":11942,"ĠHSG":11943,"ĠOxford":11944,"ĠDNNVV":11945,"gate":11946,"ĠXinh":11947,"Ġbá»Ł":11948,"Barcelona":11949,"ĠHon":11950,"ĠKob":11951,"Ġlá»ıi":11952,"dung":11953,"ĠEthi":11954,"ĠFrankfurt":11955,"bá»ĳc":11956,"Ġmá»Ńa":11957,"ĠArm":11958,"QSDÄĲ":11959,"Ġguitar":11960,"ĠWhit":11961,"sov":11962,"ĠÄĳÃ³a":11963,"umin":11964,"ĠMall":11965,"KÃªnh":11966,"RS":11967,"Email":11968,"náº±m":11969,"ĠHezbollah":11970,"ĠMotors":11971,"AA":11972,"Black":11973,"ĠNak":11974,"Ġmá»ĭ":11975,"inam":11976,"ĠDiana":11977,"ngoáº¡i":11978,"Ġinsul":11979,"ĠDS":11980,"LL":11981,"edit":11982,"ĠnhÃ¡o":11983,"eol":11984,"ĠÄĲS":11985,"ĠCSCÄĲ":11986,"ĠWars":11987,"loyd":11988,"aux":11989,"ĠCoutinho":11990,"ĠPho":11991,"chÃºng":11992,"sity":11993,"ĠCPH":11994,"Ġnuá»Ļt":11995,"ĠrÃ¬":11996,"Ġsá»¥n":11997,"ĠVinas":11998,"BID":11999,"Ġrich":12000,"ĠHouston":12001,"ĠDior":12002,"Rob":12003,"340":12004,"sá»©c":12005,"VTV":12006,"ĠKor":12007,"ĠNHCSXH":12008,"sá»ĳc":12009,"iat":12010,"ely":12011,"Ġ*":12012,"nghi":12013,"ĠHae":12014,"underland":12015,"ĠOceanBank":12016,"ÄĳÃło":12017,"Ġgá»ıi":12018,"Huáº¥n":12019,"ĠLá»Ĺ":12020,"Ġmáº§u":12021,"ĠCruise":12022,"ĠDomin":12023,"ĠÆ¯":12024,"Ġráº§u":12025,"ĠMS":12026,"ĠLimited":12027,"ĠCá»§a":12028,"ĠCorolla":12029,"ĠGai":12030,"ÄĲá»ģn":12031,"ĠHAG":12032,"ĠHat":12033,"ĠnhÃºn":12034,"Ġnháº¥c":12035,"hol":12036,"Ġflash":12037,"vet":12038,"onder":12039,"regas":12040,"ady":12041,"atri":12042,"ĠSul":12043,"Ġxá»Ľi":12044,"ĠtÃŃa":12045,"115":12046,"Ġamin":12047,"ĠXavi":12048,"Ġcrop":12049,"ĠRan":12050,"ĠAqu":12051,"ĠBentley":12052,"ĠOzil":12053,"ĠphÃŃch":12054,"ĠphÃło":12055,"Kiá»ģu":12056,"ĠTiger":12057,"Ġcá»¯u":12058,"cci":12059,"Ġthiáº¿p":12060,"trá»¥":12061,"ĠSah":12062,"Ġphá»Ļng":12063,"LÅ©y":12064,"onso":12065,"ĠTalent":12066,"ĠUSA":12067,"tráº£":12068,"ĠElectron":12069,"ĠGaga":12070,"ĠTruy":12071,"uka":12072,"qqa":12073,"Ġgao":12074,"ĠVa":12075,"iah":12076,"Ġinsulin":12077,"ĠHassan":12078,"Æ¯ng":12079,"ĠWu":12080,"ĠVáº»":12081,"ĠJenner":12082,"Ġsuyá»ħn":12083,"ĠTháº»":12084,"ree":12085,"má»©c":12086,"Ġlá»ĳt":12087,"phÃ¡":12088,"ÄĲáº£o":12089,"ĠThÃ¡o":12090,"ĠbÃŃt":12091,"nhiá»ģu":12092,"ĠbÃŃch":12093,"¨C":12094,"Ġ205":12095,"ĠcÆ¡i":12096,"ĠGá»Ĺ":12097,"len":12098,"ants":12099,"ChÃ¹m":12100,"Å¨":12101,"ĠChim":12102,"Ġvá»±a":12103,"Camera":12104,"ĠSá»©":12105,"Ġá»ĳi":12106,"ThÃ¹y":12107,"ThÃºy":12108,"Nha":12109,"ĠVIá»Ĩ":12110,"ĠPence":12111,"ĠdiÃªm":12112,"Ġkháº½":12113,"Ġ215":12114,"Giáº¥y":12115,"De":12116,"ĠGary":12117,"ĠYG":12118,"ipzig":12119,"ĠSoft":12120,"uya":12121,"ĠClau":12122,"135":12123,"Æ¯á»ľNG":12124,"Ná»¥":12125,"Ġform":12126,"fit":12127,"CMO":12128,"SÃ´ng":12129,"ĠrÃ¨m":12130,"Ġrub":12131,"ĠMini":12132,"ations":12133,"ĠNuÃ´i":12134,"ĠChiáº¿t":12135,"ĠPháº£n":12136,"CTCK":12137,"ĠCNC":12138,"Ġtá»ĭnh":12139,"ĠRud":12140,"Äĳá»Ļng":12141,"ĠGuinea":12142,"ĠMelbourne":12143,"ĠDim":12144,"Ġphui":12145,"colate":12146,"ĠHab":12147,"ĠchÃŃp":12148,"gÃł":12149,"ĠLB":12150,"ĠANH":12151,"ekwondo":12152,"«m":12153,"Ġnhá»¡":12154,"vÃ©":12155,"Ġ570":12156,"ĠDÃ£":12157,"ĠtrÄ©u":12158,"tok":12159,"ĠMarco":12160,"ĠÄĳáº¥ng":12161,"ĠngÃ¡y":12162,"Ġkha":12163,"ĠMaps":12164,"ĠdÆ°á»£ng":12165,"ĠChÃło":12166,"ĠSnowden":12167,"organ":12168,"ĠCruz":12169,"ghi":12170,"ĠHV":12171,"280":12172,"Ad":12173,"ĠVR":12174,"Ġcháº§u":12175,"ĠTÄĲC":12176,"attan":12177,"ĠNháºŃp":12178,"MÃ´i":12179,"vá»¥":12180,"ancy":12181,"ĠRoger":12182,"Ġhon":12183,"ĠTPBank":12184,"ĠFinancial":12185,"ÃĢI":12186,"ĠMichigan":12187,"kWh":12188,"ĠJapan":12189,"ĠKennedy":12190,"ĠPS":12191,"ĠNova":12192,"ĠAndrea":12193,"950":12194,"ĠQUAN":12195,"ĠKun":12196,"ĠBalotelli":12197,"ĠMarcus":12198,"Ġtrá»ĩt":12199,"opol":12200,"ĠÄ©":12201,"ĠNguyá»ĩn":12202,"Ġhuá»³nh":12203,"ĠMINH":12204,"ĠFanpage":12205,"mir":12206,"KÃŃnh":12207,"Ġhec":12208,"ĠRiyad":12209,"Laren":12210,"ĠTTXH":12211,"1995":12212,"ĠUt":12213,"MN":12214,"ĠbÃłnh":12215,"ĠToday":12216,"Ġop":12217,"BuÃ´n":12218,"Ġ189":12219,"ĠDL":12220,"ĠBeach":12221,"aver":12222,"leo":12223,"bÃ³ng":12224,"Ġráº¡":12225,"âĢĿ!":12226,"Cá»ķng":12227,"GPT":12228,"ĠKrist":12229,"ĠSchool":12230,"ĠHeung":12231,"Ġhá»Ńng":12232,"141":12233,"Ġliu":12234,"Ġgiáº«m":12235,"ĠNan":12236,"ĠBlink":12237,"ĠLá»ĳi":12238,"ChÃ¡nh":12239,"lock":12240,"imble":12241,"chenko":12242,"Ġhomestay":12243,"Ġshowroom":12244,"NÄĥng":12245,"ĠAMG":12246,"ĠThÆ°á»Ľc":12247,"rÃ´ng":12248,"Ġ172":12249,"ToÃ¡n":12250,"ĠlÄĥm":12251,"ĠBiá»ĩt":12252,"ĠBurnley":12253,"ĠKyung":12254,"ĠMem":12255,"COV":12256,"ĠThang":12257,"ĠChá»īnh":12258,"met":12259,"khÃ":12260,"ĠSuga":12261,"170":12262,"ĠtÃ¡p":12263,"ĠquÃ¡ng":12264,"ĠcÃ¢m":12265,"260":12266,"chettino":12267,"Ġnylon":12268,"ĠCháº¡y":12269,"bÃ¡o":12270,"ÃĤm":12271,"ĠPCI":12272,"ĠGazprom":12273,"ĠHÃ£n":12274,"1954":12275,"Ġbáº·m":12276,"gn":12277,"ower":12278,"nick":12279,"eople":12280,"ĠMI":12281,"ĠVoi":12282,"bÃłi":12283,"ĠPia":12284,"ĠSara":12285,"ĠTrÃ²":12286,"ĠdÆ¡i":12287,"Lá»±a":12288,"Ġ164":12289,"ĠPharma":12290,"Ġnáº¥p":12291,"ĠMiÃªn":12292,"Khuyáº¿n":12293,"tinental":12294,"ffee":12295,"Ġláº»n":12296,"ÄĳiÃªn":12297,"Ġ212":12298,"ario":12299,"Ġuyá»ĥn":12300,"ĠOppo":12301,"etamine":12302,"ĠWel":12303,"ĠVinashin":12304,"Ġpixel":12305,"ĠTillerson":12306,"ĠGucci":12307,"AMA":12308,"ĠAVG":12309,"ĠmÃ³":12310,"aks":12311,"Bayern":12312,"hyd":12313,"ĠSat":12314,"bourg":12315,"aru":12316,"ĠBlanc":12317,"Hoáº·c":12318,"Ġkháº¥n":12319,"tá»ĳi":12320,"ĠGonz":12321,"101":12322,"hou":12323,"fica":12324,"Ġbáº¿t":12325,"Ġyá»ĥm":12326,"nie":12327,"ĠLeipzig":12328,"ĠVNCB":12329,"Ġblockchain":12330,"ĠMWG":12331,"Ġgr":12332,"ĠLá»įc":12333,"ĠSpider":12334,"Náº¯m":12335,"tonia":12336,"evel":12337,"ĠAG":12338,"Ġat":12339,"Hyundai":12340,"ĠNgá»ĵi":12341,"ChÃ¹a":12342,"ĠMaya":12343,"CPI":12344,"mang":12345,"HHGÄĲ":12346,"Ġhe":12347,"Ġláº¡y":12348,"ĠBasel":12349,"seille":12350,"ĠLag":12351,"imbledon":12352,"GÃ³c":12353,"ĠLor":12354,"WD":12355,"ĠBá»ĵi":12356,"ĠTNMT":12357,"ĠACV":12358,"ĠGM":12359,"ities":12360,"ĠvÃªnh":12361,"Covid":12362,"Kon":12363,"bÃŃ":12364,"ĠTelecom":12365,"ĠChá»Ŀ":12366,"dautu":12367,"ĠNá»¥":12368,"ĠThÃ¡c":12369,"ĠÃ³ng":12370,"hail":12371,"hye":12372,"Sa":12373,"NgÆ°":12374,"ĠIN":12375,"ĠDavis":12376,"Ġbol":12377,"ĠLGB":12378,"ĠRÆ°á»£u":12379,"ThÃºc":12380,"ĠchÃły":12381,"TÃ¡i":12382,"ĠSO":12383,"utt":12384,"Ġblogger":12385,"1998":12386,"osi":12387,"ĠPháº¡t":12388,"ĠJennie":12389,"1999":12390,"char":12391,"BIDV":12392,"ĠmÃºt":12393,"ĠJosh":12394,"Ġháº»o":12395,"Náº¯ng":12396,"Ġ390":12397,"ĠphÃ¹n":12398,"emb":12399,"idd":12400,"iser":12401,"cá»±c":12402,"ĠKorea":12403,"Ġgel":12404,"UP":12405,"Ġcasting":12406,"hio":12407,"ĠBeauty":12408,"Tráº¥n":12409,"ĠÄĲHÄĲCÄĲ":12410,"ĠCuá»ĳn":12411,"Inter":12412,"ĠNy":12413,"Ġ169":12414,"Ġná»įc":12415,"ĠLHTN":12416,"lÃ¡":12417,"made":12418,"ĠÄĳáº£n":12419,"ces":12420,"ĠKom":12421,"ĠBlade":12422,"ĠMBB":12423,"DÆ°á»Ŀng":12424,"Link":12425,"ĠMane":12426,"Khung":12427,"ĠJag":12428,"ĠLazada":12429,"ĠFrancois":12430,"Ġcode":12431,"Ġngáº©m":12432,"ĠCons":12433,"Gu":12434,"danh":12435,"ĠTháºŃn":12436,"ĠVA":12437,"ĠchÃ³c":12438,"ĠÃ©o":12439,"ĠSelena":12440,"riot":12441,"ĠJunior":12442,"chuyá»ĥn":12443,"SÆ¡":12444,"ĠThiago":12445,"ĠProject":12446,"ĠJetstar":12447,"vÃ²ng":12448,"pearl":12449,"ĠVarane":12450,"ugh":12451,"ĠRuss":12452,"aomi":12453,"Ġau":12454,"ĠsÃ¹ng":12455,"ĠWarren":12456,"ĠWell":12457,"mond":12458,"oud":12459,"ĠAIDS":12460,"Quay":12461,"Tháº©m":12462,"khoe":12463,"Ġ188":12464,"ÄĲáº¥u":12465,"ĠSchol":12466,"Ġtrá»Ľ":12467,"ĠSGGP":12468,"Ġlá»ĵi":12469,"ĠPress":12470,"ĠÃį":12471,"âĢĿ)":12472,"estrogen":12473,"\"?":12474,"otball":12475,"ĠRaqqa":12476,"Ġbeta":12477,"ĠBung":12478,"uezone":12479,"val":12480,"áº¤N":12481,"viáº¿t":12482,"chai":12483,"HÆ°á»Łng":12484,"Ġ192":12485,"ĠTK":12486,"ĠSomalia":12487,"Ġsáº«m":12488,"ĠÄĥ":12489,"ĠMorocco":12490,"ĠLeeds":12491,"ĠThS":12492,"terres":12493,"ĠEden":12494,"Ká»ĭch":12495,"hiá»ĩp":12496,"UBTVQH":12497,"Ġcaffe":12498,"ĠKÄĲT":12499,"ĠMarket":12500,"Ġcá»ıi":12501,"ĠBSR":12502,"ĠCI":12503,"áº¤T":12504,"ĠnÆ¡":12505,"izona":12506,"ĠSpr":12507,"ĠTas":12508,"CNCH":12509,"ubam":12510,"Pháº¡t":12511,"ÄĳÃªm":12512,"Vui":12513,"ated":12514,"1997":12515,"ĠHSSV":12516,"ĠYa":12517,"mÃ¹a":12518,"Ġhecta":12519,"ĠTiÃªm":12520,"ĠMBH":12521,"ĠLá»Ĺi":12522,"Ġ173":12523,"ĠAntony":12524,"own":12525,"ĠIsa":12526,"ĠOmar":12527,"ĠSá»ķ":12528,"ĠOf":12529,"!âĢĿ,":12530,"ĠFernando":12531,"ĠWimbledon":12532,"TTO":12533,"tiÃªu":12534,"ĠHU":12535,"Ġ430":12536,"ĠthÃºng":12537,"Mic":12538,"ĠNest":12539,"get":12540,"ĠÄĳiáº¿c":12541,"ĠECMO":12542,"Ġráº§y":12543,"ĠLuiz":12544,"Ġ177":12545,"ĠMont":12546,"ĠQP":12547,"rez":12548,"ĠMidu":12549,"ĠnghÃ©n":12550,"ĠmÃºn":12551,"ĠSarah":12552,"III":12553,"Ġsalad":12554,"Ġbiáº¿m":12555,"Ġtweet":12556,"ĠATP":12557,"Bi":12558,"Ġrá»ĭch":12559,"Táº§m":12560,"ĠEarth":12561,"ĠbÃºi":12562,"ĠIndustr":12563,"Ġvá»Ľ":12564,"ergy":12565,"ĠWalker":12566,"ĠYoga":12567,"uke":12568,"ĠGiÃºp":12569,"âĢ¦),":12570,"acy":12571,"ĠGuterres":12572,"ĠCheng":12573,"Ġvá»ĵng":12574,"380":12575,"Kháº³ng":12576,"Pink":12577,"ĠBÃ£o":12578,"ÄĲan":12579,"ĠMá»«ng":12580,"ĠMatth":12581,"vai":12582,"ĠAshley":12583,"ĠShoigu":12584,"Ġthá»ī":12585,"ICEF":12586,"ĠHas":12587,"ĠFO":12588,"ubameyang":12589,"ĠKV":12590,"Be":12591,"á»¥t":12592,"hanna":12593,"Ġ1956":12594,"trá»ĭ":12595,"aton":12596,"cáº§m":12597,"Syria":12598,"Ġdáº·t":12599,"ĠFulham":12600,"Tottenham":12601,"máº·t":12602,"ĠColum":12603,"ĠVillarreal":12604,"ĠCredit":12605,"Sá":12606,"Sá»":12607,"990":12608,"á»ĲC":12609,"ĠServ":12610,"etz":12611,"Ġ166":12612,"conn":12613,"ĠJava":12614,"Ġ245":12615,"Bá»ī":12616,"Vit":12617,"ĠArn":12618,"inda":12619,"ithi":12620,"Ġtuá»Ļc":12621,"Ford":12622,"Ġpl":12623,"ĠArizona":12624,"uth":12625,"Ġ460":12626,"rak":12627,"ĠTÃºy":12628,"ÄĲáºŃu":12629,"Ġrating":12630,"ĠSingh":12631,"tháº§y":12632,"Cham":12633,"Tho":12634,"aker":12635,"ĠNut":12636,"ĠgÃ¡n":12637,"AFP":12638,"190":12639,"Ġchuá»ĳt":12640,"ThuáºŃn":12641,"ĠVáº£i":12642,"ĠPique":12643,"Ġdá»Ĺi":12644,"atic":12645,"ente":12646,"ĠBit":12647,"SIP":12648,"GÃł":12649,"lav":12650,"xá»Ń":12651,"ÄĳÃ´":12652,"ngu":12653,"Ãµa":12654,"ĠGarcia":12655,"ĠDeb":12656,"Ste":12657,"ĠJason":12658,"ĠCarn":12659,"ĠNhai":12660,"ĠAlaska":12661,"Ġwifi":12662,"ÄĲáº·ng":12663,"Jenn":12664,"At":12665,"Ġboong":12666,"Cá»¥m":12667,"riz":12668,"ĠtÃ³t":12669,"ĠMiu":12670,"Ġxá»Ł":12671,"ĠSwansea":12672,"°C":12673,"mino":12674,"Ġ183":12675,"ĠSapa":12676,"MK":12677,"láº¡":12678,"ĠPatriot":12679,"ĠLÄĥk":12680,"ĠthÃ³t":12681,"ĠPotter":12682,"Tuyá»ĩt":12683,"Ġ1957":12684,"ĠSystem":12685,"ĠLuke":12686,"Æ°á»Ľu":12687,"iar":12688,"Ro":12689,"ĠFabregas":12690,"ĠSMS":12691,"ĠMig":12692,"+,":12693,"ushima":12694,"ĠOhio":12695,"Gian":12696,"Äĳá»Ļ":12697,"ĠBlinken":12698,"VIDEO":12699,"dÃ¹":12700,"ĠSá»£":12701,"Ná»Ńa":12702,"ĠHur":12703,"ĠAviv":12704,"ĠHáº¡o":12705,"ĠSiu":12706,"Ġnháº§y":12707,"Máº¡nh":12708,"ĠKhÃ¢m":12709,"!?":12710,"ĠSavills":12711,"ult":12712,"ĠEthiopia":12713,"amps":12714,"ĠPochettino":12715,"Äĳáº·t":12716,"Ġtablet":12717,"ermain":12718,"Biá»ĩt":12719,"BCT":12720,"ĠNá»Ĺ":12721,"chiá»ģu":12722,"pl":12723,"270":12724,"ĠGeneral":12725,"ĠGrammy":12726,"Ġsáº¥m":12727,"Ġngá»£m":12728,"ĠVietravel":12729,"ĠLaden":12730,"tÃ¹y":12731,"')":12732,"ĠLeonardo":12733,"Ġbaht":12734,"há»Ļp":12735,"BGTVT":12736,"ĠShutterstock":12737,"thÃ¡nh":12738,"ĠnÃŃn":12739,"ECD":12740,"ĠInfin":12741,"andro":12742,"Ġhá»īnh":12743,"ĠBio":12744,"uts":12745,"ĠUniversity":12746,"quÃ¢n":12747,"ĠGhana":12748,"»ĮC":12749,"á»ĮC":12750,"kus":12751,"ĠGuam":12752,"ĠSalv":12753,"Tá»ī":12754,"ĠÃįch":12755,"ĠVD":12756,"ĠBRT":12757,"MÃ¢y":12758,"phic":12759,"ĠPhiáº¿u":12760,"ĠKyodo":12761,"----------------":12762,"ĠGod":12763,"ĠChÃªnh":12764,"cÃ¢u":12765,"ķn":12766,"TÃ³m":12767,"astic":12768,"Ġquáº¹t":12769,"Ġ182":12770,"ĠSkr":12771,"ential":12772,"GI":12773,"ĠNÃło":12774,"Ġniu":12775,"Park":12776,"TPP":12777,"ĠDáº«n":12778,"phia":12779,"ĠCÃ¡m":12780,"Ġâ":12781,"Cáº£ng":12782,"ĠTeam":12783,"ĠNovak":12784,"ĠTBA":12785,"Lá»ĳi":12786,"ĠFB":12787,"ĠVolod":12788,"ĠNghÃ©":12789,"Mich":12790,"ĠSunderland":12791,"ĠHaiti":12792,"ĠEdge":12793,"gyz":12794,"Ġmegapixel":12795,"TÃ´n":12796,"ĠIgor":12797,"Go":12798,"Tá»ĳc":12799,"Ġtennis":12800,"Ġnháº¿ch":12801,"ĠNBC":12802,"CBM":12803,"ĠTA":12804,"giÃ¡o":12805,"Ġsanh":12806,"ĠBLÄĲ":12807,"áº¬T":12808,"Ġloang":12809,"Ġgáº¡":12810,"ĠWr":12811,"tois":12812,"Tu":12813,"Giáº¥c":12814,"ĠSenegal":12815,"izz":12816,"ĠAlf":12817,"EWS":12818,"Ġ181":12819,"Ġ179":12820,"ĠBox":12821,"Tá»Ļi":12822,"ĠNÆ°Æ¡ng":12823,"cáº§n":12824,"ĠBHL":12825,"==":12826,"Manchester":12827,"FT":12828,"330":12829,"Lá»ĩ":12830,"ront":12831,"ĠCOP":12832,"ĠColorado":12833,"Ġ186":12834,"pu":12835,"ĠHitler":12836,"ĠAlv":12837,"mu":12838,"Ġhiu":12839,"ĠBolton":12840,"ĠBolivia":12841,"Ġbreak":12842,"ĠBkav":12843,"ĠYoko":12844,"ĠCarlo":12845,"hÃ³ng":12846,"ĠHÄĲBA":12847,"ĠcÃºt":12848,"ilk":12849,"ĠnhÃºt":12850,"Ġá»ĳt":12851,"ChÃŃ":12852,"ĠLA":12853,"ĠTráº¡ng":12854,"ĠMacau":12855,"ĠArsene":12856,"á»ĭmá»Ľi":12857,"ĠxÃ©n":12858,"ĠDz":12859,"ĠZar":12860,"ĠBVMT":12861,"ĠDÅ©":12862,"ĠÄĲÃ¢u":12863,"ĠXÃ¡t":12864,"báºŃt":12865,"ĠLIÃĬN":12866,"uras":12867,"Ã´á»ĭmá»Ľi":12868,"Ġsoda":12869,"kan":12870,"Ġná»±c":12871,"ĠShanghai":12872,"Ġ3000":12873,"Ġsofa":12874,"ckho":12875,"ĠShopee":12876,"ernandez":12877,"ĠMorris":12878,"ĠDh":12879,"And":12880,"ĠPad":12881,"ĠdÃ¡t":12882,"ĠOCB":12883,"Ġphom":12884,"ĠBCTC":12885,"210":12886,"Ġoáº£i":12887,"ĠDá»ĭ":12888,"ĠKTT":12889,"ĠlÃ¡c":12890,"CKP":12891,"ĠEstonia":12892,"face":12893,"ĠÄĲá»©a":12894,"ÄĲá»Ļ":12895,"GÃ£":12896,"ĠÃ´i":12897,"ĠChristopher":12898,"ĠhÃ³m":12899,"ĠCBCNV":12900,"ĠDigital":12901,"ĠCÃ²":12902,"Ġláº±n":12903,"ĠkhÃ³e":12904,"ĠTrai":12905,"VPCP":12906,"imbab":12907,"Ġráº§n":12908,"ĠAvengers":12909,"ĠUs":12910,"ĠrÃŃt":12911,"ĠKath":12912,"chá»£":12913,"Ġ2027":12914,"ViÃªm":12915,"ĠCáº¯t":12916,"ĠFast":12917,"ĠWhat":12918,"ĠMorata":12919,"ĠStoke":12920,"pping":12921,"aze":12922,"DG":12923,"ĠcÃ³p":12924,"ĠVÄĤN":12925,"ishino":12926,"ĠShah":12927,"ĠTaj":12928,"cini":12929,"ct":12930,"ĠKol":12931,"Ġ203":12932,"Ġri":12933,"Ġgiá»ħu":12934,"ĠÆ¯ng":12935,"ĠDÃłi":12936,"asil":12937,"ĠVe":12938,"ĠMoto":12939,"Ġruá»ĳc":12940,"1993":12941,"ĠSpa":12942,"aman":12943,"Ġcaf":12944,"LÃłn":12945,"liÃªn":12946,"Ġ219":12947,"ĠLá»±a":12948,"ĠHÃłnÃ´á»ĭmá»Ľi":12949,"tÃ¡i":12950,"essenger":12951,"á»ģnh":12952,"Ġhá»Ļt":12953,"ĠIA":12954,"Ġsáº¡m":12955,"ĠBillboard":12956,"Xáº¿p":12957,"CKPINK":12958,"ĠSá»Ńa":12959,"Nháº¥t":12960,"ĠCot":12961,"gyzstan":12962,"»¦":12963,"á»¦":12964,"ĠDÆ°á»¡ng":12965,"ĠJamie":12966,"inn":12967,"PhÃ¡":12968,"emouth":12969,"...âĢĿ,":12970,"imer":12971,"pho":12972,"cy":12973,"ĠTheresa":12974,"ĠViÃªm":12975,"Ġ187":12976,"ĠNon":12977,"ĠSach":12978,"Ġlá»ĭm":12979,"Ġ217":12980,"ĠClass":12981,"Ġxáº»o":12982,"ĠngáºŃy":12983,"dá»ĭch":12984,"»©t":12985,"á»©t":12986,"ĠPhÃª":12987,"Ġsp":12988,"PSG":12989,"ĠCBCC":12990,"imbabwe":12991,"ĠMcLaren":12992,"ĠÄĳÃły":12993,"ĠIsaac":12994,"ĠÄĲiá»ģm":12995,"asm":12996,"Ġdiva":12997,"PhÃºc":12998,"ĠAhmad":12999,"ĠPir":13000,"ĠTrá»ĳng":13001,"ĠNháºŃm":13002,"ĠVinpearl":13003,"ĠAhmed":13004,"chiÃªu":13005,"ĠKiá»ĩn":13006,"ĠWilson":13007,"ĠCÆ°á»Ľp":13008,"eot":13009,"Ġ1930":13010,"ĠTTC":13011,"ĠThuyÃªn":13012,"ĠMarseille":13013,"ĠÄĳáº±m":13014,"isto":13015,"ĠTáºłI":13016,"ĠWatford":13017,"ĠBuffett":13018,"ĠHáº¯c":13019,"ĠVienna":13020,"Ġnheo":13021,"uzia":13022,"ĠÃ¹a":13023,"ĠElectronics":13024,"há»Ļi":13025,"uer":13026,"ĠchÄ©a":13027,"ĠLÅ©":13028,"ĠPO":13029,"Cty":13030,"ĠMcCain":13031,"ĠBenfica":13032,"rence":13033,"ĠPink":13034,"ĠGE":13035,"Vietcombank":13036,"ÃĢNH":13037,"ĠNano":13038,"ĠShim":13039,"ĠAlan":13040,"ĠTTCP":13041,"Ġthoi":13042,"San":13043,"Ġgiá»Ŀi":13044,"Nguoiduatin":13045,"ÄĲinh":13046,"ĠNathan":13047,"etts":13048,"Hung":13049,"ĠngÆ°á»£ng":13050,"ĠPhÃłm":13051,"giÃ¢y":13052,"ĠRobot":13053,"ĠEurozone":13054,"ĠBey":13055,"ĠNovaland":13056,"ÃģC":13057,"chui":13058,"ĠGul":13059,"Ġteaser":13060,"Ġchocolate":13061,"gra":13062,"ukov":13063,"ĠMá»Ĺ":13064,"ĠVÆ°Æ¡n":13065,"urnemouth":13066,"ĠcafÃ©":13067,"ĠBÄĲKH":13068,"ĠCÃ¡p":13069,"truyá»ģn":13070,"Äĳen":13071,"mÃ³n":13072,"Ġnháº£m":13073,"ĠHenderson":13074,"*)":13075,"Báº¡c":13076,"ĠHerm":13077,"ĠCienco":13078,"ĠchÃ¢y":13079,"ĠRice":13080,"andy":13081,"ĠJen":13082,"ĠNgang":13083,"ĠQG":13084,"ĠGel":13085,"Ġ560":13086,"Äĳá»ķi":13087,"ÄĲÃ´":13088,"ento":13089,"tÆ°":13090,"ĠReg":13091,"giá»¯":13092,"ĠCá»¦":13093,"aria":13094,"angnam":13095,"ĠWik":13096,"quoc":13097,"ĠLÃłn":13098,"ĠGrande":13099,"HOSE":13100,"illas":13101,"sá»ķ":13102,"ĠDoha":13103,"TrÃ¡ch":13104,"Ġbolero":13105,"dinand":13106,"ĠdÃ¹i":13107,"TKCN":13108,"hama":13109,"ĠChalle":13110,"Ġ!":13111,"ĠLuyáº¿n":13112,"ĠSull":13113,"ĠLegend":13114,"yu":13115,"ĠPass":13116,"ĠFirst":13117,"quyá»ģn":13118,"ĠsoÃ¡i":13119,"ĠMcG":13120,"ĠKhÃ¡t":13121,"attle":13122,"Ġloan":13123,"ÄĳÃ¡ng":13124,"»Ľ":13125,"á»Ľ":13126,"Ġnáº»":13127,"Ġá»·":13128,"Ġ520":13129,"ĠVHM":13130,"ĠChatGPT":13131,"oro":13132,"ĠTRá":13133,"ĠTRá»":13134,"idas":13135,"ĠuyÃªn":13136,"ĠrÃ´m":13137,"ĠBond":13138,"atherine":13139,"ĠMáº¿n":13140,"ĠPK":13141,"Tá»įa":13142,"eren":13143,"Ġngá»Ľ":13144,"ĠPrinc":13145,"ĠVogue":13146,"ĠChá»Ń":13147,"ĠÄĳÃ¡u":13148,"phá»¥":13149,"ĠNhanh":13150,"Ġet":13151,"Ġáº¯ng":13152,"ná»Ļi":13153,"ĠViÃªng":13154,"Ġ194":13155,"ĠMiller":13156,"cáº·p":13157,"ĠLÄĲTBXH":13158,"ECO":13159,"ĠAna":13160,"Ġrá»¥c":13161,"thuá»ĳc":13162,"pi":13163,"Ġsáº§n":13164,"ĠGIA":13165,"hawk":13166,"ĠKarl":13167,"ĠMattis":13168,"Ġum":13169,"ĠBella":13170,"Ġbá»ĳt":13171,"ĠPG":13172,"ĠCá»¦A":13173,"nguy":13174,"ĠRá»Ńa":13175,"ĠÄĲiá»ĥu":13176,"ĠMÄĥng":13177,"ĠxÃºi":13178,"XT":13179,"die":13180,"Trail":13181,"Ġcháº¡c":13182,"ĠKay":13183,"FED":13184,"Ġ235":13185,"uar":13186,"ners":13187,"ĠHills":13188,"Ġ184":13189,"ĠMassach":13190,"NÃ©t":13191,"apor":13192,"sburg":13193,"ĠManagement":13194,"Tháº¡ch":13195,"ĠNhuá»ĩ":13196,"Ung":13197,"Ġá»ĳ":13198,"MÃ¢u":13199,"ĠKov":13200,"Ġxá»ı":13201,"ports":13202,"ĠchÃŃt":13203,"háºŃu":13204,"ĠIQ":13205,"ĠNin":13206,"1996":13207,"ĠAct":13208,"VI":13209,"ĠCast":13210,"ĠRex":13211,"CÄĲV":13212,"Com":13213,"Ġkil":13214,"lao":13215,"ĠBusan":13216,"ĠHak":13217,"ĠCáº¡n":13218,"ĠDÃłn":13219,"ĠPierre":13220,"mÃ´n":13221,"ĠKhoai":13222,"ĠChap":13223,"heed":13224,"ĠNÄĲ":13225,"ĠMikel":13226,"Ġ5000":13227,"ĠngÆ°á»Łng":13228,"ĠJos":13229,"ĠvÃŃt":13230,"ĠCII":13231,"Ġluá»ĵn":13232,"ĠAsiad":13233,"Ġbox":13234,"ĠÄĲá»ķ":13235,"ĠBall":13236,"Ġ193":13237,"Ġá»¥":13238,"ĠHernandez":13239,"ĠngÃ¡t":13240,"ĠChuá»ĳi":13241,"borough":13242,"onto":13243,"Ngá»įn":13244,"lia":13245,"ÄĲá»Ļt":13246,"igo":13247,"ĠLov":13248,"Ly":13249,"Ġchang":13250,"1994":13251,"ĠSalman":13252,"ĠAustin":13253,"endra":13254,"ĠvÃ¡t":13255,"ĠNáº¯m":13256,"ĠEsp":13257,"SK":13258,"Ġstylist":13259,"ĠTÃłng":13260,"ĠÄĲuá»ĳng":13261,"Ġngáº£i":13262,"Euro":13263,"ĠtoÃ¡i":13264,"aini":13265,"ĠLev":13266,"NE":13267,"Ġtuá»ĵn":13268,"bat":13269,"ĠInvestment":13270,"ĠÃī":13271,"ĠSmall":13272,"ĠNaj":13273,"LoÃłi":13274,"ĠChá»ĳt":13275,"ĠngÃ¡o":13276,"usra":13277,"Ġel":13278,"oisong":13279,"ĠCourtois":13280,"errard":13281,"ĠChrome":13282,"ĠSXKD":13283,"edoisong":13284,"ĠXáº¿p":13285,"chÃº":13286,"ĠTCC":13287,"DM":13288,"Ġnatri":13289,"NÃ³ng":13290,"Website":13291,"ĠZimbabwe":13292,"ĠtrÃ¡o":13293,"ĠLá»«a":13294,"ande":13295,"ASEP":13296,"ĠBilbao":13297,"ĠTI":13298,".(":13299,"Mu":13300,"ĠEzz":13301,"hyun":13302,"ĠTÆ°Æ¡i":13303,"ĠKin":13304,"ĠRoman":13305,"Ġoai":13306,"ĠKroos":13307,"aus":13308,"ĠLingard":13309,"ĠMald":13310,"Ġmon":13311,"ĠKishi":13312,"ĠJonathan":13313,"Ġsam":13314,"NDN":13315,"ĠPlan":13316,"ĠlÆ°":13317,"ĠLugan":13318,"ĠHOÃĢNG":13319,"ĠPao":13320,"ĠBanking":13321,"cin":13322,"ĠRange":13323,"Ġradio":13324,"cker":13325,"TG":13326,"Ġváº©y":13327,"Ġ218":13328,"Ġjean":13329,"ĠgÃ¹":13330,"ĠAlbum":13331,"ĠNÃ©":13332,"ĠHama":13333,"ĠLGBT":13334,"ulin":13335,"Ġcháº¡nh":13336,"Ġsáº©y":13337,"Ġváº¹o":13338,"ĠTrÆ°a":13339,"ĠRetail":13340,"ĠTHAAD":13341,"abad":13342,"ÄĳÃ¢y":13343,"ipan":13344,"ĠKL":13345,"phim":13346,"ĠLoÃłi":13347,"Ġthá»¥t":13348,"hang":13349,"ĠGuill":13350,"321":13351,"001":13352,"Van":13353,"Ġ222":13354,"ChÆ¡i":13355,"tháº£m":13356,"Ġnickname":13357,"ĠWong":13358,"ĠTÃŃ":13359,"ĠDynam":13360,"ienViet":13361,"ĠStone":13362,"ĠTray":13363,"080":13364,"inness":13365,"ĠÄĲÃ¡c":13366,"ĠPerry":13367,"ggs":13368,"ĠchÃ¹i":13369,"NTQ":13370,"ĠIron":13371,"Ġnháº£nh":13372,"ĠBright":13373,"ĠCVT":13374,"ĠBI":13375,"Ġtrá»¥i":13376,"ĠKyrgyzstan":13377,"Ġdiáº¿t":13378,"cht":13379,"cÅ©":13380,"Ġquáº·c":13381,"ĠÐ":13382,"ĠDNA":13383,"Ġá»¦":13384,"ĠLay":13385,"song":13386,"ĠEnergy":13387,"ĠVáº¡c":13388,"veen":13389,"ĠLuxury":13390,"ĠAubameyang":13391,"Dragon":13392,"ĠdÃ¬m":13393,"táº¥t":13394,"Ġestrogen":13395,"chan":13396,"ĠDell":13397,"ĠLot":13398,"ĠNike":13399,"Hiá»ĥu":13400,"ĠDáº¡y":13401,"bÃłn":13402,"hÃ¬nh":13403,"Ġton":13404,"ars":13405,"rah":13406,"ĠPetr":13407,"ĠPray":13408,"dá»ħ":13409,"Ġbáº£":13410,"CSC":13411,"ĠbÃ¡ng":13412,"ushu":13413,"NuÃ´i":13414,"ĠNhÃŃ":13415,"ĠNishino":13416,"Ġ540":13417,"ĠThoÃ¡t":13418,"ĠÄĳÃºt":13419,"Ġ204":13420,"Vietin":13421,"chuáº©n":13422,"ĠMassachus":13423,"tháº»":13424,"key":13425,"ĠPVS":13426,"áº¢O":13427,"ĠKhen":13428,"ĠKÃŃch":13429,"acera":13430,"ĠHerr":13431,"ĠOffice":13432,"bele":13433,"Ġchá»Ļ":13434,"ckhoedoisong":13435,"ĠFound":13436,"Æ¯á»¢":13437,"ili":13438,"Ġcort":13439,"ĠSAB":13440,"ĠGraham":13441,"Ġdance":13442,"Ġbiáº¿c":13443,"ĠHoms":13444,"ĠMÃ©p":13445,"Tháº£m":13446,"ĠÄĲÃ¨n":13447,"ĠXÃ³m":13448,"ĠCes":13449,"ĠMount":13450,"ĠLead":13451,"ugeot":13452,"ĠGat":13453,"emiro":13454,"eroon":13455,"Ġrup":13456,"load":13457,"ĠRáº±m":13458,"ĠRoss":13459,"Ãļc":13460,"CÃ¡t":13461,"ĠKTNN":13462,"Ġ275":13463,"ĠNhiÃªu":13464,"ĠLem":13465,"bs":13466,"TNMT":13467,"ĠZin":13468,"App":13469,"ĠMikhail":13470,"ARS":13471,"ĠComposite":13472,"kusen":13473,"edu":13474,"ĠDor":13475,"tiáº¿ng":13476,"ĠFair":13477,"ná»ķ":13478,"Máº¹o":13479,"ĠSCB":13480,"BGDPL":13481,"ĠXpander":13482,"ĠKHÃĶNG":13483,"ĠArch":13484,"ĠVespa":13485,"ĠIDC":13486,"ĠHwang":13487,"oucher":13488,"ĠPhantom":13489,"nháºŃn":13490,"ĠGruzia":13491,"Äĳau":13492,"ĠJP":13493,"ĠGáº¡c":13494,"Ġder":13495,"Ġdes":13496,"ĠNá»ĳt":13497,"Ġná»¡":13498,"ĠbÃ´":13499,"elson":13500,"ĠCatalonia":13501,"oshop":13502,"Ġ777":13503,"ĠNO":13504,"BÄĥng":13505,"ĠLever":13506,"lÃºc":13507,"Äĳiá»ĩn":13508,"Juventus":13509,"ĠMá»Ŀi":13510,"ĠMÃºa":13511,"Ã¼":13512,"ĠLáº·c":13513,"ĠAlves":13514,"Kháº¯c":13515,"ĠJar":13516,"onduras":13517,"Ġtrá»¥y":13518,"Ġ1955":13519,"ĠSoc":13520,"1930":13521,"Ġná»ĩm":13522,"elin":13523,"ĠBrian":13524,"ĠÃĲáº¡i":13525,"ĠDoug":13526,"LÄ©nh":13527,"ĠWolves":13528,"ĠPart":13529,"Bang":13530,"ithium":13531,"NÃºi":13532,"ĠHá»ĳ":13533,"ĠRobin":13534,"Ġ2035":13535,"GiÃ³":13536,"Ġtháº£y":13537,"ĠPM":13538,"105":13539,"VáºŃt":13540,"Ġ470":13541,"edad":13542,"ĠIndia":13543,"ĠRaul":13544,"ĠEo":13545,"ĠConnect":13546,"ĠDÆ°a":13547,"ĠHall":13548,"ĠIoT":13549,"ĠCyr":13550,"Trá»©ng":13551,"ĠAsus":13552,"itez":13553,"ĠMasters":13554,"ĠDown":13555,"Da":13556,"ĠlÃ³ng":13557,"ĠNetwork":13558,"cos":13559,"ĠMari":13560,"BÄĲBP":13561,"ĠBSC":13562,"ĠCorpor":13563,"TiÃªn":13564,"ĠvÃ¡nh":13565,"round":13566,"Play":13567,"phÃ¹":13568,"ĠLow":13569,"ĠbÃ©t":13570,"ĠRep":13571,"ĠLugansk":13572,"ako":13573,"orp":13574,"rog":13575,"ĠCÃ¢n":13576,"XEM":13577,"akov":13578,"ĠNgá»įn":13579,"nhan":13580,"ĠPelle":13581,"Trump":13582,"ĠFire":13583,"ĠMull":13584,"ĠMarcelo":13585,"ĠOliv":13586,"itol":13587,"ism":13588,"NghÄ©":13589,"tv":13590,"Ġ1953":13591,"ĠAlbert":13592,"ĠCay":13593,"Ġ216":13594,"ittle":13595,"ras":13596,"ĠRal":13597,"ĠquÃłng":13598,"ĠnÃ¡i":13599,"Mark":13600,"ĠEUR":13601,"ĠFukushima":13602,"Trá»ĭnh":13603,"amen":13604,"eway":13605,"ĠMarathon":13606,"ĠTechnology":13607,"Ġ325":13608,"ĠSerena":13609,"Ġex":13610,"Äĳáº¥u":13611,"ĠSunny":13612,"ĠTÃ´m":13613,"ĠRÃł":13614,"ThÃ¡ch":13615,"ĠlÃµng":13616,"ĠIniesta":13617,"ĠGHz":13618,"ĠMessenger":13619,"ĠHap":13620,"ĠVenice":13621,"ĠDuyá»ĩt":13622,"ĠMohammad":13623,"ĠDuc":13624,"ĠTaxi":13625,"Ġláº³ng":13626,"Ġ440":13627,"ĠKháº©n":13628,"ĠTrá»«":13629,"ĠGiÃł":13630,"999":13631,"ĠKiá»ĩm":13632,"ĠMassachusetts":13633,"Ġ208":13634,"nÃłng":13635,"ĠHappy":13636,"Ġrichter":13637,"Ġphiá»ĩt":13638,"lish":13639,"háº¿t":13640,"astian":13641,"quin":13642,"ĠBug":13643,"ĠCá»Ļt":13644,"chat":13645,"ĠVbiz":13646,"ĠMason":13647,"ĠVolodym":13648,"Ġ1946":13649,"1972":13650,"ĠQuÃŃ":13651,"LÃ¡i":13652,"ĠrÃºp":13653,"ĠPeople":13654,"iller":13655,"cung":13656,"ique":13657,"Ġnghiáº¿n":13658,"ĠFerdinand":13659,"ĠDá»¥ng":13660,"Petro":13661,"ĠGuinness":13662,"Ġstudio":13663,"ĠSilicon":13664,"ĠTáºŃn":13665,"ĠThiá»ĩp":13666,"ĠSime":13667,"ĠtrÃ²ng":13668,"ĠIz":13669,"DF":13670,"Ġdoping":13671,"tric":13672,"ĠLáº¡m":13673,"ĠGiá»ĵng":13674,"HÃ©":13675,"má»ĳi":13676,"ĠFalcao":13677,"ĨNH":13678,"ĠCanon":13679,"tá»Ń":13680,"ĠHugh":13681,"ĠRum":13682,"ĠChin":13683,"ĠNÃ©n":13684,"lon":13685,"ible":13686,"Ná»£":13687,"Ġlip":13688,"ĠBiá»ĩn":13689,"EG":13690,"Neymar":13691,"WTO":13692,"ĠXuyáº¿n":13693,"umbai":13694,"ĠMans":13695,"ĠÄĳay":13696,"aig":13697,"Ġháº¯c":13698,"ĠBá»ĥ":13699,"ales":13700,"ĠShak":13701,"ĠLac":13702,"ĠBá»įn":13703,"cÃ¡n":13704,"ĠGunnar":13705,"ienVietPost":13706,"yme":13707,"Microsoft":13708,"Ġ090":13709,"AX":13710,"arn":13711,"ĠRCEP":13712,"erenveen":13713,"uto":13714,"SÃ¡u":13715,"eline":13716,"...\",":13717,"Cáº¡nh":13718,"une":13719,"ĠHem":13720,"ĠVIá»ĨT":13721,"cott":13722,"ĠCooper":13723,"ĠCloud":13724,"ĠVT":13725,"ĠAung":13726,"adon":13727,"SEA":13728,"NgÄĥn":13729,"tam":13730,"ĠngÃ¡c":13731,")âĢĿ.":13732,"bÃ¡nh":13733,"ĠNhá»ı":13734,"Ġkhuáº¿ch":13735,"Dáº¡y":13736,"Ġngá»¥t":13737,"ĠMate":13738,"ĠPepe":13739,"ĠQNg":13740,"evi":13741,"ĠtÃ©t":13742,"ĠTrust":13743,"ĠRecep":13744,"ĠBournemouth":13745,"Äĳá»ĳt":13746,"ĠDoan":13747,"Chá»Ŀ":13748,"SÃ³ng":13749,"Mi":13750,"ĠStol":13751,"Ġ211":13752,"Big":13753,"Ġ209":13754,"ĠgiÃ£i":13755,"Ġsing":13756,"ĠGiá»Ĺ":13757,"ĠAx":13758,"wen":13759,"ĠCent":13760,"ĠngÃ¹n":13761,"1992":13762,"ĠTCty":13763,"ĠVJ":13764,"ĠLatin":13765,"erty":13766,"ĠAaron":13767,"athip":13768,"umber":13769,"ĠCech":13770,"rio":13771,"ĠKarim":13772,"ĠParag":13773,"cons":13774,"ĠBluezone":13775,"ĠEXO":13776,"tenberg":13777,"ĠRouhani":13778,"ĠCole":13779,"may":13780,"enne":13781,"ĠDur":13782,"Ġkháº¿":13783,"ĠRow":13784,"ĠYi":13785,"hydr":13786,"ĠÄĲÃ¡y":13787,"ĠÄĳuá»ĳc":13788,"ĠTurbo":13789,"ĠDX":13790,"ĠEvans":13791,"ababy":13792,"VL":13793,"ĠSÃºp":13794,"Ġsáº¡":13795,"1988":13796,"Æ°Æ¡c":13797,"sai":13798,"ĠPVD":13799,"Ġláº½o":13800,"Viáº¿t":13801,"áº¢N":13802,"Ġhá»±c":13803,"ÄĲÆ°Æ¡ng":13804,"the":13805,"ĠBÃ²":13806,"Ġáº¨n":13807,"ĠCoffee":13808,"ĠJor":13809,"ĠpÃ´":13810,"icky":13811,"iHay":13812,"ĠSpaceX":13813,"há»Ĺ":13814,"aj":13815,"suckhoedoisong":13816,"rist":13817,"umer":13818,"ĠLaurent":13819,"suáº¥t":13820,"Ġganh":13821,"ĠManhattan":13822,"ÃĴ":13823,"ĠTHANH":13824,"lá»Ŀi":13825,"ĠTU":13826,"Giang":13827,"ÄĲN":13828,"ĠCua":13829,"ĠWag":13830,"ĠVolodymyr":13831,"MÃ´n":13832,"ĠHonduras":13833,"One":13834,"ĠGem":13835,"Ġ214":13836,"vÃŃ":13837,"inawa":13838,"ĠMáºŃp":13839,"ĠTreo":13840,"Ġtáº¥y":13841,"ĠCameroon":13842,"ĠCMC":13843,"ĠDÆ¡i":13844,"Ġ630":13845,"ĠNorwich":13846,"Kia":13847,"ĠPelosi":13848,"ThÄĥm":13849,"ĠdÃ´i":13850,"ĠThiá»ĩt":13851,"ĠCham":13852,"ĠIphone":13853,"ĠLockheed":13854,"Ġtá»ģ":13855,"ĠECB":13856,"ĠVers":13857,"oka":13858,"bell":13859,"Mac":13860,"480":13861,"Ġ9999":13862,"ĠsÃº":13863,"Ãĥ":13864,"ieg":13865,"pur":13866,"hÆ°á»Ľng":13867,"mAh":13868,"ĠHiroshi":13869,"ĠnhÆ°á»¡ng":13870,"inaw":13871,"ĠFootball":13872,"ĠLlor":13873,"OL":13874,"Bá»ĵ":13875,"ria":13876,"ĠFlash":13877,"PPO":13878,"ĠMumbai":13879,"Ġnhen":13880,"225":13881,"mÃłu":13882,"ĠMancini":13883,"Ġláº¥m":13884,"ĠmáºŃu":13885,"VÄĲV":13886,"ĠNá»£":13887,"ĠColumbia":13888,"ĠSÃ¡t":13889,"Ġ206":13890,"ĬCH":13891,"ĠHR":13892,"ĠÄĳiá»ĥu":13893,"ĠGoal":13894,"Lá»ĩnh":13895,"440":13896,"sw":13897,"ĠkhiÃªng":13898,"ĠSpurs":13899,"Ġná»©a":13900,"ĠQuá»Ľi":13901,"NháºŃp":13902,"1990":13903,"ĠNáº¡i":13904,"ĠSoci":13905,"ĠSochi":13906,"báº§u":13907,"HR":13908,"FPT":13909,"ĠLazio":13910,"ĠCCN":13911,"cle":13912,"ĠWis":13913,"ĠCSB":13914,"tÃłu":13915,"ĠCre":13916,"THA":13917,"Äĳáº¹p":13918,"ienVietPostBank":13919,"Mercedes":13920,"ĠHybrid":13921,"HTX":13922,"ĠAráºŃp":13923,"ĠcáºŃt":13924,"ĠRh":13925,"ĠZe":13926,"490":13927,"ĠStudio":13928,"Ġgluc":13929,"ĠAbbott":13930,"ambi":13931,"ĠAtt":13932,"Ġngai":13933,"ĠChun":13934,"Ġláº£":13935,"phan":13936,"Ġ207":13937,"Ġlem":13938,"Ãī":13939,"coln":13940,"ĠnÃ¨":13941,"ices":13942,"iso":13943,"apl":13944,"ĠCongo":13945,"acker":13946,"Ġchuá»ĵn":13947,"ĠMoney":13948,"ĠGirls":13949,"Trá»ĵng":13950,"mÃ¹ng":13951,"ĠcÃ¹i":13952,"ĠBru":13953,"pÃ´":13954,"ĠTTVN":13955,"Äĳá»ĵ":13956,"ĠTÃ¡":13957,"ĠDec":13958,"ĠVinasun":13959,"ĠToronto":13960,"giadinh":13961,"ĠYokohama":13962,"¡n":13963,"udeau":13964,"máº¯t":13965,"ĠMÃ¡txcÆ¡va":13966,"ĠGá»įi":13967,"ĠTiáº¿c":13968,"ĠSanders":13969,"cÃ¡nh":13970,"ĠSiberia":13971,"ĠKylian":13972,"ĠBá»īm":13973,"LÃŃnh":13974,"ĠRiyadh":13975,"Ġbáº£nh":13976,"ĠHeerenveen":13977,"ĠAnder":13978,"cáº£m":13979,"1989":13980,"ridge":13981,"ĠATVSLÄĲ":13982,"ĠRÃ´ng":13983,"ĠSimeone":13984,"otel":13985,"váºŃt":13986,"CR":13987,"ĠLeverkusen":13988,"ĠMuang":13989,"ĠNá»Ńa":13990,"enia":13991,"1991":13992,"ĠAvent":13993,"OPEC":13994,"OI":13995,"Son":13996,"vá»ĭ":13997,"UYÃĬN":13998,"moon":13999,"ĠNhá»ķn":14000,"lins":14001,"bohydr":14002,"iguain":14003,"ĠxiÃªu":14004,"ĠDanny":14005,"ĠBeng":14006,"ĠGerrard":14007,"Ġcháº»":14008,"amily":14009,"ĠChampionship":14010,"ĠCov":14011,"Kháº©n":14012,"eme":14013,"Ã¶":14014,"itton":14015,"ĠChá»¥p":14016,"ĠEmma":14017,"113":14018,"Ġgara":14019,"arin":14020,"ĠLawrence":14021,"Ġxáº¯t":14022,"oay":14023,"ĠrÃ¨":14024,"ĠTran":14025,"NASA":14026,"ĠSamuel":14027,"ĠLá»Ńa":14028,"Ġcombo":14029,"ÆłXH":14030,"Ġtitan":14031,"Ġcáº¡y":14032,"Ġsáº¥p":14033,"opmart":14034,"MáºŃt":14035,"Cáº¯t":14036,"ĠBGK":14037,"ĠMidd":14038,"ĠOkinawa":14039,"ĠTCM":14040,"nghá»":14041,"ĠSund":14042,"ĠChannel":14043,"ĠBenitez":14044,"ĠYun":14045,"ĠLeste":14046,"ĠMcK":14047,"ĠRichter":14048,"oton":14049,"Men":14050,"ĠSr":14051,",..":14052,"ĠCBS":14053,"ĠTCB":14054,"chuyáº¿n":14055,"ĠPhá»Ľc":14056,"ĠSachs":14057,"olin":14058,"ĠDiÃªm":14059,"Ġ580":14060,"Lam":14061,"Ġ265":14062,"ĠSociedad":14063,"ĠSpec":14064,"TÃº":14065,"apova":14066,"ĠÄĳÃ¹n":14067,"Ġmarathon":14068,"upol":14069,"ngá»ĵi":14070,"ĠTIáº¾T":14071,"ĠNhÆ°á»£c":14072,"Ġkhá»īnh":14073,"ĠBab":14074,"Ġráº£":14075,"cáº¥m":14076,"Ġsoc":14077,"gram":14078,"ĠAbdullah":14079,"ĠTrudeau":14080,"ĠSeb":14081,"ĠDang":14082,"ĠAnderson":14083,"ĠlÃ¨o":14084,"aty":14085,"ĠGiggs":14086,"tráº»":14087,"ĠPav":14088,"ĠOceanbank":14089,"ĠFi":14090,"otor":14091,"ĠBorussia":14092,"ifone":14093,"ĠWater":14094,"ĠhuÃ¢n":14095,"Ġ191":14096,"ĠRin":14097,"ĠPhillip":14098,"Yo":14099,"ĠBá»ĨNH":14100,"ĠXVIII":14101,"chip":14102,"ĠQN":14103,"ĠBac":14104,"atex":14105,"bot":14106,"NTech":14107,"ĠNTD":14108,"Ġgien":14109,"ĠAlonso":14110,"ĠKante":14111,"ĠAL":14112,"ĠKoh":14113,"ViÃªn":14114,"ĠNM":14115,"ĠNÃ´m":14116,"amol":14117,"express":14118,"ĠKishida":14119,"Olymp":14120,"gÃ£":14121,"ĠMina":14122,"ĠTá»ĵn":14123,"ĠEPC":14124,"ĠJersey":14125,"atchback":14126,"CVN":14127,"290":14128,"ĠLTE":14129,"560":14130,"Ġrá»¥t":14131,"\"âĢ¦":14132,"ĠcÃ¡ng":14133,"ĠFund":14134,"ĠVent":14135,"Pay":14136,"ÄĲiáº¿u":14137,"ĠView":14138,"erner":14139,"xáº¿p":14140,"Ġvir":14141,"asy":14142,"time":14143,"gháº¿":14144,"UR":14145,"ĠQUá»ĲC":14146,"ĠStoltenberg":14147,"lant":14148,"ĠWo":14149,"beck":14150,"ku":14151,"ĠMelania":14152,"lade":14153,"ava":14154,"heimer":14155,"Ġsá»Ľi":14156,"ĠÄĳá»ģm":14157,"Láº¡c":14158,"aire":14159,"alanta":14160,"ĠCher":14161,"ĠMueller":14162,"ĠÃĲá»ĵng":14163,"ĠAbramovich":14164,"ĠxiÃªm":14165,"ĠDaw":14166,"ĠÄĳá»Ŀn":14167,"Ġchá»ĭt":14168,"cá»¥":14169,"ĠBVH":14170,"ellaini":14171,"apper":14172,"Ġhá»Ľt":14173,"City":14174,"ĠGoldman":14175,"ĠFoundation":14176,"ĠBÃ´i":14177,"road":14178,"imi":14179,"ĠLÆ°á»Ŀng":14180,"Ġ255":14181,"Ġquáº§ng":14182,"ĠShinaw":14183,"ĠCasillas":14184,"ĠLine":14185,"ThÃ´i":14186,"ĠSDF":14187,"ĠnáºŃu":14188,"áºłNH":14189,"ĠSNSD":14190,"Ġden":14191,"Cola":14192,"ĠRat":14193,"Ġ213":14194,"Ġ530":14195,"nha":14196,"ĠGá»Ńi":14197,"ĠDijk":14198,"ĠHÄĲLÄĲ":14199,"phÃŃa":14200,"SBD":14201,"Gáº¡o":14202,"PhÆ°á»Ŀng":14203,"Ġá»Ķ":14204,"Ġnai":14205,"ĠKhuÃ´n":14206,"TÃ¹ng":14207,"ĠRÃ´":14208,"Capital":14209,"ĠVS":14210,"ĠÄĳanh":14211,"ĠLoa":14212,"ĠVuitton":14213,"chem":14214,"ĠVPB":14215,"ĠFans":14216,"ution":14217,"buck":14218,"leg":14219,"ĠShinawatra":14220,"zer":14221,"khoi":14222,"ĠmÃłnh":14223,"ĠÄĳoÃ¡i":14224,"Thua":14225,"sáº¡ch":14226,"nÃ¢ng":14227,"was":14228,"Tháº¡c":14229,"Diá»ħm":14230,"PVN":14231,"Ġnhá»«":14232,"ĠTNCN":14233,"ĠUBCKNN":14234,"epend":14235,"iveshow":14236,"ĠBá»į":14237,"ĠMiá»ħn":14238,"unce":14239,"emon":14240,"emo":14241,"ĠHans":14242,"Ġ224":14243,"ĠRoland":14244,"ĠGiáº¥c":14245,"ISA":14246,"ule":14247,"\"./.":14248,"ĠCorporation":14249,"ĠNGá»ĮC":14250,"ĠBphone":14251,"570":14252,"ĠAventador":14253,"ĠHerrera":14254,"á»·u":14255,"ĠSqu":14256,"ĠDVD":14257,"ĠLatvia":14258,"dao":14259,"Ġthong":14260,"ĠDembele":14261,"ĠNot":14262,"ĠcÃłphÃª":14263,"ĠNancy":14264,"ĠParaguay":14265,"Ġhas":14266,"ocus":14267,"MM":14268,"ĠTTTM":14269,")./.":14270,"ĠxÃ¨o":14271,"Ġnhá»£t":14272,"TrÃ¢n":14273,"1946":14274,"Agr":14275,"Ġol":14276,"ĠGho":14277,"Cá»§":14278,"ĠEast":14279,"ono":14280,"ĠGDNN":14281,"orks":14282,"rossover":14283,"nu":14284,"FBI":14285,"ĠAllian":14286,"ĠAIPA":14287,"Ġmil":14288,"ĠÄĲáº©u":14289,"ĠJICA":14290,"mÃł":14291,"Ġrá»įi":14292,"Ġdá»ģn":14293,"ĠMeta":14294,"ĠÄĳÃªnh":14295,"1947":14296,"ĠGÃ£":14297,"tang":14298,"ĠMERS":14299,"ĠtÃ¹m":14300,"ĠData":14301,"instein":14302,"IR":14303,"quÃ½":14304,"ART":14305,"KA":14306,"ĠJane":14307,"Ġcá»¯":14308,"ĠTrá»©":14309,"LÅ©":14310,"Ġran":14311,"CÃ¡o":14312,"ĠAqua":14313,"má»Ľi":14314,"uper":14315,"ĠÄĲÃĤY":14316,"ipe":14317,"Ġuranium":14318,"ĠCasemiro":14319,"ĠLewis":14320,"ĠMarina":14321,"grini":14322,"ĠCPU":14323,"ENCO":14324,"Ġcháº±m":14325,"ĠFree":14326,"pet":14327,"Ġmel":14328,"Star":14329,"Ġpizza":14330,"ĠAlm":14331,"agawa":14332,"avan":14333,"GÃ²":14334,"ĠKD":14335,"ĠMes":14336,"pin":14337,"ĠMov":14338,"Ġduá»Ĺi":14339,"Ġnhá»įt":14340,"ĠRihanna":14341,"Ġ512":14342,"ĠLeng":14343,"ĠNÃ¹ng":14344,"ÄĲá»ĳng":14345,"ĠSamson":14346,"ĠMend":14347,"ĠICT":14348,"ĠPP":14349,"ĠnÃºm":14350,"ĠPhÃ¡":14351,"ĠBis":14352,"Ġáºµm":14353,"Ġghá»ģnh":14354,"Ġliá»ģm":14355,"ĠHind":14356,"alt":14357,"Gáº¯n":14358,"ĠJoa":14359,"510":14360,"ĠngÃ³c":14361,"ĠGDTX":14362,"há»ĵi":14363,"Ġ315":14364,"HÃ¹ng":14365,"ĠChÃ¢m":14366,"ĠPhot":14367,"Ġtiá»ĩt":14368,"itsu":14369,"ĠLogistics":14370,"lá»«a":14371,"ellen":14372,"asonic":14373,"enzo":14374,"issa":14375,"»ĥn":14376,"á»ĥn":14377,"chips":14378,"emi":14379,"Chá»¯a":14380,"GHz":14381,"Ġkhuá»·u":14382,"Ná»ķ":14383,"ĠVigl":14384,"nge":14385,"Ġrá»£":14386,"Se":14387,"ĠBritney":14388,"ĠGoo":14389,"ĠkhÃ¡u":14390,"112":14391,"Ġruá»ķi":14392,"ĠToma":14393,"ebe":14394,"ĠRemix":14395,"jar":14396,"uchin":14397,"ĠCau":14398,"omon":14399,"IU":14400,"ĠhÃºng":14401,"Ġmy":14402,"HoSE":14403,"ĠAnne":14404,"ĠMiÃªu":14405,"ĠThong":14406,"ĠMing":14407,"Ġgiáº¿m":14408,"isco":14409,"ĠWonder":14410,"ChiÃªm":14411,"chen":14412,"ietnam":14413,"ĠViglacera":14414,"ĠBlackPink":14415,"zheimer":14416,"Ġdeb":14417,"ĠAthens":14418,"ĠPBGDPL":14419,"GR":14420,"Ġrem":14421,"ĠÄĳáºŃn":14422,"Ã¨ng":14423,"ĠIBM":14424,"Ġstreamer":14425,"ĠIndepend":14426,"ĠDH":14427,"akhar":14428,"bala":14429,"ĠLisbon":14430,"osterone":14431,"ĠHKTT":14432,"ĠthÃŃa":14433,"ĠHÃ²e":14434,"FS":14435,"Suy":14436,"ĠInt":14437,"chá»ĳt":14438,"ĠKCX":14439,"Ġráº©y":14440,"Group":14441,"ĠDailymail":14442,"ĠOS":14443,"ĠMatic":14444,"ĠthÆ¡i":14445,"tháº¥t":14446,"ĠBre":14447,"BMW":14448,"Ġmáº£":14449,"117":14450,"Ġthau":14451,"ĠShay":14452,"ĠTáº»":14453,"ÃĻNG":14454,"ĠPeugeot":14455,"ĠAustr":14456,"Me":14457,"Chat":14458,"ĠMaldives":14459,"Ġgháº»":14460,"Chuá»Ĺi":14461,"ĠCÄĥng":14462,"ĠSark":14463,"ĠHÃ´":14464,"máº¡nh":14465,"ĠJulian":14466,"ĠFold":14467,"Ġfeet":14468,"ĠgÃłi":14469,"ĠKQ":14470,"ĠKhas":14471,"ĠNPK":14472,"ĠOng":14473,"Ġtáº¯p":14474,"hog":14475,"áº©ng":14476,"ĠWh":14477,"ĠlÃ¬nh":14478,"Ġ640":14479,"holm":14480,"ĠGan":14481,"TÆ°á»£ng":14482,"ĠJerome":14483,"Ġ620":14484,"nháºŃp":14485,"MÃ£i":14486,"Han":14487,"Ġnong":14488,"ĠKiatisuk":14489,"LVN":14490,"ĠJa":14491,"ÃĤM":14492,"ĠTKCN":14493,"ĠXSKT":14494,"Hotline":14495,"ĠBÃºt":14496,"raw":14497,"Ġballad":14498,"izon":14499,"áº¬N":14500,"Ġ660":14501,"Ġ239":14502,"oglu":14503,"tourist":14504,"TÃŃch":14505,"ĠNham":14506,"ĠSáº¯t":14507,"Sá»Ńa":14508,"ĠSapp":14509,"allet":14510,"endall":14511,"CPOA":14512,"ĠTTGT":14513,"ambique":14514,"pt":14515,"Alex":14516,"ĠDepp":14517,"echen":14518,"ĠToul":14519,"Sal":14520,"ĠRak":14521,"Ġná»Ľt":14522,"ĠÂ½":14523,"ĠGL":14524,"ĠTáº·ng":14525,"thur":14526,"1973":14527,"Ġ279":14528,"ouk":14529,"Ġblazer":14530,"iram":14531,"Ġtháº¹n":14532,"ĠBow":14533,"ĠSBS":14534,"ricio":14535,"tiáº¿n":14536,"ĠSS":14537,"abin":14538,"ĠMuller":14539,"ĠBut":14540,"hing":14541,"ding":14542,"táº§m":14543,"biá»ĩt":14544,"LÃ´":14545,"ĠChol":14546,"nghá»ĩ":14547,"BXD":14548,"Ġ226":14549,"?...":14550,"ĠNow":14551,"NDP":14552,"ĠResiden":14553,"Ġ410":14554,"ĠSohu":14555,"ADB":14556,"ĠnghÃªu":14557,"720":14558,"ĠVisa":14559,"ĠScience":14560,"ĠAkira":14561,"Ġmáº¡t":14562,"ĠKhÄĥm":14563,"ĠMiley":14564,"ĠLincoln":14565,"Xi":14566,"ĠPVI":14567,"WA":14568,"rit":14569,"eko":14570,"310":14571,"berl":14572,"ĠMR":14573,"ĠlÃ²a":14574,"Ġfull":14575,"Ġmargin":14576,"ĠKyi":14577,"ĠMug":14578,"...),":14579,"ĠDer":14580,"Ġen":14581,"Ġgiá»¡n":14582,"VKSND":14583,"ĠDid":14584,"bÃ¡c":14585,"212":14586,"zoom":14587,"Ġpháº¿t":14588,"xuá»ĳng":14589,"ĠxiÃªn":14590,"dÃŃnh":14591,"ĠMom":14592,"ipal":14593,"phen":14594,"myra":14595,"ĠWarner":14596,"ĠGhá»ģnh":14597,"uf":14598,"Ġláº£ng":14599,"ĠCHI":14600,"BÄĲS":14601,"chel":14602,"ggio":14603,"ĠBLA":14604,"Km":14605,"ĠGreat":14606,"berry":14607,"ĠATVSTP":14608,"ĠElly":14609,"ĠKiÃªu":14610,"Ġlove":14611,"Yáº¿u":14612,"Ġráº¡c":14613,"ipedia":14614,"alin":14615,"Ġphá»ī":14616,"ĠLÃ£m":14617,"rat":14618,"more":14619,"nháº£y":14620,"ĠnhÃ¢m":14621,"Ġthoáº¯t":14622,"ĠÄĲakrÃ´ng":14623,"ĠHiguain":14624,"Ġbá»ķn":14625,"Ġ375":14626,"Lai":14627,"rush":14628,"ophi":14629,"ĠBarb":14630,"ĠHÃłi":14631,"ĠRangnick":14632,"ĠThÃ¡ch":14633,"láº¥p":14634,"Ġlá»µ":14635,"ĠRaz":14636,"ĠDesign":14637,"ĠNang":14638,"âĹ":14639,"ĠIUU":14640,"Nusra":14641,"ĠReb":14642,"ĠRico":14643,"ĠCoupe":14644,"ents":14645,"Æ°Æ¡Ã¬":14646,"ĠFirmino":14647,"ĠNghÃ¨":14648,"ĠVietJet":14649,"ĠJorge":14650,"elu":14651,"ĠMarcos":14652,"Ġ730":14653,"ĠNeuer":14654,"Pal":14655,"ĠDepay":14656,"Ġsá»©a":14657,"oody":14658,"ĠPod":14659,"ĠEriksen":14660,"580":14661,"ĠngÆ°Æ¡i":14662,"ĠColle":14663,"ĠlÃ³":14664,"ĠComex":14665,"103":14666,"148":14667,"ĠTNDN":14668,"Khá»§ng":14669,"West":14670,"Ġsmart":14671,"Máº¯t":14672,"VNPT":14673,"ĠAlba":14674,"pan":14675,"GL":14676,"ĠVas":14677,"Ġ285":14678,"Ġchá»±c":14679,"ĠDiaz":14680,"ĠNÆłXH":14681,"ĠChiáº¿u":14682,"máº·c":14683,"ĠToure":14684,"tory":14685,"ĠMn":14686,"gies":14687,"Rá»Ŀi":14688,"LÃ²ng":14689,"ych":14690,"Ab":14691,"SGGPO":14692,"player":14693,"ĠDá»ħ":14694,"ifa":14695,"©m":14696,"ĠXy":14697,"phÃ¢n":14698,"ĠLuxem":14699,"ĠBran":14700,"ĠRup":14701,"Hua":14702,"ĠRiverside":14703,"thÃŃch":14704,"ĠthÃły":14705,"aily":14706,"ĠJust":14707,"trai":14708,"Ġhá»Ļc":14709,"Pháº¥n":14710,"ĠWook":14711,"toine":14712,"111":14713,"ĠAccent":14714,"102":14715,"ĠSTEM":14716,"ĠNgo":14717,"Ġquá»ĩ":14718,"MÃł":14719,"bucks":14720,"ĠBugatti":14721,"iph":14722,"ublic":14723,"ikistan":14724,"»¥ng":14725,"á»¥ng":14726,"fish":14727,"gÃ¡i":14728,"Ġbanh":14729,"Italy":14730,"ility":14731,"Ġdáº¥m":14732,"nan":14733,"LáºŃt":14734,"Ġ1947":14735,"ĠVHNT":14736,"ĠMcDonald":14737,"ĠPrad":14738,"ĠNhuáº¿":14739,"fri":14740,"ĠNich":14741,"ĠTomahawk":14742,"onsai":14743,"ivan":14744,"Ġtuyá»ģn":14745,"thá»ķi":14746,"ĠchÃ£i":14747,"ĠPhÃ¬n":14748,"Ġcoc":14749,"Ġcá»Ĺi":14750,"ĠRaptor":14751,"Ġtrá»ı":14752,"ĠPellegrini":14753,"ĠSpears":14754,"Ġ1800":14755,"ĠQueens":14756,"430":14757,"raf":14758,"facebook":14759,"ĠAllen":14760,"ĠLáº½":14761,"ĠWei":14762,"ĠKaty":14763,"ĠCÃĶNG":14764,"Ben":14765,"Ġ229":14766,"ĠÄĲá»Ļt":14767,"ĠNajib":14768,"lah":14769,"ĠDark":14770,"ĠMobifone":14771,"ĠChiÃªn":14772,"ĠVillas":14773,"ĠBag":14774,"encent":14775,"ĠDenis":14776,"ĠKash":14777,"Ġsá»©t":14778,"ĠMatthew":14779,"Ġ227":14780,"109":14781,"Ġ221":14782,"chool":14783,"watch":14784,"Sá»£":14785,"ĠXay":14786,"ĠDoll":14787,"ĠthÆ°á»Ľt":14788,"iston":14789,"ĠUm":14790,"ĠBá»ģn":14791,"ĠSamp":14792,"CÆ°á»Ŀng":14793,"Sham":14794,"ĠAlzheimer":14795,"ĠMozambique":14796,"ĠEzzor":14797,"ĠBarr":14798,"evez":14799,"ĠBá»ĳi":14800,"FIFA":14801,"ingrad":14802,"gers":14803,"ĠTripoli":14804,"UAV":14805,"ozy":14806,"idan":14807,"ĠÃ¡ng":14808,"Ġ247":14809,"ĠChav":14810,"Washington":14811,"giáº¥y":14812,"ilic":14813,"ibr":14814,"ĠÄĥng":14815,"ĠQuay":14816,"ĠÄĲá»£i":14817,"123":14818,"Ġcarbohydr":14819,"ĠCTÄĲ":14820,"dioxin":14821,"ĠxÃ¢u":14822,"Ġko":14823,"ĠGlass":14824,"ngay":14825,"ĠAngola":14826,"ĠGeorg":14827,"ĠTHá»Ĭ":14828,"rich":14829,"aido":14830,"Gen":14831,"ĠPLO":14832,"ĠLit":14833,"ĠTTÄĲT":14834,"Ġ231":14835,"ĠKent":14836,"ĠScarborough":14837,"PN":14838,"ĠViv":14839,"táº¡o":14840,"Dáº¡":14841,"ĠphÆ°á»Ľc":14842,"ĠPalmyra":14843,"ĠTRáº¦N":14844,"sha":14845,"Ġtrá»ĵi":14846,"Jennifer":14847,"ĠExplor":14848,"ĠHop":14849,"ĠVient":14850,"Ġox":14851,"ĠNexus":14852,"ĠGreenwood":14853,"ĠTháº±ng":14854,"ĠSuu":14855,"ĠYáº¿u":14856,"ĠLÃĬ":14857,"âĹı":14858,"ble":14859,"ĠÄĳÃ¡t":14860,"Ġsingle":14861,"ĠEVNN":14862,"ĠGhouta":14863,"ĠAbdel":14864,"ĠBong":14865,"Ġ242":14866,"tháº¯ng":14867,"Ġgáº«y":14868,"ĠNgÃµ":14869,"Ġ249":14870,"VÃ¡y":14871,"ĠTrÃ¢u":14872,"tá»ĳt":14873,"ĠUNCLOS":14874,"cáº£nh":14875,"ĠChanathip":14876,"ĠVNG":14877,"Av":14878,"Ġcháº§m":14879,"CÆ°á»Ŀi":14880,"ĠPÃ¹":14881,"ĠgiÃ¹m":14882,"ÄĤNG":14883,"ĠRB":14884,"ĠHarper":14885,"Ġboots":14886,"ĠPok":14887,"thiáº¿t":14888,"BÃły":14889,"ĠVáº½":14890,"suit":14891,"ĠCapitol":14892,"lÃ©":14893,"isic":14894,"ĠCyrus":14895,"ĠGiuá»Ļc":14896,"Ġenzyme":14897,"mut":14898,"ĠMáº¡i":14899,"Argentina":14900,"ĠnÃ²i":14901,"Ġguá»ĵng":14902,"Jack":14903,"ĠJeon":14904,"ĠSag":14905,"Tháº»":14906,"Ġnháº¥m":14907,"iorentina":14908,"ĠtÆ°Æ¡m":14909,"ĠchÃłm":14910,"680":14911,"ilet":14912,"ĠDI":14913,"+.":14914,"Nhiáº¿p":14915,"ĠphÄĥng":14916,"thÆ°á»£ng":14917,"eview":14918,"ĠKw":14919,"Ġrá»±a":14920,"link":14921,"ĠVSIP":14922,"ĠFellaini":14923,"idodo":14924,"ĠrÃ¡ng":14925,"ĠCall":14926,"1979":14927,"Ġgáº·m":14928,"Ġ680":14929,"ĠXÃŃch":14930,"care":14931,"ĠKeangnam":14932,"ĠKawasaki":14933,"Iáº¾N":14934,"Ġcá»įp":14935,"ĠAbbas":14936,"Ġ412":14937,"á»Łm":14938,"ĠpH":14939,"Ġpháº£":14940,"egu":14941,"For":14942,"Thuyá»ģn":14943,"quez":14944,"ĠGle":14945,"ĠTrá»Ļn":14946,"ĠVNR":14947,"ĠlÆ°á»£m":14948,"ĠPTTH":14949,"ĠRiá»ģng":14950,"ĠKhoan":14951,"andi":14952,"ĠPur":14953,"ĠPres":14954,"MÆ°á»Ŀi":14955,"Ġcomment":14956,"Vá»ĩ":14957,"káº¿":14958,"Ġlá»įi":14959,"ĠKasper":14960,"CÃ´ngThÆ°Æ¡ng":14961,"Ġá»ķng":14962,"ĠNhá»ĭp":14963,"EVFTA":14964,"truc":14965,"ĠSukhoi":14966,"lando":14967,"ĠFansipan":14968,"Rá»«ng":14969,"edine":14970,"SHB":14971,"aud":14972,"ĠAur":14973,"ĠCÃłn":14974,"ĠLÃºa":14975,"ĠAH":14976,"ĠlÃ¢ng":14977,"ĠHadid":14978,"alke":14979,"ĠKilo":14980,"ĠFoxconn":14981,"xtan":14982,"ĠTrá»©ng":14983,"ÄĲÃ¡":14984,"ThÃ¡p":14985,"ĠTuc":14986,"Ġcup":14987,"Ġmiáº¿t":14988,"Ġcrossover":14989,"ĠAse":14990,"bÃ¬a":14991,"phá»ĳ":14992,"unes":14993,"raft":14994,"ĠWidodo":14995,"ĠAtalanta":14996,"pad":14997,"ĠBull":14998,"ICM":14999,"!\",":15000,"nho":15001,"fin":15002,"Cháº¥n":15003,"Series":15004,"ĠStyle":15005,"ļt":15006,"ĠrÄĥm":15007,"ĠETC":15008,"460":15009,"ĠHero":15010,"dÃ¹ng":15011,"ĠBLACKPINK":15012,"Ġnháº¡o":15013,"Vitamin":15014,"ĠFDA":15015,"ĠShan":15016,"ĠHoon":15017,"Pods":15018,"ĠGet":15019,"á»ģm":15020,"ĠMoss":15021,"Ġdrama":15022,"ĠIsk":15023,"Ġcá»įng":15024,"ĠMG":15025,"SDF":15026,"Ġfashion":15027,"Lá»¥c":15028,"DÆ°a":15029,"Ġdenim":15030,"ĠDá»¥":15031,"quay":15032,"ĠAmb":15033,"ĠIPU":15034,"ĠNarendra":15035,"áº¢NG":15036,"thá»ĥ":15037,"Ġdebut":15038,"Cáº¥m":15039,"ĠBernard":15040,"Ġnit":15041,"kiá»ĥm":15042,"bong":15043,"ĠSá»Ĳ":15044,"Ġdáº£":15045,"ĠXoan":15046,"ĠAeg":15047,"phÆ°Æ¡ng":15048,"ĠKBC":15049,"há»į":15050,"chá»ĭu":15051,"ĠMá»ļI":15052,"letic":15053,"Nhá»ĭ":15054,"coin":15055,"ĠRim":15056,"FP":15057,"ĠZakhar":15058,"Ġ304":15059,")/":15060,"***":15061,"420":15062,"Äĳá»īnh":15063,"Ġhip":15064,"ĠHand":15065,"ĠcÃºn":15066,"uchi":15067,"ĠDucati":15068,"háº¡t":15069,"ĠPlat":15070,"oop":15071,"ĠmÃ¡ng":15072,"KhÃ³a":15073,"Ġinox":15074,"Ġzoom":15075,"ĠBeat":15076,"Agribank":15077,"ussein":15078,"tung":15079,"Ġtrá»ĭa":15080,"ĠCoin":15081,"ĠIng":15082,"ĠBrooklyn":15083,"Show":15084,"ĠFrid":15085,"Ġcaffeine":15086,"ksand":15087,"ĠFall":15088,"ThÃ³i":15089,"Huawei":15090,"ĠrÃº":15091,"arov":15092,"ĠMuá»ĳi":15093,"ĠXÃł":15094,"Ġcc":15095,"ĠvÆ¡ÃŃ":15096,"Ġre":15097,"ĠINF":15098,"ĠAlc":15099,"PPP":15100,"Gr":15101,"ĠThá»ĳt":15102,"ahn":15103,"ĠChÆ¡i":15104,"Ġtháº£nh":15105,"trá»±c":15106,"ĠSporting":15107,"ĠHilton":15108,"ĠIrina":15109,"ĠphÅ©":15110,"ardi":15111,"Mil":15112,"Ġ232":15113,"hoggi":15114,"Ġveo":15115,"1968":15116,"ÄĲÃ¢u":15117,"Ġ234":15118,"ĠGraechen":15119,"váº«n":15120,"ĠInfinity":15121,"ME":15122,"ĠMá»±c":15123,"ĠÄĳÆ¡":15124,"XÃºc":15125,"ĠFurious":15126,"BCÄĲ":15127,"bury":15128,"ï¿":15129,"ĠVá»«":15130,"ĠLÃªnin":15131,"Trá»£":15132,"ĠJis":15133,"sá»Ń":15134,"cz":15135,"ĠAngelababy":15136,"Ġ$":15137,"Ġ243":15138,"Ġhá»¯ng":15139,"Ġ268":15140,"Ġsilicon":15141,"ĠMerc":15142,"PetroTimes":15143,"Ġhá»£t":15144,"ĠCode":15145,"ĠTÃŃt":15146,"ĠHyo":15147,"ĠSÃło":15148,"ĠHVN":15149,"ĠJoy":15150,"Ġtone":15151,"ĠBlancos":15152,"ĠthÃ²":15153,"UK":15154,"ĠMotorola":15155,"ĠGrai":15156,"ĠMPV":15157,"ĠVientiane":15158,"ĠSeng":15159,"ĠYangon":15160,"ĠRib":15161,"RÆ°á»£u":15162,"Ġpar":15163,"ĠAlph":15164,"Ġgáº£":15165,"ÄĳÆ°a":15166,"ÄĳÃºng":15167,"Ġ228":15168,"Ġ312":15169,"Fran":15170,"104":15171,"ĠthÃ¬nh":15172,"enix":15173,"isse":15174,"latan":15175,"ĠFelix":15176,"hin":15177,"ĠNeo":15178,"tráº¯ng":15179,"phun":15180,"anye":15181,"Ġmá»įt":15182,"vui":15183,"ANK":15184,
[...]
